<unk>	0
<s>	0
</s>	0
▁the	-3.15649
.	-3.337
,	-3.34295
s	-3.565
▁of	-3.74913
▁and	-3.90307
▁in	-4.01245
▁a	-4.21567
▁to	-4.25073
▁was	-4.7343
-	-4.90053
▁"	-4.90156
▁	-4.91727
▁The	-5.01391
▁is	-5.02531
▁for	-5.15956
'	-5.17821
▁on	-5.26198
▁as	-5.30048
"	-5.30598
▁with	-5.3308
▁by	-5.34316
▁(	-5.395
▁that	-5.54291
ing	-5.61126
▁at	-5.62784
▁from	-5.65149
)	-5.65328
ed	-5.68628
▁his	-5.76821
▁In	-5.77697
▁an	-5.92123
▁he	-5.92793
e	-6.0175
▁were	-6.07801
d	-6.12885
▁He	-6.16312
▁which	-6.20654
▁are	-6.21222
▁it	-6.2249
▁be	-6.29741
▁A	-6.30223
y	-6.30269
a	-6.30632
er	-6.35122
▁had	-6.39355
▁also	-6.40129
▁has	-6.4411
t	-6.45704
▁or	-6.45821
:	-6.4677
;	-6.46788
▁first	-6.48717
ly	-6.49266
th	-6.54026
▁It	-6.56248
al	-6.57699
▁who	-6.61887
▁their	-6.61997
o	-6.63172
n	-6.63308
i	-6.66242
▁not	-6.6976
▁but	-6.71367
▁her	-6.71866
▁its	-6.72965
▁one	-6.73172
",	-6.75722
▁have	-6.79912
es	-6.79975
▁two	-6.80708
▁this	-6.83265
in	-6.83994
▁been	-6.86144
".	-6.92127
▁S	-6.92836
S	-6.93411
▁after	-6.97975
),	-6.98997
r	-7.01464
▁I	-7.03302
▁other	-7.04266
).	-7.07757
▁time	-7.10414
▁into	-7.10756
▁she	-7.12468
▁over	-7.14796
▁they	-7.16448
▁all	-7.18134
▁de	-7.20244
▁re	-7.20967
k	-7.21559
▁New	-7.22033
m	-7.22971
▁On	-7.24659
▁more	-7.25171
▁when	-7.25832
▁would	-7.27123
▁out	-7.28389
▁years	-7.28553
▁where	-7.30513
or	-7.30539
▁during	-7.31271
▁new	-7.32028
▁This	-7.32056
▁up	-7.33612
A	-7.34278
an	-7.3578
▁E	-7.36383
▁only	-7.36402
The	-7.36731
▁season	-7.37065
▁can	-7.377
▁B	-7.38084
▁between	-7.38133
g	-7.38482
▁She	-7.39831
▁under	-7.39914
▁three	-7.40421
▁him	-7.41908
man	-7.42673
▁made	-7.43769
l	-7.44374
▁1	-7.45467
▁later	-7.45678
/	-7.45763
▁United	-7.46496
▁C	-7.46583
▁part	-7.46607
re	-7.47687
en	-7.47795
▁about	-7.48151
▁became	-7.48351
▁team	-7.48489
▁used	-7.4906
▁most	-7.49082
▁such	-7.49583
B	-7.50162
u	-7.50606
▁University	-7.52023
▁U	-7.52221
▁known	-7.52321
c	-7.52364
▁2	-7.52403
C	-7.5286
▁year	-7.53054
▁G	-7.53061
on	-7.53331
▁than	-7.5369
▁American	-7.56392
us	-7.56497
▁then	-7.56922
▁film	-7.57039
▁being	-7.59128
▁well	-7.59316
▁some	-7.59546
▁second	-7.60267
▁D	-7.60502
h	-7.61226
▁P	-7.61309
▁O	-7.61562
▁including	-7.62066
▁K	-7.62522
ic	-7.63287
▁there	-7.63615
▁T	-7.64309
st	-7.6446
▁through	-7.64646
ation	-7.65705
▁work	-7.66782
▁W	-7.66914
▁M	-7.67209
▁After	-7.6723
▁against	-7.67243
to	-7.67914
▁F	-7.68197
F	-7.68255
▁before	-7.68461
▁while	-7.69059
D	-7.69208
le	-7.70376
▁many	-7.70426
z	-7.70583
▁As	-7.7089
▁St	-7.71077
▁until	-7.7137
▁3	-7.71792
▁no	-7.71893
▁people	-7.72447
▁World	-7.72922
▁number	-7.73518
ers	-7.73734
▁17	-7.73777
▁name	-7.73962
▁album	-7.74169
ar	-7.7431
▁National	-7.75056
▁school	-7.75319
▁both	-7.75597
▁family	-7.75716
T	-7.75838
p	-7.76683
▁States	-7.7696
▁–	-7.76988
▁May	-7.77305
ion	-7.77517
ton	-7.77725
▁played	-7.7817
amp	-7.79137
na	-7.79152
b	-7.79256
▁them	-7.81029
de	-7.81067
▁released	-7.81526
se	-7.81547
▁won	-7.81662
▁area	-7.81775
▁may	-7.82488
▁life	-7.82783
▁R	-7.83126
▁4	-7.84025
▁series	-7.84266
."	-7.8428
▁At	-7.84311
el	-7.84917
▁four	-7.84933
ne	-7.86568
K	-7.86764
▁War	-7.8691
ia	-7.86984
E	-7.87245
ta	-7.88229
▁School	-7.8829
I	-7.88445
G	-7.8898
▁career	-7.88991
M	-7.8992
▁August	-7.90097
▁John	-7.90501
▁state	-7.90536
ry	-7.90675
▁called	-7.91339
▁several	-7.91375
▁South	-7.91382
▁so	-7.91481
▁March	-7.91898
▁early	-7.92062
ist	-7.92332
ch	-7.92487
▁following	-7.92599
f	-7.92787
▁16	-7.93175
▁June	-7.9319
▁same	-7.93225
P	-7.933
▁N	-7.93652
▁January	-7.93876
il	-7.94124
▁found	-7.94749
▁L	-7.94823
▁His	-7.95602
▁city	-7.95758
▁September	-7.95771
▁end	-7.95905
▁game	-7.96327
▁July	-7.96627
te	-7.96652
▁October	-7.96752
▁began	-7.96945
the	-7.97057
▁will	-7.97387
W	-7.98233
V	-7.98652
▁since	-7.99308
▁They	-7.99321
▁group	-7.99476
2	-7.99598
ma	-7.99661
▁County	-8.00019
▁use	-8.00273
▁5	-8.00366
▁April	-8.00442
▁H	-8.00702
it	-8.01115
▁home	-8.01651
▁government	-8.02069
▁November	-8.02084
ity	-8.02146
is	-8.02528
▁station	-8.02606
▁&	-8.0296
▁these	-8.02976
L	-8.03039
▁York	-8.03095
ra	-8.03443
–	-8.03559
▁un	-8.03782
▁population	-8.0393
▁December	-8.04069
H	-8.04202
▁State	-8.045
▁located	-8.04588
▁place	-8.04806
▁15	-8.05259
ian	-8.05383
▁back	-8.05441
▁10	-8.05672
at	-8.06539
▁Al	-8.0703
N	-8.07184
▁held	-8.07553
▁18	-8.07665
▁For	-8.0788
▁former	-8.07969
ur	-8.08062
▁each	-8.08103
▁City	-8.08671
▁member	-8.08761
▁There	-8.09532
1	-8.09675
’	-8.10147
▁V	-8.10287
▁took	-8.10317
co	-8.10533
▁Re	-8.10718
▁high	-8.10753
▁British	-8.10892
▁named	-8.1098
▁J	-8.11519
▁6	-8.11808
son	-8.12347
▁La	-8.12414
▁music	-8.13053
▁North	-8.13442
O	-8.13533
▁served	-8.13689
et	-8.13742
▁February	-8.13915
▁League	-8.13924
▁De	-8.14307
▁However	-8.14405
ent	-8.1447
▁could	-8.14493
▁song	-8.14909
▁local	-8.14949
▁received	-8.1503
▁company	-8.1519
▁12	-8.15927
ro	-8.16425
▁co	-8.17067
▁did	-8.17118
land	-8.1762
▁due	-8.18089
able	-8.18119
▁system	-8.18195
▁born	-8.18279
▁any	-8.18281
▁single	-8.1855
▁age	-8.1916
▁public	-8.19548
▁around	-8.19569
x	-8.20655
▁band	-8.21156
R	-8.21242
▁'	-8.21538
▁(19	-8.21712
▁town	-8.22038
▁long	-8.22144
▁club	-8.22324
ment	-8.22583
am	-8.22638
la	-8.23081
born	-8.23115
▁built	-8.234
▁based	-8.23645
ter	-8.24023
▁Co	-8.24092
▁include	-8.24565
▁During	-8.24651
▁20	-8.25007
ir	-8.25045
▁line	-8.25114
ism	-8.25237
▁left	-8.2533
▁History	-8.25469
▁West	-8.256
no	-8.25793
▁show	-8.25848
id	-8.26084
&	-8.26084
▁7	-8.26198
▁village	-8.26286
▁No	-8.26355
▁species	-8.26412
as	-8.26558
▁said	-8.2669
▁now	-8.26781
▁century	-8.26949
▁set	-8.27264
ine	-8.27527
é	-8.27555
ive	-8.27742
▁along	-8.27991
▁building	-8.27991
▁day	-8.28043
ce	-8.28186
ant	-8.28465
▁own	-8.28716
3	-8.28877
▁final	-8.2888
um	-8.28907
▁died	-8.29428
▁national	-8.29444
ka	-8.29828
▁An	-8.30223
▁published	-8.30227
ate	-8.30332
▁because	-8.30493
▁members	-8.30543
me	-8.3062
▁within	-8.30632
▁included	-8.30816
da	-8.30978
j	-8.31312
▁large	-8.3133
▁College	-8.31812
▁11	-8.31822
▁like	-8.32095
▁last	-8.32288
▁world	-8.324
▁do	-8.32528
ri	-8.32567
▁five	-8.32883
ley	-8.33029
▁death	-8.33138
▁play	-8.33549
▁District	-8.3369
▁small	-8.34054
▁8	-8.34122
ie	-8.34137
be	-8.3426
▁main	-8.34843
▁("	-8.3519
un	-8.35364
▁14	-8.35536
▁River	-8.35698
▁13	-8.36011
w	-8.36339
▁third	-8.3674
ca	-8.36888
▁off	-8.37247
▁men	-8.38068
ad	-8.38165
▁side	-8.38336
▁French	-8.38355
ke	-8.38879
▁million	-8.38923
▁moved	-8.38972
▁football	-8.39043
▁still	-8.39205
der	-8.39579
▁those	-8.39583
ga	-8.39769
ary	-8.3988
▁German	-8.4006
▁English	-8.4011
ti	-8.40144
▁To	-8.40181
▁All	-8.40395
ge	-8.4049
ve	-8.40739
▁per	-8.4092
4	-8.40935
▁major	-8.41136
▁war	-8.41405
▁children	-8.41468
▁service	-8.42073
▁-	-8.42115
ni	-8.42311
▁down	-8.42338
▁son	-8.42408
▁International	-8.42893
▁very	-8.43099
▁Mo	-8.43334
▁history	-8.43366
▁water	-8.4351
▁led	-8.43705
▁9	-8.43853
up	-8.43892
▁another	-8.43979
▁period	-8.44124
▁book	-8.4422
▁different	-8.44389
▁district	-8.44785
nd	-8.44794
▁near	-8.45278
▁women	-8.45573
U	-8.45618
ling	-8.4562
▁form	-8.45843
do	-8.45908
▁San	-8.45934
▁head	-8.46296
▁north	-8.4633
▁Le	-8.46456
▁II	-8.46763
▁US	-8.46845
▁London	-8.46923
▁Park	-8.47005
▁House	-8.47144
")	-8.47791
li	-8.47823
di	-8.48027
ha	-8.48104
lo	-8.48194
▁original	-8.48241
▁election	-8.48315
▁often	-8.48375
▁if	-8.48448
▁record	-8.48503
▁best	-8.48675
▁late	-8.48748
ba	-8.48845
lt	-8.49735
▁c	-8.50118
▁Me	-8.50226
▁father	-8.50393
▁title	-8.50615
ner	-8.50723
▁just	-8.50909
go	-8.50913
▁south	-8.50914
▁came	-8.51334
ty	-8.51753
▁support	-8.51888
▁order	-8.52151
▁Cup	-8.52444
▁When	-8.52506
▁total	-8.52688
▁established	-8.52705
▁role	-8.52792
▁2016	-8.52833
ck	-8.52894
▁started	-8.53161
▁again	-8.53311
▁country	-8.53701
▁By	-8.54181
ous	-8.54187
▁top	-8.54252
▁six	-8.54277
▁make	-8.54305
▁2009	-8.54512
den	-8.54572
▁announced	-8.54657
▁non	-8.54698
ul	-8.54822
age	-8.54967
▁One	-8.55043
▁land	-8.55884
▁development	-8.55911
sh	-8.56015
▁went	-8.5626
▁become	-8.56401
▁East	-8.56559
▁much	-8.56767
ll	-8.57225
▁what	-8.5782
▁2006	-8.57828
▁general	-8.57839
▁house	-8.57871
▁worked	-8.57981
▁games	-8.58091
▁Bo	-8.58097
▁Ha	-8.58408
▁among	-8.5939
▁various	-8.59395
▁joined	-8.59397
ol	-8.5973
▁Con	-8.59887
▁Man	-8.60418
▁having	-8.6063
and	-8.60825
▁Her	-8.6089
▁William	-8.60939
os	-8.61
▁next	-8.61012
he	-8.61168
▁player	-8.61226
▁19	-8.61227
%	-8.61357
▁given	-8.61426
▁political	-8.61769
▁power	-8.62219
men	-8.62284
v	-8.62311
▁England	-8.6236
▁These	-8.62666
va	-8.62671
▁El	-8.62714
▁production	-8.62762
▁married	-8.62795
▁law	-8.63198
▁Mar	-8.632
▁pre	-8.63257
▁Be	-8.634
one	-8.63511
▁community	-8.63559
way	-8.63936
▁Church	-8.64251
▁described	-8.64495
▁High	-8.64835
ated	-8.6486
▁Na	-8.64976
▁produced	-8.65082
▁way	-8.65228
▁wrote	-8.65252
▁post	-8.65457
▁France	-8.65495
▁returned	-8.65791
▁created	-8.65828
▁European	-8.65928
▁students	-8.66168
▁professional	-8.66494
▁short	-8.66733
▁position	-8.66842
▁even	-8.66856
▁take	-8.66881
▁Sa	-8.67001
ak	-8.67022
▁Council	-8.67131
▁match	-8.67264
by	-8.67424
▁From	-8.67478
ya	-8.6772
▁Li	-8.67737
▁however	-8.6786
▁According	-8.68026
im	-8.68067
5	-8.68114
▁Street	-8.68115
▁round	-8.6829
ting	-8.68468
▁General	-8.6892
▁30	-8.6912
▁research	-8.69248
▁Australia	-8.69383
▁region	-8.69458
▁using	-8.69489
6	-8.69887
▁dis	-8.69944
▁site	-8.70102
▁Go	-8.70106
▁man	-8.70178
▁few	-8.70239
▁present	-8.70323
—	-8.70399
▁George	-8.70514
▁formula	-8.70733
▁India	-8.70894
ang	-8.70997
▁Party	-8.71048
ized	-8.71114
ver	-8.71193
ard	-8.71316
▁Division	-8.71463
▁event	-8.71719
▁King	-8.7174
▁continued	-8.72192
ko	-8.72338
▁James	-8.72519
lin	-8.72628
▁church	-8.72757
▁version	-8.73106
con	-8.73784
▁win	-8.74136
▁Pro	-8.74144
▁Z	-8.74212
▁point	-8.74226
▁program	-8.74375
▁Army	-8.74446
▁Ho	-8.74475
▁full	-8.74571
J	-8.74677
▁25	-8.74712
▁con	-8.75032
ut	-8.75247
▁America	-8.7539
▁Ma	-8.75425
▁car	-8.75485
est	-8.75555
▁project	-8.75713
ness	-8.75825
per	-8.75963
▁run	-8.76214
▁level	-8.76314
▁written	-8.76396
▁sub	-8.76721
▁field	-8.76747
▁2010	-8.76919
▁international	-8.76923
▁opened	-8.7698
▁Se	-8.76982
ana	-8.77046
mo	-8.77081
▁debut	-8.7732
▁military	-8.77554
▁pro	-8.77583
ster	-8.77609
9	-8.77627
▁result	-8.77669
ler	-8.77711
▁without	-8.77727
▁California	-8.77892
▁lost	-8.77915
▁education	-8.77972
8	-8.7805
▁Lo	-8.78154
▁President	-8.78198
▁television	-8.78696
▁founded	-8.79075
ah	-8.79257
▁signed	-8.79306
time	-8.79311
▁average	-8.79334
▁elected	-8.79374
▁considered	-8.7943
ina	-8.79505
▁Ko	-8.79531
▁half	-8.79661
▁art	-8.7976
▁right	-8.79817
▁days	-8.79932
▁With	-8.80099
▁party	-8.80119
ies	-8.80246
ci	-8.80488
year	-8.80526
▁addition	-8.80621
▁Association	-8.80813
▁appointed	-8.81294
▁recorded	-8.81309
ted	-8.81387
▁important	-8.81425
▁old	-8.81446
▁control	-8.81483
▁further	-8.81507
ial	-8.81526
ac	-8.81543
▁design	-8.81762
ance	-8.82105
▁works	-8.82145
ham	-8.82228
▁race	-8.82248
gt	-8.82262
▁Air	-8.82297
▁business	-8.82757
▁Union	-8.82832
▁lead	-8.83256
mer	-8.83411
▁free	-8.83426
ov	-8.83483
▁Ar	-8.83537
▁Robert	-8.8356
rd	-8.83608
▁popular	-8.8361
▁appeared	-8.83654
▁director	-8.83729
▁live	-8.83744
▁social	-8.8395
▁making	-8.83978
▁east	-8.84012
X	-8.84038
▁wife	-8.84048
▁Court	-8.84172
▁every	-8.84231
▁Indian	-8.84274
▁Canada	-8.84467
tic	-8.84499
▁Royal	-8.84527
pe	-8.84603
▁Ta	-8.84719
ja	-8.84786
▁di	-8.84953
br	-8.84958
▁So	-8.85014
▁Early	-8.85237
▁1990	-8.85281
▁Car	-8.85324
▁p	-8.85419
▁video	-8.85433
▁together	-8.85694
▁case	-8.85908
▁working	-8.85914
ny	-8.85986
▁league	-8.86158
▁example	-8.86184
line	-8.86216
▁Club	-8.86278
▁100	-8.86586
▁office	-8.86693
▁21	-8.87061
▁open	-8.87098
▁Ka	-8.87273
▁formed	-8.8743
ally	-8.87471
ber	-8.87523
▁Award	-8.87744
▁Road	-8.87925
▁developed	-8.88018
bo	-8.88058
▁release	-8.88118
les	-8.88293
bi	-8.88417
vi	-8.88456
wa	-8.88474
▁character	-8.88692
7	-8.88699
▁fire	-8.88722
▁himself	-8.88806
za	-8.8895
▁similar	-8.89018
▁While	-8.89141
▁1980	-8.89199
▁24	-8.8937
▁Australian	-8.89436
▁“	-8.89806
▁()	-8.89825
▁David	-8.90154
po	-8.90198
▁X	-8.90233
▁Hall	-8.90474
▁language	-8.90817
▁Paul	-8.91001
▁Act	-8.91108
▁Some	-8.9134
▁ten	-8.91378
▁Ne	-8.91426
▁style	-8.91433
▁help	-8.91755
▁2011	-8.91954
▁west	-8.91964
▁across	-8.9197
sa	-8.92343
▁term	-8.92352
▁go	-8.92455
▁areas	-8.92568
field	-8.92735
▁track	-8.92751
▁common	-8.92866
▁modern	-8.92877
▁Championship	-8.92896
▁ex	-8.92958
op	-8.93199
om	-8.93314
▁times	-8.93548
▁list	-8.93584
▁Germany	-8.93635
▁process	-8.93693
▁Do	-8.93822
mi	-8.93942
▁China	-8.94099
▁d	-8.94182
▁road	-8.94198
ot	-8.94263
▁although	-8.94533
▁we	-8.94599
▁story	-8.94611
io	-8.94705
▁daughter	-8.94772
▁body	-8.94826
▁services	-8.94854
▁Bar	-8.95001
▁Ra	-8.95063
▁less	-8.95065
▁playing	-8.95115
▁Ca	-8.95329
▁points	-8.95337
▁Po	-8.95665
▁events	-8.95695
▁2012	-8.95723
ville	-8.95833
▁special	-8.95921
ho	-8.95985
ong	-8.96029
▁Central	-8.96075
▁contract	-8.96155
▁Group	-8.96158
▁air	-8.96209
▁First	-8.96327
▁president	-8.96355
ki	-8.96506
gen	-8.96513
▁Company	-8.96701
▁Te	-8.97148
▁Europe	-8.97215
side	-8.97272
vo	-8.97408
▁performed	-8.9742
▁Music	-8.97625
▁young	-8.97658
▁Pe	-8.97676
▁1,	-8.97697
ish	-8.97743
▁Other	-8.97838
less	-8.97971
▁construction	-8.98144
▁Thomas	-8.98252
▁black	-8.98277
▁mother	-8.98281
▁living	-8.98369
]	-8.98373
▁though	-8.98562
▁sold	-8.9871
▁light	-8.98739
▁completed	-8.9879
ey	-8.98834
▁en	-8.98857
com	-8.99007
▁followed	-8.99174
▁st	-8.99222
▁1970	-8.99634
▁teams	-8.99688
▁seven	-8.99721
▁Roman	-8.99819
ron	-8.99851
▁court	-8.9993
▁22	-8.99987
▁e	-8.99988
▁finished	-8.99998
▁Di	-9.00049
▁range	-9.00147
▁refer	-9.00148
▁how	-9.00312
▁never	-9.00398
ru	-9.00458
▁Center	-9.00466
ford	-9.00699
▁months	-9.00862
▁return	-9.00931
▁Ba	-9.00961
▁remained	-9.01032
▁Lake	-9.01328
▁m	-9.01372
á	-9.01554
▁away	-9.01782
▁Island	-9.01823
–19	-9.01887
Y	-9.02078
▁current	-9.02129
ach	-9.02157
▁Department	-9.02223
▁Japan	-9.0229
▁Or	-9.02326
▁designed	-9.02338
ze	-9.02439
▁Institute	-9.02543
ig	-9.02797
▁Dr	-9.02859
▁me	-9.02907
gi	-9.02959
▁available	-9.02979
▁coach	-9.03016
sen	-9.03057
▁official	-9.03173
▁should	-9.03233
▁Su	-9.03288
em	-9.03423
▁reported	-9.03478
dy	-9.03561
▁Art	-9.03579
▁Black	-9.03588
▁gave	-9.0364
▁Bay	-9.03847
▁(18	-9.03853
ship	-9.03877
”	-9.04045
▁2013	-9.04057
▁taken	-9.04175
ure	-9.04243
▁Western	-9.04339
▁African	-9.04436
▁2008	-9.04459
mon	-9.04468
ger	-9.04493
▁mid	-9.04698
▁2014	-9.048
tra	-9.04876
▁performance	-9.05005
▁Washington	-9.05068
que	-9.05163
▁Charles	-9.05208
rs	-9.05295
▁leading	-9.05361
-19	-9.05443
▁Red	-9.0551
▁college	-9.05527
ex	-9.05599
au	-9.05657
▁radio	-9.05708
ran	-9.05877
▁Since	-9.06036
▁good	-9.06046
ence	-9.06125
▁Green	-9.0613
ology	-9.06133
▁Minister	-9.06135
▁largest	-9.06174
▁Japanese	-9.06282
▁low	-9.0636
ji	-9.0636
▁brother	-9.0644
▁List	-9.06502
▁23	-9.06566
▁training	-9.06663
▁Although	-9.06703
▁model	-9.06909
tu	-9.06959
pa	-9.07043
▁class	-9.07129
▁human	-9.07192
▁Ben	-9.0725
we	-9.0741
▁throughout	-9.07431
out	-9.07494
ung	-9.07578
▁la	-9.07669
▁Society	-9.07714
▁UK	-9.07736
▁campaign	-9.07748
▁Peter	-9.07875
▁stage	-9.07876
▁once	-9.07881
ization	-9.07881
▁white	-9.07897
▁front	-9.08248
00	-9.08464
min	-9.08564
20	-9.08826
▁features	-9.08939
mar	-9.09007
▁originally	-9.09294
chi	-9.09401
▁songs	-9.09409
▁forces	-9.09424
▁eventually	-9.09474
▁Ja	-9.09521
▁must	-9.09619
▁Ro	-9.09673
▁degree	-9.09675
▁tournament	-9.09715
▁study	-9.09756
ating	-9.09881
▁eight	-9.09969
tal	-9.10135
▁Russian	-9.10185
▁awarded	-9.10302
tor	-9.10321
▁sea	-9.10347
oc	-9.10481
ning	-9.10563
▁White	-9.10594
▁great	-9.10613
▁sent	-9.10629
hu	-9.10647
▁2015	-9.10651
▁seen	-9.10684
ek	-9.1076
lan	-9.1076
▁media	-9.10766
▁Lu	-9.10781
▁b	-9.10869
▁countries	-9.10978
▁stated	-9.11236
▁police	-9.11351
▁featured	-9.11383
▁railway	-9.11471
▁information	-9.11582
▁includes	-9.11721
▁2000	-9.11735
▁Chinese	-9.11799
▁Du	-9.11978
▁Ni	-9.12105
▁al	-9.12171
▁added	-9.12189
▁Canadian	-9.12255
▁does	-9.1231
▁players	-9.12452
▁others	-9.12624
▁currently	-9.12649
▁26	-9.12724
▁involved	-9.12731
▁competition	-9.12769
▁episode	-9.12785
ts	-9.12851
▁Italian	-9.129
0	-9.12951
▁center	-9.13034
▁directed	-9.13132
▁Da	-9.13166
▁get	-9.13245
du	-9.13256
▁Ga	-9.13517
▁Film	-9.13609
▁studio	-9.13624
▁groups	-9.13832
off	-9.13927
hi	-9.14141
▁ground	-9.14153
▁close	-9.14284
▁size	-9.14437
ful	-9.14562
▁Academy	-9.14626
▁2007	-9.14626
▁success	-9.14694
▁1960	-9.14801
▁saw	-9.1485
▁able	-9.15103
▁above	-9.1517
▁Bi	-9.15173
▁provided	-9.15176
▁writing	-9.15225
▁TV	-9.15285
▁km	-9.15369
▁Pa	-9.15457
▁Hu	-9.15492
lu	-9.1558
▁killed	-9.15723
▁27	-9.15835
▁private	-9.15917
▁central	-9.15947
▁We	-9.15947
ub	-9.1623
▁change	-9.16402
▁2018	-9.1653
▁rock	-9.16817
▁Catholic	-9.16924
red	-9.16982
▁you	-9.17005
▁Men	-9.17066
▁anti	-9.17091
all	-9.17114
▁Michael	-9.17124
old	-9.17131
▁Am	-9.17134
ino	-9.17322
▁replaced	-9.17359
day	-9.17385
▁Har	-9.17406
wood	-9.17884
▁attack	-9.1792
ite	-9.17972
▁author	-9.17989
50	-9.18034
▁novel	-9.18138
▁put	-9.1841
▁fourth	-9.18481
▁night	-9.18487
▁Un	-9.18705
lic	-9.18751
▁decided	-9.18813
▁g	-9.1884
▁schools	-9.1891
▁Republic	-9.19003
of	-9.19041
▁space	-9.19062
▁ship	-9.19103
gu	-9.19195
▁attended	-9.19264
▁usually	-9.19466
▁Africa	-9.19511
▁least	-9.19793
▁goal	-9.19839
Z	-9.1986
▁either	-9.19931
▁previous	-9.20089
han	-9.20127
▁capital	-9.20158
ap	-9.20204
▁river	-9.20236
ius	-9.20259
je	-9.20277
qui	-9.20374
▁Ri	-9.20421
▁start	-9.2056
ev	-9.20773
▁upon	-9.2084
▁bar	-9.20891
▁market	-9.21132
▁Day	-9.2145
▁Football	-9.21726
▁Christian	-9.21828
▁Mary	-9.21886
▁Henry	-9.22068
▁Ch	-9.22098
ow	-9.22115
▁28	-9.22135
▁placed	-9.22178
▁Education	-9.22193
ud	-9.22197
▁scored	-9.22215
▁introduced	-9.22344
▁Richard	-9.22407
ven	-9.22436
▁Career	-9.22552
▁Saint	-9.22598
▁via	-9.22781
▁2017	-9.22826
▁provide	-9.22872
▁health	-9.22932
▁Y	-9.23032
▁Pan	-9.23122
▁reached	-9.23203
▁board	-9.23225
ities	-9.23347
ium	-9.23536
(	-9.23572
▁Spanish	-9.23664
▁Law	-9.23755
▁plant	-9.23807
▁hand	-9.24068
ward	-9.24217
sk	-9.24265
▁Hill	-9.24267
▁Women	-9.2446
▁organization	-9.24538
▁unit	-9.24625
▁2019	-9.24626
▁inter	-9.24629
▁Great	-9.24781
ell	-9.25026
▁hit	-9.2515
▁brought	-9.25194
ct	-9.25359
ier	-9.2536
▁Museum	-9.25366
▁lower	-9.25473
mp	-9.25501
▁census	-9.25669
house	-9.25675
▁real	-9.25947
▁50	-9.26019
▁far	-9.26019
gg	-9.2608
▁female	-9.26304
▁Grand	-9.26426
▁Texas	-9.26518
▁base	-9.26552
▁section	-9.26621
▁aircraft	-9.26753
10	-9.2677
▁interest	-9.26777
▁outside	-9.26902
che	-9.27037
ile	-9.27069
▁summer	-9.2707
▁Committee	-9.27106
▁Following	-9.27106
▁tour	-9.27149
▁Gu	-9.27187
▁Later	-9.27258
▁action	-9.27328
▁rights	-9.27357
▁successful	-9.27362
tro	-9.27413
well	-9.27424
▁commercial	-9.27434
▁changed	-9.27481
▁listed	-9.27495
▁Chi	-9.2775
▁behind	-9.2781
▁Soviet	-9.27852
▁Kingdom	-9.27862
▁structure	-9.27866
ay	-9.27903
▁route	-9.27947
▁rather	-9.27948
▁Ru	-9.27961
▁Per	-9.27962
▁active	-9.28017
led	-9.28193
▁battle	-9.28199
▁states	-9.28221
▁Paris	-9.28288
▁northern	-9.28307
▁division	-9.28349
▁data	-9.28399
▁Sch	-9.28477
▁Pi	-9.28481
pi	-9.28517
▁winning	-9.28758
▁artist	-9.28861
▁Jo	-9.28967
▁Pre	-9.29089
ten	-9.29101
fi	-9.29108
▁1994	-9.29152
▁rest	-9.29229
▁Government	-9.29234
▁studies	-9.29234
▁centre	-9.29275
▁represented	-9.29292
▁Sea	-9.29293
▁island	-9.29388
▁access	-9.29543
ical	-9.29676
▁southern	-9.29693
Ma	-9.29731
ice	-9.29777
▁seat	-9.29819
▁network	-9.29824
▁Summer	-9.29825
▁families	-9.29835
In	-9.2987
▁regular	-9.29893
▁met	-9.30079
▁[	-9.30105
▁Life	-9.30107
▁Mi	-9.30163
berg	-9.30167
tin	-9.30173
▁individual	-9.30183
▁type	-9.30259
▁instead	-9.30323
▁significant	-9.30594
▁primary	-9.30727
ring	-9.30773
▁movement	-9.30825
tion	-9.30953
▁force	-9.30972
ab	-9.31082
har	-9.31094
▁Awards	-9.31261
ft	-9.31329
▁person	-9.31337
▁culture	-9.3145
▁Zealand	-9.31455
▁29	-9.3146
▁ended	-9.3151
▁Fe	-9.31589
ney	-9.31601
tri	-9.31696
▁Most	-9.31697
fe	-9.31789
▁Best	-9.31851
▁possible	-9.31868
ee	-9.31875
▁score	-9.31902
▁come	-9.31932
▁sp	-9.31993
▁previously	-9.32017
ez	-9.32025
for	-9.32201
based	-9.32262
pur	-9.32323
ng	-9.32334
▁beginning	-9.32381
▁week	-9.32551
▁Super	-9.32566
ative	-9.32576
▁Ju	-9.32838
▁Two	-9.33053
▁Festival	-9.33164
▁industry	-9.33491
▁defeated	-9.33517
▁Cha	-9.33527
▁Los	-9.3359
▁2004	-9.33623
▁almost	-9.33637
▁see	-9.33746
▁fact	-9.33752
▁singer	-9.33783
▁Olympics	-9.33869
gar	-9.3395
▁shows	-9.3402
▁Smith	-9.34097
▁But	-9.34176
bb	-9.34415
▁approximately	-9.34436
▁Virginia	-9.34536
ph	-9.3462
▁runs	-9.34639
▁2020	-9.34721
▁buildings	-9.34808
▁Sir	-9.3497
▁allowed	-9.35005
kin	-9.35075
▁My	-9.35102
▁Martin	-9.35112
_	-9.35138
ker	-9.3525
ize	-9.35262
▁0	-9.3527
▁Ti	-9.35276
▁2005	-9.35442
▁plan	-9.35444
disambiguation	-9.35618
si	-9.35645
▁ran	-9.35725
▁length	-9.35752
▁units	-9.35827
jo	-9.35848
▁books	-9.35916
gan	-9.36023
▁itself	-9.36082
pt	-9.36154
val	-9.36172
ita	-9.36205
▁wide	-9.36211
▁child	-9.36275
▁towards	-9.36473
▁especially	-9.36527
▁science	-9.36621
ai	-9.36737
▁spent	-9.36755
▁taking	-9.36775
▁trade	-9.36788
30	-9.36807
▁Ireland	-9.36818
▁Championships	-9.36863
▁Ku	-9.36868
▁40	-9.3688
▁army	-9.36973
▁2021	-9.36995
▁Brown	-9.37016
▁future	-9.37063
▁Records	-9.37074
▁Sun	-9.3715
▁owned	-9.3715
▁Second	-9.37176
▁1950	-9.37277
▁Gi	-9.37322
cha	-9.37393
▁manager	-9.37531
ata	-9.37607
▁past	-9.3763
▁soon	-9.37698
ari	-9.37769
▁higher	-9.37775
▁Line	-9.37831
▁Railway	-9.37846
ik	-9.37871
▁Mc	-9.37935
▁create	-9.37977
▁magazine	-9.37988
▁Bank	-9.3811
▁independent	-9.38127
▁senior	-9.38133
▁move	-9.38172
ator	-9.38201
low	-9.38245
car	-9.38355
▁according	-9.38358
▁turn	-9.38395
▁Force	-9.38463
▁traditional	-9.38477
▁below	-9.38515
▁standard	-9.38608
▁Sam	-9.38666
▁2010,	-9.3869
▁collection	-9.38798
▁course	-9.38973
ix	-9.38977
▁economic	-9.391
La	-9.39106
▁Battle	-9.39379
▁required	-9.39437
fer	-9.39483
▁leader	-9.39584
▁studied	-9.39614
▁ever	-9.39624
▁Town	-9.39626
▁Board	-9.3965
▁opening	-9.39683
ide	-9.39697
▁award	-9.39735
ble	-9.39962
▁v	-9.40062
▁property	-9.40068
▁county	-9.40096
▁films	-9.40196
▁find	-9.40277
▁strong	-9.40326
▁operations	-9.40343
▁love	-9.40359
▁little	-9.40365
▁Mark	-9.40384
▁thought	-9.40398
▁31	-9.40437
▁Joseph	-9.40646
▁launched	-9.4066
▁red	-9.40704
▁2015,	-9.4072
idae	-9.40742
▁whom	-9.40805
▁Si	-9.40825
▁natural	-9.40857
▁food	-9.4097
▁Tri	-9.41176
ski	-9.4127
▁surface	-9.4131
▁gold	-9.41397
▁student	-9.41477
▁highest	-9.41631
▁entered	-9.41888
▁lived	-9.41984
▁cost	-9.42058
▁practice	-9.42073
q	-9.42114
▁location	-9.42119
▁God	-9.42144
nes	-9.42301
qu	-9.42303
▁Many	-9.42361
▁nine	-9.4245
like	-9.42528
▁Italy	-9.42549
▁closed	-9.4265
▁Can	-9.42723
▁Northern	-9.4276
▁self	-9.42931
▁Sal	-9.43022
▁Mac	-9.43062
▁2014,	-9.431
▁shot	-9.43129
▁related	-9.43221
▁date	-9.43286
▁park	-9.43358
▁Congress	-9.43414
▁2013,	-9.43446
▁numerous	-9.43465
▁Old	-9.43532
▁2012,	-9.43543
▁2011,	-9.43557
▁subject	-9.43566
ou	-9.43579
▁issues	-9.43639
▁staff	-9.43677
▁2018,	-9.43762
▁appearance	-9.43814
▁generally	-9.43823
▁department	-9.43885
▁Greek	-9.43975
▁Arts	-9.44063
bu	-9.44126
▁serving	-9.44194
▁Angeles	-9.44198
▁1988	-9.442
fa	-9.44207
▁Bra	-9.44244
▁lack	-9.44275
▁deal	-9.44283
ani	-9.44293
▁victory	-9.44295
bar	-9.44307
ding	-9.44323
▁Tu	-9.44359
▁Mor	-9.44421
ight	-9.44455
▁Navy	-9.44511
▁money	-9.44511
▁plays	-9.44596
▁entire	-9.44666
▁thus	-9.44668
ions	-9.44688
▁parts	-9.44951
▁my	-9.44994
▁already	-9.45027
ep	-9.45056
tz	-9.45121
▁Queen	-9.45168
▁additional	-9.45184
▁material	-9.45199
▁1995	-9.45314
▁En	-9.45316
▁earlier	-9.45343
ise	-9.45364
▁hard	-9.45504
port	-9.45596
▁Mexico	-9.45606
▁loss	-9.45612
don	-9.45698
▁face	-9.4574
▁majority	-9.45752
ett	-9.45869
▁means	-9.45988
▁Mon	-9.46029
▁Za	-9.46042
▁2017,	-9.46097
▁label	-9.46161
▁competed	-9.46164
▁cast	-9.46176
tain	-9.46234
wi	-9.4626
▁need	-9.46368
▁politician	-9.46389
ists	-9.46393
▁Florida	-9.46456
▁2019,	-9.46547
▁Route	-9.46584
▁income	-9.46588
▁personal	-9.46692
uk	-9.46717
▁Province	-9.46721
▁bridge	-9.46729
▁increased	-9.46769
▁Ke	-9.46793
▁noted	-9.46828
▁matches	-9.46929
▁response	-9.46935
▁woman	-9.4694
▁companies	-9.46988
▁writer	-9.4703
▁Lord	-9.47041
▁Fa	-9.47047
▁chief	-9.47055
▁multi	-9.47067
shi	-9.47165
▁broadcast	-9.47369
▁decision	-9.47375
▁Bu	-9.47382
▁systems	-9.47429
▁activities	-9.47471
19	-9.47481
▁sometimes	-9.47537
▁Ver	-9.47545
ü	-9.47633
▁Chicago	-9.47695
▁Under	-9.47769
▁husband	-9.47902
▁bring	-9.47922
▁associated	-9.47954
ther	-9.47959
▁command	-9.48054
▁genus	-9.48065
▁du	-9.48123
▁running	-9.48165
▁Games	-9.48167
▁university	-9.48227
▁Mu	-9.48318
í	-9.4835
▁pay	-9.48407
"),	-9.48414
▁view	-9.48526
aw	-9.48714
▁Parliament	-9.48752
▁Research	-9.4877
▁1992	-9.48845
40	-9.48847
row	-9.49057
▁Public	-9.49089
▁becoming	-9.49201
▁complex	-9.4923
▁caused	-9.4927
back	-9.49319
▁selected	-9.49474
▁test	-9.49499
▁officer	-9.4965
▁Director	-9.49691
ised	-9.49771
▁western	-9.49848
▁direct	-9.49924
▁Wood	-9.50061
▁annual	-9.50156
▁Its	-9.50323
▁Service	-9.50332
Q	-9.50362
▁Valley	-9.50512
▁Tom	-9.50525
▁passed	-9.50564
▁operated	-9.50573
▁legal	-9.50587
▁musical	-9.50629
▁Bre	-9.50734
▁You	-9.50828
▁older	-9.50877
▁Vi	-9.50893
▁contains	-9.50926
▁Ya	-9.50933
▁results	-9.50947
iz	-9.50982
yn	-9.51002
▁increase	-9.51088
▁Ex	-9.51241
▁Assembly	-9.51252
▁relationship	-9.51313
▁Wales	-9.51374
▁2,	-9.51392
▁remains	-9.51526
und	-9.51535
▁Sha	-9.51557
king	-9.51593
act	-9.51663
▁goals	-9.51719
ors	-9.51815
end	-9.51845
▁Ab	-9.51878
▁feature	-9.51883
▁Par	-9.51904
▁complete	-9.51967
▁initially	-9.51988
ku	-9.52045
▁supported	-9.5211
▁limited	-9.52143
▁status	-9.52153
▁federal	-9.52206
yl	-9.52358
▁Year	-9.52477
60	-9.52488
war	-9.52499
▁Commission	-9.52515
ini	-9.5253
▁Port	-9.52593
▁border	-9.52619
▁cut	-9.52647
▁act	-9.52709
can	-9.52739
▁claimed	-9.52859
▁Star	-9.52965
▁Team	-9.53044
▁Don	-9.53066
▁issue	-9.53111
▁medical	-9.53113
▁Pennsylvania	-9.5324
▁k	-9.53326
▁hours	-9.53339
ill	-9.53372
▁Irish	-9.53397
▁subsequently	-9.53543
▁Min	-9.53593
▁characters	-9.53594
▁prior	-9.53639
▁famous	-9.53753
▁2008,	-9.53757
▁financial	-9.53798
▁edition	-9.53876
▁Ge	-9.54
▁medal	-9.54021
ations	-9.54036
▁Ph	-9.54061
▁2002	-9.54066
vin	-9.54075
▁2003	-9.54114
▁cover	-9.54122
▁sister	-9.54128
ella	-9.54136
▁Southern	-9.54166
▁better	-9.54257
▁municipality	-9.54288
▁Van	-9.54322
▁championship	-9.54352
ara	-9.54379
▁particular	-9.54401
▁Open	-9.54465
▁se	-9.54473
ag	-9.5455
De	-9.54569
▁report	-9.5458
▁effect	-9.54605
ola	-9.54617
▁mostly	-9.54687
▁account	-9.54698
▁cases	-9.54729
▁terms	-9.54749
▁ma	-9.54753
▁Democratic	-9.54793
▁going	-9.54888
▁2001	-9.54889
▁leaving	-9.54892
▁Science	-9.54931
▁Russia	-9.54986
▁king	-9.55106
▁Dan	-9.55136
▁Chief	-9.55207
▁changes	-9.55244
▁religious	-9.55282
▁policy	-9.55298
▁Louis	-9.55301
▁Rock	-9.55338
▁evidence	-9.55356
▁2020,	-9.55403
▁Pacific	-9.55544
▁1993	-9.55591
▁sports	-9.55674
▁engine	-9.55754
▁forced	-9.55772
▁give	-9.55803
ren	-9.55859
▁function	-9.5587
▁fight	-9.55893
od	-9.55937
ery	-9.55949
▁1984	-9.5595
▁retired	-9.55971
▁professor	-9.55999
▁management	-9.56005
tter	-9.56148
ture	-9.56176
▁sound	-9.56278
▁marriage	-9.56351
▁And	-9.56447
sha	-9.56509
▁vote	-9.56531
▁1983	-9.56536
▁Republican	-9.56613
▁Lee	-9.56642
Re	-9.56781
▁got	-9.56825
cy	-9.56896
80	-9.56953
▁Land	-9.57012
let	-9.57081
tt	-9.57087
▁larger	-9.57136
▁chart	-9.5715
hr	-9.57191
▁Fort	-9.57247
▁too	-9.57337
our	-9.57369
▁key	-9.57583
▁programs	-9.57595
▁certain	-9.5762
▁artists	-9.57658
▁referred	-9.57666
▁particularly	-9.57669
era	-9.57738
▁Bill	-9.5775
ec	-9.57755
▁believed	-9.57829
▁firm	-9.57836
▁meeting	-9.57856
zi	-9.58023
▁helped	-9.58066
▁Post	-9.58257
town	-9.58265
tar	-9.58267
▁native	-9.58432
▁raised	-9.58459
nt	-9.58462
▁themselves	-9.58609
▁basketball	-9.58609
ification	-9.58625
ray	-9.58658
▁Both	-9.58684
head	-9.58685
▁meaning	-9.58716
▁square	-9.5873
▁Their	-9.5874
▁Station	-9.58752
▁Q	-9.58779
▁rate	-9.5881
▁shown	-9.58981
ā	-9.59039
American	-9.59044
▁1940	-9.59051
▁Tour	-9.59063
▁That	-9.59123
▁Spain	-9.5917
▁=	-9.59214
▁word	-9.59303
▁Edward	-9.59304
ena	-9.59402
▁concept	-9.59518
▁failed	-9.59651
ura	-9.59727
▁earned	-9.59862
▁Cor	-9.59866
▁foreign	-9.5988
▁Personal	-9.59975
iv	-9.60049
▁carried	-9.60067
ff	-9.6007
▁regional	-9.60078
25	-9.60149
70	-9.6016
▁train	-9.60195
▁coast	-9.60419
if	-9.60426
▁month	-9.60447
▁influence	-9.60544
▁review	-9.6059
▁If	-9.60592
over	-9.60638
tch	-9.60688
▁council	-9.60731
▁Gar	-9.60778
▁room	-9.60796
ram	-9.60797
▁civil	-9.60812
▁1982	-9.60867
▁Governor	-9.60948
▁presented	-9.60955
▁double	-9.60957
-1	-9.6101
▁People	-9.61042
ified	-9.61046
az	-9.61114
▁weeks	-9.6114
▁friend	-9.61213
▁2007,	-9.61258
gue	-9.61277
000	-9.61356
▁f	-9.61404
▁Th	-9.61437
▁speed	-9.61517
▁minutes	-9.61578
▁mainly	-9.6158
▁call	-9.61701
▁star	-9.618
▁acquired	-9.61825
ual	-9.61871
▁offered	-9.62093
▁Love	-9.62102
▁travel	-9.62117
▁parents	-9.62262
▁longer	-9.62363
▁amount	-9.62412
▁today	-9.62413
so	-9.62426
▁consists	-9.62437
▁Health	-9.62478
▁Empire	-9.62518
▁middle	-9.6254
▁$1	-9.62578
▁eastern	-9.62616
▁Carolina	-9.62724
▁multiple	-9.62732
ves	-9.62748
now	-9.62771
▁Jewish	-9.62835
▁latter	-9.62857
▁value	-9.62858
ick	-9.62863
▁stop	-9.62871
ries	-9.6299
▁separate	-9.63041
▁source	-9.63049
▁1930	-9.63058
▁energy	-9.63097
▁Frank	-9.63175
▁Radio	-9.63267
▁society	-9.63286
▁composed	-9.6335
▁graduated	-9.63362
▁cities	-9.63379
▁imp	-9.63435
▁Long	-9.63451
▁li	-9.63459
▁care	-9.63469
sta	-9.63595
").	-9.63688
▁attempt	-9.63707
ö	-9.63727
▁proposed	-9.63824
▁1999	-9.63899
Le	-9.63943
▁theory	-9.6399
]]	-9.64069
cho	-9.64084
▁Eastern	-9.64311
ip	-9.64359
▁Times	-9.64399
▁recording	-9.64409
▁Che	-9.64453
▁Despite	-9.6449
▁remaining	-9.64507
▁starting	-9.64689
▁elections	-9.64701
▁troops	-9.64796
tan	-9.64851
▁serve	-9.64868
▁build	-9.6492
▁Young	-9.64951
▁color	-9.64999
▁despite	-9.65001
▁variety	-9.65001
▁ca	-9.65103
▁finally	-9.65145
▁managed	-9.65193
▁1989	-9.65288
▁overall	-9.65321
▁operation	-9.65384
ris	-9.65409
▁experience	-9.65432
▁1981	-9.65525
!	-9.6554
▁always	-9.65649
▁Pat	-9.65761
ory	-9.65833
▁editor	-9.65961
▁Civil	-9.65969
▁enough	-9.66169
▁Big	-9.6622
▁1920	-9.66259
▁Theatre	-9.66294
istic	-9.66378
▁Creek	-9.66429
cur	-9.66451
▁break	-9.6652
ye	-9.66589
tur	-9.66636
23	-9.66649
ula	-9.66772
▁Gra	-9.66805
▁Middle	-9.66815
▁Dutch	-9.66824
▁Yu	-9.67001
13	-9.67066
▁Poland	-9.6714
▁technology	-9.67145
▁hospital	-9.67161
ath	-9.67183
▁appearances	-9.67234
▁Biography	-9.67276
▁discovered	-9.67367
ned	-9.67451
▁allow	-9.67583
▁nearly	-9.67586
▁stone	-9.67616
▁format	-9.67644
▁III	-9.67661
▁join	-9.67663
▁Conference	-9.67729
lon	-9.67839
ability	-9.67846
▁master	-9.67922
▁cross	-9.67936
ea	-9.6806
▁turned	-9.68181
des	-9.68197
▁promoted	-9.68197
▁port	-9.68202
▁floor	-9.68256
▁bi	-9.68304
▁conditions	-9.6854
mann	-9.68545
▁Order	-9.68568
15	-9.68579
▁Com	-9.68584
ever	-9.68643
▁male	-9.68647
ving	-9.68719
▁Development	-9.68724
▁[[	-9.68726
▁Far	-9.6874
▁1968	-9.68799
▁done	-9.68818
▁minister	-9.68861
ä	-9.68874
▁Sp	-9.68876
▁sc	-9.68902
▁prominent	-9.68922
▁cultural	-9.69054
▁Latin	-9.69144
▁crew	-9.69153
▁Ve	-9.69159
▁Asia	-9.69213
▁Series	-9.69286
▁conference	-9.69365
▁fifth	-9.69372
▁recent	-9.69429
van	-9.69435
▁Wi	-9.69454
sion	-9.69464
▁movie	-9.69545
▁Ad	-9.69548
pp	-9.69551
11	-9.69571
▁Gold	-9.69626
▁Bur	-9.69634
dic	-9.69744
▁positive	-9.69836
su	-9.69876
▁province	-9.69891
▁oil	-9.69897
▁direction	-9.69919
▁might	-9.69943
▁leave	-9.69957
▁code	-9.69995
▁Prince	-9.7003
▁forms	-9.70106
▁arrived	-9.70107
▁individuals	-9.70191
▁bank	-9.70219
▁Dar	-9.70315
▁Asian	-9.70337
▁mass	-9.70515
nce	-9.70528
▁t	-9.70539
▁specific	-9.70552
▁semi	-9.70559
▁1977	-9.70612
▁lines	-9.70619
cul	-9.70625
▁Foundation	-9.70681
▁Pu	-9.70722
▁constructed	-9.70732
18	-9.70743
▁Major	-9.70758
▁1998	-9.70771
▁union	-9.70873
ps	-9.70895
▁Home	-9.70931
ok	-9.70976
▁participated	-9.71
▁nearby	-9.71002
▁likely	-9.71005
▁Over	-9.71048
▁Col	-9.71065
▁problems	-9.71185
uff	-9.71282
▁residents	-9.71288
▁Kar	-9.71314
▁covered	-9.71342
▁told	-9.7142
▁approach	-9.71443
▁primarily	-9.71487
▁producer	-9.71553
▁Michigan	-9.71556
▁host	-9.71578
▁Hospital	-9.71692
zo	-9.71754
▁metal	-9.71845
light	-9.72008
▁responsible	-9.72035
▁appears	-9.72099
▁Bridge	-9.72128
▁alongside	-9.72159
▁Senate	-9.72259
▁cause	-9.72333
▁takes	-9.72452
▁estate	-9.72457
ious	-9.72457
vis	-9.72469
▁saying	-9.72526
ette	-9.72538
▁candidate	-9.7255
res	-9.72588
▁Britain	-9.72591
▁nature	-9.72662
▁era	-9.72873
▁le	-9.72894
▁farm	-9.72897
▁asked	-9.72918
form	-9.72976
TV	-9.72986
▁fall	-9.73141
▁Johnson	-9.73195
▁Shi	-9.73214
▁rule	-9.73251
mm	-9.73337
▁1997	-9.73362
▁directly	-9.73403
mb	-9.73412
▁ships	-9.73477
▁issued	-9.73481
▁Another	-9.73498
▁extended	-9.73505
▁website	-9.73561
dra	-9.73572
▁letter	-9.73575
▁historical	-9.73602
air	-9.73612
▁Han	-9.73784
▁tracks	-9.73788
▁Hol	-9.73851
▁tax	-9.73858
▁camp	-9.73887
eg	-9.73923
sky	-9.74
▁table	-9.74021
▁youth	-9.74025
▁mis	-9.74084
par	-9.74121
▁wanted	-9.74146
▁idea	-9.74236
▁provides	-9.74302
stone	-9.74304
▁mission	-9.74304
▁65	-9.74371
cher	-9.74382
▁Cross	-9.74391
ken	-9.74433
burg	-9.74483
lam	-9.74595
▁1996	-9.74629
▁Coast	-9.74686
▁assistant	-9.74698
her	-9.74756
shire	-9.74828
ible	-9.74843
more	-9.75033
▁Centre	-9.7506
yan	-9.75117
▁parish	-9.75139
▁gun	-9.75159
pro	-9.75202
▁executive	-9.75288
▁records	-9.75367
▁$	-9.75403
▁administrative	-9.75463
16	-9.75483
▁vi	-9.75574
▁gas	-9.75583
▁Jones	-9.75611
▁quickly	-9.75647
▁Office	-9.75647
▁initial	-9.7567
▁!	-9.75708
▁stations	-9.75728
▁newspaper	-9.75731
▁Wa	-9.75737
▁Ki	-9.7575
ane	-9.75806
▁plans	-9.75875
ose	-9.75919
ria	-9.75936
▁products	-9.75998
▁whole	-9.76017
af	-9.76089
cal	-9.76175
▁1969	-9.76187
▁treatment	-9.76196
kh	-9.76286
▁w	-9.76306
ric	-9.76312
▁Of	-9.76366
ica	-9.76387
St	-9.76408
▁actor	-9.76482
▁Highway	-9.76528
▁Israel	-9.76534
▁whether	-9.76535
▁transferred	-9.76544
▁1971	-9.76617
ib	-9.76618
▁clear	-9.76623
eh	-9.76644
▁minor	-9.76669
▁paper	-9.76671
▁computer	-9.76684
ō	-9.76724
▁Georgia	-9.76729
▁Mel	-9.7677
▁Francisco	-9.76776
▁agreement	-9.7678
▁Water	-9.76791
▁Inter	-9.76878
lar	-9.76902
▁organ	-9.77047
▁i	-9.77051
▁method	-9.77071
▁heart	-9.77136
▁museum	-9.77185
ire	-9.7719
▁conducted	-9.77209
▁Fi	-9.77235
▁content	-9.77268
▁Scotland	-9.7733
ob	-9.77394
▁1967	-9.77413
class	-9.77478
▁drama	-9.77684
▁administration	-9.77767
▁spread	-9.77769
▁blue	-9.77819
90	-9.7782
set	-9.77822
▁rural	-9.7784
cle	-9.77843
▁pass	-9.77896
▁quarter	-9.77914
▁channel	-9.77997
▁renamed	-9.77998
▁Federal	-9.78057
▁keep	-9.78059
mal	-9.78064
▁Jack	-9.78065
▁Er	-9.78431
xi	-9.78479
unt	-9.7859
▁super	-9.78669
▁scene	-9.78798
▁names	-9.78855
▁uses	-9.78866
rie	-9.78892
▁Jean	-9.78898
▁draw	-9.79036
▁Mount	-9.79108
og	-9.79108
▁Columbia	-9.79135
▁houses	-9.79144
▁Fu	-9.79152
▁committee	-9.79232
▁elements	-9.79252
▁Avenue	-9.79306
▁divided	-9.7936
▁Ber	-9.79397
▁officially	-9.79408
▁defeat	-9.79419
yard	-9.79457
▁continue	-9.7947
▁grew	-9.79534
▁capacity	-9.79602
▁brand	-9.7963
ping	-9.797
▁impact	-9.7977
▁ordered	-9.79772
▁our	-9.79892
▁200	-9.79915
▁distance	-9.79917
▁intended	-9.79954
▁Jan	-9.79985
▁Vo	-9.79988
▁notable	-9.80023
ó	-9.80039
ear	-9.80054
my	-9.80059
▁1944	-9.8006
yo	-9.80088
▁removed	-9.80115
▁poor	-9.80177
▁ancient	-9.80198
▁Alexander	-9.80199
▁Secretary	-9.80203
▁Top	-9.80267
š	-9.80272
▁Ohio	-9.80272
▁/	-9.8029
▁Blue	-9.80358
gon	-9.80411
▁Also	-9.80451
▁CD	-9.80451
sch	-9.80572
▁academic	-9.80646
.5	-9.80657
ju	-9.80777
bel	-9.80795
▁read	-9.80797
▁heavy	-9.80869
▁Scottish	-9.80883
▁dead	-9.8089
▁couple	-9.80925
▁press	-9.8097
lia	-9.81003
▁soldiers	-9.81026
▁—	-9.81133
▁association	-9.81172
▁conflict	-9.81172
▁Bal	-9.81179
▁Historic	-9.81276
▁friends	-9.81284
▁branch	-9.81338
▁fellow	-9.81395
▁Bishop	-9.81474
▁sign	-9.81506
ese	-9.81678
▁teaching	-9.81719
▁lives	-9.81779
ug	-9.81824
▁1965	-9.81866
▁appear	-9.81905
▁levels	-9.81934
▁produce	-9.82003
▁purchased	-9.82076
▁3,	-9.82104
▁Ol	-9.8212
cus	-9.8212
▁workers	-9.82124
▁Game	-9.82175
▁em	-9.82212
illa	-9.82257
▁highly	-9.82312
ens	-9.82401
▁Jr	-9.8242
▁murder	-9.82428
▁del	-9.82439
▁potential	-9.82462
▁1966	-9.82473
▁smaller	-9.82536
▁Scott	-9.82575
▁Je	-9.82638
▁females	-9.82641
▁dance	-9.8268
▁green	-9.827
kar	-9.82726
▁Ban	-9.82737
wing	-9.82745
▁environment	-9.82769
–20	-9.82822
ue	-9.82828
▁Illinois	-9.82843
▁ball	-9.82889
▁stories	-9.82922
▁growth	-9.82971
▁revealed	-9.82997
▁facilities	-9.83073
law	-9.83077
▁immediately	-9.83128
▁voice	-9.83317
▁pressure	-9.83318
av	-9.83363
▁footballer	-9.83374
ei	-9.83389
▁Boston	-9.83402
top	-9.8347
▁yet	-9.83487
east	-9.8349
ological	-9.8349
▁estimated	-9.83537
dan	-9.83608
▁split	-9.83617
▁Williams	-9.83624
▁cell	-9.83645
mor	-9.83654
New	-9.83655
▁Pen	-9.83669
▁basis	-9.83691
ole	-9.83784
▁Airport	-9.83788
▁lake	-9.83793
▁officers	-9.83875
▁focus	-9.8388
▁dedicated	-9.83921
▁bo	-9.83929
tel	-9.84006
▁im	-9.8401
▁distribution	-9.84126
▁Is	-9.84174
art	-9.84181
ments	-9.84223
▁Jersey	-9.8431
▁upper	-9.84353
▁street	-9.84396
24	-9.84424
▁historic	-9.84447
▁FC	-9.84475
▁dark	-9.84481
▁develop	-9.84516
rum	-9.84519
▁Born	-9.84554
▁Win	-9.84637
▁Val	-9.84643
bal	-9.84672
▁know	-9.84681
▁Ed	-9.84742
▁1991	-9.84773
▁activity	-9.8478
▁formation	-9.84822
▁largely	-9.84854
mat	-9.84866
▁sa	-9.84958
12	-9.85073
▁loan	-9.85079
▁Mal	-9.85195
▁forward	-9.85205
Al	-9.85252
▁median	-9.85298
▁captain	-9.85331
▁efforts	-9.85411
▁job	-9.85415
▁store	-9.85436
▁accepted	-9.85477
▁contact	-9.85482
▁Polish	-9.85499
▁commonly	-9.85549
▁featuring	-9.85561
▁percent	-9.85562
▁planned	-9.8573
▁article	-9.85767
▁Prime	-9.85774
▁forest	-9.85863
wan	-9.8591
▁lies	-9.85943
▁Sydney	-9.85955
▁territory	-9.85955
▁moving	-9.8596
▁Ten	-9.85964
bert	-9.85996
tes	-9.86112
▁1962	-9.86124
▁60	-9.86165
▁pop	-9.86174
▁security	-9.86175
▁Rome	-9.86252
▁Mr	-9.86328
▁reach	-9.86333
▁45	-9.86347
▁projects	-9.86392
▁Ali	-9.86466
17	-9.86514
▁Daniel	-9.86516
▁BBC	-9.86548
▁households	-9.86589
▁spring	-9.86605
▁respectively	-9.86713
▁avoid	-9.8675
eng	-9.86834
▁relations	-9.86934
▁2005,	-9.87012
▁needed	-9.87015
▁words	-9.87099
▁Three	-9.87136
▁settlement	-9.87156
▁champion	-9.87297
▁organized	-9.87298
▁Corps	-9.8733
iya	-9.87339
▁pe	-9.87395
21	-9.87418
pen	-9.87431
▁temple	-9.87468
▁giving	-9.87468
ates	-9.87491
22	-9.87529
▁risk	-9.87555
27	-9.87561
ants	-9.87593
▁founder	-9.87651
▁here	-9.87651
▁finish	-9.87656
▁titled	-9.87695
+	-9.87698
▁bill	-9.87713
hy	-9.87799
▁Sub	-9.87829
▁effects	-9.87831
but	-9.87936
▁Andrew	-9.87966
▁Victoria	-9.88036
▁hold	-9.88108
▁housing	-9.88112
▁Show	-9.88229
▁trial	-9.88253
▁Fo	-9.88316
ded	-9.88338
▁Each	-9.8842
oo	-9.88425
▁follows	-9.88515
▁destroyed	-9.88553
▁problem	-9.88554
▁suffered	-9.886
▁Cal	-9.88616
▁wood	-9.88668
▁campus	-9.88675
▁occurred	-9.88686
75	-9.88797
▁damage	-9.88882
▁perform	-9.88909
Ro	-9.8892
▁agreed	-9.88963
▁Corporation	-9.89004
▁1979	-9.89009
▁attention	-9.89075
▁Ministry	-9.89085
▁sexual	-9.8911
▁assigned	-9.89158
bit	-9.89171
▁generation	-9.89175
ene	-9.89196
▁inside	-9.89216
▁block	-9.89223
lock	-9.89268
▁stars	-9.89312
▁1972	-9.89312
▁governor	-9.89341
35	-9.89382
01	-9.89392
▁Qu	-9.89396
▁quality	-9.89437
bin	-9.89449
▁platform	-9.89478
▁Little	-9.89534
ef	-9.89554
▁adopted	-9.89608
▁Elizabeth	-9.89657
▁tower	-9.8976
rin	-9.89807
ped	-9.8982
▁Bell	-9.89878
▁1948	-9.89918
▁1974	-9.89952
▁More	-9.89967
long	-9.89972
▁pair	-9.90029
nie	-9.90042
vel	-9.90047
▁Olympic	-9.90063
▁Iran	-9.90071
ert	-9.90072
▁prevent	-9.90117
▁winner	-9.90132
▁physical	-9.90335
▁Stadium	-9.904
▁silver	-9.90413
dia	-9.90468
▁kind	-9.90474
▁miles	-9.906
▁Berlin	-9.90609
▁meet	-9.90616
▁1956	-9.9066
dar	-9.90739
▁widely	-9.90742
▁hosted	-9.90809
An	-9.90821
dal	-9.90861
nic	-9.90911
▁charge	-9.90919
▁Field	-9.90985
▁4,	-9.91093
▁serves	-9.9113
▁Earth	-9.91145
▁Sports	-9.91187
▁text	-9.91187
▁Christ	-9.91199
cer	-9.91203
▁Professor	-9.91228
▁therefore	-9.91228
▁Ac	-9.91249
▁birth	-9.91297
▁gained	-9.91306
▁search	-9.91317
▁recently	-9.91333
▁leadership	-9.91333
▁makes	-9.91387
▁awards	-9.91419
▁creation	-9.91422
water	-9.91425
▁equipment	-9.91562
▁typically	-9.9157
▁prison	-9.91604
▁surrounding	-9.9169
▁online	-9.91714
▁disease	-9.9178
tha	-9.91785
▁product	-9.91788
▁reason	-9.91833
work	-9.91893
▁2010.	-9.91897
win	-9.91977
▁fish	-9.92022
▁captured	-9.92039
▁flight	-9.9214
▁Library	-9.92148
gy	-9.92171
ister	-9.92202
din	-9.92223
▁types	-9.92224
▁identified	-9.92265
▁visit	-9.92283
use	-9.92303
▁seasons	-9.92319
▁1942	-9.92328
▁confirmed	-9.92343
▁reduced	-9.92394
▁presence	-9.92402
ero	-9.92414
▁Wil	-9.9243
▁Free	-9.92432
ada	-9.92436
lor	-9.92459
▁fell	-9.92511
▁sources	-9.9254
▁Before	-9.9257
▁leaders	-9.92579
▁Township	-9.9259
▁Duke	-9.92635
▁Part	-9.9273
▁Va	-9.92859
uch	-9.92868
▁Kong	-9.92878
ux	-9.92896
oon	-9.92903
▁audience	-9.92908
play	-9.92921
▁ho	-9.92962
▁deep	-9.9302
09	-9.9304
▁digital	-9.93075
▁probably	-9.93121
die	-9.9313
▁compared	-9.93169
▁Hong	-9.93177
▁operating	-9.93177
9%	-9.93191
▁wall	-9.9328
▁solo	-9.93312
tre	-9.93348
▁Joe	-9.93374
▁drive	-9.93433
▁remain	-9.93499
▁Out	-9.93517
▁origin	-9.93542
net	-9.93559
wo	-9.93573
▁1978	-9.93587
▁Hi	-9.93632
▁transport	-9.93636
▁guitar	-9.93699
ale	-9.93709
▁Em	-9.9373
▁ability	-9.93768
▁1963	-9.93771
án	-9.93793
oma	-9.93832
45	-9.93867
▁expected	-9.93922
▁compete	-9.93941
▁declared	-9.93972
ala	-9.93986
▁industrial	-9.94042
▁setting	-9.94108
▁Dis	-9.94116
▁combined	-9.94138
–2	-9.94142
izing	-9.94187
▁launch	-9.94199
▁mountain	-9.94247
▁races	-9.94266
▁phase	-9.94275
=	-9.94363
▁Inc	-9.9437
ore	-9.94372
▁secret	-9.9439
vent	-9.94426
▁Sho	-9.94434
▁blood	-9.94445
▁Tor	-9.94477
▁share	-9.94481
uck	-9.94505
del	-9.94577
duct	-9.94613
▁rise	-9.9465
with	-9.94678
▁Mer	-9.9473
▁1976	-9.94734
▁32	-9.94742
ston	-9.94764
▁van	-9.94764
▁Korea	-9.9481
▁reviews	-9.94849
▁1958	-9.94888
▁Sh	-9.94891
SA	-9.9492
ich	-9.94949
▁BC	-9.94977
▁commander	-9.94983
▁offers	-9.94998
▁35	-9.95016
28	-9.95019
▁urban	-9.95039
▁communities	-9.95048
▁contemporary	-9.95048
▁Sever	-9.9511
▁principal	-9.95222
▁owner	-9.95256
▁Ye	-9.95288
len	-9.95307
▁Supreme	-9.95308
▁2012.	-9.95357
▁figure	-9.95368
▁Cu	-9.95377
▁Justice	-9.95399
▁transfer	-9.95421
▁honor	-9.95457
ase	-9.95458
99	-9.95492
▁Pakistan	-9.95496
ew	-9.95508
qua	-9.95538
▁1973	-9.95546
▁2014.	-9.95598
ington	-9.95615
▁2013.	-9.95622
▁difficult	-9.9572
▁ice	-9.9573
▁stand	-9.95734
ida	-9.95782
▁Premier	-9.9582
▁Tra	-9.95845
▁votes	-9.95881
▁billion	-9.95883
▁interview	-9.95935
▁poet	-9.95984
▁effort	-9.95996
);	-9.96101
▁Band	-9.96101
▁Power	-9.96104
!"	-9.96106
▁Santa	-9.96182
▁...	-9.96227
▁Pra	-9.96244
▁Massachusetts	-9.96267
▁mixed	-9.9629
▁Four	-9.96318
▁resulted	-9.96318
▁Sta	-9.96367
▁McC	-9.96406
▁coming	-9.96411
▁squad	-9.9643
95	-9.96432
▁Special	-9.9645
▁leaves	-9.96497
▁protect	-9.96533
▁comes	-9.96548
Mar	-9.96627
ction	-9.9664
He	-9.96777
ks	-9.96784
▁2011.	-9.96819
right	-9.96838
▁receive	-9.96867
▁Regiment	-9.96882
▁para	-9.96901
▁Ash	-9.97066
rick	-9.97066
▁1946	-9.97073
▁critical	-9.97124
ade	-9.97128
▁Francis	-9.97133
▁1941	-9.97161
▁unique	-9.97169
▁weight	-9.97234
▁1961	-9.97249
▁Area	-9.97295
▁pilot	-9.97326
▁taught	-9.97415
▁numbers	-9.97416
ona	-9.97451
▁concert	-9.97451
26	-9.97528
▁Bel	-9.9757
▁scoring	-9.97591
▁1939	-9.97605
▁hall	-9.97612
ple	-9.97625
▁2015.	-9.97672
▁Castle	-9.97717
▁buried	-9.97768
▁Cre	-9.97777
▁Will	-9.97784
▁teacher	-9.97786
▁wing	-9.97805
▁expanded	-9.97829
▁bus	-9.97841
▁Ram	-9.97849
▁o	-9.97899
board	-9.97905
▁languages	-9.97921
▁Up	-9.97934
ency	-9.97987
▁Nu	-9.97993
▁Night	-9.98022
▁lot	-9.98024
ano	-9.98066
▁mentioned	-9.98079
▁Ken	-9.98086
14	-9.98109
▁1975	-9.98376
▁journalist	-9.98403
▁Geography	-9.98667
gent	-9.98674
▁condition	-9.98722
▁granted	-9.98799
var	-9.98813
kov	-9.98837
▁Time	-9.98846
▁fl	-9.98922
▁kept	-9.98931
▁exchange	-9.98931
▁defense	-9.98932
▁highway	-9.98948
▁pen	-9.98969
▁hotel	-9.98975
pper	-9.99006
▁headquarters	-9.99111
pre	-9.99138
▁offer	-9.99221
▁po	-9.99273
▁Police	-9.99309
▁Mus	-9.99325
▁yards	-9.99475
▁1959	-9.99485
▁Book	-9.99489
▁1987	-9.99515
▁literature	-9.99562
▁Among	-9.99592
▁Swedish	-9.99653
▁tells	-9.99657
ins	-9.99657
▁recognized	-9.99697
▁ranked	-9.99708
▁simple	-9.99744
07	-9.99757
cept	-9.99797
06	-9.99848
Mo	-9.9995
▁na	-9.99959
▁resulting	-10.0007
▁global	-10.0011
▁feet	-10.0012
▁Brazil	-10.0016
▁males	-10.002
AC	-10.0024
▁Korean	-10.0028
▁sales	-10.0029
▁knowledge	-10.0029
MA	-10.0031
▁ob	-10.0048
Billboard	-10.0048
▁promotion	-10.0052
▁Media	-10.0052
▁Carl	-10.006
▁festival	-10.006
ular	-10.0061
▁micro	-10.0062
▁Ser	-10.0066
tern	-10.0068
▁acting	-10.0071
cu	-10.0073
▁true	-10.0075
nu	-10.0076
▁Good	-10.0078
▁2017.	-10.0081
ox	-10.0086
▁1952	-10.0087
▁Maria	-10.0087
▁su	-10.0096
▁Tar	-10.0096
▁broke	-10.0099
ave	-10.01
▁nominated	-10.0102
are	-10.0103
▁Islands	-10.0104
▁$2	-10.0105
▁Albert	-10.0105
▁places	-10.0108
▁rules	-10.0115
▁mu	-10.0116
ches	-10.0118
med	-10.0121
▁showed	-10.0122
aries	-10.0122
▁plants	-10.0128
▁Background	-10.013
▁ba	-10.014
▁newly	-10.0141
▁Due	-10.0145
uri	-10.0149
▁greater	-10.0154
▁extra	-10.0155
▁traffic	-10.0157
▁analysis	-10.0157
▁injury	-10.0158
late	-10.0166
▁painting	-10.0167
▁Community	-10.0167
▁density	-10.0167
▁Trans	-10.0169
ato	-10.0176
▁Military	-10.0176
▁paid	-10.018
▁Camp	-10.0181
▁situated	-10.0185
ball	-10.0191
serv	-10.0198
="	-10.0199
▁Light	-10.02
▁Philadelphia	-10.0207
▁growing	-10.0208
▁episodes	-10.021
ans	-10.0212
▁twice	-10.0213
▁Stephen	-10.0213
rate	-10.0214
▁1957	-10.0214
▁parties	-10.0215
▁Jackson	-10.0216
▁architect	-10.0216
▁continues	-10.0221
och	-10.0232
▁foot	-10.0235
point	-10.024
▁twenty	-10.0241
which	-10.0242
▁succeeded	-10.0246
▁2004,	-10.0248
▁Social	-10.0251
▁1947	-10.0252
▁news	-10.0255
▁politics	-10.026
▁arrested	-10.0264
▁purpose	-10.0274
▁secondary	-10.0276
▁Nations	-10.0278
ban	-10.0278
▁fi	-10.028
▁cap	-10.0282
▁Point	-10.0284
85	-10.0285
▁Marine	-10.0287
▁tradition	-10.0292
star	-10.0299
▁Press	-10.0301
▁Boy	-10.0302
▁performances	-10.0302
ky	-10.0305
ua	-10.0307
▁situation	-10.0308
ect	-10.0314
AA	-10.0316
▁Network	-10.0316
oid	-10.0318
▁Death	-10.032
▁judge	-10.0325
▁Son	-10.0329
▁partner	-10.0337
ces	-10.0345
eo	-10.0352
ably	-10.0355
▁winter	-10.0367
▁inspired	-10.037
▁da	-10.0371
▁sex	-10.0376
▁clubs	-10.0376
▁5,	-10.0377
▁1986	-10.0381
ets	-10.0383
▁Au	-10.0384
▁comedy	-10.0384
▁engineer	-10.0391
ón	-10.0392
▁Mad	-10.0394
▁1964	-10.04
▁investigation	-10.0401
▁maintain	-10.0401
▁USA	-10.0403
Ba	-10.0404
▁Head	-10.0407
▁reference	-10.0408
▁Final	-10.041
▁supply	-10.041
▁Oxford	-10.041
▁Forest	-10.041
98	-10.0411
▁Bob	-10.0415
RA	-10.0418
▁Junior	-10.042
▁applied	-10.042
▁address	-10.0424
▁nation	-10.0428
▁survey	-10.0429
▁Khan	-10.0436
▁cars	-10.0437
▁fo	-10.0437
sia	-10.0442
▁Wilson	-10.0442
place	-10.0445
▁Emperor	-10.0448
▁2018.	-10.0455
▁connected	-10.0456
▁royal	-10.0458
▁Tre	-10.0458
ati	-10.046
It	-10.0462
cker	-10.0462
▁facility	-10.0467
▁reform	-10.0469
▁mm	-10.0477
▁felt	-10.0478
▁rail	-10.0478
▁peak	-10.0479
▁Sweden	-10.0486
▁claim	-10.0486
▁mayor	-10.0487
▁tree	-10.0489
▁alone	-10.0492
▁rank	-10.0492
not	-10.0497
▁sector	-10.0499
hl	-10.0503
▁Register	-10.0506
▁1955	-10.0507
▁designated	-10.0511
▁Mill	-10.0516
▁gene	-10.0518
▁Stone	-10.0521
▁r	-10.0521
▁climate	-10.0524
▁corner	-10.0527
▁Sar	-10.053
▁Family	-10.0533
gn	-10.0534
▁Toronto	-10.0534
▁actress	-10.0534
ack	-10.0535
▁leg	-10.0536
ration	-10.0537
▁chairman	-10.0538
29	-10.054
▁scientific	-10.0544
▁Vol	-10.0544
▁Human	-10.0548
▁(20	-10.0555
▁80	-10.0555
▁question	-10.0557
To	-10.0559
▁authorities	-10.0565
Be	-10.0569
▁Ham	-10.0571
▁library	-10.0572
▁providing	-10.0572
▁roles	-10.0581
▁Main	-10.0581
▁pa	-10.0582
▁Project	-10.0582
▁think	-10.0584
IS	-10.0588
▁System	-10.0592
▁marked	-10.0593
Me	-10.0593
fin	-10.0595
tis	-10.0595
hal	-10.0596
▁Fair	-10.0608
▁fully	-10.061
▁follow	-10.0613
▁allows	-10.0617
▁advance	-10.0618
▁Var	-10.0625
?	-10.0625
▁mill	-10.0626
-2	-10.0627
▁composer	-10.063
▁incident	-10.063
▁airport	-10.0633
▁trans	-10.0634
▁obtained	-10.0636
rich	-10.0638
▁gives	-10.0639
▁suggested	-10.0646
dent	-10.0649
▁Because	-10.065
▁figures	-10.0653
hor	-10.066
▁classes	-10.0662
tte	-10.0666
▁simply	-10.0669
▁stock	-10.0672
▁Mountain	-10.0674
▁gl	-10.0677
▁Cho	-10.0683
▁(1	-10.0684
▁edge	-10.0692
Po	-10.0695
▁Philip	-10.0696
▁Jim	-10.0699
▁image	-10.0702
▁Sri	-10.0704
▁losing	-10.0709
▁counter	-10.0711
▁theatre	-10.0712
Pa	-10.0712
▁subsequent	-10.0713
▁Davis	-10.0716
▁Netherlands	-10.0718
▁pick	-10.072
▁24,	-10.0723
▁surname	-10.0727
▁Guard	-10.0727
▁scale	-10.073
▁things	-10.073
86	-10.074
▁Sc	-10.0741
press	-10.0744
▁guard	-10.0747
▁organizations	-10.0752
▁Prize	-10.0758
▁2009.	-10.0759
pan	-10.0764
fo	-10.0765
▁Lady	-10.0766
▁portion	-10.0768
▁Master	-10.0769
We	-10.0769
century	-10.0772
▁Ze	-10.0779
▁foundation	-10.078
▁Char	-10.0791
▁claims	-10.0792
▁begin	-10.0797
▁graduate	-10.0803
▁actually	-10.0807
stra	-10.0807
▁mo	-10.0808
▁sense	-10.0808
▁protection	-10.0813
▁iron	-10.0813
▁Rose	-10.0814
05	-10.0816
▁500	-10.0817
eri	-10.0818
▁ring	-10.0819
lum	-10.0825
▁Business	-10.0826
rit	-10.0828
▁object	-10.083
▁Plot	-10.083
▁allowing	-10.0834
▁models	-10.0837
▁Cape	-10.0837
dale	-10.0837
▁(17	-10.0837
▁positions	-10.084
▁arch	-10.0841
▁software	-10.0846
▁look	-10.0846
zy	-10.0847
▁Design	-10.0853
known	-10.0858
▁trains	-10.0863
▁says	-10.0866
▁von	-10.0866
▁Prior	-10.0867
ough	-10.0877
CC	-10.0883
▁publication	-10.0884
ns	-10.0887
▁respect	-10.089
▁2016.	-10.089
▁returning	-10.0893
▁cancer	-10.0893
▁Song	-10.0894
▁Technology	-10.0895
▁signal	-10.0896
▁oldest	-10.0901
▁Fire	-10.0902
▁6,	-10.0907
aya	-10.0911
▁Region	-10.0913
▁religion	-10.0915
▁2019.	-10.0924
▁Taylor	-10.0925
▁1949	-10.0927
▁Del	-10.0932
Ch	-10.094
ians	-10.0944
▁Captain	-10.0946
▁progress	-10.0953
▁singles	-10.0954
▁want	-10.0957
▁2000,	-10.0958
▁Ak	-10.0961
▁tried	-10.0961
▁Mike	-10.0962
▁household	-10.0965
▁1954	-10.0967
_1	-10.0967
nan	-10.0974
▁colour	-10.0976
▁achieved	-10.0978
▁programme	-10.0982
col	-10.0982
-20	-10.0985
▁except	-10.0989
▁ha	-10.0991
▁cannot	-10.0992
▁1985	-10.1
sur	-10.1001
▁shape	-10.1004
▁straight	-10.1005
▁1951	-10.1007
▁sixth	-10.1014
▁critics	-10.1015
▁1953	-10.1017
▁Ocean	-10.1026
▁bought	-10.1026
▁Mont	-10.1028
▁1918	-10.1028
tru	-10.104
▁Fre	-10.1053
▁Hot	-10.1054
▁expansion	-10.1056
▁33	-10.1056
▁Mexican	-10.1066
ash	-10.1068
arm	-10.1071
▁begins	-10.1071
▁becomes	-10.1076
▁aid	-10.1079
▁Like	-10.1081
▁basic	-10.1084
▁|	-10.1088
▁metres	-10.1089
▁horse	-10.1089
38	-10.1091
▁Yo	-10.1092
▁refused	-10.1094
▁7,	-10.1095
500	-10.1096
▁height	-10.1097
▁younger	-10.1099
▁joint	-10.1105
–18	-10.1105
Con	-10.1111
▁Beach	-10.1112
▁opera	-10.1113
▁existing	-10.1116
▁roof	-10.1118
til	-10.1118
bre	-10.1123
▁attacks	-10.1125
▁aired	-10.1126
pin	-10.1132
▁Atlantic	-10.1133
▁settled	-10.1135
matic	-10.1137
▁mile	-10.1148
▁holding	-10.1152
▁alternative	-10.1157
▁journal	-10.1161
▁attempted	-10.1161
▁authority	-10.1166
cr	-10.1167
▁materials	-10.117
ators	-10.1186
ean	-10.1187
▁Ci	-10.1187
▁2008.	-10.1187
▁bishop	-10.1188
▁neighborhood	-10.1188
eb	-10.1188
▁titles	-10.119
ama	-10.1191
▁broad	-10.1201
97	-10.1203
ologist	-10.1207
▁officials	-10.1208
▁represent	-10.1212
TA	-10.1216
oy	-10.1219
.5%	-10.122
run	-10.1223
▁appeal	-10.1229
▁Dun	-10.123
▁seats	-10.1231
▁2007.	-10.124
▁something	-10.124
▁peace	-10.1246
▁frequently	-10.1247
▁Ontario	-10.125
▁safety	-10.1251
88	-10.1254
▁sites	-10.1255
▁ta	-10.1259
▁Arthur	-10.1261
▁Ly	-10.1263
▁flow	-10.1264
▁spin	-10.1266
▁Fox	-10.1267
▁fuel	-10.1267
65	-10.1268
kan	-10.1269
▁Ag	-10.1276
▁Between	-10.1281
▁advanced	-10.1283
tta	-10.1286
pri	-10.1296
Ha	-10.1296
▁script	-10.1296
▁completely	-10.1298
▁choice	-10.1301
▁End	-10.1304
▁zone	-10.1305
▁18,	-10.1315
▁sequence	-10.1317
▁request	-10.1323
▁Angel	-10.1324
rt	-10.1329
▁priest	-10.1333
▁lu	-10.1335
▁rear	-10.1344
gate	-10.1345
▁fighting	-10.1345
▁Chris	-10.1345
▁versions	-10.1346
▁ski	-10.1346
▁stay	-10.1349
▁gra	-10.135
▁castle	-10.135
▁Wall	-10.135
▁walk	-10.1351
▁chosen	-10.1353
▁path	-10.1355
▁fine	-10.1362
zer	-10.1364
–3	-10.137
▁visited	-10.1374
ography	-10.1376
▁box	-10.1377
ern	-10.1379
▁promote	-10.1384
▁chance	-10.1387
bus	-10.1392
▁focused	-10.1399
▁copies	-10.1405
▁domestic	-10.1405
▁retirement	-10.1406
▁Earl	-10.1409
jan	-10.141
▁receiving	-10.1416
▁speech	-10.1416
yer	-10.1418
▁enter	-10.1419
▁News	-10.142
▁cells	-10.1421
wer	-10.1424
▁unable	-10.1428
36	-10.143
cia	-10.1433
▁stream	-10.144
▁equal	-10.144
▁Lewis	-10.1447
▁adult	-10.1452
ax	-10.1456
▁big	-10.1458
▁ro	-10.1459
▁Arm	-10.1459
rat	-10.1461
▁Miss	-10.1463
33	-10.1464
▁step	-10.1465
cent	-10.1479
▁baseball	-10.148
see	-10.148
▁Building	-10.1489
▁1936	-10.1491
▁defined	-10.1491
▁storm	-10.1494
▁acid	-10.1495
▁Os	-10.1498
▁normal	-10.1504
▁Program	-10.1506
bra	-10.1507
▁reaction	-10.1508
▁creating	-10.1511
most	-10.1513
aki	-10.1514
▁Nor	-10.1517
▁commissioned	-10.1521
▁Sur	-10.1523
mu	-10.1524
spect	-10.1527
▁Mil	-10.1529
▁Fer	-10.153
▁learn	-10.1536
▁target	-10.1536
▁extensive	-10.1538
lla	-10.1539
▁plot	-10.1544
▁price	-10.155
ika	-10.1556
ros	-10.1559
48	-10.1561
▁Member	-10.1563
BA	-10.1563
▁Reception	-10.1564
▁Tim	-10.1569
▁kill	-10.1572
▁agent	-10.1574
stan	-10.158
also	-10.1581
▁flag	-10.1582
▁See	-10.1585
▁us	-10.1586
▁application	-10.1592
▁Minnesota	-10.1596
▁regiment	-10.1596
Bo	-10.1597
▁etc	-10.1606
▁Br	-10.1615
uc	-10.1616
▁8,	-10.1618
▁background	-10.1628
mont	-10.1628
▁Sunday	-10.1628
▁grade	-10.163
▁trip	-10.1636
47	-10.1637
▁guest	-10.1637
▁36	-10.1642
79	-10.1642
aga	-10.1643
west	-10.1651
▁ban	-10.1651
▁animals	-10.1652
▁Im	-10.1652
▁ultimately	-10.1652
76	-10.1655
▁count	-10.1659
▁economy	-10.166
▁opposition	-10.166
▁morning	-10.166
mas	-10.166
bro	-10.1663
▁relatively	-10.1663
89	-10.1667
▁lo	-10.1668
mic	-10.1674
▁goes	-10.168
tom	-10.168
▁Journal	-10.1684
ition	-10.1692
▁Ven	-10.1693
▁Cro	-10.1694
dis	-10.1697
▁performing	-10.1698
▁£	-10.1699
mina	-10.17
▁constituency	-10.1703
▁Matt	-10.1707
▁brothers	-10.1707
▁regions	-10.1716
▁Dor	-10.1716
TC	-10.1721
▁necessary	-10.1724
55	-10.173
ien	-10.1731
▁shared	-10.1731
▁Not	-10.1733
lly	-10.1734
dom	-10.1734
▁vice	-10.1735
▁methods	-10.1741
ami	-10.1742
▁machine	-10.1744
▁architecture	-10.1747
▁90	-10.1753
▁converted	-10.1755
▁entrance	-10.1757
▁prize	-10.1758
▁opposed	-10.1761
▁Tan	-10.1762
down	-10.1763
cat	-10.1773
rid	-10.1774
hn	-10.1777
▁photo	-10.1777
▁meant	-10.1779
▁Medical	-10.1779
▁sum	-10.1784
▁resources	-10.1788
Ra	-10.179
▁escape	-10.179
▁beat	-10.179
▁formerly	-10.1791
▁steam	-10.1791
▁display	-10.1794
tle	-10.1798
▁Kan	-10.18
▁entitled	-10.1801
▁Bowl	-10.1806
▁Cy	-10.1809
▁Upon	-10.181
▁derived	-10.1811
bor	-10.1812
▁Live	-10.1816
▁Ball	-10.1817
▁technical	-10.1822
▁arms	-10.1823
▁11,	-10.1825
▁fans	-10.1826
▁presidential	-10.1827
▁consecutive	-10.1833
▁abandoned	-10.1833
▁failure	-10.1833
▁wave	-10.1836
tus	-10.1837
▁attacked	-10.1838
84	-10.185
▁Winter	-10.1852
▁Simon	-10.1854
▁12,	-10.1855
ral	-10.1855
▁fought	-10.1855
▁44	-10.1856
▁unknown	-10.1858
▁establishment	-10.186
▁representing	-10.1861
▁Operation	-10.1871
94	-10.1874
▁am	-10.1876
▁Federation	-10.1877
31	-10.1878
▁holds	-10.1886
▁occupied	-10.1888
▁founding	-10.1889
sey	-10.1891
▁Today	-10.1894
▁Gor	-10.1895
▁Arab	-10.1898
▁bronze	-10.1899
▁citizens	-10.1903
▁screen	-10.1906
▁contributed	-10.1909
▁l	-10.1911
chan	-10.1921
▁#	-10.1921
93	-10.1926
▁consisted	-10.1926
get	-10.1927
Co	-10.193
worth	-10.1932
▁effective	-10.1933
▁approved	-10.1934
▁comic	-10.1934
bury	-10.1935
37	-10.1939
ava	-10.1944
▁Country	-10.1946
";	-10.1948
▁memory	-10.1954
chen	-10.1954
▁Vietnam	-10.1958
▁row	-10.1958
▁believe	-10.1964
ming	-10.1964
▁maximum	-10.1966
64	-10.197
▁reports	-10.197
reg	-10.1972
stein	-10.1972
▁dropped	-10.1976
▁powerful	-10.1977
▁‘	-10.1977
▁starring	-10.1978
▁Medal	-10.198
▁habitat	-10.198
34	-10.1983
▁Memorial	-10.1987
▁honour	-10.1987
▁scheduled	-10.1989
▁1938	-10.1989
▁Rad	-10.1992
ira	-10.1993
▁attend	-10.1994
96	-10.1996
▁Ray	-10.1997
▁Melbourne	-10.1998
è	-10.2009
▁villages	-10.201
ela	-10.2016
ila	-10.2017
key	-10.2019
part	-10.2028
▁drug	-10.2034
▁symbol	-10.2036
▁Command	-10.2037
74	-10.2038
▁lyrics	-10.2043
ben	-10.2055
▁Cam	-10.2058
▁girls	-10.2059
ugh	-10.2063
▁covers	-10.2063
▁concern	-10.2064
▁funding	-10.2069
room	-10.207
▁purchase	-10.2077
isation	-10.2082
▁Native	-10.2088
▁(2	-10.2089
aka	-10.209
▁daily	-10.2099
▁Gen	-10.2102
▁Walter	-10.2102
▁reign	-10.2115
▁articles	-10.2115
▁Mas	-10.2116
teen	-10.2117
▁par	-10.2121
▁wind	-10.2125
04	-10.2126
▁cha	-10.2127
▁increasing	-10.2128
▁draft	-10.2132
mus	-10.2133
ı	-10.2144
▁slightly	-10.2147
▁Mat	-10.2148
▁References	-10.215
▁sell	-10.2152
▁feel	-10.2152
▁Queensland	-10.2155
▁1914	-10.2157
▁attempts	-10.2158
▁contrast	-10.2158
▁invited	-10.2159
▁Temple	-10.2162
5,000	-10.2168
▁exist	-10.2168
CA	-10.2172
▁Even	-10.2172
▁Anti	-10.2175
rus	-10.2176
▁sal	-10.2179
hill	-10.2179
▁Jews	-10.218
▁Pal	-10.2181
onic	-10.2183
▁rich	-10.2188
▁identity	-10.2189
▁poll	-10.2191
▁Hav	-10.2192
▁64	-10.2194
mes	-10.2195
66	-10.2197
▁Description	-10.22
▁recognition	-10.22
▁Turkey	-10.2201
▁internal	-10.2204
▁aged	-10.2206
▁employed	-10.2206
▁your	-10.2207
▁NCAA	-10.2212
▁combination	-10.2213
39	-10.2217
mit	-10.2218
▁EP	-10.2219
▁Channel	-10.2223
▁1937	-10.2225
▁actions	-10.2228
▁repair	-10.2234
▁mi	-10.2234
▁residence	-10.2234
▁standing	-10.2237
▁write	-10.224
▁permanent	-10.2242
▁2003,	-10.2242
▁Mur	-10.2244
cell	-10.2245
plo	-10.2246
▁bio	-10.225
81	-10.2251
str	-10.2252
nia	-10.2252
▁Sand	-10.2252
▁accident	-10.2256
▁Wisconsin	-10.2257
▁combat	-10.2257
▁reduce	-10.2258
▁Though	-10.2266
92	-10.2268
▁centuries	-10.2268
heim	-10.2269
▁y	-10.2272
▁boat	-10.2275
rk	-10.2277
election	-10.2277
▁slow	-10.2281
▁1919	-10.2284
68	-10.2286
▁commission	-10.2286
▁Kim	-10.2287
▁relative	-10.2288
▁improve	-10.2289
▁qualified	-10.2291
▁70	-10.2292
▁electronic	-10.2293
▁1933	-10.2293
ali	-10.2293
IA	-10.2302
▁reception	-10.2314
▁Brigade	-10.2314
▁Steve	-10.2316
▁ve	-10.2323
▁gain	-10.2325
▁frame	-10.2325
▁extension	-10.2326
▁Sin	-10.2327
56	-10.2328
▁ending	-10.233
▁Alex	-10.233
gram	-10.2333
▁accept	-10.2334
▁exhibition	-10.2336
▁piece	-10.2337
▁shortly	-10.2341
Ar	-10.2343
ú	-10.2349
▁behavior	-10.2349
▁girl	-10.2351
▁cricket	-10.2352
▁disc	-10.2354
▁Holy	-10.2354
83	-10.2354
rist	-10.2355
▁strike	-10.2355
▁negative	-10.2355
▁fleet	-10.2359
▁hockey	-10.236
ste	-10.2361
lle	-10.2361
▁glass	-10.2364
▁selection	-10.2367
78	-10.2371
Na	-10.2372
▁Brook	-10.2373
▁Ste	-10.2377
▁successfully	-10.2377
▁fear	-10.2378
▁incorporated	-10.2379
gra	-10.2382
▁Run	-10.2385
OS	-10.2393
▁Professional	-10.2395
▁beyond	-10.2395
▁Indiana	-10.2395
▁Philippines	-10.2395
▁Dam	-10.2397
▁1917	-10.2397
▁structures	-10.2399
▁entry	-10.2407
▁documentary	-10.2408
▁arts	-10.2409
▁sha	-10.2409
▁districts	-10.2414
▁Production	-10.2416
▁Kansas	-10.2418
▁Cambridge	-10.2418
▁1929	-10.242
.6%	-10.2422
sp	-10.2422
▁chain	-10.2432
iff	-10.2439
▁regarding	-10.244
▁yellow	-10.2441
▁hands	-10.2441
▁faced	-10.2442
▁occur	-10.2449
▁worldwide	-10.2454
▁cu	-10.2455
No	-10.2457
▁Es	-10.2459
For	-10.246
▁sides	-10.2462
ori	-10.2463
▁demand	-10.2463
ima	-10.2464
▁investment	-10.2464
▁9,	-10.2468
▁Liberal	-10.247
▁10,	-10.2475
▁Norwegian	-10.2476
band	-10.2476
oli	-10.2476
▁1935	-10.2478
▁planning	-10.2479
▁contained	-10.2482
▁print	-10.2485
▁engineering	-10.2486
▁Cur	-10.2488
▁environmental	-10.2492
umb	-10.2492
▁Class	-10.2494
▁participate	-10.2501
▁Norway	-10.2501
▁spot	-10.2504
▁vehicles	-10.2509
▁reading	-10.251
▁contest	-10.2512
▁connection	-10.2514
▁establish	-10.2515
▁let	-10.2516
46	-10.2521
▁visual	-10.2523
▁institutions	-10.2524
▁Ger	-10.2525
▁Maryland	-10.2531
mond	-10.2534
▁say	-10.2536
▁Sciences	-10.2538
▁guns	-10.2539
▁learning	-10.2539
03	-10.2539
▁volume	-10.2545
▁Ross	-10.2556
▁vehicle	-10.2559
▁lawyer	-10.256
▁bomb	-10.2561
▁sons	-10.2565
▁serious	-10.2566
▁properties	-10.257
▁crime	-10.2572
gin	-10.258
▁Missouri	-10.2581
▁message	-10.2581
gal	-10.2582
▁Cat	-10.2585
▁toward	-10.2588
▁expressed	-10.259
cap	-10.259
▁Ren	-10.2592
▁racing	-10.2593
49	-10.2594
▁Vice	-10.2598
|	-10.26
▁advantage	-10.2605
▁1943	-10.2606
lands	-10.2606
▁Bon	-10.2607
▁Management	-10.2617
▁Christmas	-10.2617
wn	-10.263
▁Pri	-10.2631
▁Golden	-10.2639
zz	-10.264
▁heavily	-10.264
▁Cer	-10.2643
▁albums	-10.2648
ison	-10.2652
▁ethnic	-10.2652
ora	-10.2655
2.	-10.2657
EC	-10.2658
▁partnership	-10.2666
▁collaboration	-10.2666
pu	-10.2668
▁Bla	-10.2671
▁matter	-10.2671
▁card	-10.2672
▁containing	-10.2673
▁notes	-10.2675
ão	-10.2678
▁1928	-10.2678
▁debate	-10.2679
▁Six	-10.2683
mmer	-10.2684
▁trees	-10.2686
▁literary	-10.2688
▁Studies	-10.2688
▁Senior	-10.2688
41	-10.2692
▁funds	-10.2696
▁Television	-10.27
▁MP	-10.2702
vert	-10.2704
91	-10.2709
ify	-10.2709
▁Clark	-10.271
▁interior	-10.2712
▁enemy	-10.2724
▁Anna	-10.2724
▁Cap	-10.2725
▁Pol	-10.2728
▁Representatives	-10.2728
▁1910	-10.2728
log	-10.273
▁Jay	-10.2731
▁panel	-10.2732
▁Colorado	-10.2736
lie	-10.2742
69	-10.2748
▁criminal	-10.2752
▁killing	-10.2764
▁mind	-10.2765
eva	-10.2776
▁1900	-10.2776
▁Ana	-10.2777
▁Regional	-10.2779
wick	-10.2785
▁Tr	-10.2786
▁determined	-10.279
Star	-10.2791
▁Tournament	-10.2795
▁Bureau	-10.2796
▁Den	-10.2796
phi	-10.2798
▁reasons	-10.2801
▁institution	-10.2806
▁Census	-10.2807
▁educated	-10.281
ull	-10.2812
▁herself	-10.2813
▁Bri	-10.2814
▁temperature	-10.2817
arch	-10.2818
▁Moscow	-10.2819
▁category	-10.282
▁2020.	-10.2821
mis	-10.2826
Ca	-10.2829
▁onto	-10.283
cor	-10.283
44	-10.2833
▁existence	-10.2833
43	-10.2834
▁et	-10.2836
▁Notable	-10.2837
▁link	-10.2839
▁developing	-10.284
▁painter	-10.2841
▁Mid	-10.2841
▁motor	-10.2842
▁1934	-10.2846
▁reflect	-10.2846
▁merged	-10.2848
▁laws	-10.2848
ł	-10.2849
$	-10.2852
▁Reg	-10.2858
▁favor	-10.2863
▁Ford	-10.2865
▁sought	-10.2869
▁About	-10.287
▁Lincoln	-10.288
▁ch	-10.2882
Sa	-10.2886
▁dog	-10.2887
▁moment	-10.2888
▁rare	-10.289
▁influenced	-10.2892
▁Singapore	-10.2892
.4%	-10.2895
32	-10.29
▁2002,	-10.2901
RC	-10.2904
▁Infantry	-10.2904
phy	-10.2904
ector	-10.2905
NA	-10.2908
▁fields	-10.2915
▁heat	-10.2916
▁fruit	-10.2916
view	-10.2917
▁Labour	-10.2917
▁theater	-10.2918
▁finishing	-10.2923
cut	-10.2924
tail	-10.2926
▁valley	-10.2929
.8%	-10.2932
▁Manchester	-10.2941
▁ceremony	-10.2941
▁critic	-10.2941
hood	-10.2942
▁fan	-10.2942
▁patients	-10.2948
ado	-10.2949
▁Greece	-10.2965
term	-10.2965
▁save	-10.2971
▁stadium	-10.2977
▁Ter	-10.2978
▁doing	-10.2983
sco	-10.2987
▁Revolution	-10.2988
▁15,	-10.2989
▁Tennessee	-10.299
▁NFL	-10.2994
▁maintained	-10.2997
▁safe	-10.3001
▁flat	-10.3003
▁supporting	-10.3009
▁towns	-10.3012
int	-10.3013
▁translation	-10.3015
▁Nazi	-10.3017
67	-10.3018
▁stating	-10.3018
▁reserve	-10.302
▁app	-10.302
▁fun	-10.3027
▁Senator	-10.303
63	-10.3032
▁decades	-10.3032
▁va	-10.3034
dle	-10.3037
▁Adam	-10.3038
season	-10.3038
▁proposal	-10.3039
▁Kra	-10.304
▁Frederick	-10.304
▁1921	-10.3042
PA	-10.3043
▁Wal	-10.3044
▁Pope	-10.3053
77	-10.3056
▁candidates	-10.3058
▁Turkish	-10.3058
▁sale	-10.3059
▁voted	-10.306
▁rival	-10.306
▁der	-10.307
▁Mag	-10.3071
eu	-10.3074
▁junior	-10.3076
iti	-10.3076
▁functions	-10.3076
▁Wei	-10.3077
▁34	-10.3082
lli	-10.3087
mark	-10.3092
rr	-10.3099
▁Kat	-10.3103
57	-10.3112
▁23,	-10.3112
IC	-10.3113
▁passing	-10.3113
▁Tro	-10.3114
book	-10.3114
▁Fri	-10.3117
SC	-10.3121
▁Hay	-10.3123
▁Count	-10.3124
▁Portuguese	-10.3126
▁quite	-10.3134
▁Foreign	-10.3138
▁gr	-10.314
▁brown	-10.314
▁Ottoman	-10.314
▁educational	-10.3142
ome	-10.3144
▁jump	-10.3151
▁hair	-10.3155
▁Services	-10.3158
▁engaged	-10.3161
58	-10.3161
▁Ur	-10.3162
▁accused	-10.3163
vid	-10.3166
▁tend	-10.317
▁Burn	-10.3171
gh	-10.3175
▁25,	-10.3176
▁hu	-10.3177
▁28,	-10.3177
▁1925	-10.3179
▁strength	-10.318
▁Tur	-10.3181
▁14,	-10.3181
▁argued	-10.3183
ties	-10.3184
▁formal	-10.3195
▁2006.	-10.3196
▁importance	-10.3201
▁independence	-10.3203
bul	-10.3204
61	-10.3208
▁needs	-10.3209
▁occupation	-10.3213
▁walls	-10.3214
rian	-10.3219
unk	-10.3221
▁Plan	-10.3224
▁Gro	-10.3225
▁1932	-10.3227
ova	-10.323
▁26,	-10.323
▁speak	-10.3231
nor	-10.3237
▁fa	-10.3242
▁Miller	-10.3244
▁UN	-10.3244
▁Engineering	-10.3246
▁Sol	-10.3249
▁Kh	-10.3251
.3%	-10.3251
eth	-10.3251
▁Fame	-10.3253
▁task	-10.3256
ost	-10.3257
.1%	-10.3265
▁letters	-10.3265
▁Les	-10.3265
ico	-10.3266
▁2001,	-10.3266
▁Real	-10.3267
▁Sk	-10.327
▁pieces	-10.327
▁express	-10.3273
.7%	-10.3275
▁Hal	-10.3276
Ne	-10.3279
▁(;	-10.3282
▁protest	-10.3282
▁poly	-10.3283
mir	-10.3287
▁inhabitants	-10.3288
▁mode	-10.329
▁try	-10.3291
▁narrow	-10.3299
▁closely	-10.33
▁Bor	-10.33
▁resigned	-10.3302
▁1927	-10.3304
▁Stra	-10.3313
▁Track	-10.3313
▁reaching	-10.3321
▁representative	-10.3326
▁Harry	-10.3327
Ta	-10.3328
▁13,	-10.3329
▁limit	-10.333
▁Op	-10.3336
▁steel	-10.3339
etic	-10.334
▁29,	-10.3342
▁views	-10.3343
▁Down	-10.3343
▁poetry	-10.3344
87	-10.3345
BS	-10.3346
▁Thus	-10.335
▁trying	-10.3351
▁fashion	-10.3352
▁personnel	-10.3352
▁Comp	-10.3353
▁Week	-10.3353
▁ensure	-10.3354
▁Nick	-10.3355
08	-10.3359
lay	-10.336
▁Lar	-10.3364
▁Kal	-10.3365
▁sets	-10.3367
▁Israeli	-10.3376
▁Security	-10.3377
▁description	-10.3377
ele	-10.3379
leg	-10.3379
▁Places	-10.3379
thi	-10.3383
▁correct	-10.3387
▁Oregon	-10.339
▁Square	-10.339
ili	-10.3391
▁concluded	-10.3397
▁Kam	-10.3401
ically	-10.3401
▁monument	-10.3403
▁context	-10.3403
zar	-10.3407
▁capture	-10.3408
▁registered	-10.3408
▁Officer	-10.3408
▁Chart	-10.3409
▁19,	-10.3409
▁fast	-10.3415
▁Administration	-10.3416
ars	-10.3417
cro	-10.342
bur	-10.3421
▁producing	-10.3423
▁Nan	-10.3426
59	-10.3427
▁nuclear	-10.3428
▁causing	-10.3428
▁comp	-10.3429
oni	-10.3433
pping	-10.3433
▁Test	-10.344
▁rugby	-10.3441
who	-10.3442
▁proved	-10.3442
▁occurs	-10.3443
.2%	-10.3446
▁phone	-10.3446
▁joining	-10.3448
51	-10.3451
▁Bus	-10.3452
▁Seven	-10.3457
▁chemical	-10.3458
lk	-10.3458
▁core	-10.3464
▁sun	-10.3465
▁Anne	-10.3468
rim	-10.3475
▁passes	-10.3475
▁suggest	-10.3475
▁transition	-10.348
▁resistance	-10.348
▁camera	-10.348
cin	-10.3488
las	-10.3488
▁Muslim	-10.349
▁budget	-10.3493
▁Jacob	-10.3493
▁Samuel	-10.3493
▁1922	-10.3496
▁22,	-10.3499
nik	-10.3505
▁marine	-10.351
cip	-10.3513
ille	-10.3514
▁carry	-10.3514
▁Hy	-10.3518
▁Affairs	-10.3518
▁Arizona	-10.3518
-3	-10.3523
olo	-10.3525
iva	-10.3536
▁hope	-10.3539
▁Political	-10.3544
▁400	-10.3547
▁Mayor	-10.3548
▁dry	-10.3548
▁affected	-10.3549
▁Brian	-10.3551
▁consisting	-10.3552
▁locations	-10.3557
▁commune	-10.3557
▁twelve	-10.3557
▁37	-10.3557
▁cycle	-10.3561
▁strip	-10.3562
▁ju	-10.3563
▁30,	-10.357
▁Modern	-10.3571
avi	-10.3571
▁pattern	-10.3576
▁historian	-10.3576
▁1945	-10.3577
she	-10.3582
▁entirely	-10.3582
▁protein	-10.3586
▁classical	-10.3588
▁observed	-10.3589
▁Howard	-10.3589
▁don	-10.3592
BC	-10.3593
▁hired	-10.3602
▁birds	-10.3602
▁Mah	-10.3612
Man	-10.3612
▁specifically	-10.3612
rap	-10.3613
▁eye	-10.3615
▁trained	-10.3616
▁Opera	-10.3619
AR	-10.362
▁Squadron	-10.3623
▁genre	-10.3623
US	-10.3626
▁Forces	-10.3627
▁Cla	-10.363
ute	-10.3634
▁Executive	-10.3635
▁Hotel	-10.3645
▁2005.	-10.365
▁acts	-10.3654
even	-10.3655
▁moth	-10.3656
▁(3	-10.3656
▁Independent	-10.3657
aj	-10.3658
hard	-10.366
▁Juan	-10.3663
▁1912	-10.3665
▁sport	-10.3668
▁Youth	-10.367
▁Sel	-10.3675
elle	-10.3675
abad	-10.3678
▁Trust	-10.368
▁praised	-10.3686
▁Review	-10.3691
▁heard	-10.3691
▁consider	-10.3692
bon	-10.3693
▁Egypt	-10.3696
▁violence	-10.3701
▁Swiss	-10.3701
AM	-10.3703
▁kick	-10.3704
▁21,	-10.3709
LA	-10.371
62	-10.3713
▁theme	-10.3713
▁38	-10.3716
▁1931	-10.3717
DA	-10.3717
▁Mass	-10.3718
lis	-10.3719
▁Lang	-10.3721
▁suit	-10.3721
▁passenger	-10.3724
▁animal	-10.3724
▁mean	-10.3728
▁chose	-10.3728
▁squadron	-10.3729
▁soil	-10.373
▁operate	-10.3734
▁laid	-10.3738
▁talk	-10.3743
▁someone	-10.3743
▁1923	-10.3744
ique	-10.375
uz	-10.375
▁scheme	-10.3754
▁northeast	-10.3757
42	-10.3763
▁Austria	-10.3766
▁drawing	-10.3767
▁shell	-10.3768
▁contain	-10.3769
une	-10.3772
▁com	-10.3772
▁str	-10.3777
cra	-10.3783
▁Des	-10.3786
▁municipal	-10.3789
▁determine	-10.3793
▁invasion	-10.3794
ret	-10.3797
▁challenge	-10.3798
ons	-10.3803
▁finds	-10.3806
▁composition	-10.3807
▁opportunity	-10.3807
č	-10.3808
zu	-10.3816
▁Play	-10.3819
cht	-10.382
▁weather	-10.3822
rom	-10.3825
–0	-10.3829
▁cat	-10.3831
▁briefly	-10.3835
▁driver	-10.3836
▁grant	-10.3837
cies	-10.3844
▁sand	-10.3846
rac	-10.3852
▁Heart	-10.3853
gel	-10.3855
▁Hamilton	-10.386
hen	-10.3861
▁1924	-10.3864
▁weapons	-10.3864
▁employees	-10.3864
▁greatest	-10.3866
oph	-10.3868
sie	-10.387
▁mine	-10.3873
▁DVD	-10.3874
▁Metro	-10.3874
tive	-10.3876
▁1926	-10.3877
▁arrest	-10.388
▁opinion	-10.3887
▁bodies	-10.3887
▁Once	-10.3888
▁Grant	-10.389
▁IV	-10.3891
aba	-10.3898
▁27,	-10.39
▁Hor	-10.39
▁agricultural	-10.3901
ult	-10.3902
▁Gil	-10.3902
Do	-10.3904
▁Key	-10.391
72	-10.3911
▁chapter	-10.3914
▁electric	-10.3917
▁shoot	-10.3918
yr	-10.3918
position	-10.3918
udi	-10.3921
pha	-10.3924
▁bit	-10.3924
54	-10.3926
▁Ann	-10.3934
▁door	-10.3935
▁replace	-10.3939
▁adjacent	-10.3941
▁armed	-10.3944
▁20,	-10.3949
▁tri	-10.3949
Li	-10.3952
▁mention	-10.3956
▁syn	-10.3956
▁secretary	-10.3958
▁installed	-10.3962
▁FM	-10.3963
▁township	-10.3965
▁instance	-10.3969
71	-10.3969
gun	-10.397
▁brick	-10.397
▁Bad	-10.3973
▁exception	-10.3973
▁possibly	-10.3974
app	-10.3974
including	-10.3976
▁tail	-10.3978
ae	-10.3979
▁Hockey	-10.3982
▁Douglas	-10.3982
▁Miami	-10.3983
5%	-10.3984
▁Rural	-10.3986
▁raid	-10.3989
Lo	-10.3993
▁trail	-10.3994
▁Prix	-10.3998
▁1916	-10.3999
vy	-10.4001
▁fe	-10.4003
▁brief	-10.4007
ender	-10.4009
tric	-10.4011
ST	-10.4013
▁factory	-10.4013
▁franchise	-10.4014
▁collected	-10.4014
pol	-10.4014
▁fiction	-10.4016
range	-10.4018
▁48	-10.402
▁programming	-10.4024
1,	-10.4035
▁premiered	-10.4035
only	-10.4036
▁controlled	-10.4045
Un	-10.4046
▁Iowa	-10.405
▁ways	-10.4051
▁applications	-10.4053
itch	-10.4058
ić	-10.4059
▁regarded	-10.406
▁credit	-10.4062
▁Alabama	-10.4063
▁calling	-10.4063
later	-10.4065
pot	-10.4066
▁offices	-10.4067
▁refers	-10.407
ska	-10.4071
▁expression	-10.4073
▁pioneer	-10.4077
▁mar	-10.4079
▁Sky	-10.4079
▁garden	-10.4084
▁Tony	-10.4089
sar	-10.409
▁Spring	-10.4092
Mi	-10.4092
▁northwest	-10.4093
▁starts	-10.4093
▁Zo	-10.4101
pl	-10.4106
▁buy	-10.411
▁Shah	-10.4112
▁Eli	-10.4112
▁Baron	-10.4117
level	-10.4117
▁parallel	-10.4118
▁crowd	-10.4118
▁ruled	-10.412
–1	-10.4122
▁Communist	-10.4132
▁decade	-10.4133
▁Gre	-10.4134
rop	-10.4142
▁catch	-10.4142
▁hill	-10.4143
▁Sim	-10.4144
▁statement	-10.4145
▁describes	-10.4149
itor	-10.415
body	-10.4155
▁Switzerland	-10.4159
▁introduction	-10.4159
▁Patrick	-10.416
▁landscape	-10.416
▁1915	-10.4163
▁fair	-10.4168
▁tropical	-10.4171
mid	-10.4173
▁racial	-10.4173
▁talent	-10.4173
▁auto	-10.4175
▁rose	-10.4178
ites	-10.4181
▁Doctor	-10.4187
▁Diego	-10.4189
where	-10.4199
▁Sound	-10.4199
▁merchant	-10.4201
▁Space	-10.4201
▁typical	-10.4202
▁survived	-10.4205
▁worth	-10.4209
53	-10.4213
▁Magazine	-10.4214
▁paintings	-10.4219
▁Gal	-10.4226
▁severe	-10.4228
▁Naval	-10.4233
▁mono	-10.4235
▁Gri	-10.4236
finite	-10.4238
▁delivered	-10.4241
span	-10.4241
▁bottom	-10.4242
▁agency	-10.4242
some	-10.425
story	-10.4252
cast	-10.4252
▁railroad	-10.4256
▁intention	-10.4257
▁tall	-10.4262
ook	-10.4264
▁seek	-10.4264
▁Karl	-10.4265
73	-10.4265
▁Bat	-10.4266
gui	-10.427
▁easily	-10.427
▁jazz	-10.427
▁crossing	-10.4277
▁causes	-10.4278
▁Mississippi	-10.4284
▁Antonio	-10.4285
cen	-10.4294
▁Max	-10.4294
nal	-10.4296
▁Heritage	-10.4298
▁scenes	-10.4299
▁classic	-10.43
▁el	-10.4302
▁getting	-10.4304
awa	-10.4309
oe	-10.4312
▁Allen	-10.4315
duc	-10.4317
ao	-10.432
dor	-10.4325
aff	-10.4325
▁Jon	-10.4335
▁42	-10.434
▁orchestra	-10.434
▁chair	-10.4343
▁custom	-10.4346
▁lay	-10.4348
▁damaged	-10.435
▁Village	-10.435
▁rating	-10.4362
▁$3	-10.4368
▁earliest	-10.4368
-18	-10.4368
put	-10.4369
una	-10.437
rib	-10.4372
eck	-10.4372
▁sculpture	-10.4372
▁lap	-10.4379
▁Eric	-10.4379
▁rain	-10.4381
▁Gordon	-10.4383
ock	-10.4383
gger	-10.4386
▁pan	-10.4389
▁singing	-10.4394
▁Rugby	-10.4396
▁admitted	-10.4397
gle	-10.4397
▁des	-10.4398
core	-10.4398
▁distinct	-10.44
▁Sport	-10.4402
phe	-10.4403
▁Fred	-10.4406
▁designer	-10.4407
▁improved	-10.4409
▁policies	-10.441
▁Only	-10.4411
▁calls	-10.4412
▁Shar	-10.4413
▁flu	-10.4415
▁restored	-10.4419
▁ge	-10.4421
▁Jane	-10.4424
▁Kentucky	-10.4424
▁Now	-10.4427
▁criticism	-10.4428
Pro	-10.4428
▁Lin	-10.4432
nis	-10.4435
▁successor	-10.4437
▁tank	-10.4438
▁wild	-10.4439
▁boy	-10.4439
ER	-10.4441
▁links	-10.4441
▁Local	-10.4442
▁passengers	-10.4442
thy	-10.4449
▁medium	-10.4453
anda	-10.4454
▁freedom	-10.4455
▁distributed	-10.4458
▁Eu	-10.4458
▁Unit	-10.4459
▁associate	-10.4459
▁Harris	-10.4461
▁painted	-10.4464
▁injured	-10.4467
▁eleven	-10.4467
clo	-10.4473
▁Rh	-10.4477
hir	-10.4477
▁roads	-10.4477
state	-10.4486
▁hot	-10.4486
rag	-10.4488
▁writers	-10.4488
Di	-10.4489
▁brain	-10.4491
▁interests	-10.4494
▁piano	-10.4497
▁Reserve	-10.451
▁affect	-10.4512
▁starred	-10.4512
▁Works	-10.4514
direct	-10.4516
▁Islamic	-10.4517
ising	-10.4519
lip	-10.4533
▁Railroad	-10.4538
▁Baseball	-10.4539
–6	-10.454
▁Med	-10.4542
▁dates	-10.4543
▁credited	-10.4545
▁map	-10.4546
ré	-10.4548
▁factors	-10.4552
▁Commonwealth	-10.4553
▁committed	-10.4553
▁plane	-10.4555
82	-10.4558
▁Additionally	-10.4558
▁apartment	-10.4559
rup	-10.4563
▁Villa	-10.4566
▁Lieutenant	-10.4567
▁Houston	-10.4567
▁Carr	-10.4572
▁Ang	-10.4575
dri	-10.4577
▁Pass	-10.4578
▁Conservative	-10.4581
▁Convention	-10.4581
▁philosophy	-10.4581
▁stood	-10.4583
km	-10.4586
▁Tal	-10.4587
▁Race	-10.4595
▁ranking	-10.4596
▁COVID	-10.4596
▁finance	-10.4597
▁exhibit	-10.46
MS	-10.4601
lus	-10.461
▁Czech	-10.461
▁membership	-10.461
▁items	-10.4613
omb	-10.4613
mate	-10.4615
▁FA	-10.4617
▁300	-10.4618
tsu	-10.4619
▁Entertainment	-10.462
▁roll	-10.4624
▁Battalion	-10.4625
▁ra	-10.4625
▁really	-10.4625
▁Danish	-10.4628
▁Cra	-10.463
bridge	-10.463
▁Bru	-10.4631
bla	-10.4632
▁Whit	-10.4636
▁Hindu	-10.4639
▁answer	-10.464
▁conduct	-10.4641
▁labor	-10.4644
▁Rev	-10.4646
mun	-10.4646
▁fr	-10.4646
▁folk	-10.4652
▁defeating	-10.4652
▁Children	-10.4661
elli	-10.4661
▁check	-10.4662
▁Report	-10.4662
pic	-10.4662
▁Ukraine	-10.4668
▁Jesus	-10.4668
its	-10.4669
▁uniform	-10.4669
▁Bas	-10.4671
▁Ros	-10.4676
▁Fund	-10.468
▁bass	-10.468
▁clean	-10.4683
▁Louisiana	-10.4683
tti	-10.4686
non	-10.469
▁standards	-10.469
burn	-10.4691
El	-10.4692
▁ideas	-10.4695
▁Bern	-10.4695
▁Harvard	-10.4697
▁Legislative	-10.4697
ather	-10.4699
vest	-10.4701
▁1913	-10.4701
stri	-10.4703
▁Silver	-10.4704
bol	-10.4705
▁mental	-10.4705
▁churches	-10.4706
▁debuted	-10.4706
▁16,	-10.4712
▁why	-10.4713
ace	-10.4713
▁Dal	-10.4713
ddle	-10.4716
▁die	-10.4718
pop	-10.4719
▁Pur	-10.4719
100	-10.472
▁feed	-10.472
▁Moore	-10.4721
▁actual	-10.4727
▁offering	-10.473
▁meters	-10.4734
▁Hand	-10.4734
▁representation	-10.474
els	-10.4741
▁Singles	-10.4741
▁minute	-10.4741
▁Hart	-10.4744
▁web	-10.4746
▁grand	-10.4747
lect	-10.4749
▁Tokyo	-10.4755
02	-10.4756
▁Ltd	-10.4756
▁Gallery	-10.4756
pers	-10.4759
zh	-10.476
itz	-10.4768
▁benefit	-10.4768
▁hundred	-10.4768
▁contributions	-10.4773
▁seventh	-10.479
▁lands	-10.4791
▁powers	-10.4794
▁Para	-10.4797
▁session	-10.4798
▁sat	-10.4799
▁wa	-10.4806
▁Raj	-10.4807
▁wheel	-10.4812
▁Market	-10.4814
▁accompanied	-10.4814
▁statue	-10.4814
arian	-10.4816
cc	-10.4819
▁adaptation	-10.482
▁Zi	-10.4827
eries	-10.4829
▁opposite	-10.4829
▁stands	-10.483
▁tr	-10.483
▁ill	-10.4831
▁layer	-10.4831
▁motion	-10.4835
Se	-10.4837
▁shooting	-10.4839
ym	-10.4841
▁Phil	-10.4843
▁Argentina	-10.4844
▁expedition	-10.4844
▁Palace	-10.4847
▁grow	-10.4847
▁agree	-10.4848
agh	-10.485
▁ahead	-10.4852
▁coal	-10.4855
▁measures	-10.4857
▁1908	-10.4861
▁Auto	-10.4863
lf	-10.4863
enberg	-10.4865
ensis	-10.4866
▁parliament	-10.4871
▁headed	-10.4873
rank	-10.4873
▁Puerto	-10.4873
▁boys	-10.4874
▁arrangement	-10.4876
▁rejected	-10.4877
50,000	-10.4878
▁Brazilian	-10.4879
san	-10.4882
▁Internet	-10.4889
▁gender	-10.4889
▁operator	-10.489
ddy	-10.4891
▁lock	-10.4895
▁Season	-10.4898
▁Cemetery	-10.4903
▁drop	-10.4903
rey	-10.4903
▁Third	-10.4904
▁stores	-10.4905
rated	-10.4906
▁Bow	-10.4908
▁regularly	-10.4908
▁Rio	-10.4913
▁Motor	-10.4913
▁cal	-10.4913
▁hour	-10.4918
▁bond	-10.4922
▁device	-10.4923
ense	-10.4925
▁Lanka	-10.4927
lton	-10.4928
ø	-10.4928
ttle	-10.493
▁fill	-10.4932
▁seems	-10.4934
▁organisation	-10.4936
▁Cri	-10.4942
▁Mun	-10.4942
▁anniversary	-10.4947
▁Denmark	-10.4948
ott	-10.4948
▁Anderson	-10.4949
ivity	-10.4952
▁17,	-10.4954
take	-10.4955
▁epi	-10.4957
▁1999,	-10.4961
▁arrival	-10.4962
▁Deputy	-10.4962
▁Austrian	-10.4963
▁residential	-10.4963
▁appointment	-10.4965
▁owners	-10.4968
▁Rob	-10.497
▁suburb	-10.4971
▁41	-10.4971
▁details	-10.4978
▁fly	-10.4978
▁criticized	-10.4979
▁businesses	-10.498
▁Nar	-10.4981
lane	-10.4981
▁mix	-10.4981
▁AD	-10.4984
ement	-10.4984
▁equivalent	-10.4986
▁looking	-10.4988
▁factor	-10.499
eli	-10.499
▁Anthony	-10.4992
vit	-10.4995
▁musician	-10.4996
▁Pop	-10.4997
▁teachers	-10.5001
▁flood	-10.5001
▁assumed	-10.5003
cli	-10.5004
▁Oklahoma	-10.5007
table	-10.5007
▁southwest	-10.501
RI	-10.5011
▁selling	-10.5013
?"	-10.5015
▁raise	-10.502
▁Front	-10.5022
▁mechanism	-10.5022
lit	-10.5023
▁parent	-10.5025
▁Gulf	-10.5028
comp	-10.5032
▁Walker	-10.5033
▁Saturday	-10.5037
▁Edinburgh	-10.5037
▁exercise	-10.5037
▁Metropolitan	-10.5037
far	-10.5039
▁domain	-10.5039
zon	-10.5042
▁duty	-10.5043
▁experienced	-10.5043
▁Way	-10.5045
▁Cle	-10.5046
▁license	-10.5046
type	-10.5049
hol	-10.5053
▁Kha	-10.5053
▁Lan	-10.5054
rov	-10.5055
▁represents	-10.5057
AS	-10.5058
▁1890	-10.5059
▁dam	-10.5065
▁Detroit	-10.5068
▁assault	-10.5068
▁49	-10.5069
2,	-10.5069
▁add	-10.5069
▁1998,	-10.507
high	-10.5071
Car	-10.5071
hara	-10.5074
▁Mission	-10.5078
sson	-10.5082
▁Age	-10.5083
▁1911	-10.5087
▁Iron	-10.5089
▁carbon	-10.5091
▁Round	-10.5092
▁Hills	-10.5093
▁Ce	-10.5096
▁dynasty	-10.5098
▁retained	-10.5108
▁reality	-10.5114
▁values	-10.5116
▁string	-10.5117
sign	-10.5124
▁documents	-10.5124
ific	-10.5125
▁prime	-10.5125
ito	-10.5126
ref	-10.5126
ander	-10.5128
▁winners	-10.5128
▁Dublin	-10.5129
▁wins	-10.5136
ctic	-10.5143
gor	-10.5145
osis	-10.5146
▁Tamil	-10.5147
align	-10.5148
▁users	-10.5154
▁protected	-10.5156
▁responsibility	-10.5158
▁courses	-10.5166
ulation	-10.517
ved	-10.5171
lio	-10.5172
▁planet	-10.5174
▁scholars	-10.5175
gr	-10.5181
▁send	-10.5183
▁grounds	-10.5186
pet	-10.5189
itt	-10.5191
▁1906	-10.5192
▁col	-10.5196
cade	-10.5196
▁differ	-10.5201
night	-10.5204
▁medicine	-10.5204
▁colonial	-10.5205
▁1905	-10.5207
fish	-10.5209
▁significantly	-10.5209
▁broken	-10.5211
▁scholar	-10.5217
bat	-10.5217
▁Gall	-10.5219
.0%	-10.5226
▁justice	-10.5227
▁gate	-10.5229
▁nor	-10.5236
▁understanding	-10.524
▁Athletics	-10.5243
▁peaked	-10.5243
▁element	-10.5245
▁intelligence	-10.525
▁defence	-10.5251
▁Welsh	-10.5252
▁2004.	-10.5253
▁otherwise	-10.5256
▁Kil	-10.5258
▁Islam	-10.526
eon	-10.5262
▁ne	-10.5265
▁deputy	-10.5266
▁naval	-10.5267
▁Constitution	-10.527
▁wine	-10.5273
▁flying	-10.5273
cel	-10.5278
▁Five	-10.5278
▁communication	-10.5278
▁Bush	-10.5279
gam	-10.5279
▁Matthew	-10.5281
▁Garden	-10.5283
master	-10.5288
▁charged	-10.5291
200	-10.5292
▁Mak	-10.5296
▁skin	-10.5298
uv	-10.5298
▁objects	-10.5302
lies	-10.5303
▁seed	-10.5305
Category	-10.5312
▁(16	-10.5316
▁Marie	-10.532
▁Artist	-10.5322
acy	-10.5324
▁sin	-10.5325
▁discussion	-10.5325
▁champions	-10.5327
▁Imperial	-10.5327
▁depth	-10.5328
▁Call	-10.5329
▁Ji	-10.533
▁Dean	-10.5335
▁Place	-10.5337
▁drawn	-10.5339
▁nothing	-10.5345
▁solid	-10.5345
▁1909	-10.5346
ges	-10.5353
▁apply	-10.5356
▁didn	-10.5358
▁skills	-10.5359
▁Global	-10.5374
▁Quebec	-10.5374
▁x	-10.5375
.”	-10.5377
▁Tower	-10.5378
▁Kir	-10.5378
ello	-10.5378
▁translated	-10.5381
▁techniques	-10.5384
▁listing	-10.5384
▁spirit	-10.5385
▁watch	-10.5385
▁Wolf	-10.5385
anga	-10.5387
▁attached	-10.539
list	-10.5391
▁Disney	-10.5391
▁notably	-10.5395
▁extremely	-10.5401
atory	-10.5404
▁lose	-10.5404
▁Belgium	-10.5405
▁shop	-10.5408
▁Chairman	-10.5409
▁Note	-10.5415
▁showing	-10.5417
▁Organization	-10.5421
rang	-10.5422
▁adapted	-10.5425
▁orders	-10.5428
▁struggle	-10.543
▁Hans	-10.5436
rio	-10.5436
tract	-10.5436
▁Margaret	-10.5436
▁circuit	-10.5436
▁duties	-10.5438
▁Judge	-10.5438
SS	-10.5439
▁1907	-10.544
▁musicians	-10.5441
▁Bir	-10.5444
▁vocals	-10.5444
▁measure	-10.5452
▁Trump	-10.5453
▁routes	-10.5455
yu	-10.5455
▁southeast	-10.5456
-4	-10.5456
▁shore	-10.5458
▁Morgan	-10.5459
▁bound	-10.5459
lea	-10.5464
My	-10.5466
▁Baltimore	-10.5468
▁Pas	-10.5468
▁costs	-10.547
hand	-10.5471
▁Back	-10.5479
mel	-10.548
att	-10.548
ines	-10.5481
▁engines	-10.5483
▁Hollywood	-10.5484
▁involving	-10.5484
▁assistance	-10.5485
uf	-10.5487
aria	-10.5495
bs	-10.5498
▁defensive	-10.5499
▁elevation	-10.5499
▁poverty	-10.5499
▁landing	-10.55
▁h	-10.5504
ii	-10.5505
▁Sen	-10.5505
▁Rights	-10.5506
fire	-10.5512
▁biggest	-10.5515
inger	-10.5515
▁nu	-10.5519
▁arm	-10.5522
▁abuse	-10.5524
aire	-10.5525
▁streets	-10.5529
▁pitch	-10.553
▁Commander	-10.553
nam	-10.5531
▁Portugal	-10.5531
▁cent	-10.5532
▁classified	-10.5534
▁wounded	-10.5537
▁Av	-10.5544
▁grave	-10.5544
present	-10.5545
▁Demographics	-10.5547
▁Mau	-10.5554
▁Bha	-10.5555
▁Bear	-10.5555
▁goods	-10.5556
▁Capital	-10.5563
ante	-10.5563
▁tries	-10.5565
boy	-10.5574
bil	-10.5576
▁Jordan	-10.5578
▁stopped	-10.558
▁arranged	-10.5586
▁Len	-10.5586
▁Bol	-10.5586
▁bat	-10.5589
▁rooms	-10.559
▁fee	-10.5592
▁institute	-10.5593
▁Basketball	-10.5594
itu	-10.5596
General	-10.5601
▁requirements	-10.5603
▁fund	-10.5607
▁offensive	-10.561
▁2002.	-10.5613
vil	-10.5615
▁fired	-10.5617
▁sentence	-10.5625
▁Tam	-10.5627
▁Hungarian	-10.5628
▁learned	-10.5629
▁diver	-10.563
sley	-10.5632
▁downtown	-10.5632
▁Singh	-10.5632
▁wear	-10.5633
▁75	-10.5634
▁weak	-10.5635
▁prepared	-10.564
▁Bangladesh	-10.5642
▁provincial	-10.5642
▁satellite	-10.5642
▁islands	-10.5642
▁Culture	-10.5643
▁caught	-10.5643
▁separated	-10.565
inter	-10.565
▁Historical	-10.5652
":	-10.5656
nar	-10.5656
▁require	-10.5657
sburg	-10.5657
▁Alliance	-10.5658
▁Indonesia	-10.5661
▁operates	-10.5663
▁Kin	-10.5663
▁Athletic	-10.5666
▁Reform	-10.5671
Ja	-10.5672
lov	-10.5674
▁medieval	-10.5674
▁sections	-10.5676
AF	-10.5682
▁shift	-10.5689
▁Construction	-10.569
▁stayed	-10.5694
IN	-10.5697
▁dispute	-10.5701
▁Upper	-10.5703
▁portrait	-10.5706
▁thick	-10.5707
under	-10.5709
▁Cast	-10.5713
his	-10.5713
▁Tech	-10.5714
▁differences	-10.5715
osa	-10.5721
vor	-10.5722
▁definition	-10.5722
▁popularity	-10.5725
FA	-10.5729
vat	-10.5733
rant	-10.5736
▁Monte	-10.5737
▁Wing	-10.5737
▁assembly	-10.5739
▁substantial	-10.5739
▁Atlanta	-10.5739
cio	-10.5742
▁Cook	-10.5742
▁replacement	-10.5743
▁crisis	-10.5755
▁Lane	-10.5758
lot	-10.5759
▁31,	-10.576
rel	-10.5763
weight	-10.5764
▁Mir	-10.5767
▁Orchestra	-10.5771
▁McG	-10.5773
▁39	-10.5775
▁roughly	-10.5777
▁2003.	-10.5778
▁convention	-10.5779
▁divisions	-10.5786
▁Voivodeship	-10.5787
▁Donald	-10.5787
▁concentration	-10.5788
pos	-10.579
▁Trade	-10.5791
▁Ay	-10.5791
▁Farm	-10.5794
▁Cas	-10.5799
▁publications	-10.58
▁ver	-10.5803
▁thousands	-10.5803
esh	-10.5808
FM	-10.581
▁tourist	-10.5813
▁qualifying	-10.5815
▁assist	-10.5815
▁suggests	-10.5816
▁storage	-10.582
▁debt	-10.5821
▁mark	-10.5824
▁coastal	-10.5824
▁hat	-10.5828
▁linked	-10.5833
▁warm	-10.5833
▁Crown	-10.5835
▁hip	-10.5839
oper	-10.5839
▁SR	-10.5841
▁Az	-10.5846
uld	-10.5847
▁Iraq	-10.585
▁balance	-10.5853
▁ownership	-10.5855
bound	-10.5856
▁Wild	-10.5858
▁Hunt	-10.5859
fici	-10.586
▁pi	-10.586
▁Buck	-10.5861
▁retail	-10.5862
▁humans	-10.5864
rage	-10.5868
▁concerns	-10.587
▁evening	-10.5871
▁Glen	-10.5872
AP	-10.5873
sville	-10.5873
real	-10.5874
▁NY	-10.5879
▁decline	-10.588
▁Shu	-10.5881
▁cup	-10.5885
▁universities	-10.5885
▁publishing	-10.5885
Vi	-10.5886
▁Bull	-10.5893
▁favour	-10.5899
▁Ry	-10.5899
▁legislation	-10.5901
▁Energy	-10.5901
▁Challenge	-10.5901
▁heritage	-10.5901
▁sit	-10.5902
▁Tele	-10.5902
▁Oak	-10.5903
style	-10.5904
▁stages	-10.5905
feld	-10.5907
chin	-10.5908
▁Then	-10.5908
▁pool	-10.5909
▁Mountains	-10.591
▁Stan	-10.5913
ér	-10.5915
▁formally	-10.5917
▁driving	-10.5918
▁identify	-10.5918
▁initiative	-10.5918
▁compound	-10.5918
▁purposes	-10.5918
▁gift	-10.5919
▁Peace	-10.5919
▁Bro	-10.5921
char	-10.5921
▁twin	-10.5923
▁DNA	-10.5925
▁profit	-10.5929
▁argument	-10.5934
▁illegal	-10.5934
▁Montreal	-10.5935
▁ti	-10.5935
Ho	-10.5935
shaped	-10.5945
▁march	-10.5945
▁user	-10.5947
cular	-10.5948
▁faculty	-10.5951
▁poem	-10.5953
bed	-10.5958
▁Dick	-10.5958
▁solution	-10.5961
▁mouth	-10.5962
via	-10.5962
AN	-10.5965
▁Cathedral	-10.5967
▁substitute	-10.5967
▁Jam	-10.5972
▁Rick	-10.5973
All	-10.5979
rry	-10.5982
▁journey	-10.5984
ode	-10.5993
dam	-10.5994
▁novels	-10.5994
ters	-10.5995
▁moral	-10.5997
▁experiment	-10.5998
SP	-10.5999
▁Lawrence	-10.6
▁stretch	-10.6
omy	-10.6003
nz	-10.6006
▁flows	-10.6012
▁Liverpool	-10.6017
▁observation	-10.6017
▁José	-10.6017
▁artistic	-10.6019
urg	-10.6019
▁Low	-10.6023
▁Gun	-10.6027
▁Moon	-10.6027
FC	-10.6028
▁Alan	-10.6032
▁Electric	-10.6033
▁controversy	-10.6033
▁Ryan	-10.6034
▁achieve	-10.6034
▁orbit	-10.6036
▁Ukrainian	-10.6039
▁dating	-10.6043
AT	-10.6046
SI	-10.6047
[	-10.6051
zen	-10.6052
▁Work	-10.6057
rip	-10.6057
▁51	-10.606
▁Dream	-10.6064
▁flowers	-10.6065
▁Vic	-10.6066
IT	-10.6069
▁intersection	-10.6071
▁window	-10.6073
ffe	-10.6073
▁unusual	-10.6078
52	-10.608
▁charges	-10.608
▁1997,	-10.6081
▁Vienna	-10.6083
▁Information	-10.6083
▁cited	-10.6084
▁mobile	-10.6084
▁Dia	-10.6091
▁hero	-10.6094
had	-10.6098
▁bid	-10.6099
▁battalion	-10.61
▁1904	-10.6103
▁export	-10.6104
dol	-10.6106
▁Dance	-10.6106
▁possession	-10.6107
▁Rod	-10.6107
▁Lau	-10.6109
▁1870	-10.6109
▁survive	-10.6112
▁perfect	-10.6112
▁sort	-10.6112
uli	-10.6117
▁strategy	-10.6117
new	-10.6118
illo	-10.612
chy	-10.6121
▁fort	-10.6122
▁restaurant	-10.6122
▁Studios	-10.6123
ith	-10.6125
▁branches	-10.6126
▁Hungary	-10.6128
▁document	-10.6131
asi	-10.6133
▁choose	-10.6134
fu	-10.6135
▁trace	-10.6136
▁ratio	-10.6137
▁publisher	-10.6142
▁designs	-10.6148
▁Meanwhile	-10.6151
▁1903	-10.6153
▁Nova	-10.6166
▁Roger	-10.6172
▁technique	-10.6173
▁load	-10.6174
▁testing	-10.6178
ów	-10.6179
▁Broadway	-10.6179
▁Gate	-10.6181
▁2000.	-10.6183
▁regime	-10.6184
MP	-10.6186
▁missing	-10.6187
▁1901	-10.6188
▁characteristics	-10.6188
bach	-10.6189
ional	-10.619
▁fixed	-10.6196
graph	-10.6198
▁Kennedy	-10.6201
▁vessels	-10.6202
pel	-10.6202
▁parliamentary	-10.6204
▁CEO	-10.6204
TS	-10.6204
phone	-10.6205
▁treat	-10.6207
onia	-10.6212
rell	-10.6214
▁earning	-10.6216
▁bad	-10.6216
ech	-10.6217
eller	-10.6218
▁Hawk	-10.6218
▁shut	-10.622
roy	-10.6221
▁Ant	-10.6223
▁stem	-10.6226
▁difference	-10.6227
▁examples	-10.6229
▁achievement	-10.6229
▁controversial	-10.6235
▁perhaps	-10.6235
▁spiritual	-10.6236
▁constant	-10.6237
▁Kent	-10.6242
iel	-10.6244
▁carrying	-10.6249
▁craft	-10.625
Te	-10.6252
▁switch	-10.6254
sum	-10.6254
▁capable	-10.6257
▁coverage	-10.6258
person	-10.6261
fra	-10.6261
lets	-10.6264
▁Express	-10.6269
▁Cleveland	-10.6269
▁Medicine	-10.6269
▁Orthodox	-10.6269
▁Seattle	-10.627
SU	-10.627
▁vision	-10.627
▁stress	-10.6271
ked	-10.6272
▁leads	-10.6276
▁threat	-10.6279
▁Lower	-10.6279
▁Canal	-10.6282
▁Dave	-10.6283
▁Roll	-10.6286
▁manufacturing	-10.6286
▁pin	-10.6287
▁1902	-10.6288
round	-10.6288
▁Coach	-10.6291
▁tie	-10.6292
▁fer	-10.6293
▁god	-10.6295
▁mining	-10.63
game	-10.6302
arrow	-10.6303
▁temporary	-10.6303
▁Chamber	-10.6303
▁struck	-10.6304
▁Ever	-10.6307
▁Franklin	-10.6307
oh	-10.6312
▁Est	-10.6314
▁Lou	-10.6314
▁signing	-10.6317
cial	-10.632
▁Belgian	-10.632
▁influential	-10.632
▁childhood	-10.6321
ld	-10.6322
▁classification	-10.6323
This	-10.6324
ici	-10.6326
crea	-10.6326
▁Gui	-10.6327
▁1880	-10.6329
▁returns	-10.633
related	-10.6331
▁Rat	-10.6333
borough	-10.6334
▁DC	-10.6336
▁Ty	-10.6341
ME	-10.6344
kes	-10.6347
▁Sarah	-10.6349
▁How	-10.635
▁windows	-10.6351
▁revenue	-10.6354
▁suicide	-10.6355
▁Dy	-10.6358
▁Champions	-10.6363
▁instrument	-10.6365
▁tu	-10.6367
▁Wo	-10.6368
▁discuss	-10.6375
▁Staff	-10.6376
IP	-10.6385
▁Cooper	-10.6387
struct	-10.6395
▁Clo	-10.6396
pped	-10.6397
▁interaction	-10.64
▁picture	-10.6402
▁Movement	-10.6406
▁boundary	-10.6409
▁fur	-10.6409
▁passage	-10.6413
called	-10.6414
Da	-10.6416
▁guitarist	-10.6418
very	-10.6419
▁Kelly	-10.642
ime	-10.642
▁devices	-10.6421
▁manner	-10.6421
▁contested	-10.6421
▁actors	-10.6425
▁Dark	-10.6426
▁Bruce	-10.6426
lim	-10.6427
▁Sara	-10.6431
▁entering	-10.6432
▁tele	-10.6435
;/	-10.6436
any	-10.6437
SO	-10.6438
▁adding	-10.6438
So	-10.6438
▁alcohol	-10.6441
▁turns	-10.6443
▁Pla	-10.6443
▁Malaysia	-10.6445
▁Rich	-10.6452
▁explained	-10.6452
▁Din	-10.6453
ened	-10.6454
meter	-10.6454
▁Story	-10.6457
ij	-10.6457
▁existed	-10.6458
▁Connecticut	-10.6458
▁manuscript	-10.6458
▁soundtrack	-10.6458
▁Kevin	-10.646
▁Sab	-10.6461
▁genetic	-10.6462
▁touch	-10.6462
▁ideal	-10.6464
▁Egyptian	-10.6464
GA	-10.6465
II	-10.6471
▁Mol	-10.6474
boat	-10.6474
▁emergency	-10.6475
▁instruction	-10.6476
▁happen	-10.6476
▁Colonel	-10.6477
▁prisoners	-10.6478
▁tube	-10.6483
▁Euro	-10.6483
▁images	-10.6488
▁Utah	-10.6493
▁surrounded	-10.6501
▁Wright	-10.6502
▁hydro	-10.6507
roll	-10.6508
▁pandemic	-10.651
▁tunnel	-10.651
▁architectural	-10.6511
▁disorder	-10.6511
2)	-10.6513
▁ABC	-10.6518
rea	-10.652
▁Wind	-10.652
rm	-10.6521
▁interested	-10.6522
▁celebrated	-10.6523
▁Il	-10.6532
then	-10.6532
nom	-10.6535
▁Hard	-10.6538
rock	-10.6539
▁Stewart	-10.6545
▁denied	-10.6545
▁subjects	-10.6546
▁Box	-10.6547
▁weekend	-10.6548
nge	-10.6549
from	-10.6549
▁tenure	-10.6553
▁affairs	-10.6555
FL	-10.6558
▁Ron	-10.656
▁circle	-10.6562
face	-10.6564
lation	-10.6566
▁Sai	-10.6574
▁ago	-10.6574
▁Model	-10.6575
▁appearing	-10.6576
read	-10.6577
▁Jen	-10.6577
▁Sy	-10.6579
▁memorial	-10.658
▁cousin	-10.658
▁Chu	-10.6582
▁rent	-10.6582
▁visitors	-10.6582
▁1996,	-10.6584
▁43	-10.6593
▁Arch	-10.6597
▁chamber	-10.6598
▁Wu	-10.6599
▁sail	-10.6606
▁consumer	-10.6611
▁Bou	-10.6612
▁bed	-10.6614
▁completion	-10.6615
load	-10.6616
ket	-10.6616
▁counties	-10.6618
▁(4	-10.6623
▁audio	-10.6627
▁aspects	-10.6627
▁bay	-10.6628
▁Row	-10.6629
tim	-10.6629
Go	-10.6633
lying	-10.6634
▁Authority	-10.6634
CS	-10.6637
▁annually	-10.6646
▁Fal	-10.6651
▁Standard	-10.6652
▁Bernard	-10.6653
▁cold	-10.6657
how	-10.6663
▁rescue	-10.6664
▁practices	-10.6666
▁resolution	-10.6668
▁expect	-10.667
▁tennis	-10.667
aceae	-10.6676
akh	-10.6682
▁competitive	-10.6686
▁Defense	-10.6686
▁Natural	-10.6686
▁Campbell	-10.6686
▁page	-10.6687
▁+	-10.6688
▁und	-10.6688
▁considerable	-10.669
▁finding	-10.6691
▁edited	-10.6694
▁cm	-10.6704
▁Agency	-10.6705
▁understand	-10.6707
▁bra	-10.6711
▁Ky	-10.6716
▁carrier	-10.6723
▁Guy	-10.6723
▁charter	-10.6724
▁persons	-10.6726
▁Economic	-10.6726
▁experiences	-10.673
stead	-10.6732
▁Rus	-10.6733
▁secure	-10.6736
▁op	-10.6737
▁Norman	-10.6737
▁penalty	-10.6739
▁ticket	-10.6739
▁Russell	-10.6739
▁span	-10.6739
▁amateur	-10.6739
▁questions	-10.6742
▁pot	-10.6743
vari	-10.6749
DP	-10.6753
▁Horse	-10.6754
▁Cardinal	-10.6757
▁cinema	-10.6759
▁Mrs	-10.676
▁filled	-10.6762
▁Training	-10.6764
▁wooden	-10.677
cum	-10.6772
such	-10.6772
▁replacing	-10.6775
▁involvement	-10.6776
▁Sto	-10.6777
▁Pin	-10.6783
▁Transport	-10.679
▁Birmingham	-10.6793
▁infrastructure	-10.6793
▁construct	-10.6794
▁Pala	-10.6794
cious	-10.6796
▁Kid	-10.6797
▁deliver	-10.6798
▁Greg	-10.68
▁requires	-10.6809
▁indicated	-10.6811
▁kingdom	-10.6812
aging	-10.6814
▁weekly	-10.6816
▁filed	-10.6816
▁snow	-10.6818
een	-10.6819
pal	-10.6824
▁Your	-10.6827
▁Morris	-10.6827
▁veteran	-10.6829
▁Fleet	-10.6831
▁Finland	-10.6832
▁depict	-10.6834
▁tied	-10.6836
SL	-10.6836
▁proper	-10.6837
▁Ob	-10.6846
▁concrete	-10.6847
▁soccer	-10.6847
▁Alfred	-10.6847
▁Ward	-10.6847
Ka	-10.6853
hon	-10.6857
▁Non	-10.6859
vol	-10.686
yne	-10.6861
▁dialect	-10.6865
▁Cli	-10.6868
ín	-10.687
▁Base	-10.6875
inch	-10.6877
▁tape	-10.688
Th	-10.688
▁cool	-10.6882
▁threatened	-10.6894
▁52	-10.6894
ES	-10.6895
▁banks	-10.6897
▁trust	-10.6897
▁daughters	-10.6898
▁Through	-10.69
▁whereas	-10.6901
▁Cricket	-10.6901
▁conservative	-10.6901
▁jurisdiction	-10.6901
▁transmission	-10.6902
▁treated	-10.6902
▁wish	-10.6903
▁retreat	-10.6904
▁vocal	-10.6904
▁gradually	-10.6904
▁Adams	-10.6905
cca	-10.6905
▁percentage	-10.6907
▁ends	-10.6907
▁hole	-10.6907
hin	-10.6912
▁electoral	-10.6919
▁variable	-10.6919
▁truck	-10.692
emb	-10.6921
▁somewhat	-10.6921
▁forests	-10.6922
▁objective	-10.6924
ridge	-10.6928
▁output	-10.6928
final	-10.6929
▁cable	-10.6929
▁connect	-10.693
▁nomination	-10.693
▁submarine	-10.6931
▁Math	-10.6932
▁degrees	-10.6933
phon	-10.6937
fl	-10.6937
▁athletic	-10.6938
▁graduating	-10.6938
▁Baker	-10.694
oke	-10.6941
met	-10.6942
▁Labor	-10.6947
▁Jeff	-10.6948
elected	-10.6952
▁Qui	-10.6955
▁Language	-10.6956
▁artillery	-10.6956
▁celebration	-10.6956
▁reputation	-10.6956
▁patent	-10.6956
You	-10.6958
hop	-10.6962
▁increasingly	-10.6962
▁Flor	-10.6964
▁touchdown	-10.6968
▁stable	-10.6973
▁frequency	-10.6974
▁declined	-10.698
pul	-10.6982
▁Gam	-10.6986
Ex	-10.6986
logical	-10.6995
MC	-10.6995
▁rates	-10.6996
HL	-10.6996
▁cre	-10.6997
▁Honor	-10.6997
▁fishing	-10.6999
ware	-10.7002
▁eyes	-10.7002
▁terminal	-10.7004
▁depend	-10.7005
▁net	-10.7009
▁Vis	-10.7009
▁surviving	-10.7011
▁victims	-10.7016
gro	-10.7017
▁55	-10.7018
▁Victor	-10.7019
▁option	-10.7019
▁Vas	-10.7023
eau	-10.7026
▁Thompson	-10.7029
▁scholarship	-10.7031
ár	-10.7031
▁cor	-10.7033
–4	-10.7039
RO	-10.7044
ç	-10.7044
▁Hil	-10.7047
▁sufficient	-10.7047
▁Defence	-10.7048
▁Dallas	-10.7053
▁Child	-10.7053
▁earth	-10.7053
-10	-10.7056
▁file	-10.7057
▁Champion	-10.7057
▁forming	-10.7065
▁Election	-10.7066
▁Brothers	-10.7068
nate	-10.7071
▁covering	-10.7072
blo	-10.7074
▁helping	-10.708
▁Thi	-10.7086
▁belonging	-10.7087
▁viewers	-10.7087
verse	-10.7088
lau	-10.709
▁bird	-10.7091
finals	-10.7096
cord	-10.7096
▁ward	-10.7098
▁Pittsburgh	-10.7103
▁approval	-10.7103
▁payment	-10.7104
▁note	-10.7105
lian	-10.7106
▁instruments	-10.7109
▁Ker	-10.7109
▁interpretation	-10.7109
▁hearing	-10.711
acher	-10.7111
▁2001.	-10.7114
▁medals	-10.7116
vision	-10.7117
▁lasted	-10.7118
▁hosts	-10.712
nna	-10.7121
▁patrol	-10.7121
▁courts	-10.7122
▁false	-10.7123
▁Penn	-10.7129
▁recordings	-10.713
▁colony	-10.7132
▁nations	-10.7133
▁Las	-10.7136
▁What	-10.7136
▁segment	-10.7138
▁47	-10.7138
▁attorney	-10.714
▁venture	-10.714
▁Draft	-10.714
oz	-10.7142
▁huge	-10.7143
mph	-10.7145
▁marry	-10.7146
▁bands	-10.7153
ffer	-10.7153
fall	-10.7156
▁studying	-10.7156
▁PA	-10.7157
▁dated	-10.7159
RE	-10.7161
▁Bengal	-10.7161
▁homes	-10.7164
fort	-10.7165
▁Ir	-10.7165
▁Victorian	-10.7166
▁Wy	-10.7166
▁processes	-10.7172
▁Vin	-10.7175
PS	-10.7176
▁trouble	-10.7177
▁margin	-10.7179
▁Dol	-10.7179
py	-10.718
▁convert	-10.7183
▁spoke	-10.7183
▁46	-10.7186
▁drew	-10.7197
▁losses	-10.72
▁Gray	-10.7203
0%	-10.7205
3,	-10.7209
ink	-10.7211
▁relief	-10.7214
▁modified	-10.7214
▁Brooklyn	-10.7215
▁enjoy	-10.7218
▁Roy	-10.7219
▁Stock	-10.7228
▁authors	-10.7229
▁Azerbaijan	-10.7233
▁equipped	-10.7233
▁anything	-10.7234
▁Madrid	-10.7234
▁Hen	-10.7236
▁Shin	-10.7237
kha	-10.7238
▁tell	-10.7239
adi	-10.7239
Gu	-10.7239
▁Barr	-10.724
▁CBS	-10.7241
lap	-10.7245
ann	-10.7246
▁(15	-10.7251
cit	-10.7251
▁external	-10.7252
▁Richmond	-10.7252
▁fled	-10.7259
bank	-10.7262
▁eliminated	-10.7262
▁Fellow	-10.7269
▁faith	-10.727
▁maintenance	-10.7271
▁ruling	-10.7271
▁Robinson	-10.7273
▁posted	-10.7276
▁regard	-10.7279
▁Ran	-10.728
▁2021.	-10.7284
▁chapel	-10.729
zan	-10.7291
lem	-10.7292
▁Plant	-10.7293
▁Food	-10.7295
word	-10.7297
▁attracted	-10.7297
ides	-10.7297
▁gang	-10.7298
post	-10.731
On	-10.7311
▁NBC	-10.7314
wal	-10.7315
▁Originally	-10.7318
▁rapidly	-10.7323
▁Range	-10.7324
▁schedule	-10.7324
▁Guinea	-10.7328
▁toured	-10.733
▁underground	-10.7333
wen	-10.7333
▁1898	-10.7333
rig	-10.7334
▁effectively	-10.7334
ssel	-10.7339
rog	-10.7345
▁Control	-10.7346
▁longest	-10.7347
life	-10.7348
▁crash	-10.7352
▁SA	-10.7353
kel	-10.7356
▁push	-10.7357
▁destruction	-10.7365
▁participation	-10.7365
▁strongly	-10.7366
OC	-10.7373
versus	-10.7375
ois	-10.7377
▁recommended	-10.7377
▁Player	-10.7377
▁Jar	-10.738
▁Classic	-10.7386
action	-10.7387
▁ser	-10.7387
▁Theater	-10.7389
▁falls	-10.7391
▁rapid	-10.7391
▁happened	-10.7402
▁recruit	-10.7408
▁Pad	-10.7409
▁150	-10.741
CO	-10.7411
▁Shortly	-10.7416
pat	-10.7416
Br	-10.7416
▁Coll	-10.7421
▁ruler	-10.7422
▁Trail	-10.7422
▁Bachelor	-10.7422
DS	-10.7423
▁Marshall	-10.7426
▁Syn	-10.7428
▁occasionally	-10.7431
▁tribe	-10.7432
▁gets	-10.7432
rah	-10.7435
▁select	-10.7438
▁components	-10.7438
Wa	-10.7439
▁Muhammad	-10.7441
▁wrong	-10.7442
▁Rhode	-10.7442
▁magic	-10.7444
▁Type	-10.7445
▁venue	-10.7448
▁apart	-10.7454
ural	-10.7454
ush	-10.7456
▁angle	-10.7459
▁desire	-10.7459
ET	-10.746
▁continuing	-10.7461
▁widespread	-10.7461
▁worship	-10.7461
▁error	-10.7461
▁Austin	-10.7461
▁Fan	-10.7462
ographic	-10.7463
▁Gr	-10.7463
▁1897	-10.7466
▁1899	-10.7467
▁Kon	-10.7468
nov	-10.7469
tia	-10.7477
print	-10.7477
▁Carter	-10.7479
▁Nicholas	-10.748
▁trading	-10.748
▁acted	-10.7482
▁soft	-10.7483
én	-10.7483
scale	-10.7484
▁remainder	-10.7485
tig	-10.7487
▁competitions	-10.7487
▁Commissioner	-10.749
▁Has	-10.749
▁Ship	-10.7493
chu	-10.7493
▁jobs	-10.7497
▁Rico	-10.7499
▁injuries	-10.7499
▁rifle	-10.7499
▁hits	-10.7499
▁Murray	-10.75
gene	-10.7505
▁Diocese	-10.7518
▁minimum	-10.7518
▁practical	-10.7518
▁Christopher	-10.7518
▁dream	-10.7518
▁infantry	-10.752
▁Cole	-10.7521
gre	-10.7527
▁dress	-10.7537
▁conclusion	-10.7538
▁competing	-10.7538
▁grass	-10.7538
card	-10.7538
▁vol	-10.7539
▁Blo	-10.754
▁Dur	-10.7543
▁turning	-10.7545
▁massive	-10.7545
▁duo	-10.7552
▁ride	-10.7555
▁appropriate	-10.7557
▁McK	-10.7557
▁valid	-10.7557
OR	-10.7559
azi	-10.756
color	-10.7561
hall	-10.7564
PR	-10.7565
▁Ivan	-10.7566
▁Mann	-10.7567
▁1999.	-10.7569
box	-10.7569
▁fit	-10.7574
6,	-10.7575
▁rec	-10.7579
▁executed	-10.7581
▁newspapers	-10.7581
▁locality	-10.7582
▁uncle	-10.7584
kins	-10.7585
sol	-10.7586
aged	-10.7587
▁erected	-10.7591
▁Who	-10.7593
▁SS	-10.7593
▁cancelled	-10.7596
▁Americans	-10.7596
▁Brad	-10.7596
▁Finnish	-10.7597
▁plus	-10.7598
▁equation	-10.76
llen	-10.7604
▁pur	-10.7606
pho	-10.7606
hawk	-10.7608
1.	-10.761
▁harm	-10.7611
▁spending	-10.7613
▁Support	-10.7615
▁agencies	-10.7615
▁Kor	-10.7617
▁Here	-10.7617
▁Bun	-10.7623
ID	-10.7627
▁emerged	-10.7627
▁Mala	-10.7628
▁Instead	-10.763
atic	-10.7633
▁Nelson	-10.7635
▁prompt	-10.7635
▁Fin	-10.7636
vet	-10.7637
ür	-10.7638
▁proceed	-10.7639
▁noble	-10.7641
En	-10.7641
▁(5	-10.7641
▁reportedly	-10.7642
▁traveled	-10.7643
▁plain	-10.7644
uro	-10.7645
▁App	-10.7645
▁scar	-10.7647
▁notice	-10.765
ML	-10.7652
▁liberal	-10.7654
▁ocean	-10.7654
▁Milan	-10.7655
RS	-10.7657
▁Stanley	-10.7657
imp	-10.7658
▁pack	-10.766
Sha	-10.7661
▁useful	-10.7663
▁qua	-10.7669
ui	-10.7669
ras	-10.7672
▁coup	-10.7673
▁sw	-10.7674
▁Distribution	-10.7674
▁Persian	-10.7674
▁Around	-10.7675
▁crown	-10.7679
▁Mai	-10.7681
▁Common	-10.7685
▁Leon	-10.7691
▁strategic	-10.7693
ago	-10.7698
mag	-10.7701
▁participants	-10.7702
uka	-10.7705
▁Gill	-10.7709
▁describe	-10.7711
▁concerned	-10.7713
▁employment	-10.7716
gli	-10.7716
▁1997.	-10.7716
▁encounter	-10.7719
NC	-10.772
▁innings	-10.7722
SE	-10.7728
▁neuro	-10.773
▁Jerusalem	-10.7733
▁Charlotte	-10.7733
▁changing	-10.7733
▁donated	-10.7736
▁Section	-10.7736
▁Gene	-10.7737
▁Mis	-10.7739
▁defending	-10.7744
sim	-10.7749
ancy	-10.775
kers	-10.775
▁Anton	-10.7751
▁thing	-10.7752
▁Peru	-10.7754
▁Fr	-10.7754
▁horses	-10.7756
pass	-10.7758
▁Ap	-10.7759
▁Chan	-10.7761
▁Girl	-10.7762
▁Portland	-10.7762
▁PC	-10.7765
▁Protestant	-10.7772
▁easy	-10.7772
tine	-10.7773
▁Spi	-10.7777
▁eighth	-10.7778
▁accounts	-10.7779
cz	-10.7783
▁sole	-10.7788
▁cards	-10.7791
making	-10.7791
▁depending	-10.7792
lat	-10.7807
▁UEFA	-10.7812
▁endemic	-10.7812
▁diameter	-10.7812
Su	-10.7813
▁Sultan	-10.7813
▁visible	-10.7816
tier	-10.7816
▁distinguished	-10.7816
▁Girls	-10.7816
qual	-10.7819
▁Bio	-10.7819
▁Serbia	-10.7821
▁Lea	-10.7822
nti	-10.7823
▁tests	-10.7825
▁agriculture	-10.7832
▁beautiful	-10.7832
▁preparation	-10.7832
▁Kur	-10.7832
hip	-10.7834
bia	-10.7839
bli	-10.784
▁premiere	-10.7842
▁1860	-10.7843
▁53	-10.7844
▁Met	-10.7844
erg	-10.7846
▁Racing	-10.7847
dem	-10.7851
▁Syria	-10.7851
▁demolished	-10.7852
horn	-10.7852
▁Nepal	-10.7855
ark	-10.7858
▁Romania	-10.7861
▁spend	-10.7861
▁youngest	-10.7862
▁occasions	-10.7862
rite	-10.7867
▁Romanian	-10.7871
▁vessel	-10.7871
▁Cultural	-10.7872
▁Digital	-10.7872
▁missile	-10.7872
▁Pot	-10.7878
▁Code	-10.7881
▁Critical	-10.7892
▁sleep	-10.7892
▁alleged	-10.7894
▁experimental	-10.7896
minute	-10.79
▁Merc	-10.7901
▁expand	-10.7902
idi	-10.7902
test	-10.7903
ogen	-10.7904
▁CA	-10.7907
▁Knight	-10.7908
▁Within	-10.7909
ule	-10.7911
▁Carlos	-10.7911
▁holiday	-10.7912
▁thousand	-10.7912
▁sample	-10.7913
▁characterized	-10.7923
▁Evans	-10.7923
▁Warren	-10.7925
▁beach	-10.7926
▁explain	-10.7926
▁Ara	-10.7926
▁pet	-10.7926
▁frequent	-10.7927
▁markets	-10.7927
▁bear	-10.7931
▁absence	-10.7932
▁voting	-10.7932
▁Urban	-10.7934
▁Along	-10.7936
NS	-10.794
raw	-10.7943
▁Horn	-10.7945
otic	-10.7946
▁integrated	-10.7948
tam	-10.7949
bie	-10.7951
▁departure	-10.7952
▁wedding	-10.7953
▁surgery	-10.7953
Or	-10.7953
▁earn	-10.7968
▁defender	-10.7968
▁preserved	-10.7968
▁legend	-10.7971
▁Fall	-10.7972
▁Arkansas	-10.7972
▁conservation	-10.7972
▁physician	-10.7972
▁thirty	-10.7972
▁attributed	-10.7972
▁poems	-10.7972
▁Jimmy	-10.7973
▁installation	-10.7976
quest	-10.7979
▁NBA	-10.7979
▁sight	-10.798
▁bull	-10.7981
▁friendly	-10.7981
issa	-10.7981
▁recovered	-10.7982
▁throw	-10.7983
▁collections	-10.7986
▁spoken	-10.7986
▁filmed	-10.7986
assi	-10.7989
▁column	-10.7989
-12	-10.7991
▁hop	-10.7991
▁Source	-10.7992
ranging	-10.7993
organ	-10.7994
▁portrayed	-10.7995
▁plea	-10.7999
▁soul	-10.8
née	-10.8002
lash	-10.8004
–5	-10.8004
▁marketing	-10.8008
▁encourage	-10.8011
▁Grade	-10.8012
▁compilation	-10.8012
▁Treaty	-10.8013
▁pit	-10.8014
▁municipalities	-10.8014
▁component	-10.8016
▁attending	-10.8018
▁fictional	-10.8018
profit	-10.8018
group	-10.8023
▁transportation	-10.8024
iber	-10.8024
▁seeking	-10.8028
▁Hampshire	-10.8033
▁bowl	-10.8036
▁instrumental	-10.8041
▁Wang	-10.8044
dh	-10.8045
2).	-10.8048
ude	-10.8049
Bu	-10.805
▁Beck	-10.8053
▁opportunities	-10.8053
▁essay	-10.8053
▁liquid	-10.8053
▁labour	-10.8054
▁Thailand	-10.8055
▁relocated	-10.8057
maker	-10.8059
▁visiting	-10.806
▁tools	-10.8062
°	-10.8065
eta	-10.8067
alis	-10.807
▁aim	-10.8071
▁retain	-10.8072
▁bone	-10.8073
▁neighbour	-10.8073
▁Taiwan	-10.8073
▁viewed	-10.8077
hour	-10.808
▁respond	-10.8081
▁Berg	-10.8082
▁Tang	-10.8083
tech	-10.8089
hab	-10.8089
▁printed	-10.8092
▁Mediterranean	-10.8094
▁Orleans	-10.8094
▁territories	-10.8094
▁Release	-10.8094
▁alliance	-10.8094
▁knew	-10.8095
▁greatly	-10.8095
▁Bible	-10.8096
▁papers	-10.81
▁Orange	-10.8101
▁movements	-10.8103
▁Bird	-10.8103
_2	-10.8105
tens	-10.8105
▁enjoyed	-10.811
hold	-10.8112
▁Socialist	-10.8113
▁Maha	-10.8114
▁restoration	-10.8114
▁Tru	-10.812
▁suspended	-10.812
iser	-10.812
▁gay	-10.8121
▁1991,	-10.8122
▁doctor	-10.8123
▁processing	-10.8126
▁guide	-10.8133
ways	-10.8134
▁customers	-10.8137
▁Graham	-10.814
▁Parish	-10.8147
▁Such	-10.8153
▁revolution	-10.8153
▁widow	-10.8155
tten	-10.8157
▁outbreak	-10.8161
▁wet	-10.8162
▁MA	-10.8166
▁aimed	-10.8174
▁Hispanic	-10.8176
▁Trophy	-10.8177
ingham	-10.8178
rav	-10.8179
▁bell	-10.8179
▁grey	-10.818
▁Princess	-10.818
mili	-10.8183
▁responded	-10.8189
▁entertainment	-10.8197
▁recipient	-10.8197
▁palace	-10.8197
▁plate	-10.8198
▁suffering	-10.8199
4,	-10.82
▁reporter	-10.82
▁merger	-10.8201
▁blow	-10.8202
▁patient	-10.8205
atus	-10.8206
nel	-10.8206
▁deployed	-10.8207
tak	-10.8213
jun	-10.8213
▁constitution	-10.8214
▁Municipal	-10.8214
▁essential	-10.8214
SD	-10.8215
▁Henri	-10.8215
▁Limited	-10.8217
▁Der	-10.8219
than	-10.8219
▁Gla	-10.8222
film	-10.8222
▁Just	-10.8223
▁Side	-10.8225
vation	-10.8227
AL	-10.8227
stic	-10.8231
▁discovery	-10.8234
ED	-10.8234
▁Confederate	-10.8238
▁coalition	-10.8238
▁secured	-10.8241
–7	-10.8242
▁reduction	-10.8245
▁normally	-10.8248
▁Vel	-10.8249
▁Mari	-10.825
▁Ent	-10.8251
▁Serbian	-10.8254
HS	-10.8255
▁54	-10.8255
gna	-10.8256
▁meets	-10.8258
▁indigenous	-10.8259
▁Trinity	-10.8259
▁superior	-10.8259
▁abroad	-10.8259
pon	-10.826
script	-10.826
▁Municipality	-10.8262
dell	-10.8263
▁Xi	-10.8264
▁sing	-10.8266
▁Mall	-10.8267
▁seal	-10.8271
▁claiming	-10.8276
▁Attorney	-10.8279
▁Freedom	-10.828
▁belonged	-10.8281
▁Tai	-10.8281
▁boats	-10.8291
apa	-10.8292
▁obtain	-10.8294
llo	-10.8295
▁developer	-10.8295
rose	-10.8296
ids	-10.8296
▁Benjamin	-10.83
▁significance	-10.83
▁alternate	-10.8301
▁Hur	-10.8301
▁Kenya	-10.8304
enc	-10.8304
▁affiliated	-10.8312
hil	-10.8313
foot	-10.8314
▁salt	-10.8314
TE	-10.8317
▁te	-10.8318
▁grown	-10.8319
▁extreme	-10.8319
▁Beijing	-10.8321
▁Windows	-10.8321
▁everything	-10.8322
made	-10.8324
▁wealth	-10.8324
3.	-10.8325
▁Name	-10.8326
ün	-10.8328
▁assets	-10.833
mine	-10.8331
coming	-10.8332
rina	-10.8333
▁Kel	-10.8335
▁researchers	-10.8342
▁makeup	-10.8343
▁mountains	-10.8344
▁descent	-10.8344
▁delay	-10.8345
▁Initially	-10.8346
mma	-10.8348
▁Armenian	-10.835
▁Father	-10.8352
▁activist	-10.8355
shan	-10.8356
nell	-10.8356
▁verse	-10.8363
▁Soon	-10.8363
▁Fra	-10.8363
▁Transportation	-10.8369
pell	-10.8372
▁Tha	-10.8372
piece	-10.8374
lab	-10.8375
Mu	-10.8377
▁gone	-10.8378
▁Books	-10.8378
▁Andy	-10.8381
▁Lind	-10.8382
▁emperor	-10.8384
▁Further	-10.8384
▁sur	-10.8384
▁Maine	-10.8384
xe	-10.8385
▁missed	-10.8387
▁fu	-10.8387
mobil	-10.8389
▁Communications	-10.8389
▁immediate	-10.839
mini	-10.8392
ović	-10.8393
▁Iranian	-10.8394
language	-10.8395
▁den	-10.8398
mul	-10.8398
▁exit	-10.8399
ree	-10.8403
▁meetings	-10.8405
▁Bristol	-10.8405
▁nurse	-10.8405
▁serial	-10.8407
▁airline	-10.8408
▁Virgin	-10.841
▁commanded	-10.841
aq	-10.841
bird	-10.8412
ota	-10.8415
pra	-10.8415
dow	-10.8418
▁estimate	-10.8426
▁YouTube	-10.8426
▁grandfather	-10.8426
▁whil	-10.8427
▁cabinet	-10.8428
▁collective	-10.8428
▁Cent	-10.8429
▁Wen	-10.843
▁rebuilt	-10.8431
ground	-10.8432
▁1896	-10.8432
▁Sav	-10.8435
DI	-10.8436
▁Turk	-10.8438
▁Lim	-10.8443
▁Kings	-10.8444
▁Warner	-10.8445
▁Springs	-10.8446
▁Peninsula	-10.8447
▁sharp	-10.8447
PC	-10.8447
▁profile	-10.8448
▁creative	-10.8448
▁prop	-10.8449
▁Our	-10.8454
▁root	-10.8454
▁behalf	-10.8458
▁shares	-10.846
▁Lil	-10.8461
▁facing	-10.8461
▁Gas	-10.8462
▁weapon	-10.8463
▁junction	-10.8469
▁ni	-10.847
▁wants	-10.847
▁NA	-10.8472
MI	-10.8473
▁climb	-10.8475
jar	-10.8475
▁min	-10.8479
▁apparently	-10.8481
▁writes	-10.8482
ager	-10.8483
gas	-10.8484
▁anchor	-10.8485
▁Jason	-10.8486
fus	-10.8487
▁perspective	-10.849
▁fossil	-10.849
-17	-10.849
▁petition	-10.849
tang	-10.8491
▁Michel	-10.8491
▁representatives	-10.8492
▁Billy	-10.8493
▁1892	-10.8496
▁Baptist	-10.8497
▁thin	-10.8498
▁Apple	-10.8498
nica	-10.8498
▁adults	-10.8503
▁contribution	-10.8507
uma	-10.8509
▁Manhattan	-10.8511
▁advertising	-10.8511
▁execution	-10.8511
▁mathematics	-10.8511
eur	-10.8511
▁beetle	-10.8512
▁Yan	-10.8513
▁Scout	-10.8516
▁skill	-10.8516
▁begun	-10.8519
▁Ice	-10.852
ulu	-10.8525
RT	-10.8529
▁volunteer	-10.8529
▁Double	-10.8532
amo	-10.8535
▁qualify	-10.8539
include	-10.8544
PI	-10.8551
main	-10.8552
▁Buddhist	-10.8554
▁copy	-10.8557
▁voters	-10.8559
-5	-10.8563
lain	-10.8563
dro	-10.8568
▁Jose	-10.8569
▁missions	-10.8572
▁resident	-10.8573
CP	-10.8573
iki	-10.8574
▁listen	-10.8574
▁Afghanistan	-10.8575
▁lieutenant	-10.8575
anti	-10.8576
▁Ny	-10.8577
▁benefits	-10.8578
▁Abu	-10.8579
▁virus	-10.8581
▁ready	-10.8584
ending	-10.8588
kon	-10.8591
oi	-10.8591
code	-10.8592
▁Philippine	-10.8595
▁corporate	-10.8597
▁Soccer	-10.8597
▁encouraged	-10.8598
▁Leonard	-10.8599
▁Div	-10.8605
▁remove	-10.8607
▁Steel	-10.8617
hur	-10.8618
▁Glasgow	-10.8618
▁Mitchell	-10.8618
▁organised	-10.862
▁Arabic	-10.8628
▁diverse	-10.8628
▁supporters	-10.8628
tag	-10.8633
▁Hel	-10.8636
▁affiliate	-10.8639
wed	-10.864
cott	-10.8642
▁Qua	-10.8645
▁ceased	-10.865
▁championships	-10.8651
rai	-10.8652
▁Wayne	-10.8652
▁broadcasting	-10.8656
ON	-10.8656
▁Helen	-10.8661
▁shelter	-10.8662
▁Shan	-10.8662
▁afterwards	-10.8663
▁Beau	-10.8665
▁Boys	-10.8666
▁scientists	-10.8669
hua	-10.867
▁Chile	-10.8671
▁Yorkshire	-10.8671
▁partially	-10.8673
▁matters	-10.8674
▁Arena	-10.8675
▁vs	-10.8678
▁publicly	-10.8685
mates	-10.8688
▁Ghana	-10.8689
▁Students	-10.8689
▁Rail	-10.869
▁1895	-10.869
corp	-10.8692
dig	-10.8692
vie	-10.8692
▁picked	-10.8693
ished	-10.8693
▁Ul	-10.8693
▁Gary	-10.8701
Sp	-10.8701
▁Territory	-10.8705
▁Vancouver	-10.8705
▁intellectual	-10.8705
▁legislative	-10.8705
▁Charlie	-10.8708
▁Kirk	-10.8712
▁undergo	-10.8713
▁implemented	-10.8715
sho	-10.8718
▁operational	-10.872
▁Grey	-10.8723
▁cemetery	-10.8726
▁predecessor	-10.8726
▁romantic	-10.8726
lé	-10.873
▁protests	-10.8731
▁inner	-10.8732
▁1885	-10.8734
▁dominated	-10.8734
duction	-10.874
▁personality	-10.8741
▁tribes	-10.8741
▁demo	-10.8742
▁Luis	-10.8743
▁AC	-10.8744
▁discipline	-10.8748
▁escort	-10.8748
▁overseas	-10.8748
▁coordinate	-10.8749
▁clinical	-10.875
▁displayed	-10.875
▁Until	-10.875
▁principle	-10.8751
clu	-10.8753
▁Bab	-10.8754
▁commented	-10.8755
▁trend	-10.8755
▁heir	-10.8756
▁reveals	-10.8756
lee	-10.8756
bot	-10.8757
▁Spec	-10.8758
dio	-10.876
SR	-10.8766
hai	-10.8767
ifying	-10.8767
▁exile	-10.8767
ibility	-10.8767
kie	-10.8769
vig	-10.877
▁cave	-10.8772
anta	-10.8774
▁Spe	-10.8774
▁Branch	-10.8774
▁detailed	-10.878
▁kg	-10.8781
▁everyone	-10.8784
poli	-10.8785
▁couples	-10.8788
posed	-10.8788
radi	-10.8789
▁qualification	-10.8792
▁inscription	-10.8792
▁Bosnia	-10.8792
▁Susan	-10.8793
prov	-10.8793
ör	-10.8796
vern	-10.8801
space	-10.8804
▁Harrison	-10.8806
▁Late	-10.881
▁enable	-10.8811
▁dismissed	-10.8813
CT	-10.8813
▁timber	-10.8814
▁monarch	-10.8814
▁Last	-10.8815
omi	-10.8817
▁Nigeria	-10.8822
▁runner	-10.8826
▁Isle	-10.8827
▁Grove	-10.8827
▁employ	-10.8828
hang	-10.8829
▁Comm	-10.8831
other	-10.8832
▁none	-10.8833
▁$4	-10.8833
▁yield	-10.8836
▁Abbey	-10.8836
▁Therefore	-10.8836
▁leaf	-10.8838
▁establishing	-10.8838
▁bright	-10.8839
▁implementation	-10.8843
2%	-10.8844
CD	-10.8846
▁dynamic	-10.8848
▁electro	-10.8853
anna	-10.8854
▁acquisition	-10.8858
▁narrative	-10.8858
▁signature	-10.8858
▁cru	-10.8858
ening	-10.8858
▁66	-10.8862
▁mere	-10.8866
▁dual	-10.8868
▁Sor	-10.8871
itis	-10.8876
hav	-10.888
▁adventure	-10.8881
▁Mine	-10.8881
▁ir	-10.8882
▁Rangers	-10.8884
▁1893	-10.8886
▁licensed	-10.889
▁AM	-10.889
▁themes	-10.8891
count	-10.8891
bri	-10.8898
▁Video	-10.89
▁Sat	-10.8901
▁recognised	-10.8902
7,	-10.8905
witch	-10.8905
▁peer	-10.891
▁amongst	-10.891
▁Joan	-10.8915
▁mal	-10.8916
hel	-10.8917
NT	-10.8919
▁Wrestling	-10.8924
▁corporation	-10.8924
▁insurance	-10.8924
▁advice	-10.8924
▁terminus	-10.8925
▁illness	-10.8927
IM	-10.8932
cot	-10.8933
▁Mand	-10.8935
EA	-10.8935
▁Broadcasting	-10.8939
▁manufacturer	-10.8939
▁1,000	-10.894
▁Santo	-10.8941
▁Had	-10.8942
▁networks	-10.8944
▁remote	-10.8946
tress	-10.8949
▁120	-10.895
▁Hunter	-10.8951
▁canal	-10.8952
▁Lev	-10.8957
▁succeed	-10.8957
▁Jun	-10.8961
active	-10.8961
▁principles	-10.8966
EP	-10.8966
▁competitor	-10.8969
▁truth	-10.8969
▁radical	-10.8969
▁tip	-10.8969
▁pursue	-10.8969
▁Hell	-10.8969
▁golf	-10.8971
West	-10.8973
▁Kill	-10.8974
▁rivers	-10.8976
▁Every	-10.8976
▁consist	-10.8977
▁Zone	-10.8979
▁Kara	-10.898
▁XI	-10.8982
▁Former	-10.8984
hat	-10.8986
▁examination	-10.8991
▁Anglo	-10.8991
Par	-10.8991
aux	-10.8994
▁funded	-10.8995
ía	-10.8998
base	-10.9
▁gear	-10.9003
▁pain	-10.9006
▁conventional	-10.9006
▁heads	-10.9007
eter	-10.9009
▁occasion	-10.9009
▁log	-10.9009
▁mineral	-10.9011
▁FIFA	-10.9013
▁Mile	-10.9013
▁Barb	-10.9015
cene	-10.902
▁sentenced	-10.9022
▁Honours	-10.9022
▁1000	-10.9024
▁involves	-10.9025
gil	-10.9027
▁exists	-10.9034
▁mounted	-10.9036
▁brigade	-10.9036
▁destination	-10.9036
▁fundamental	-10.9036
▁withdrew	-10.9036
▁ongoing	-10.9038
▁borough	-10.9042
▁continuous	-10.9043
owned	-10.9048
▁athletes	-10.905
▁opponents	-10.9054
▁Palm	-10.9055
▁agents	-10.9056
▁patron	-10.9057
▁categories	-10.9058
▁crossed	-10.9061
▁Tin	-10.9063
▁sponsored	-10.9063
▁infection	-10.9064
▁define	-10.9066
▁solar	-10.907
▁Die	-10.9071
▁VI	-10.9072
away	-10.9074
▁1850	-10.9075
logy	-10.9077
▁Hai	-10.9077
▁relationships	-10.9081
▁fifteen	-10.9081
▁supplies	-10.9081
▁animated	-10.9081
▁Mess	-10.9081
▁Throughout	-10.9082
▁Fine	-10.9083
▁desert	-10.9083
▁directors	-10.9085
▁Burg	-10.9088
▁EU	-10.9088
power	-10.9089
▁charts	-10.9093
▁farmers	-10.9093
▁photography	-10.9094
▁prove	-10.9094
aro	-10.9094
▁lift	-10.9096
▁exposed	-10.9099
▁cluster	-10.9103
▁resort	-10.9103
▁exceed	-10.9103
▁isolated	-10.9103
gur	-10.9104
▁Members	-10.9105
rou	-10.9107
▁Alberta	-10.9107
▁Chang	-10.9107
▁thereafter	-10.9108
hun	-10.9112
mile	-10.9114
▁traded	-10.9115
▁outer	-10.9117
▁belief	-10.9117
rh	-10.9121
▁cargo	-10.9121
ulf	-10.9122
▁Ei	-10.9124
▁Pierre	-10.9124
▁CE	-10.9126
iko	-10.9127
▁constitutional	-10.913
▁index	-10.913
▁implement	-10.913
Am	-10.9131
etta	-10.9132
▁Rosa	-10.9135
▁Sil	-10.914
▁fresh	-10.9143
▁coin	-10.9144
▁Well	-10.9148
▁accurate	-10.9149
▁imperial	-10.9149
▁drafted	-10.9149
▁jail	-10.9149
▁recover	-10.915
▁Ground	-10.9157
ovich	-10.9158
▁discover	-10.9159
▁legs	-10.9159
▁Hawaii	-10.916
▁Swa	-10.9163
▁Studio	-10.9164
wide	-10.9164
WA	-10.9165
▁Dead	-10.9166
▁Bart	-10.9171
▁smooth	-10.9171
▁Liga	-10.9172
▁relation	-10.9172
▁lists	-10.9172
▁nest	-10.9174
cycl	-10.9177
▁dia	-10.9178
try	-10.919
▁deck	-10.919
▁elect	-10.9191
grad	-10.9192
hoe	-10.9194
▁completing	-10.9194
▁comparison	-10.9194
▁Dragon	-10.9194
vir	-10.9195
▁contribute	-10.9196
▁sugar	-10.9196
):	-10.9197
▁emotional	-10.921
▁indicate	-10.9211
▁SC	-10.9215
▁Academic	-10.9217
▁Results	-10.9217
▁fragment	-10.9217
▁Punjab	-10.9217
rot	-10.9217
▁swimming	-10.9217
iro	-10.9218
▁57	-10.9221
▁blocks	-10.9222
▁honorary	-10.9223
gus	-10.9223
▁1987,	-10.9224
rous	-10.9228
eastern	-10.9228
lade	-10.9228
▁Off	-10.9231
▁Record	-10.9232
ña	-10.9232
▁Turner	-10.9233
▁Latino	-10.9234
front	-10.9238
▁inaugural	-10.924
▁inspiration	-10.924
▁rider	-10.9244
▁Saudi	-10.9247
mand	-10.9249
▁rap	-10.9256
▁1996.	-10.9256
▁Nik	-10.9262
▁cartoon	-10.9263
▁ninth	-10.9263
▁Alaska	-10.9263
▁submitted	-10.9264
▁settlers	-10.9264
empt	-10.9264
▁Friday	-10.9265
▁evolution	-10.9267
hem	-10.928
▁Alice	-10.9281
▁PhD	-10.9281
▁Cher	-10.9284
▁thirteen	-10.9286
▁Technical	-10.9286
▁Hat	-10.9288
pit	-10.9295
▁closer	-10.9295
▁58	-10.9295
iness	-10.9301
▁Kas	-10.9302
▁slave	-10.9305
zel	-10.9305
lined	-10.9305
▁designation	-10.9307
▁Clinton	-10.9309
▁connecting	-10.9309
▁vertical	-10.931
▁Fur	-10.9312
▁Near	-10.9312
▁tea	-10.9313
▁engagement	-10.9315
▁solve	-10.9315
▁Web	-10.9316
oul	-10.9318
ppy	-10.9319
▁coat	-10.9319
rug	-10.9321
▁Bulgarian	-10.9321
▁rounds	-10.9321
▁distinction	-10.9322
▁credits	-10.9322
▁Marc	-10.9323
▁advocate	-10.9324
Har	-10.9331
▁destroy	-10.9332
▁Care	-10.9333
dre	-10.9338
▁72	-10.9338
▁56	-10.9345
▁Leeds	-10.9346
▁defend	-10.9349
amine	-10.935
▁dimension	-10.9352
gni	-10.9352
▁partly	-10.9352
▁sailed	-10.9353
▁discussed	-10.9354
▁highlight	-10.9355
▁throne	-10.9355
▁extent	-10.9355
▁doubt	-10.9355
▁Spirit	-10.9356
▁lit	-10.9356
▁Delhi	-10.9358
wy	-10.9358
▁def	-10.9359
▁Dec	-10.9359
▁Small	-10.936
▁Much	-10.936
▁Dog	-10.9361
edge	-10.9362
▁channels	-10.9364
▁(6	-10.9368
hm	-10.9369
▁Nation	-10.937
▁demonstrated	-10.937
May	-10.9374
German	-10.9375
oka	-10.9375
▁Brisbane	-10.9378
▁statistics	-10.938
month	-10.9381
Don	-10.9383
▁initiated	-10.9384
▁1894	-10.9385
nish	-10.9387
▁Eight	-10.9388
▁locally	-10.9392
DE	-10.9395
▁Formula	-10.9398
▁Barn	-10.9399
▁riding	-10.9401
▁faction	-10.9401
▁Assistant	-10.9401
▁earthquake	-10.9401
▁Hudson	-10.9402
▁remix	-10.9402
▁Neu	-10.9402
▁Greater	-10.9403
▁slope	-10.9403
brook	-10.9403
▁Sm	-10.9406
▁soldier	-10.9407
▁1861	-10.9407
▁Johnny	-10.9408
▁provision	-10.9408
▁250	-10.941
▁locomotives	-10.941
▁civilian	-10.9412
▁1986,	-10.9413
▁driven	-10.9416
dou	-10.9418
▁Brand	-10.9421
four	-10.9421
ashi	-10.9423
▁phrase	-10.9425
▁shock	-10.9425
▁Gabriel	-10.9425
▁steal	-10.9425
▁banned	-10.9426
▁detail	-10.9428
▁rated	-10.9428
▁platforms	-10.9429
▁Buffalo	-10.9448
▁clearly	-10.9451
▁businessman	-10.9451
▁Jerry	-10.9451
amba	-10.9452
▁alter	-10.9452
▁guilty	-10.9453
▁Lock	-10.9456
▁Bert	-10.9457
▁Cuba	-10.9457
mos	-10.9458
▁Short	-10.9459
▁exclusively	-10.946
▁Colombia	-10.9461
▁1991.	-10.9468
polis	-10.947
▁mechanical	-10.947
ño	-10.947
org	-10.9471
▁Faculty	-10.9472
▁dominant	-10.9472
▁emphasis	-10.9472
hom	-10.9475
▁baby	-10.9476
tty	-10.948
▁patterns	-10.9485
▁seeing	-10.949
▁partners	-10.9491
yon	-10.9494
nation	-10.9496
▁drummer	-10.9496
▁rising	-10.9497
▁hyper	-10.9498
▁roots	-10.95
▁Rama	-10.9503
▁focuses	-10.9507
▁Dom	-10.9508
▁permit	-10.9512
path	-10.9516
▁2–1	-10.9516
ivers	-10.9519
ée	-10.952
▁hundreds	-10.9522
▁Franco	-10.9526
lig	-10.9528
▁spell	-10.9533
imi	-10.9534
▁Falls	-10.9534
▁touring	-10.9535
uru	-10.9535
▁Kol	-10.9537
▁package	-10.9538
ift	-10.9541
▁ritual	-10.9542
▁tissue	-10.9543
▁permission	-10.9544
smith	-10.9545
▁else	-10.9551
uni	-10.9551
sz	-10.9551
▁tribute	-10.9551
DC	-10.9552
▁Bryan	-10.9552
Ri	-10.9557
▁movies	-10.9559
▁borders	-10.956
▁clothing	-10.956
▁electrical	-10.9561
▁generated	-10.9562
ache	-10.9562
▁Circuit	-10.9566
▁Conservation	-10.9566
▁expense	-10.9566
▁closing	-10.9566
▁producers	-10.9568
▁Storm	-10.9569
▁Hope	-10.957
▁Barry	-10.9572
lag	-10.9579
oriented	-10.9581
▁charity	-10.959
▁suppress	-10.959
pir	-10.959
▁Luc	-10.959
ido	-10.9591
▁Costa	-10.9593
▁opponent	-10.9594
▁corps	-10.9595
▁negotiations	-10.9596
▁clan	-10.9597
stock	-10.9599
▁lowest	-10.9601
Cl	-10.9604
▁Fun	-10.9609
▁immigrants	-10.9611
▁Action	-10.9612
▁servant	-10.9613
Pe	-10.9614
▁linear	-10.9617
nut	-10.9618
igan	-10.962
▁1865	-10.962
▁Nam	-10.9622
▁handle	-10.9626
▁coaching	-10.9626
▁attraction	-10.9628
▁gap	-10.963
▁1995.	-10.9631
▁housed	-10.9636
▁Anglican	-10.9637
▁monastery	-10.9637
▁topics	-10.9638
wai	-10.9639
▁Cass	-10.9643
▁playoffs	-10.9646
ody	-10.9649
▁sponsor	-10.965
▁fighter	-10.965
sted	-10.965
uda	-10.965
hydr	-10.965
asa	-10.9657
▁collect	-10.966
▁signs	-10.966
▁Adelaide	-10.9661
▁eldest	-10.9661
▁delivery	-10.9661
▁Furthermore	-10.9662
▁conversion	-10.9662
▁treaty	-10.9663
▁functional	-10.9665
▁sixteen	-10.9665
▁NHL	-10.9668
mitt	-10.9669
free	-10.9671
▁59	-10.9671
inus	-10.9672
member	-10.9678
▁extract	-10.9678
raj	-10.9681
▁participating	-10.9685
▁Allied	-10.9686
▁collapse	-10.9687
▁download	-10.9688
▁anyone	-10.9691
Bar	-10.9692
▁800	-10.9698
CE	-10.9699
▁ranks	-10.97
▁Daily	-10.97
▁styles	-10.9701
▁consul	-10.9701
city	-10.9702
▁regulations	-10.9702
chard	-10.9703
–17	-10.9707
ppe	-10.9708
▁corresponding	-10.9709
▁Operations	-10.9715
▁Woman	-10.9717
▁Alexandr	-10.9721
pher	-10.9721
▁decide	-10.9722
▁concerts	-10.9723
▁prince	-10.9724
▁Southeast	-10.9726
▁dancer	-10.9726
etti	-10.9727
▁crimes	-10.9729
▁possibility	-10.9733
▁preferred	-10.9734
▁Democrat	-10.9734
NR	-10.9735
▁attract	-10.9736
▁speaking	-10.9737
▁1887	-10.9739
▁falling	-10.9739
mara	-10.9742
▁1998.	-10.9746
▁vast	-10.9746
▁elder	-10.9746
mount	-10.975
mur	-10.9754
▁Jin	-10.9754
lines	-10.9755
rod	-10.9755
▁asks	-10.9756
▁receiver	-10.9757
▁Barcelona	-10.9757
▁Caribbean	-10.9757
▁Universal	-10.9757
▁aggregate	-10.9757
▁resemble	-10.9757
▁subsidiary	-10.9757
▁Jamaica	-10.9757
▁Legacy	-10.9757
cock	-10.9757
▁explore	-10.9757
▁Craig	-10.976
▁dozen	-10.9761
PP	-10.9761
▁jury	-10.9764
▁pitcher	-10.9765
wise	-10.9766
aud	-10.9768
▁sack	-10.9768
building	-10.9769
▁Lions	-10.9771
▁sang	-10.9772
▁ear	-10.9772
▁Set	-10.9774
▁Aero	-10.9775
▁tanks	-10.9777
eno	-10.9778
▁funeral	-10.9781
▁Microsoft	-10.9781
▁Hugh	-10.9783
▁Derby	-10.9783
▁cattle	-10.9783
▁loop	-10.9787
▁adopt	-10.9792
ault	-10.9795
▁Gon	-10.9797
▁Wol	-10.9801
▁wealthy	-10.9802
▁Start	-10.9802
▁wings	-10.9804
▁algorithm	-10.9805
▁legislature	-10.9805
▁wrestling	-10.9805
▁giant	-10.9806
▁Owen	-10.9812
▁meta	-10.9813
▁mini	-10.9813
mad	-10.9814
▁prices	-10.9815
▁affair	-10.9816
▁centers	-10.9816
rak	-10.9819
▁register	-10.982
▁manage	-10.9821
▁Leo	-10.9821
▁moderate	-10.9821
▁Zu	-10.9822
tem	-10.9823
▁Gan	-10.9827
▁tract	-10.9829
▁Ski	-10.9829
▁describing	-10.983
▁originated	-10.9835
▁wage	-10.9835
▁commitment	-10.9835
▁keeping	-10.9836
▁1888	-10.9837
plat	-10.9841
▁winds	-10.9844
quet	-10.9847
after	-10.9849
lift	-10.9849
▁Pont	-10.985
standing	-10.9851
▁DJ	-10.9853
white	-10.9854
▁Dakota	-10.9854
▁Symphony	-10.9854
▁violent	-10.9854
fri	-10.9854
▁#1	-10.9855
▁boundaries	-10.9855
▁analog	-10.9855
▁neck	-10.986
tham	-10.986
shin	-10.9862
▁convicted	-10.9863
▁photographer	-10.9869
▁trials	-10.9869
▁AR	-10.9871
mut	-10.9872
▁Salt	-10.9876
▁volumes	-10.9876
▁congregation	-10.9878
South	-10.9879
▁Survey	-10.9879
aku	-10.9887
▁unsuccessful	-10.9888
▁Mut	-10.9888
▁doubles	-10.9888
▁communist	-10.989
iga	-10.9891
▁Recording	-10.9893
▁USS	-10.9894
▁Ian	-10.9896
400	-10.9897
▁Gran	-10.9899
Com	-10.9899
mill	-10.99
gio	-10.9902
▁Together	-10.9903
▁Catherine	-10.9903
▁Norfolk	-10.9903
▁mistake	-10.9904
▁pull	-10.9906
▁favorite	-10.9907
▁roster	-10.9907
▁teammate	-10.9908
▁1881	-10.991
guard	-10.9914
mbo	-10.9916
▁Stage	-10.9918
▁measurement	-10.9921
rest	-10.9921
park	-10.9923
▁Hit	-10.9923
▁Fisher	-10.9925
▁bombing	-10.993
▁decrease	-10.993
vas	-10.9933
▁electricity	-10.9933
Fi	-10.9933
▁bench	-10.9937
ality	-10.9943
▁cult	-10.9946
▁Mul	-10.995
▁sequel	-10.9952
▁Writing	-10.9952
▁flank	-10.9952
▁Policy	-10.9952
▁Collins	-10.9953
▁accessible	-10.9955
-0	-10.9956
Ga	-10.9957
▁Sign	-10.9957
▁Formation	-10.9957
▁Pl	-10.9959
▁devoted	-10.9961
liga	-10.9962
▁indicates	-10.9965
▁600	-10.9965
▁insect	-10.9967
▁wound	-10.9967
▁Finally	-10.9968
▁traditions	-10.9974
▁MS	-10.9976
▁judges	-10.9976
▁accommodate	-10.9977
▁circumstances	-10.9977
▁delegate	-10.9977
tum	-10.9977
▁Munich	-10.9978
▁Cinema	-10.9979
ood	-10.998
▁Direct	-10.9982
wall	-10.9983
bir	-10.9988
stro	-10.9992
▁Julie	-10.9996
▁Alt	-10.9996
▁nearest	-10.9997
order	-11
▁Nevada	-11.0001
▁Manuel	-11.0003
▁Vincent	-11.0003
▁loose	-11.0003
▁assisted	-11.0003
avan	-11.0007
▁1891	-11.0008
▁Kun	-11.0008
▁Ring	-11.0009
▁Yang	-11.001
▁beating	-11.0012
omo	-11.0014
▁drink	-11.0016
▁Dha	-11.0018
mia	-11.0022
▁Chen	-11.0023
▁neither	-11.0026
▁Ridge	-11.0026
▁Borough	-11.0027
▁cash	-11.0027
died	-11.0028
▁biological	-11.0028
▁suitable	-11.0031
force	-11.0032
▁RAF	-11.0033
▁1889	-11.0033
▁10,000	-11.0036
▁extensively	-11.0037
;&	-11.0039
bun	-11.004
▁boot	-11.004
odor	-11.0045
open	-11.0045
▁Jonathan	-11.0051
▁renovation	-11.0051
▁burial	-11.0051
▁disaster	-11.0051
▁Climate	-11.0051
▁fame	-11.0052
▁ballot	-11.0055
▁Andre	-11.0058
▁Oliver	-11.0059
▁Current	-11.0062
▁Site	-11.0062
▁Ok	-11.0065
▁verb	-11.0066
▁Was	-11.0066
plane	-11.0067
▁confront	-11.0067
▁expert	-11.0068
enburg	-11.0068
▁victim	-11.0069
▁mat	-11.0073
pressed	-11.0075
▁Archbishop	-11.0076
▁Data	-11.0077
▁Jazz	-11.008
▁ridge	-11.0081
oga	-11.0082
AD	-11.0083
▁produces	-11.0096
▁Fen	-11.0098
▁breaking	-11.0098
▁input	-11.0098
lyn	-11.0099
ages	-11.01
Jo	-11.01
▁grows	-11.01
▁horror	-11.0101
rol	-11.0105
▁steps	-11.0106
dicate	-11.0108
▁1886	-11.0108
▁supposed	-11.011
▁sees	-11.0112
Mon	-11.0112
ony	-11.0114
▁Shaw	-11.0114
wich	-11.0115
▁eggs	-11.0119
▁Carol	-11.0121
▁Industry	-11.0126
▁Pradesh	-11.0126
▁Appeal	-11.0126
▁settlements	-11.0126
eni	-11.013
HA	-11.0131
▁prefer	-11.0133
▁Admiral	-11.0133
quin	-11.0136
▁Kn	-11.0139
hra	-11.0141
▁Christianity	-11.0145
▁78	-11.0147
▁wider	-11.0148
cover	-11.0151
▁interchange	-11.0151
▁dangerous	-11.0152
iri	-11.0153
▁pastor	-11.0153
▁curve	-11.0154
▁Harbor	-11.0154
▁76	-11.0156
▁Crime	-11.0158
bid	-11.016
friend	-11.0161
▁enrolled	-11.0162
odi	-11.0164
▁Democrats	-11.0167
▁61	-11.0173
▁engage	-11.0173
▁eligible	-11.0176
▁identical	-11.0176
▁structural	-11.0176
▁hunting	-11.0176
▁prospect	-11.0179
▁outdoor	-11.0181
9,	-11.0182
▁rarely	-11.0182
▁requested	-11.0182
ema	-11.0182
▁LP	-11.0184
▁recognize	-11.0185
▁videos	-11.0195
▁Sher	-11.0195
▁drugs	-11.0196
izer	-11.0197
own	-11.0198
yle	-11.02
▁Pictures	-11.0201
▁Byzantine	-11.0201
▁helicopter	-11.0201
▁unincorporated	-11.0201
▁Jefferson	-11.0201
▁breast	-11.0201
craft	-11.0202
▁lawsuit	-11.0202
▁Soul	-11.0203
▁closure	-11.0203
▁promise	-11.0204
▁progressive	-11.0207
▁1945,	-11.0208
▁wearing	-11.0208
FF	-11.0211
▁Hum	-11.0212
▁Chapel	-11.0214
▁waste	-11.0214
▁finals	-11.0222
▁Nine	-11.0223
▁machines	-11.0223
▁substance	-11.0226
rad	-11.0227
dian	-11.0228
▁flew	-11.0228
▁Future	-11.0229
▁quarterback	-11.0229
▁tight	-11.023
▁communications	-11.0231
▁1882	-11.0232
Ru	-11.0232
▁É	-11.0236
▁doesn	-11.0238
▁Gy	-11.0243
shaw	-11.0245
▁Fab	-11.0248
▁Album	-11.025
▁Collection	-11.0252
▁Nebraska	-11.0252
▁certified	-11.0252
▁Argentine	-11.0252
▁Gau	-11.0252
▁assignment	-11.0252
▁administrator	-11.0253
▁eighteen	-11.0253
4,000	-11.0253
trans	-11.0255
two	-11.026
ovsky	-11.026
▁fin	-11.0263
CI	-11.0272
eira	-11.0274
fully	-11.0275
▁supplement	-11.0277
PD	-11.0277
▁Athens	-11.0278
winning	-11.0278
▁Finance	-11.0279
▁Species	-11.0279
▁farming	-11.0286
▁Parker	-11.0291
▁Eye	-11.0292
▁decides	-11.0294
rier	-11.0296
cil	-11.0297
ried	-11.0301
▁seem	-11.0303
▁framework	-11.0305
▁Those	-11.0305
▁1863	-11.0309
▁Harold	-11.0309
iana	-11.0316
▁Plain	-11.0316
▁influences	-11.0317
▁monitor	-11.0317
site	-11.0318
▁Lauren	-11.0318
page	-11.032
▁1992.	-11.0322
▁basin	-11.0322
scape	-11.0327
▁compiled	-11.0328
▁exposure	-11.0329
▁Barbara	-11.0329
▁summit	-11.0329
▁fitted	-11.033
One	-11.033
▁acres	-11.0331
▁usage	-11.0334
▁quick	-11.0334
▁Sad	-11.0335
▁1884	-11.0335
berry	-11.0335
hit	-11.0337
esis	-11.034
-16	-11.0345
▁Grace	-11.0346
▁clock	-11.0346
▁manufactured	-11.0346
inated	-11.0346
hum	-11.0348
▁tomb	-11.0352
▁incumbent	-11.0353
▁depression	-11.0353
▁radar	-11.0354
▁random	-11.0356
IR	-11.0361
▁mask	-11.0363
gest	-11.0364
released	-11.0364
elo	-11.0365
▁spaces	-11.0365
▁burn	-11.0366
▁delayed	-11.0369
▁Drive	-11.0371
▁Males	-11.0371
▁confirm	-11.0372
▁Semi	-11.0374
▁85	-11.0375
▁Hau	-11.0379
▁Newcastle	-11.0379
▁enzyme	-11.0379
▁Drama	-11.0381
▁Pedro	-11.0381
▁honors	-11.0384
central	-11.0384
▁Mou	-11.0385
▁beam	-11.0389
▁myth	-11.0389
cop	-11.0394
▁Congo	-11.0397
▁reward	-11.0398
▁Rabbi	-11.0398
▁Cab	-11.0403
▁Performance	-11.0405
▁bachelor	-11.0405
▁Stuart	-11.0405
▁Tigers	-11.0406
▁undergraduate	-11.0407
▁managing	-11.0407
▁Herbert	-11.0411
▁scope	-11.0411
▁1864	-11.0412
▁outcome	-11.0412
▁rhythm	-11.0416
oria	-11.0421
▁collaborated	-11.0421
▁Marco	-11.0425
anc	-11.043
▁Antarctic	-11.0431
▁Provincial	-11.0431
▁1862	-11.0437
▁minority	-11.0442
▁repeated	-11.0443
▁monk	-11.0445
▁decisions	-11.0455
▁ambassador	-11.0456
▁nephew	-11.0456
▁physics	-11.0458
imo	-11.0458
▁Andrea	-11.046
▁temperatures	-11.0463
▁marking	-11.0465
▁"(	-11.0465
▁95	-11.0466
▁Dev	-11.047
Cha	-11.0473
ilo	-11.0476
ching	-11.0481
▁intervention	-11.0482
▁promoting	-11.0482
▁adjust	-11.0483
▁Gilbert	-11.0483
▁prepare	-11.0487
DF	-11.0487
bha	-11.0488
▁1871	-11.0488
▁Steven	-11.049
▁(10	-11.049
▁possess	-11.049
▁transform	-11.0491
liter	-11.0491
▁wait	-11.0494
SM	-11.0501
section	-11.0503
▁Industrial	-11.0505
▁Beginning	-11.0508
▁contributing	-11.0508
▁midfielder	-11.0508
▁universal	-11.0508
▁legacy	-11.0509
author	-11.0509
zzo	-11.0513
▁Bobby	-11.0513
▁mandate	-11.052
▁meat	-11.0523
▁tune	-11.0523
▁stick	-11.0526
▁Student	-11.0527
stand	-11.0527
▁comment	-11.0529
lid	-11.0534
▁pump	-11.0535
▁63	-11.0539
▁difficulties	-11.0539
▁looked	-11.0545
▁apparent	-11.0545
▁Train	-11.0552
chel	-11.0554
▁Competition	-11.056
▁behaviour	-11.056
▁elsewhere	-11.0561
▁specialist	-11.0561
▁gross	-11.0567
▁recommendation	-11.057
▁Mason	-11.0571
▁Uni	-11.0572
brew	-11.0572
▁Tel	-11.0573
▁artwork	-11.0574
length	-11.0578
▁donation	-11.0578
▁CO	-11.0585
300	-11.0585
▁Lloyd	-11.0587
▁vector	-11.0588
▁visits	-11.0592
8,	-11.0595
▁fourteen	-11.0596
▁photographs	-11.0596
para	-11.0596
▁flee	-11.0596
▁pole	-11.0597
▁releases	-11.0599
▁Liu	-11.06
▁Snow	-11.0602
▁Kaz	-11.0602
▁Currently	-11.0603
▁z	-11.0603
▁Walt	-11.0608
▁provider	-11.0608
sex	-11.061
▁Campaign	-11.0613
▁Century	-11.0613
▁gallery	-11.0614
▁hence	-11.0614
▁restricted	-11.0614
▁Syrian	-11.0615
▁limits	-11.0615
▁Protection	-11.0615
▁householder	-11.0616
▁pale	-11.0616
▁wire	-11.0617
▁Let	-11.0619
▁62	-11.0623
▁marks	-11.0624
▁Secondary	-11.0625
rink	-11.0628
▁oversee	-11.0629
▁Kre	-11.0633
Art	-11.0633
▁Qa	-11.0635
▁Cincinnati	-11.0639
▁comprehensive	-11.0639
▁facilitate	-11.0639
▁connections	-11.0639
▁Fish	-11.0642
BL	-11.0642
pati	-11.0644
▁distinctive	-11.0644
dding	-11.0652
▁Indians	-11.0652
Time	-11.0654
▁symptoms	-11.0656
▁till	-11.0656
▁texts	-11.0657
▁Masters	-11.0658
▁Dem	-11.0662
nin	-11.0665
kara	-11.0666
▁Obama	-11.0666
▁cooperation	-11.0667
▁inducted	-11.0667
Fa	-11.0668
▁capita	-11.0669
world	-11.0672
▁1878	-11.0673
▁"[	-11.0679
▁usual	-11.0679
▁specialized	-11.0679
▁Are	-11.0679
Per	-11.0684
▁Fighter	-11.0686
▁geo	-11.0686
ees	-11.0688
cken	-11.069
▁Micro	-11.0692
▁calendar	-11.0692
▁fabric	-11.0692
▁plastic	-11.0692
▁trigger	-11.0693
dine	-11.0693
▁database	-11.0693
rand	-11.0693
▁Manager	-11.0694
▁Transit	-11.0695
▁nickname	-11.0697
▁introduce	-11.0697
▁1985,	-11.0699
▁moves	-11.0703
▁rush	-11.0706
lai	-11.0708
▁Muslims	-11.0712
▁Hebrew	-11.0713
▁68	-11.0714
sten	-11.0714
▁Palestinian	-11.0719
▁conversation	-11.0719
▁demonstration	-11.0719
▁industries	-11.0719
▁Nat	-11.0719
▁muscle	-11.0719
▁altitude	-11.072
▁awareness	-11.072
mission	-11.0721
▁1993.	-11.0722
▁Temp	-11.0724
▁tension	-11.0729
rack	-11.073
▁Hughes	-11.0731
▁Independence	-11.0733
num	-11.0735
▁Pet	-11.0735
▁strengthen	-11.0735
▁seconds	-11.0737
▁reject	-11.074
▁columns	-11.0742
media	-11.0742
▁Sheffield	-11.0745
▁Ernest	-11.0745
▁Uganda	-11.0745
▁Dai	-11.0746
▁doors	-11.0748
stream	-11.0748
tell	-11.0748
kal	-11.0748
▁stamp	-11.0751
▁praise	-11.0751
▁historically	-11.0755
▁adapt	-11.0755
San	-11.0757
▁Cop	-11.0757
▁Croatia	-11.0759
▁provinces	-11.0759
formerly	-11.076
▁Thor	-11.0761
VA	-11.0767
▁Raja	-11.0769
▁complaint	-11.0771
lac	-11.0771
▁External	-11.0772
▁placing	-11.0772
▁logo	-11.0772
▁Florence	-11.0773
Ph	-11.0774
▁advisor	-11.078
▁Johann	-11.0782
tian	-11.0783
▁hy	-11.0783
ario	-11.0788
▁warning	-11.0789
▁editions	-11.0791
rama	-11.0792
▁graph	-11.0793
▁Luke	-11.0793
▁saved	-11.0794
▁Yale	-11.0797
▁Sco	-11.0797
gia	-11.0798
▁prototype	-11.0799
▁counsel	-11.0799
▁permitted	-11.08
Love	-11.0801
▁elementary	-11.0802
▁88	-11.0813
▁pig	-11.0816
▁$5	-11.0817
fit	-11.0818
song	-11.082
▁approached	-11.0823
▁cavalry	-11.0825
▁revival	-11.0825
track	-11.0826
▁Block	-11.0828
▁traditionally	-11.0832
▁flights	-11.0833
▁battery	-11.0833
▁burned	-11.0834
▁Robin	-11.0839
bru	-11.084
▁respective	-11.0844
▁gathering	-11.0846
ike	-11.0848
▁diet	-11.0848
▁Economy	-11.0852
▁retiring	-11.0852
▁siege	-11.0852
▁Hamburg	-11.0854
▁Voice	-11.0857
CL	-11.0857
▁Wel	-11.0857
bell	-11.0858
hole	-11.0861
▁informed	-11.0861
south	-11.0863
▁citizen	-11.0867
▁Minor	-11.0869
▁Que	-11.087
dit	-11.087
▁1989.	-11.0871
7%	-11.0872
logue	-11.0873
riv	-11.0873
yama	-11.0876
▁tram	-11.0878
▁expensive	-11.0879
▁ministry	-11.0879
▁receptor	-11.0879
▁attitude	-11.088
iano	-11.088
▁Albums	-11.0881
▁flash	-11.0882
▁assessment	-11.0883
▁inherited	-11.0889
▁Origin	-11.0889
▁exam	-11.089
odo	-11.0891
▁reaches	-11.0893
▁Nord	-11.0893
▁Bah	-11.0894
Je	-11.0895
▁Environmental	-11.0895
▁locomotive	-11.0896
ivo	-11.0897
▁Amsterdam	-11.0906
▁cloud	-11.0906
▁Rud	-11.0906
▁attendance	-11.091
▁travelled	-11.091
▁Montana	-11.0911
▁Bet	-11.0911
▁rotation	-11.0912
▁playoff	-11.0913
elia	-11.0913
pes	-11.0914
▁removal	-11.0916
▁Lab	-11.0918
▁references	-11.0921
▁variant	-11.0924
nja	-11.0925
▁restaurants	-11.0926
▁Bag	-11.0933
▁automatic	-11.0933
▁cathedral	-11.0933
▁crystal	-11.0933
▁temporarily	-11.0933
▁prayer	-11.0934
▁Interstate	-11.0934
▁Players	-11.0937
▁99	-11.094
▁Vale	-11.094
▁Chester	-11.0942
▁Pic	-11.0943
mouth	-11.0943
▁Maz	-11.0944
iah	-11.0944
▁vocalist	-11.0945
▁defended	-11.0946
▁Bai	-11.0947
▁proteins	-11.0948
▁Gru	-11.0951
▁exact	-11.0953
▁landed	-11.0955
▁neo	-11.0955
▁pal	-11.0956
▁Deb	-11.0956
▁tons	-11.0956
▁Eventually	-11.096
▁relevant	-11.096
▁academy	-11.096
▁beauty	-11.0961
▁shopping	-11.0962
▁Years	-11.0962
uca	-11.0966
fen	-11.0968
▁outstanding	-11.0968
PL	-11.0973
▁Guardian	-11.0974
▁Mother	-11.0978
▁fail	-11.0978
astic	-11.0982
▁Pain	-11.0986
▁graduation	-11.0988
▁violation	-11.0988
▁deemed	-11.0988
▁Systems	-11.0988
▁Patriot	-11.0988
▁Murphy	-11.0989
▁Article	-11.0989
▁enforcement	-11.099
▁sessions	-11.099
▁Petersburg	-11.099
▁mainstream	-11.099
▁preserve	-11.0993
▁1866	-11.0995
▁replica	-11.0995
▁Hon	-11.0996
▁£1	-11.0996
▁aspect	-11.0999
▁Oil	-11.0999
mail	-11.1001
▁riot	-11.1001
▁assists	-11.1003
owing	-11.1006
fusion	-11.1007
mod	-11.1009
▁triple	-11.1013
▁neutral	-11.1015
▁Oblast	-11.1015
▁bonus	-11.1015
ennial	-11.1017
rik	-11.1017
▁Corn	-11.1018
nock	-11.1018
▁Giants	-11.1018
–8	-11.103
▁efficient	-11.1031
▁mainland	-11.1032
▁Beat	-11.1032
▁Pun	-11.1034
▁Magn	-11.1034
▁inform	-11.1035
mot	-11.1037
ania	-11.1038
lob	-11.1038
▁Mam	-11.1039
▁Vir	-11.1042
▁characteristic	-11.1042
▁decorated	-11.1042
▁Napoleon	-11.1042
uter	-11.1043
▁Dennis	-11.1044
IF	-11.1044
mol	-11.1044
▁Celtic	-11.1044
pple	-11.1048
▁reporting	-11.1051
torial	-11.1051
album	-11.1052
▁Rand	-11.1053
▁belt	-11.1053
ordinat	-11.1054
ista	-11.1055
moto	-11.1055
lick	-11.1059
▁Cold	-11.106
ility	-11.1061
lax	-11.1069
▁Liber	-11.1069
▁worn	-11.107
▁Wilhelm	-11.107
eus	-11.1077
▁carries	-11.1077
▁extend	-11.1077
kra	-11.108
▁Blood	-11.1081
▁Panama	-11.1082
▁murdered	-11.1082
▁transit	-11.1087
national	-11.1089
▁internationally	-11.1089
6%	-11.1092
▁depicted	-11.1094
xa	-11.1094
▁sto	-11.1097
▁Hurricane	-11.1097
▁arriving	-11.1097
▁Af	-11.1098
▁Madison	-11.1099
▁simultaneously	-11.11
▁slaves	-11.1102
▁drivers	-11.1102
▁evolved	-11.1104
▁breeding	-11.1106
▁Neil	-11.1106
▁failing	-11.1107
▁tan	-11.1111
▁ties	-11.1114
turn	-11.1114
teg	-11.1115
week	-11.1115
▁Sala	-11.112
▁Sony	-11.1122
speed	-11.1122
▁tributary	-11.1125
▁Abraham	-11.1125
▁Wheel	-11.1125
▁Bass	-11.1125
▁afford	-11.1126
lang	-11.1127
▁Methodist	-11.1128
▁republic	-11.1129
-6	-11.113
▁diplomatic	-11.1131
▁Associate	-11.1131
▁creator	-11.1132
▁wrestler	-11.1132
▁Leader	-11.1136
▁Bond	-11.1137
▁Sz	-11.114
cross	-11.1142
▁Bin	-11.1146
▁Estate	-11.1148
about	-11.1149
▁Perry	-11.1151
▁steep	-11.1153
▁Wallace	-11.1154
▁1979,	-11.1156
▁feeling	-11.1156
▁opt	-11.1161
▁Sig	-11.1162
▁Eagles	-11.1164
▁Bulgaria	-11.1165
▁walking	-11.1167
▁partial	-11.1169
▁74	-11.117
▁departed	-11.1171
▁71	-11.1179
▁Phoenix	-11.1181
▁Shanghai	-11.1181
▁milk	-11.1181
gne	-11.1184
▁yard	-11.1184
▁Rey	-11.1184
▁Magic	-11.1184
▁settle	-11.1185
▁chi	-11.1189
bow	-11.1192
onne	-11.1193
▁vary	-11.1194
▁Card	-11.1195
tina	-11.1195
▁Rep	-11.1197
▁Holland	-11.1198
▁73	-11.1199
▁Stein	-11.1204
founded	-11.1205
▁switched	-11.1208
team	-11.1209
▁Essex	-11.1209
▁zero	-11.121
▁keyboard	-11.1211
Best	-11.1212
▁Return	-11.1212
▁parking	-11.1212
▁Location	-11.1214
▁1867	-11.1215
▁dense	-11.1216
▁1883	-11.1216
stad	-11.1216
▁Eng	-11.1217
▁Butler	-11.1218
fan	-11.1225
600	-11.1225
ffin	-11.1235
▁archaeological	-11.1236
▁consultant	-11.1236
▁valuable	-11.1237
▁tale	-11.1237
▁queen	-11.1237
▁Highland	-11.1238
▁Say	-11.1242
▁waters	-11.1242
▁metre	-11.1243
iller	-11.1244
▁alien	-11.1245
▁copper	-11.1245
▁resumed	-11.1246
▁Gang	-11.1247
TR	-11.1247
ophy	-11.1247
MG	-11.1251
lice	-11.1253
▁Kee	-11.1256
▁Yugoslavia	-11.1256
▁pushed	-11.1258
▁dock	-11.1259
▁thanks	-11.1261
▁consideration	-11.1264
▁Montgomery	-11.1264
▁sitting	-11.1267
acre	-11.1268
▁resignation	-11.1268
Col	-11.1269
▁presentation	-11.127
GC	-11.1271
▁Thai	-11.1275
▁Musical	-11.128
▁festivals	-11.1281
▁aboard	-11.1282
▁breed	-11.1285
▁conductor	-11.1288
▁songwriter	-11.1288
▁dish	-11.1289
4%	-11.1289
uta	-11.1289
▁Bul	-11.1291
▁torpedo	-11.1292
boro	-11.1294
▁contestant	-11.1295
▁Cork	-11.1295
▁friendship	-11.1299
ester	-11.1302
▁pu	-11.1303
troph	-11.1305
him	-11.1307
▁Chair	-11.1308
RP	-11.1311
▁98	-11.1314
▁import	-11.1315
▁alive	-11.1316
augh	-11.1317
▁pupils	-11.1318
makers	-11.1319
▁hybrid	-11.1321
▁Primary	-11.1321
▁sketch	-11.1321
▁pages	-11.1321
▁Wellington	-11.1321
▁unlike	-11.1323
▁distinguish	-11.1325
▁archive	-11.1328
▁manual	-11.133
–16	-11.1337
loss	-11.1342
▁1986.	-11.1342
▁horn	-11.1342
▁semifinal	-11.1344
▁absolute	-11.1349
▁indicating	-11.1349
▁rebellion	-11.1349
▁Delaware	-11.1349
▁finger	-11.1353
▁allies	-11.1355
wel	-11.1358
▁Pac	-11.136
scribe	-11.1362
morph	-11.1362
▁connects	-11.1363
▁Pil	-11.1363
course	-11.1365
▁Bud	-11.1365
▁°	-11.1366
name	-11.1367
tie	-11.1369
rab	-11.137
▁Berkeley	-11.1377
▁regain	-11.1377
LC	-11.1378
▁odd	-11.1378
▁increases	-11.1378
▁challenges	-11.1379
▁sword	-11.138
▁Algeria	-11.1381
▁Poly	-11.1385
▁believes	-11.1386
▁Armed	-11.1388
▁69	-11.1388
▁1975,	-11.1389
▁Cul	-11.1389
▁Por	-11.1391
▁Petr	-11.1391
▁Hir	-11.1393
What	-11.1394
▁relay	-11.1394
▁Sr	-11.1395
▁Stand	-11.1397
▁Mora	-11.14
▁origins	-11.14
Du	-11.1402
▁Financial	-11.1406
▁consumption	-11.1406
▁Auckland	-11.1406
▁escaped	-11.1406
▁maps	-11.1406
BE	-11.141
▁shall	-11.1412
agin	-11.1414
▁options	-11.1415
▁descendants	-11.1416
▁Recent	-11.1417
▁180	-11.1418
▁generate	-11.1419
▁historians	-11.1421
▁Ari	-11.1422
▁coins	-11.1422
▁Form	-11.1425
▁taxes	-11.1425
kill	-11.1425
▁Based	-11.1426
▁crosses	-11.1428
▁Tag	-11.1429
▁artificial	-11.1434
▁diocese	-11.1434
▁raising	-11.1435
▁difficulty	-11.1436
Cor	-11.1436
▁trap	-11.1437
▁mines	-11.1438
▁internet	-11.1438
▁pri	-11.1438
Ju	-11.1441
▁96	-11.1442
oto	-11.1445
▁pulled	-11.1445
▁coaches	-11.1446
▁1945.	-11.1447
▁1–0	-11.1447
▁virtual	-11.1448
wind	-11.145
EM	-11.145
▁LA	-11.1454
▁latest	-11.1455
▁Kay	-11.146
▁Commercial	-11.1463
▁dissolved	-11.1463
▁suspension	-11.1463
▁reducing	-11.1463
pound	-11.1465
▁Productions	-11.1468
▁procedure	-11.1468
▁commenced	-11.1472
▁sil	-11.1472
jur	-11.1473
▁Croatian	-11.1477
▁Sau	-11.1478
self	-11.1483
▁Yi	-11.1484
▁Bau	-11.1489
wald	-11.1489
issue	-11.149
▁shops	-11.149
▁Expedition	-11.1491
▁freight	-11.1491
▁afternoon	-11.1491
▁animation	-11.1492
▁Pearl	-11.1492
▁Justin	-11.1492
umi	-11.1493
lett	-11.1495
zhou	-11.1497
text	-11.1497
fil	-11.1498
▁hear	-11.1498
usa	-11.1499
▁abolished	-11.15
▁refugees	-11.1502
ulated	-11.1502
▁realize	-11.1504
tone	-11.1507
▁Crow	-11.1508
▁armor	-11.1509
▁explains	-11.1511
▁paint	-11.1519
▁Spencer	-11.152
▁ancestor	-11.152
▁Rogers	-11.1521
dimensional	-11.1524
▁1879	-11.1528
uga	-11.1529
▁Emil	-11.1529
▁Sul	-11.1532
school	-11.1533
▁Twin	-11.1536
EL	-11.1536
▁Saints	-11.154
▁Neo	-11.1542
ounce	-11.1542
▁Kai	-11.1544
center	-11.1549
▁supplied	-11.1549
▁oxygen	-11.1549
▁theatrical	-11.1549
▁culminat	-11.1549
▁scandal	-11.1549
▁Fat	-11.155
▁announcement	-11.1551
▁sn	-11.1552
▁regulation	-11.1557
▁slowly	-11.1558
▁1875	-11.156
▁recalled	-11.1562
▁Delta	-11.1563
▁administered	-11.1564
▁admit	-11.1566
▁attempting	-11.157
ief	-11.1573
enko	-11.1573
▁passion	-11.1577
▁Lebanon	-11.1578
▁Sierra	-11.1578
▁psychology	-11.1578
▁Junction	-11.1578
▁Comics	-11.1579
▁Rou	-11.1581
▁dramatic	-11.1582
▁refuse	-11.1585
▁bin	-11.1591
▁sisters	-11.1592
train	-11.1594
▁sheet	-11.1595
▁91	-11.1598
▁fatal	-11.1599
signed	-11.1601
▁Than	-11.1601
Super	-11.1601
▁Slovenia	-11.1607
▁imprisoned	-11.1607
▁relegated	-11.1607
▁intense	-11.1609
ción	-11.161
music	-11.161
Pri	-11.1612
▁willing	-11.1613
▁editorial	-11.1614
▁Cel	-11.1616
▁Commons	-11.1616
dong	-11.1617
flu	-11.1619
▁Cruz	-11.1622
CR	-11.1625
▁approaches	-11.1628
▁colors	-11.1629
▁Step	-11.1631
lement	-11.1631
▁Secret	-11.1631
▁suspect	-11.1632
▁Brit	-11.1634
▁Official	-11.1636
▁Computer	-11.1636
▁massacre	-11.1636
▁Kerala	-11.1637
▁discharge	-11.1637
▁Tat	-11.1637
▁interface	-11.1638
▁decree	-11.1639
western	-11.164
▁landmark	-11.164
▁celebrate	-11.1643
▁pictures	-11.1643
▁Pel	-11.1644
▁Price	-11.1645
▁measured	-11.1647
▁97	-11.165
▁Slav	-11.1654
▁indoor	-11.1655
ichi	-11.1656
▁convinced	-11.1657
come	-11.1663
camp	-11.1664
▁Watson	-11.1665
▁nominee	-11.1665
▁filming	-11.1666
▁restrictions	-11.1666
▁knee	-11.1666
neu	-11.1666
▁sharing	-11.1668
▁Bach	-11.1669
▁1876	-11.1673
▁resist	-11.1674
NP	-11.1674
▁pipe	-11.1677
▁Mani	-11.168
bad	-11.1683
▁tenth	-11.1687
▁thinking	-11.1689
MT	-11.169
▁experiments	-11.1692
▁blind	-11.1694
▁drove	-11.1694
▁(12	-11.1696
▁Venice	-11.1697
▁Relations	-11.1702
raz	-11.1702
▁exhibited	-11.1704
▁Nature	-11.1704
▁improvements	-11.1706
▁Romanized	-11.1709
aught	-11.1709
quot	-11.1711
▁Sudan	-11.1713
▁Rule	-11.1713
▁Thorn	-11.1714
▁Midland	-11.1714
das	-11.1716
kle	-11.1717
▁rocket	-11.1719
▁campaigns	-11.172
▁Songs	-11.172
▁criteria	-11.1724
▁coincid	-11.1724
▁pointed	-11.1724
▁Architecture	-11.1725
▁dealing	-11.1727
▁1872	-11.173
MO	-11.1731
▁Morning	-11.1731
▁Jet	-11.1732
fr	-11.1732
▁gall	-11.1735
▁elite	-11.1735
▁bout	-11.1743
▁belongs	-11.1748
▁Germans	-11.1748
▁teach	-11.1748
▁Schu	-11.1752
▁67	-11.1752
▁Phillips	-11.1753
▁Paralympic	-11.1753
▁Prefecture	-11.1753
▁Grammy	-11.1753
▁costume	-11.1756
▁Movie	-11.1756
▁pitched	-11.1757
▁theories	-11.176
eff	-11.1763
▁reforms	-11.1764
▁Rec	-11.1766
Black	-11.1768
▁grain	-11.1769
was	-11.1771
▁Rem	-11.1772
▁Yama	-11.1773
store	-11.1773
▁bacteria	-11.1782
▁configuration	-11.1782
▁Cabinet	-11.1782
▁Google	-11.1782
▁Maj	-11.1783
▁Legend	-11.1783
▁unless	-11.1783
▁Arnold	-11.1783
▁Private	-11.1784
fre	-11.1786
▁deposit	-11.1787
▁hang	-11.1788
▁Guide	-11.1788
▁whi	-11.1789
▁Christians	-11.1789
▁cutting	-11.1792
tun	-11.1792
▁Hun	-11.1792
▁lord	-11.1793
▁jet	-11.1794
▁Malay	-11.1794
▁Larry	-11.1797
sworth	-11.1797
written	-11.1798
▁powered	-11.1799
Bi	-11.18
▁Abd	-11.1802
rine	-11.1803
▁Rai	-11.1805
▁chemistry	-11.1805
▁organisations	-11.1807
▁Golf	-11.1807
▁lie	-11.1809
▁danger	-11.181
▁Intelligence	-11.1812
▁Roosevelt	-11.1812
▁excellent	-11.1812
▁Ahmed	-11.1812
▁Stockholm	-11.1812
▁Next	-11.1813
▁guests	-11.1816
2,000	-11.1816
▁Arg	-11.1817
▁Iraqi	-11.1817
▁perceived	-11.1817
▁tier	-11.1817
▁talks	-11.1818
▁supports	-11.1819
▁beside	-11.1819
▁Read	-11.182
ön	-11.1823
logist	-11.1823
▁Lyon	-11.1824
▁Java	-11.1824
At	-11.1827
▁Py	-11.183
▁mentor	-11.1833
▁Gay	-11.1837
ume	-11.184
▁coffee	-11.1842
▁telephone	-11.1842
▁laboratory	-11.1842
▁Nashville	-11.1843
▁annex	-11.1843
▁fortune	-11.1844
▁organic	-11.1846
▁Indies	-11.1846
-8	-11.1847
▁feelings	-11.1849
▁1877	-11.1849
leigh	-11.185
▁Workers	-11.1851
▁Mara	-11.1852
Pre	-11.1853
▁reverse	-11.1862
lav	-11.1862
▁por	-11.1863
▁traveling	-11.1866
▁drum	-11.1866
▁che	-11.1868
keeper	-11.1871
▁enterprise	-11.1871
▁occupy	-11.1872
▁empty	-11.1872
▁Fla	-11.1874
▁birthday	-11.1875
▁Elector	-11.1876
▁aware	-11.1876
▁graphic	-11.1877
:30	-11.1877
▁Schools	-11.1878
▁fluid	-11.1879
▁1874	-11.188
▁rat	-11.1883
Hi	-11.1884
agan	-11.1884
▁Representative	-11.1889
▁Edwards	-11.189
Her	-11.1891
ht	-11.1892
lop	-11.1893
▁Kumar	-11.1895
▁Indonesian	-11.1897
ān	-11.1897
▁MD	-11.1898
▁Nevertheless	-11.1901
▁entrepreneur	-11.1901
▁militia	-11.1901
▁Ottawa	-11.1901
▁abstract	-11.1901
▁Amazon	-11.1901
▁snail	-11.1901
▁Aviation	-11.1901
▁Guild	-11.1902
▁Devon	-11.1902
▁Vermont	-11.1904
uba	-11.1904
▁feud	-11.1904
▁strain	-11.1904
▁Oscar	-11.1905
▁tested	-11.1906
escu	-11.1907
▁flower	-11.1907
▁evil	-11.1908
▁investigate	-11.1909
medi	-11.1912
▁comprises	-11.1912
▁Sid	-11.1915
▁1985.	-11.1916
▁Epi	-11.1917
▁interact	-11.1917
▁tourism	-11.192
▁scientist	-11.192
appa	-11.1921
plan	-11.1922
▁photograph	-11.1925
▁improvement	-11.1927
mour	-11.193
▁(8	-11.1931
▁certificate	-11.1931
▁predominantly	-11.1931
▁understood	-11.1931
▁Ralph	-11.1931
▁choir	-11.1931
▁diesel	-11.1932
▁Sox	-11.1932
▁attacking	-11.1934
▁realized	-11.1936
▁Sex	-11.1936
▁parks	-11.1937
▁Store	-11.1938
▁Pakistani	-11.194
▁divide	-11.194
▁drums	-11.1941
▁grades	-11.1941
▁(7	-11.1942
▁diseases	-11.1943
▁eat	-11.1948
▁hospitals	-11.1951
▁quad	-11.1952
▁Playing	-11.1954
▁reside	-11.1956
▁Still	-11.1957
atta	-11.196
▁dollars	-11.1961
▁Literature	-11.1961
▁separation	-11.1961
▁Simpson	-11.1961
▁atmosphere	-11.1961
▁empire	-11.1961
▁universe	-11.1961
▁mutual	-11.1961
▁Disc	-11.1962
DR	-11.1964
▁programmes	-11.1965
▁1978,	-11.1966
▁Cru	-11.1966
TI	-11.1968
▁Lucas	-11.1968
vre	-11.1969
teau	-11.1972
ñ	-11.1973
▁sick	-11.1974
–9	-11.1974
▁Blues	-11.1975
And	-11.1975
▁gardens	-11.1976
▁Devil	-11.1976
borg	-11.1977
▁beaten	-11.1978
▁Bour	-11.1978
lier	-11.1981
▁Rain	-11.1981
owl	-11.1983
▁1976,	-11.1986
▁mor	-11.1988
▁canon	-11.1989
▁ratings	-11.199
▁Politics	-11.1991
▁Institution	-11.1992
▁Wool	-11.1992
▁Concert	-11.1992
▁knight	-11.1993
▁orange	-11.1994
▁volunteers	-11.1996
rew	-11.1996
▁doctorate	-11.1997
▁grandson	-11.1998
tab	-11.2
ière	-11.2001
▁succession	-11.2002
▁1972,	-11.2002
▁Wells	-11.2004
llie	-11.2005
▁Page	-11.2007
▁holder	-11.201
that	-11.2011
igh	-11.2011
▁(14	-11.2014
▁employee	-11.2014
▁recruited	-11.2015
▁coached	-11.2015
▁Nicola	-11.2017
ended	-11.2018
▁Lum	-11.2021
▁Ambassador	-11.2022
▁Episode	-11.2022
▁kilometers	-11.2022
▁precise	-11.2022
▁81	-11.2023
▁Thunder	-11.2023
▁mixture	-11.2023
▁Vietnamese	-11.2023
▁Principal	-11.2025
▁tool	-11.2026
▁Palmer	-11.203
▁Marx	-11.203
▁argues	-11.2034
opa	-11.2038
▁portray	-11.2038
writing	-11.2039
rust	-11.204
▁gathered	-11.2044
▁stroke	-11.2047
iger	-11.205
▁Cameron	-11.2052
▁discrimination	-11.2053
▁Stanford	-11.2054
▁Bang	-11.2055
▁underwent	-11.2056
▁Archive	-11.2056
ego	-11.2059
▁employer	-11.2059
▁surprise	-11.206
▁convince	-11.206
yang	-11.2061
▁rice	-11.2064
▁nominations	-11.2065
held	-11.2065
▁combine	-11.2066
nova	-11.2068
▁1974,	-11.207
▁SE	-11.2073
▁essentially	-11.2074
▁economics	-11.2077
▁Jur	-11.2078
▁magazines	-11.2082
▁Boulevard	-11.2082
▁technologies	-11.2082
▁victories	-11.2082
▁Number	-11.2082
▁sensor	-11.2083
▁Bath	-11.2083
▁interviews	-11.2083
dha	-11.2083
▁hardware	-11.2084
▁colonies	-11.2084
▁deaths	-11.2091
rif	-11.2092
▁sounds	-11.2092
▁touchdowns	-11.2093
tral	-11.2096
▁defect	-11.2097
ente	-11.2099
▁2,000	-11.2101
pil	-11.2104
▁grid	-11.2106
▁extinct	-11.2107
▁pra	-11.2108
▁Wor	-11.2108
▁therapy	-11.2111
▁manufacture	-11.2111
▁accumulat	-11.2113
▁worst	-11.2113
://	-11.2113
▁senator	-11.2114
upp	-11.2114
▁Bavaria	-11.2114
▁Overview	-11.2114
eman	-11.2118
bay	-11.2121
▁extending	-11.2123
▁Albanian	-11.2126
oku	-11.2129
▁Cou	-11.213
▁Georgian	-11.2135
▁bag	-11.2135
LP	-11.2137
▁lyric	-11.2143
▁destroyer	-11.2143
▁abilities	-11.2143
▁Yellow	-11.2143
▁acoustic	-11.2143
▁immigration	-11.2143
▁molecule	-11.2143
▁thereby	-11.2147
▁kit	-11.215
▁slot	-11.2152
▁Rank	-11.2154
hurst	-11.2155
fold	-11.2158
-15	-11.2158
EN	-11.216
▁Venezuela	-11.216
▁mall	-11.216
▁exactly	-11.2161
shot	-11.2164
cles	-11.2167
▁Architect	-11.2173
▁Palestine	-11.2174
▁Ancient	-11.2174
court	-11.2175
▁Keith	-11.2176
▁Adult	-11.2176
▁Denver	-11.2178
▁Course	-11.218
isa	-11.218
▁speaker	-11.218
▁Swan	-11.2182
▁width	-11.2183
▁1848	-11.2183
▁cricketer	-11.2183
▁interesting	-11.2184
▁halt	-11.2188
▁GT	-11.2189
▁witness	-11.219
▁1840	-11.2192
▁Franz	-11.2193
▁1830	-11.2194
uan	-11.2194
▁Flight	-11.2195
▁colleagues	-11.2196
Tri	-11.2197
▁maintaining	-11.22
▁bases	-11.2201
rash	-11.2202
▁Arabia	-11.2203
▁LGBT	-11.2205
▁summary	-11.2205
▁documented	-11.2205
▁1943,	-11.2206
▁Vegas	-11.2206
▁Joint	-11.2207
▁firing	-11.2208
▁colon	-11.221
▁Beth	-11.221
▁stake	-11.221
shore	-11.2217
▁manga	-11.2219
nen	-11.222
▁followers	-11.2224
▁updated	-11.2224
▁Past	-11.2225
▁93	-11.2229
PM	-11.2231
800	-11.2232
▁electron	-11.2235
▁fifty	-11.2236
▁metropolitan	-11.2236
▁casualties	-11.2236
shed	-11.2236
▁citing	-11.2237
▁ibn	-11.2237
▁saving	-11.2238
▁Monday	-11.2242
▁runway	-11.2242
▁Prison	-11.2244
▁2–0	-11.2248
▁monthly	-11.225
▁Peak	-11.2253
▁addressed	-11.2253
▁Newton	-11.2253
▁carriage	-11.2253
families	-11.2255
▁Mind	-11.2256
▁Know	-11.2258
▁Mei	-11.2264
▁disbanded	-11.2267
▁clerk	-11.2267
▁Lip	-11.2267
▁camps	-11.227
▁footage	-11.2273
▁mon	-11.2274
▁Northwest	-11.2275
▁1868	-11.2275
volv	-11.2275
PO	-11.2276
–10	-11.2277
6,000	-11.2278
▁Terry	-11.2279
▁1973,	-11.2279
cid	-11.2287
▁MTV	-11.2288
▁Mack	-11.2291
▁sky	-11.2291
▁rebel	-11.2293
▁sustained	-11.2295
▁Taka	-11.2295
zard	-11.2295
fest	-11.2296
▁unanimous	-11.2298
▁sweet	-11.2298
▁innovation	-11.2298
▁Solomon	-11.2298
▁Gregory	-11.2299
▁Eddie	-11.23
eering	-11.2302
She	-11.2302
anza	-11.2305
▁lover	-11.231
▁exhibitions	-11.2311
▁exclusive	-11.2315
▁hypo	-11.2316
▁Eagle	-11.2316
▁shoulder	-11.2317
illi	-11.232
host	-11.2321
▁compar	-11.2323
▁requir	-11.2323
▁commit	-11.2323
may	-11.2324
▁weigh	-11.2324
fal	-11.2326
▁rocks	-11.2326
mura	-11.2328
▁companion	-11.2329
▁variation	-11.2329
▁Population	-11.2329
▁PS	-11.233
▁layout	-11.2332
▁Falcon	-11.2332
▁shipping	-11.2333
onym	-11.2334
▁Blanc	-11.2336
▁Dominican	-11.2338
Big	-11.2339
AB	-11.2341
▁Adventure	-11.2343
▁Tree	-11.2343
writer	-11.2346
▁refuge	-11.2348
▁Rom	-11.2348
▁Campus	-11.2349
second	-11.235
▁Friends	-11.2352
▁pure	-11.2353
quire	-11.2357
▁Bog	-11.2357
▁Room	-11.2359
▁Elementary	-11.236
▁Exhibition	-11.236
▁Statistics	-11.236
▁elevated	-11.236
▁protagonist	-11.236
▁Brunswick	-11.236
▁Warsaw	-11.2361
▁Bennett	-11.2361
von	-11.2363
▁Break	-11.2363
▁Tommy	-11.2363
▁Abdul	-11.2365
▁gaining	-11.2366
▁rapper	-11.2366
North	-11.2367
OL	-11.2376
▁tre	-11.2379
wei	-11.2382
▁Laura	-11.2382
▁Bomb	-11.2383
▁sung	-11.2384
▁worker	-11.2388
▁Mega	-11.2389
▁bow	-11.239
▁Kla	-11.2391
▁contributor	-11.2391
▁Revival	-11.2391
▁diversity	-11.2392
▁aviation	-11.2392
▁barrier	-11.2393
owski	-11.2395
fur	-11.2397
▁Higher	-11.2402
pun	-11.2402
works	-11.2403
▁Ellis	-11.2403
▁1987.	-11.2403
dorf	-11.2404
▁CF	-11.2405
▁Mills	-11.2406
▁banking	-11.2406
pent	-11.2407
▁Ober	-11.2409
gress	-11.2409
complete	-11.2413
▁AP	-11.2413
▁neighboring	-11.2417
▁storyline	-11.2419
general	-11.242
▁pairs	-11.2422
▁sure	-11.2422
▁Artillery	-11.2423
▁elaborate	-11.2423
▁fantasy	-11.2423
▁shield	-11.2423
▁voyage	-11.2423
▁Ahmad	-11.2423
▁hamlet	-11.2423
▁transaction	-11.2424
▁goalkeeper	-11.2424
Mor	-11.2428
Sc	-11.2431
vic	-11.2432
glo	-11.2436
▁seemed	-11.2436
▁Clare	-11.2438
East	-11.244
▁cook	-11.2441
link	-11.2442
▁namely	-11.2451
▁referendum	-11.2454
▁revised	-11.2455
▁Revolutionary	-11.246
▁Kate	-11.2473
▁CB	-11.2474
▁Fle	-11.2481
▁wake	-11.2481
▁noise	-11.2482
▁repeat	-11.2485
wyn	-11.2485
▁Exchange	-11.2486
▁Volunteer	-11.2486
▁garrison	-11.2486
▁mosque	-11.2486
▁premise	-11.2486
▁classroom	-11.2489
▁Put	-11.2491
oda	-11.2491
▁1964,	-11.2493
▁EC	-11.2493
▁terrorist	-11.2494
▁transformed	-11.2496
▁referee	-11.2497
▁Take	-11.2498
TM	-11.2502
▁speakers	-11.2503
▁Lion	-11.2503
▁77	-11.2506
▁tag	-11.2506
gard	-11.2509
▁recovery	-11.2511
FI	-11.2513
sport	-11.2516
▁fewer	-11.2517
▁doctrine	-11.2518
▁illustration	-11.2518
▁manifest	-11.2518
▁renewed	-11.2518
▁Lor	-11.2518
▁dialogue	-11.2518
▁poison	-11.2519
▁corruption	-11.252
enstein	-11.252
▁restrict	-11.2521
uki	-11.2521
▁fairly	-11.2521
▁ferry	-11.2526
▁mammal	-11.2527
▁divorce	-11.2528
▁enhance	-11.2528
▁Broad	-11.2528
War	-11.253
dium	-11.2531
▁fortress	-11.2537
▁portions	-11.2538
▁consistent	-11.2539
▁receives	-11.2541
▁eventual	-11.2543
▁exploit	-11.2545
▁react	-11.2546
▁pregnant	-11.255
▁residing	-11.255
▁Besides	-11.255
▁Found	-11.2552
▁fiber	-11.2556
▁quiet	-11.2559
lytic	-11.256
spor	-11.2562
▁Triple	-11.2564
▁lifetime	-11.2565
▁Perth	-11.2566
▁arrive	-11.2567
▁Shore	-11.2568
▁Dra	-11.2569
▁Fourth	-11.2571
▁Gua	-11.2572
▁Too	-11.2575
TO	-11.2578
▁Otto	-11.2579
▁philosopher	-11.2582
▁fulfill	-11.2582
▁Edmund	-11.2582
▁happy	-11.2582
▁asking	-11.2582
8,000	-11.2583
TP	-11.2584
▁HD	-11.2585
▁Oakland	-11.2588
▁belong	-11.259
▁Reed	-11.2592
pool	-11.2593
▁crops	-11.2596
▁upgrade	-11.2598
▁Deep	-11.2601
▁challenged	-11.2602
stage	-11.2603
▁Ton	-11.2603
number	-11.2607
▁Legal	-11.2609
▁enters	-11.261
mbi	-11.261
▁ensemble	-11.2614
▁familiar	-11.2614
▁bore	-11.2614
▁rabbi	-11.2615
ider	-11.2617
▁Net	-11.2617
▁shifted	-11.2617
▁withdraw	-11.262
▁Mario	-11.2621
▁interpret	-11.2621
founder	-11.2623
▁hide	-11.2624
▁buses	-11.2624
▁forty	-11.2625
cco	-11.2627
flow	-11.2631
race	-11.2633
▁fighters	-11.2635
If	-11.2637
hart	-11.2637
▁bomber	-11.2638
five	-11.2639
▁golden	-11.264
▁Stars	-11.264
stadt	-11.264
phal	-11.2644
▁loyal	-11.2644
▁drain	-11.2644
▁sy	-11.2645
0.0	-11.2645
▁Vladimir	-11.2646
▁explanation	-11.2646
▁exterior	-11.2646
▁sacrifice	-11.2646
▁filter	-11.2646
▁Wildlife	-11.2646
▁worse	-11.2647
▁Stefan	-11.2647
▁Aaron	-11.2647
▁Grande	-11.2649
▁prevented	-11.2649
fon	-11.2654
▁hills	-11.2654
methyl	-11.2659
fair	-11.2659
▁Sullivan	-11.2666
oxide	-11.2668
▁focusing	-11.2669
▁reflected	-11.2671
NG	-11.2673
▁situations	-11.2673
▁explosion	-11.2678
▁Maurice	-11.2678
▁Titan	-11.2684
▁1857	-11.2686
lish	-11.2686
▁topic	-11.2687
▁Rhine	-11.2687
ija	-11.2689
▁Roo	-11.2691
▁Rams	-11.2694
chang	-11.2696
▁Pay	-11.2698
▁Stu	-11.2698
▁habit	-11.27
▁79	-11.2701
▁trick	-11.2701
▁displays	-11.2702
speaking	-11.2703
▁procedures	-11.2704
father	-11.2706
▁statements	-11.2707
▁surrender	-11.2709
▁registration	-11.271
▁reservoir	-11.271
▁dancing	-11.2711
▁Cardiff	-11.2711
▁Lamb	-11.2715
▁Blake	-11.2715
"|	-11.2716
March	-11.2717
▁Foot	-11.272
▁incorporate	-11.2721
▁transformation	-11.2722
▁closest	-11.2722
▁Tyr	-11.2726
bian	-11.2727
igo	-11.2732
▁plantation	-11.2732
▁dependent	-11.2735
▁84	-11.2736
▁suffer	-11.2739
▁zoo	-11.2739
third	-11.2739
▁Esp	-11.2739
▁Leg	-11.2741
▁Renaissance	-11.2743
▁modification	-11.2743
▁gauge	-11.2743
lich	-11.2743
▁NASA	-11.2744
▁Krist	-11.2744
spire	-11.2744
▁bottle	-11.2744
▁Annual	-11.2745
▁fault	-11.2745
▁segments	-11.2746
▁athlete	-11.2747
mie	-11.2747
▁Bala	-11.2748
ppi	-11.2752
▁arena	-11.2755
▁inventor	-11.2755
NE	-11.2756
▁bullet	-11.2756
▁assume	-11.2759
corn	-11.2762
government	-11.2768
▁allegedly	-11.2768
▁Blu	-11.2769
▁stored	-11.277
▁Tol	-11.2773
▁telling	-11.2774
▁Friedrich	-11.2776
▁aggressive	-11.2776
▁routine	-11.2776
▁varied	-11.2776
▁recall	-11.2777
▁André	-11.2777
▁Ple	-11.2778
▁wore	-11.2778
udge	-11.2781
▁profession	-11.2781
▁Clarke	-11.2782
▁forcing	-11.2785
▁strange	-11.2785
▁commemorat	-11.2786
door	-11.2788
▁Ng	-11.279
▁Naga	-11.2794
▁Sean	-11.2795
▁commissioner	-11.2798
▁collector	-11.2799
▁Vit	-11.2806
▁Presbyterian	-11.2808
▁impossible	-11.2808
▁Cavalry	-11.2808
▁Commerce	-11.2808
▁disrupt	-11.2809
jin	-11.2809
▁Use	-11.2811
▁conquest	-11.2811
▁Hitler	-11.2811
phin	-11.2811
▁theorem	-11.2812
▁Travel	-11.2815
▁1873	-11.2816
▁slip	-11.2819
scope	-11.2819
▁discontinued	-11.282
▁proof	-11.2821
IL	-11.2822
▁Charter	-11.2825
▁Finals	-11.2827
▁strict	-11.2829
▁92	-11.283
▁Thr	-11.283
cla	-11.2832
footballer	-11.2833
▁Cave	-11.2837
▁Lyn	-11.284
hid	-11.284
▁abandon	-11.284
▁democratic	-11.2841
▁prestigious	-11.2841
▁relating	-11.2841
▁sanction	-11.2841
▁saint	-11.2843
▁punk	-11.2845
▁permanently	-11.2852
▁demonstrate	-11.2852
▁prisoner	-11.2857
▁CR	-11.2858
▁requirement	-11.2862
▁Where	-11.2865
▁Arc	-11.2865
▁binding	-11.2866
▁statistical	-11.2868
IV	-11.2872
OP	-11.2872
▁Leicester	-11.2874
▁renowned	-11.2874
▁allegations	-11.2875
▁Cow	-11.2875
handed	-11.2876
dur	-11.2876
tour	-11.2878
▁Actor	-11.2878
▁Scotia	-11.2879
▁variants	-11.2885
sexual	-11.2886
▁waiting	-11.2887
▁Ages	-11.2888
kai	-11.2894
▁fallen	-11.2901
chief	-11.2903
▁Shakespeare	-11.2907
▁judicial	-11.2907
▁literacy	-11.2907
▁decoration	-11.2907
▁facade	-11.2908
▁lab	-11.2908
▁BA	-11.2909
pala	-11.291
▁Machine	-11.291
▁View	-11.291
▁boss	-11.2913
▁extends	-11.2913
Saxon	-11.2915
▁onwards	-11.2918
▁lease	-11.2921
▁seeds	-11.2923
▁organize	-11.2925
▁Fau	-11.2925
built	-11.2925
▁concentrated	-11.2925
▁Exp	-11.2927
▁(13	-11.2928
date	-11.2932
break	-11.2932
▁bearing	-11.2937
▁Poll	-11.2937
▁Gha	-11.2938
▁amendment	-11.294
▁complement	-11.294
▁minimal	-11.2941
▁Raymond	-11.2941
▁emission	-11.2942
▁duration	-11.2943
▁printing	-11.2945
▁favourite	-11.2945
▁corn	-11.2947
▁mature	-11.2947
▁Rag	-11.2949
▁lecturer	-11.2952
▁Walk	-11.2955
tori	-11.296
WR	-11.2969
▁looks	-11.2969
tree	-11.2971
lived	-11.2972
tach	-11.2972
▁Columbus	-11.2973
▁Contemporary	-11.2973
▁Nottingham	-11.2973
▁automobile	-11.2973
▁guidance	-11.2973
▁intermediate	-11.2973
▁molecular	-11.2973
▁radiation	-11.2973
▁Isaac	-11.2974
▁Diamond	-11.2974
cup	-11.2974
lah	-11.2974
connect	-11.2976
HP	-11.2977
ovo	-11.2977
▁Right	-11.2984
tler	-11.2985
tempo	-11.2989
operative	-11.2993
road	-11.2996
brand	-11.2997
▁Economics	-11.2998
▁Heat	-11.2998
▁comments	-11.3
electric	-11.3001
▁Cub	-11.3006
▁Saf	-11.3006
▁mirror	-11.3007
▁preliminary	-11.3007
▁rebounds	-11.3007
▁nationwide	-11.3007
▁robot	-11.3008
▁Edition	-11.3008
▁compositions	-11.3008
walk	-11.3011
PG	-11.3015
▁acquire	-11.3018
gonal	-11.302
▁Serie	-11.302
▁solutions	-11.3022
▁drinking	-11.3022
▁Lac	-11.3023
▁venues	-11.3028
shima	-11.3029
▁Todd	-11.3034
-7	-11.3037
▁Citizen	-11.304
▁Ultimate	-11.304
▁hurricane	-11.304
▁matrix	-11.304
▁Twitter	-11.304
▁martial	-11.304
▁streak	-11.304
▁Ronald	-11.3041
Hol	-11.3043
▁infant	-11.3044
uku	-11.3046
▁Marvel	-11.3047
▁Multi	-11.3048
▁upcoming	-11.3051
lord	-11.3053
eem	-11.3053
▁cruiser	-11.3058
▁reveal	-11.3059
▁demands	-11.306
▁BCE	-11.3064
▁cow	-11.3064
▁Forum	-11.3072
▁prim	-11.3072
▁spots	-11.3073
▁parade	-11.3073
▁Scientific	-11.3074
▁Zimbabwe	-11.3074
holder	-11.3074
▁rainfall	-11.3074
▁Circle	-11.3074
▁biography	-11.3076
▁Metal	-11.3076
▁freestyle	-11.3077
▁ensu	-11.3077
▁signals	-11.308
yp	-11.3081
▁detect	-11.3085
▁targets	-11.3086
▁sending	-11.309
▁handling	-11.3091
itarian	-11.3094
▁reviewer	-11.3101
fly	-11.3102
▁Cuban	-11.3105
▁obvious	-11.3107
gol	-11.3109
emp	-11.311
titled	-11.3112
▁upset	-11.3112
produced	-11.3113
▁1.5	-11.3114
▁Bloom	-11.3117
▁illustrated	-11.3118
▁chest	-11.3123
30,000	-11.3126
▁(9	-11.3128
▁Letter	-11.313
Ab	-11.3131
CM	-11.3132
▁trio	-11.3135
▁Twenty	-11.3141
▁integration	-11.3141
▁hidden	-11.3141
▁convoy	-11.3141
▁Sussex	-11.3141
▁Yankee	-11.3141
▁instructor	-11.3141
▁Pit	-11.3143
▁Moreover	-11.3144
▁silent	-11.3144
▁Editor	-11.3146
▁suspected	-11.3146
▁Foster	-11.3148
▁Pack	-11.3148
▁Ruth	-11.315
▁pub	-11.315
▁commentator	-11.315
grove	-11.3152
▁Change	-11.3153
ctive	-11.3154
hou	-11.3155
▁enlisted	-11.3156
roid	-11.3156
chrom	-11.3157
Char	-11.3159
cycle	-11.3159
▁aims	-11.3161
▁repeatedly	-11.3161
▁mail	-11.3162
▁indeed	-11.3162
▁Get	-11.3162
opter	-11.3162
▁McL	-11.3164
emon	-11.3165
▁Sep	-11.3165
HMS	-11.3167
▁Imp	-11.3167
John	-11.317
▁Mart	-11.3173
▁GP	-11.3174
▁enabled	-11.3175
▁Milwaukee	-11.3175
▁emerging	-11.3175
▁inhabited	-11.3175
▁dubbed	-11.3175
LL	-11.3175
▁admission	-11.3175
▁smoke	-11.3175
▁teeth	-11.3176
▁Harvey	-11.3176
▁independently	-11.3178
▁1869	-11.3184
▁Mira	-11.3185
▁blog	-11.3186
▁lung	-11.3188
▁beliefs	-11.3188
▁actively	-11.319
▁Reich	-11.319
▁Manila	-11.3191
▁faster	-11.3191
▁Brig	-11.3191
▁ERA	-11.3198
LE	-11.3199
▁Paulo	-11.32
▁arrives	-11.3202
zzi	-11.3202
tall	-11.3209
▁enemies	-11.3209
▁migration	-11.3209
▁borrow	-11.3209
▁cotton	-11.3209
▁Quarter	-11.3211
ør	-11.3211
▁Pier	-11.3213
▁seventeen	-11.3213
▁lecture	-11.3213
▁seriously	-11.3219
nett	-11.3222
▁tire	-11.3226
▁plates	-11.3229
▁shaped	-11.3232
▁specializ	-11.3232
ought	-11.3233
▁Pitt	-11.3233
▁Lithuanian	-11.3236
▁Vil	-11.3238
▁110	-11.3241
▁nationalist	-11.3242
▁Filipino	-11.3244
▁accus	-11.3244
▁Apart	-11.3245
▁grants	-11.3245
▁bears	-11.3246
▁punishment	-11.3247
selling	-11.3248
USA	-11.325
inae	-11.325
osi	-11.3251
▁1859	-11.3251
▁Original	-11.326
▁Raven	-11.3262
▁Grim	-11.3263
▁Sum	-11.3263
▁successive	-11.3266
▁IP	-11.3267
utter	-11.3269
▁Torre	-11.3269
▁Nag	-11.3271
first	-11.3273
▁marsh	-11.3273
▁Julian	-11.3274
▁samples	-11.3277
▁Safety	-11.3277
▁striking	-11.3277
▁snake	-11.3277
▁Animal	-11.3277
▁threw	-11.3277
▁syndrome	-11.3278
▁Gustav	-11.3278
▁bulk	-11.3278
▁Chapter	-11.3281
sphere	-11.3281
▁fastest	-11.3282
▁overlook	-11.3284
endra	-11.3288
▁files	-11.329
HC	-11.3291
ocrat	-11.3293
▁arc	-11.3294
last	-11.3296
▁intent	-11.3297
sher	-11.3299
▁promised	-11.3307
▁manor	-11.3308
▁taste	-11.3311
▁ordained	-11.3312
▁Nikola	-11.3313
▁mount	-11.3314
▁counterpart	-11.3315
▁socio	-11.3317
▁clay	-11.3318
▁82	-11.332
tiv	-11.3321
▁Eve	-11.3322
▁Electronic	-11.3323
▁Reading	-11.3324
▁reinforce	-11.3324
▁activists	-11.3325
osaur	-11.3325
rail	-11.3333
▁Thur	-11.3333
▁manages	-11.3334
ulate	-11.3335
▁encountered	-11.3336
dah	-11.3338
▁provisions	-11.3339
▁demanded	-11.3342
▁Canton	-11.3342
arium	-11.3342
▁rape	-11.3344
▁potentially	-11.3346
▁Agriculture	-11.3346
▁improving	-11.3346
▁theoretical	-11.3346
▁secular	-11.3348
▁naming	-11.3348
▁Liberty	-11.3349
▁Stevens	-11.3349
▁101	-11.3352
▁server	-11.3353
RM	-11.3361
ckle	-11.3361
-11	-11.3361
rise	-11.3366
▁aesthetic	-11.3368
▁Mini	-11.3369
▁assert	-11.3369
nick	-11.3374
▁Link	-11.3374
▁Tun	-11.3375
Hu	-11.3375
▁restore	-11.3377
▁Ferdinand	-11.3381
▁conjunction	-11.3381
▁delegation	-11.3381
▁Personnel	-11.3381
▁Writer	-11.3381
▁Apollo	-11.3381
▁findings	-11.3381
▁Heights	-11.3385
▁rub	-11.3385
▁Legion	-11.3387
▁scout	-11.3387
▁eu	-11.3387
▁fat	-11.3392
fected	-11.3392
▁travelling	-11.3393
▁suddenly	-11.3394
▁83	-11.3396
phan	-11.3402
▁ft	-11.3402
▁spec	-11.3405
▁reserves	-11.3407
▁denote	-11.3408
▁Female	-11.3416
▁Curtis	-11.3417
▁Contest	-11.3419
▁Era	-11.342
▁1800	-11.342
▁patch	-11.3421
▁Gardens	-11.3422
▁Organ	-11.3424
pole	-11.3424
▁experts	-11.3425
tique	-11.3425
▁Newport	-11.3429
▁Cox	-11.3431
icle	-11.3431
lusion	-11.3433
uel	-11.3434
▁proportion	-11.3437
▁lens	-11.3441
▁Lie	-11.3442
earn	-11.3443
TF	-11.3446
National	-11.3447
▁readers	-11.3447
screen	-11.3447
▁democracy	-11.345
▁ordinary	-11.345
▁exhaust	-11.345
▁FBI	-11.345
ucci	-11.3451
▁Prague	-11.3453
ologie	-11.3455
▁NE	-11.3455
▁shorter	-11.3457
cam	-11.3458
▁Pav	-11.346
▁Baronet	-11.3461
station	-11.3465
▁threats	-11.3466
▁Sud	-11.3467
lysis	-11.3467
green	-11.3469
▁Dame	-11.347
▁Prof	-11.347
nit	-11.347
woman	-11.3482
▁oppos	-11.3482
▁client	-11.3485
▁Agreement	-11.3485
▁Alternative	-11.3485
▁Outstanding	-11.3486
▁Credit	-11.3486
▁Present	-11.3487
▁torture	-11.3487
▁Single	-11.349
▁handed	-11.3491
▁trait	-11.3491
▁Wan	-11.3492
Min	-11.3494
static	-11.3495
▁pace	-11.3496
Nor	-11.3498
▁constitute	-11.3499
▁Mali	-11.35
▁Fuji	-11.3504
▁Mod	-11.3505
▁Scho	-11.3506
▁Astro	-11.3506
▁Bran	-11.3513
▁Pine	-11.3513
lev	-11.3519
▁circular	-11.352
▁efficiency	-11.352
▁exploration	-11.352
▁comprising	-11.352
▁parameter	-11.3521
▁Bueno	-11.3522
▁dismiss	-11.3522
öl	-11.3523
▁civilians	-11.3525
▁Viking	-11.3525
▁shoe	-11.3527
▁trustee	-11.353
▁Alpha	-11.3531
▁fence	-11.3532
▁Flying	-11.3532
▁MC	-11.3535
quer	-11.3536
▁Left	-11.3537
▁Vid	-11.3538
▁notion	-11.3539
▁Drum	-11.3544
ifies	-11.3546
▁variations	-11.3555
▁Mumbai	-11.3556
▁Worcester	-11.3556
▁curriculum	-11.3556
▁mathematical	-11.3556
▁negotiate	-11.3556
▁phenomenon	-11.3556
▁creature	-11.3556
▁stolen	-11.3556
▁NC	-11.3557
▁Any	-11.3558
▁commentary	-11.3559
▁Mix	-11.3559
▁varies	-11.3561
▁Path	-11.3563
Connor	-11.3563
är	-11.3572
chron	-11.3575
PE	-11.3579
▁upgraded	-11.358
▁Geo	-11.3587
▁Pul	-11.3589
▁consensus	-11.3591
▁identification	-11.3591
▁congressional	-11.3591
▁manipulat	-11.3591
▁impressed	-11.3592
▁Holmes	-11.3593
▁invented	-11.3594
▁stint	-11.3595
▁plum	-11.36
▁seminar	-11.3601
▁WA	-11.3602
▁discovers	-11.3603
..."	-11.3603
▁Lisa	-11.3604
▁compact	-11.3606
evo	-11.3611
▁predict	-11.3612
arily	-11.3613
▁clip	-11.3614
still	-11.3614
▁honored	-11.3622
lution	-11.3625
▁Cyprus	-11.3626
▁Examples	-11.3626
▁Uruguay	-11.3626
▁volleyball	-11.3626
▁specimens	-11.3627
▁Yar	-11.3627
▁Valentin	-11.3628
▁similarly	-11.3628
▁secur	-11.3629
▁Durham	-11.3629
▁conviction	-11.3631
▁Engineers	-11.3633
▁1854	-11.3635
▁resource	-11.3637
▁1847	-11.3637
900	-11.364
version	-11.3641
▁psycho	-11.3645
▁governing	-11.3645
▁Tax	-11.3645
▁logic	-11.3652
▁tasks	-11.3653
ND	-11.3655
match	-11.3657
▁Flo	-11.3659
▁VII	-11.366
▁CDP	-11.366
oxy	-11.3661
▁headquartered	-11.3662
▁sediment	-11.3662
▁harvest	-11.3662
▁Wonder	-11.3662
▁thesis	-11.3662
▁motorcycle	-11.3662
▁Progressive	-11.3664
▁HIV	-11.3666
▁Watch	-11.3666
▁reconstruction	-11.3667
▁Locat	-11.3668
▁slavery	-11.3668
firm	-11.367
▁hunt	-11.367
▁practiced	-11.3672
▁Rapid	-11.3674
▁Environment	-11.3677
titude	-11.368
▁conducting	-11.368
▁Knights	-11.368
UP	-11.3681
▁continent	-11.3682
Can	-11.3685
▁doctors	-11.3686
▁proceeded	-11.3688
▁87	-11.369
▁filmmaker	-11.3692
qi	-11.3694
nagar	-11.3694
▁clinic	-11.3694
▁Individual	-11.3698
▁quantum	-11.3698
▁distant	-11.3698
▁pursuit	-11.3698
▁precede	-11.3699
▁Tennis	-11.3699
▁jewel	-11.37
▁citizenship	-11.37
▁southeastern	-11.3702
▁Xu	-11.3702
▁Hour	-11.3703
▁Poli	-11.3706
GB	-11.3709
▁reviewed	-11.3714
angel	-11.3718
▁seized	-11.3719
▁Made	-11.3719
▁emerge	-11.372
▁Amy	-11.3722
yam	-11.3726
▁expanding	-11.3727
▁runners	-11.3728
▁Bak	-11.3729
▁farmer	-11.3731
▁circulation	-11.3734
▁Facebook	-11.3734
▁Qing	-11.3735
▁Zhang	-11.3736
▁Somali	-11.3737
▁clash	-11.3737
▁94	-11.3739
tron	-11.3739
▁Add	-11.374
▁dealer	-11.3744
▁nationally	-11.3744
▁Raw	-11.3745
▁withdrawn	-11.3748
▁Jer	-11.3749
▁Fitz	-11.375
▁Ranch	-11.3752
dler	-11.3753
▁Albania	-11.3754
etto	-11.3756
▁sheep	-11.376
▁examine	-11.3765
▁correspond	-11.3765
▁Tong	-11.3767
▁modul	-11.3767
▁Miguel	-11.377
▁Morocco	-11.377
▁releasing	-11.377
▁Olympia	-11.377
▁Gothic	-11.377
▁psychological	-11.377
▁Indianapolis	-11.377
plicat	-11.3772
▁boost	-11.3773
▁Pod	-11.3773
▁hook	-11.3774
▁Cad	-11.3774
lington	-11.3776
▁Him	-11.3776
▁Weekly	-11.3776
▁interval	-11.3777
▁spa	-11.3778
▁1858	-11.3779
▁referr	-11.3782
▁chase	-11.3787
▁Malta	-11.3787
▁Strait	-11.3788
▁Dub	-11.3789
▁hometown	-11.3789
▁Marcus	-11.3792
▁update	-11.3793
fill	-11.3794
▁1:	-11.3796
BR	-11.3801
▁soap	-11.3802
lex	-11.3803
▁Marcel	-11.3804
August	-11.3805
League	-11.3805
▁Crystal	-11.3806
▁Salvador	-11.3806
▁privilege	-11.3806
▁Feature	-11.3806
▁romance	-11.3806
▁Gospel	-11.3806
▁imposed	-11.3807
Universit	-11.3807
▁ruins	-11.3807
yev	-11.3807
▁pier	-11.3807
half	-11.3808
▁southwestern	-11.3809
▁carved	-11.381
▁biology	-11.3813
▁journalism	-11.3815
▁Aires	-11.3816
▁Nie	-11.382
▁putting	-11.3821
▁customer	-11.3822
vice	-11.3822
listed	-11.3827
▁anime	-11.3829
▁boom	-11.383
▁Edge	-11.383
nard	-11.3831
▁magnetic	-11.3832
▁Finn	-11.3832
▁Bros	-11.3836
generation	-11.3842
▁Giovanni	-11.3842
▁PlayStation	-11.3842
▁Saskatchewan	-11.3842
▁treasure	-11.3842
▁Benedict	-11.3842
▁authentic	-11.3842
▁Lodge	-11.3842
▁Tasmania	-11.3842
▁clients	-11.3842
IG	-11.3843
▁Terra	-11.3845
▁revolutionary	-11.3846
▁publish	-11.385
▁arise	-11.3852
bber	-11.3853
▁varying	-11.3853
▁mansion	-11.3855
note	-11.3855
▁Clay	-11.3856
▁authorized	-11.3857
▁160	-11.3859
▁teenager	-11.3859
▁Tsu	-11.386
▁pond	-11.3872
▁CC	-11.3872
enne	-11.3874
dging	-11.3874
▁pursued	-11.3877
▁linguistic	-11.3878
▁welfare	-11.3878
▁Capitol	-11.3878
▁auction	-11.3879
▁Rovers	-11.3879
▁Shadow	-11.3879
▁Flag	-11.3882
▁spar	-11.3887
▁Khal	-11.3887
▁leak	-11.389
mpton	-11.3896
July	-11.3897
▁Corp	-11.3901
-21	-11.3903
▁particles	-11.3903
▁Mull	-11.3908
▁qui	-11.3909
tica	-11.3913
▁Lancashire	-11.3915
▁Ecuador	-11.3915
▁circum	-11.3915
dul	-11.3915
▁entity	-11.3915
▁consent	-11.3916
▁Bee	-11.3918
credit	-11.3918
▁northwestern	-11.3918
▁personally	-11.392
omer	-11.3922
▁spark	-11.3923
▁Basin	-11.3924
▁Danny	-11.3924
▁1856	-11.3925
▁bush	-11.3927
▁governed	-11.3932
hof	-11.3937
clar	-11.3938
Tra	-11.3947
grand	-11.3947
▁hub	-11.395
▁societies	-11.3951
▁clergy	-11.3951
▁warrior	-11.3951
▁Laboratory	-11.3952
▁guy	-11.3953
▁shallow	-11.3953
▁Bradford	-11.3954
▁severely	-11.3955
▁Libya	-11.3958
▁buff	-11.396
litz	-11.396
asse	-11.3965
▁graphics	-11.3969
▁survivors	-11.397
▁bri	-11.3972
▁manufacturers	-11.3976
▁cleared	-11.3976
▁SP	-11.3977
▁considering	-11.398
mani	-11.3987
▁rot	-11.3987
▁algebra	-11.3988
▁Copenhagen	-11.3988
▁easier	-11.3988
▁Monument	-11.3988
▁drill	-11.3988
▁Iceland	-11.3988
grade	-11.399
▁Kri	-11.3994
▁Events	-11.3994
▁targeted	-11.3995
▁Heath	-11.3995
olin	-11.3998
ando	-11.3999
▁acknowledged	-11.4001
slav	-11.4004
fel	-11.4004
▁ple	-11.401
▁Clement	-11.4011
buck	-11.4014
▁diplomat	-11.4015
▁Belle	-11.402
TH	-11.4023
▁Distinguish	-11.4025
▁ceiling	-11.4025
▁irregular	-11.4025
▁Amateur	-11.4025
▁Idaho	-11.4025
▁pianist	-11.4025
function	-11.4026
▁contend	-11.4027
▁councillor	-11.4028
▁swing	-11.4029
▁clothes	-11.4034
▁1851	-11.4034
▁Colin	-11.4038
▁Sak	-11.4043
▁bath	-11.4044
▁Own	-11.4045
▁Traditional	-11.4047
▁pink	-11.4048
_3	-11.4048
Pol	-11.4049
lib	-11.4049
té	-11.405
▁observer	-11.405
▁Tir	-11.4051
vu	-11.4052
▁performers	-11.4057
▁Chau	-11.4058
▁decreased	-11.4058
left	-11.4058
▁Edmonton	-11.4062
▁furniture	-11.4062
▁expelled	-11.4062
▁shrub	-11.4062
▁Speaker	-11.4062
▁diamond	-11.4063
▁specified	-11.4063
World	-11.4063
cultural	-11.4063
▁array	-11.4063
▁automatically	-11.4064
▁northeastern	-11.4067
worm	-11.4068
love	-11.4068
▁Gur	-11.407
Che	-11.4071
▁Using	-11.4075
activate	-11.4076
▁san	-11.4083
EF	-11.4086
evich	-11.4087
metre	-11.4092
clusive	-11.4098
▁Nacional	-11.4099
▁peninsula	-11.4099
▁inclusion	-11.4099
▁valve	-11.41
▁Popular	-11.41
Ireland	-11.41
▁Stakes	-11.4101
▁Ble	-11.4102
▁dying	-11.4103
▁Spa	-11.4104
▁Lutheran	-11.4104
designated	-11.4105
▁Chase	-11.4105
▁tackles	-11.4108
▁workshops	-11.4108
▁Shiva	-11.4113
▁homo	-11.4113
▁determin	-11.4117
▁Rice	-11.4121
▁Dale	-11.4124
Gen	-11.4126
▁fold	-11.4126
▁reserved	-11.4128
hot	-11.4128
▁involve	-11.4131
▁Armstrong	-11.4137
▁kilometres	-11.4137
▁preservation	-11.4137
▁preparing	-11.4137
▁Resources	-11.4137
▁Fraser	-11.4138
▁screenplay	-11.4138
▁Duncan	-11.4139
▁barrel	-11.4139
bone	-11.414
▁Roth	-11.4141
▁Cecil	-11.4146
eater	-11.4146
▁drag	-11.4147
▁86	-11.4149
▁lineup	-11.4151
FO	-11.4151
2000	-11.4152
▁Dock	-11.4152
▁Turn	-11.4153
▁Josh	-11.4157
▁Princeton	-11.416
▁Cir	-11.4161
▁Glass	-11.4161
▁Casa	-11.4162
▁constantly	-11.417
▁collapsed	-11.4171
pm	-11.4171
genic	-11.4172
▁proven	-11.4173
▁Episcopal	-11.4174
▁Legislature	-11.4174
▁educator	-11.4174
▁imprisonment	-11.4174
▁memoir	-11.4174
▁literally	-11.4174
▁revolt	-11.4174
▁kitchen	-11.4174
▁comedian	-11.4176
▁regardless	-11.4177
▁hydrogen	-11.4177
▁Adrian	-11.4177
▁aerial	-11.4178
▁Lead	-11.4179
▁Sang	-11.418
▁1853	-11.4182
HR	-11.4183
▁altar	-11.4183
▁1855	-11.4185
▁Sabha	-11.4189
▁instant	-11.419
▁Jacques	-11.4191
▁Hin	-11.4193
▁130	-11.4193
▁virtually	-11.4194
▁prey	-11.4195
▁Pole	-11.4195
▁Lynn	-11.4195
pac	-11.4199
Cap	-11.4199
▁divorced	-11.42
▁CH	-11.4204
▁Strat	-11.4204
▁transported	-11.421
▁Tau	-11.421
pay	-11.421
▁skate	-11.4211
▁Publishing	-11.4212
▁territorial	-11.4212
▁peasant	-11.4212
▁vowel	-11.4212
▁wreck	-11.4212
▁assembled	-11.4212
▁Advanced	-11.4212
▁Flower	-11.4212
▁Colonial	-11.4213
▁sustain	-11.4213
▁Canyon	-11.4213
▁Herald	-11.4214
700	-11.4214
▁Plaza	-11.4215
hana	-11.4215
▁Similarly	-11.4224
illon	-11.4226
grave	-11.4234
▁deposits	-11.4234
▁Case	-11.4236
NO	-11.4237
▁Kom	-11.4239
frame	-11.4243
good	-11.4243
wear	-11.4246
▁Memphis	-11.4249
▁autumn	-11.4249
▁inaugurated	-11.4249
▁investors	-11.4251
▁interpreted	-11.4251
Gra	-11.4252
▁rebels	-11.4252
▁staged	-11.4252
▁crop	-11.4253
BO	-11.4253
▁offense	-11.4256
▁Nancy	-11.4258
▁Robb	-11.4259
▁Flu	-11.4259
▁lectures	-11.4269
Red	-11.4272
▁Male	-11.4274
▁Mik	-11.4277
vey	-11.4279
lik	-11.4287
▁Nintendo	-11.4287
▁sculptor	-11.4287
▁survival	-11.4287
▁blend	-11.4287
▁fixture	-11.4288
▁Viv	-11.4288
▁copyright	-11.4288
▁argue	-11.4289
comb	-11.429
▁Luci	-11.4292
▁Tampa	-11.4293
▁rally	-11.4295
▁Doug	-11.4299
▁consume	-11.4301
▁Without	-11.4303
market	-11.4304
▁speculat	-11.4306
▁Franc	-11.4307
▁Presidential	-11.4309
▁Gol	-11.4311
There	-11.4319
▁privately	-11.432
▁Chal	-11.4322
▁Shak	-11.4323
▁Santiago	-11.4325
▁compensation	-11.4325
▁emigrated	-11.4325
▁membrane	-11.4325
▁Rifle	-11.4325
▁Belgrade	-11.4326
▁Complex	-11.4326
▁dome	-11.4327
▁polar	-11.4328
September	-11.4328
▁crack	-11.4329
AIDS	-11.433
▁sprint	-11.433
▁89	-11.4331
▁Powell	-11.4336
▁Enterprise	-11.4337
pla	-11.4341
▁burning	-11.4342
▁withdrawal	-11.4342
isi	-11.4343
▁condemned	-11.4344
▁Pete	-11.4352
▁Scha	-11.4352
▁Chin	-11.4354
▁Reid	-11.4359
▁nose	-11.4359
Los	-11.436
▁Match	-11.4361
child	-11.4362
▁enforce	-11.4363
▁Amendment	-11.4363
▁Canterbury	-11.4363
▁Dynasty	-11.4363
▁Wednesday	-11.4363
▁ammunition	-11.4363
▁evident	-11.4363
▁revenge	-11.4363
▁absent	-11.4364
Rock	-11.4364
▁pounds	-11.4366
▁Sham	-11.4367
▁Gren	-11.4368
▁handled	-11.4369
III	-11.437
▁remov	-11.4375
lope	-11.4377
▁Style	-11.4378
▁Mich	-11.4379
▁flooding	-11.438
▁Lithuania	-11.4387
▁"...	-11.4387
#	-11.4388
▁tear	-11.4388
▁commemorate	-11.4389
▁Folk	-11.4395
▁icon	-11.4399
▁Gloucester	-11.4402
▁arguing	-11.4402
▁harbour	-11.4402
▁cliff	-11.4402
▁Interior	-11.4402
▁Critics	-11.4402
▁Airlines	-11.4405
December	-11.4405
Family	-11.4405
▁lying	-11.4407
▁revived	-11.441
▁vital	-11.4411
▁Denis	-11.4413
burgh	-11.4414
▁screening	-11.4414
bourne	-11.4415
▁specification	-11.4417
▁Rush	-11.4417
athi	-11.4423
powered	-11.4423
▁socialist	-11.4424
▁50%	-11.4425
▁Ox	-11.4425
best	-11.4425
Men	-11.443
▁deeply	-11.4432
▁excess	-11.4438
▁Chronicle	-11.444
▁apprentice	-11.444
▁impressive	-11.444
▁relegation	-11.444
▁dinner	-11.444
▁Bolivia	-11.444
▁ornament	-11.4441
▁crucial	-11.4441
▁Eugene	-11.4441
▁armour	-11.4442
▁AFL	-11.4444
▁Shri	-11.4444
▁Come	-11.4445
▁Hydro	-11.4445
sbury	-11.4446
▁topped	-11.4447
ça	-11.4447
both	-11.4452
claim	-11.4452
▁invitation	-11.4453
▁rushing	-11.4455
prop	-11.446
▁Burton	-11.4465
▁Flam	-11.4466
▁rid	-11.4469
naut	-11.447
▁Mé	-11.4472
▁Jesse	-11.4472
▁remembered	-11.4472
bill	-11.4475
▁Kru	-11.4475
wave	-11.4475
▁Chelsea	-11.4479
▁confidence	-11.4479
▁Rib	-11.4479
▁mechanic	-11.4481
▁marble	-11.4481
▁Emmy	-11.4481
case	-11.4482
▁AFC	-11.4485
▁salary	-11.4487
▁Louise	-11.4488
▁module	-11.4493
▁Pam	-11.4493
–12	-11.4493
cub	-11.4494
will	-11.4494
▁headline	-11.45
▁depot	-11.45
▁Corr	-11.4501
▁boarding	-11.4504
▁Kap	-11.4508
▁consequence	-11.4509
▁tackle	-11.4509
▁tender	-11.4509
zio	-11.451
▁workshop	-11.4512
partisan	-11.4515
three	-11.4515
▁magnitude	-11.4518
▁integral	-11.4518
▁Insurance	-11.4518
▁Krishna	-11.4518
▁alphabet	-11.4518
▁lobby	-11.4518
▁vinyl	-11.4518
▁terrain	-11.4518
▁disabled	-11.4518
▁neighbourhood	-11.4518
▁Comedy	-11.4519
▁Kit	-11.452
▁acclaim	-11.4523
▁Islander	-11.4524
psi	-11.4525
▁consequences	-11.4527
▁Photo	-11.453
▁wickets	-11.453
beck	-11.4536
▁Hindi	-11.4536
UC	-11.454
▁synthesis	-11.4543
▁(0	-11.4545
▁Talk	-11.4546
▁investigated	-11.4546
▁Wie	-11.4548
▁Rosen	-11.4549
urban	-11.4552
▁Table	-11.4555
▁protocol	-11.4556
▁chorus	-11.4557
xton	-11.4558
▁Study	-11.4558
science	-11.4561
▁Kho	-11.4566
▁Cost	-11.4566
-14	-11.4568
▁Zhu	-11.4569
▁3,000	-11.4569
▁missionary	-11.4569
7,000	-11.4569
–15	-11.457
holm	-11.4571
▁hoped	-11.4572
▁Speed	-11.4573
▁altered	-11.4574
▁Moor	-11.4576
▁premier	-11.4576
▁denomination	-11.458
owe	-11.4583
▁airing	-11.4584
icide	-11.4587
▁Hull	-11.4588
▁Word	-11.459
large	-11.4592
▁Holl	-11.4592
source	-11.4594
▁Aboriginal	-11.4595
▁accommodation	-11.4595
▁presidency	-11.4595
▁choreograph	-11.4595
phospho	-11.4596
▁Fifth	-11.4596
▁Regular	-11.4597
▁Leslie	-11.4597
▁complain	-11.4597
▁Natal	-11.4597
Roman	-11.4599
dhi	-11.46
▁bike	-11.4601
▁Kingston	-11.4601
district	-11.4602
▁1852	-11.4603
▁advertisement	-11.4605
▁flowering	-11.4605
▁1–1	-11.4611
▁Fol	-11.4612
jer	-11.4612
▁airfield	-11.4612
▁Gul	-11.4613
▁collecting	-11.4616
▁Fir	-11.4617
isse	-11.4617
xin	-11.4623
plant	-11.4625
▁crush	-11.4633
▁Kenneth	-11.4635
trop	-11.4635
▁horizontal	-11.4635
▁invention	-11.4636
▁ghost	-11.4636
▁textile	-11.464
▁accomplish	-11.464
▁desired	-11.464
background	-11.4641
▁1846	-11.4645
▁1849	-11.4645
▁Stoke	-11.4653
▁bypass	-11.4653
Sea	-11.4655
human	-11.4657
▁Armenia	-11.4658
▁alleg	-11.4661
▁Merit	-11.4661
▁Kab	-11.4661
HO	-11.4663
▁MI	-11.4669
▁700	-11.467
▁Cut	-11.4672
▁100,000	-11.4672
▁Serv	-11.4674
▁unexpected	-11.4674
▁[...]	-11.4674
▁impression	-11.4674
▁Calgary	-11.4674
▁shrine	-11.4674
▁Arsenal	-11.4674
▁Heaven	-11.4675
▁bicycle	-11.4675
▁Desert	-11.4676
▁exempt	-11.4676
▁criticised	-11.4677
▁sailing	-11.4677
▁Planning	-11.4678
wheel	-11.468
▁systematic	-11.4685
▁Erik	-11.469
▁NH	-11.4691
▁eliminate	-11.4692
imon	-11.4692
▁disappeared	-11.4699
hō	-11.47
ová	-11.4704
▁depiction	-11.4708
gawa	-11.4708
▁moon	-11.471
▁palm	-11.4712
▁cabin	-11.4713
▁Westminster	-11.4714
▁vicinity	-11.4714
▁Brussels	-11.4714
▁Somerset	-11.4714
▁Mobile	-11.4714
▁quit	-11.4714
▁Jesuit	-11.4714
▁Fellowship	-11.4716
▁batting	-11.4718
isan	-11.4719
NL	-11.4719
▁Watt	-11.4722
Far	-11.4724
▁(11	-11.4726
June	-11.4729
▁geographical	-11.4729
▁Chancellor	-11.473
▁conclude	-11.4731
▁http	-11.4736
look	-11.4737
kawa	-11.4737
▁Cata	-11.4743
named	-11.4745
float	-11.4747
▁Fran	-11.475
ische	-11.4751
▁Indoor	-11.4752
▁Luxembourg	-11.4753
▁feminist	-11.4753
▁measuring	-11.4753
▁skull	-11.4753
▁warfare	-11.4753
▁Sweet	-11.4753
▁Account	-11.4754
▁supporter	-11.4754
▁blade	-11.4756
▁pension	-11.4757
▁blocked	-11.4758
chor	-11.476
▁Advisory	-11.4761
igne	-11.4766
culture	-11.4766
▁Rap	-11.4768
▁interim	-11.477
▁pathway	-11.4771
▁Paper	-11.4774
▁Emily	-11.4779
▁rough	-11.4781
▁kilo	-11.4787
▁Author	-11.4787
gul	-11.4788
lene	-11.4791
assa	-11.4791
▁appoint	-11.4793
▁Administrative	-11.4793
▁ruin	-11.4793
▁Gibson	-11.4793
www	-11.4793
▁Access	-11.4793
▁wildlife	-11.4794
▁NSW	-11.4796
dog	-11.4796
▁Fernando	-11.4802
bler	-11.4803
cci	-11.4804
asso	-11.4804
▁emotion	-11.4807
skaya	-11.4808
How	-11.4808
▁1812	-11.4809
▁monitoring	-11.481
▁Border	-11.4811
▁cannon	-11.4812
▁killer	-11.4814
▁Fil	-11.4829
enter	-11.4829
▁2.5	-11.4829
MU	-11.4831
▁confused	-11.4833
▁deliberate	-11.4833
▁abortion	-11.4833
▁analyze	-11.4833
▁RBI	-11.4833
▁entries	-11.4833
▁crater	-11.4833
▁Davies	-11.4834
▁creek	-11.4836
specific	-11.484
graphic	-11.4841
Sch	-11.4843
▁occasional	-11.4843
▁lifestyle	-11.4843
▁Kurt	-11.4846
inda	-11.4847
▁presenter	-11.485
▁Clan	-11.4857
▁sensitive	-11.4857
loom	-11.4858
▁commanding	-11.4862
▁solely	-11.4864
▁properly	-11.4867
▁nano	-11.4869
▁uncertain	-11.4871
▁Reynolds	-11.4873
▁excavation	-11.4873
▁analyst	-11.4873
▁rookie	-11.4873
▁Robertson	-11.4877
,000.	-11.4878
▁rational	-11.4878
▁Liberation	-11.488
▁cream	-11.488
än	-11.4884
▁Dow	-11.4888
qa	-11.4888
▁pine	-11.4889
▁Nicol	-11.4891
▁Batt	-11.491
▁NO	-11.4911
▁McDonald	-11.4914
▁Structure	-11.4914
▁derivative	-11.4914
▁probability	-11.4914
▁turbine	-11.4914
▁perception	-11.4914
▁capabilities	-11.4914
▁fraud	-11.4914
▁confusion	-11.4916
▁Extra	-11.4916
▁Marian	-11.4917
▁occurring	-11.4917
▁Color	-11.4919
MD	-11.492
stat	-11.4921
Ban	-11.4923
▁oak	-11.4923
▁comprised	-11.4927
▁Def	-11.493
▁hitting	-11.493
▁Lud	-11.4932
▁125	-11.4932
stroke	-11.4934
disc	-11.4937
pod	-11.4937
▁fate	-11.4938
▁Rum	-11.4939
unit	-11.4947
▁assassin	-11.4947
▁Emma	-11.4953
▁Lucy	-11.4953
▁autonomous	-11.4954
▁Portsmouth	-11.4954
▁moist	-11.4955
▁aftermath	-11.4955
▁whale	-11.4955
▁Rachel	-11.4956
▁polymer	-11.4959
▁Arn	-11.4959
▁knock	-11.4961
▁stability	-11.4961
▁Pir	-11.4962
▁Against	-11.4963
▁advised	-11.4964
▁Oslo	-11.4965
▁canton	-11.497
▁retire	-11.497
▁chip	-11.4975
▁Webb	-11.4975
▁Pon	-11.4978
▁Glenn	-11.4979
▁sudden	-11.498
▁Chap	-11.498
▁scorer	-11.4985
▁enthusiast	-11.4993
▁Trent	-11.4994
▁hypothesis	-11.4995
▁orientation	-11.4995
▁Orlando	-11.4995
▁Hiro	-11.4995
▁cheap	-11.4997
NZ	-11.4998
gau	-11.4998
▁Subsequently	-11.5003
▁ranch	-11.5007
▁mate	-11.5009
▁toxic	-11.501
▁Jung	-11.501
Cloud	-11.5012
rub	-11.5014
▁questioned	-11.5015
▁Clear	-11.5018
▁Nadu	-11.5022
▁novelist	-11.5028
▁Dio	-11.5034
▁limestone	-11.5036
▁navigation	-11.5036
▁Wagner	-11.5036
▁breath	-11.5036
▁Cambodia	-11.5036
▁Cornwall	-11.5036
▁Actress	-11.5037
▁spider	-11.5037
gla	-11.5037
▁wagon	-11.5037
oj	-11.504
▁Cali	-11.5042
lake	-11.5043
cite	-11.5043
▁adoption	-11.5044
January	-11.5044
correct	-11.5044
▁Title	-11.5045
▁Nathan	-11.5048
▁Consul	-11.5048
▁Warriors	-11.5057
UN	-11.5057
guin	-11.5058
▁105	-11.5064
▁Log	-11.507
▁Gab	-11.5071
▁Scholar	-11.5076
▁larvae	-11.5077
▁mysterious	-11.5077
▁Coalition	-11.5077
▁compromise	-11.5077
▁beneath	-11.5077
▁thread	-11.5077
▁lighting	-11.5078
▁Surrey	-11.5078
▁punch	-11.5079
cilla	-11.5084
rush	-11.5085
▁hung	-11.5088
▁rivalry	-11.5089
▁Baltic	-11.509
▁Full	-11.5091
▁submit	-11.5091
structed	-11.5092
Neill	-11.5093
▁quoted	-11.5093
▁norm	-11.5094
▁Oct	-11.5096
▁0.1	-11.5102
▁broadcaster	-11.5102
▁Macedonia	-11.5103
luk	-11.5105
_4	-11.5105
▁nicknamed	-11.511
▁violin	-11.5111
▁Johnston	-11.5116
▁Tropical	-11.5118
▁ancestry	-11.5118
▁declaration	-11.5118
▁necessarily	-11.5118
▁pollution	-11.5118
▁undertaken	-11.5118
▁scan	-11.5118
▁considerably	-11.5119
▁preference	-11.512
▁vault	-11.512
▁Cancer	-11.5122
▁Chad	-11.5125
▁assassination	-11.5125
▁trainer	-11.5125
▁trim	-11.5128
▁hind	-11.5129
fiction	-11.5131
▁continental	-11.5137
insky	-11.5137
▁remember	-11.5138
▁Again	-11.5151
itic	-11.5154
▁Aberdeen	-11.5159
▁Software	-11.5159
▁siblings	-11.5159
▁Headquarters	-11.5159
▁asteroid	-11.5159
▁Gerald	-11.516
▁stepped	-11.5161
▁frog	-11.5162
▁Jiang	-11.5164
▁lessons	-11.5165
mart	-11.5168
president	-11.5169
April	-11.5169
▁Julia	-11.517
▁Pink	-11.5173
LO	-11.5174
▁struggled	-11.5175
▁François	-11.5181
psych	-11.5183
▁5,000	-11.5184
▁Pick	-11.5189
▁Chess	-11.519
Hip	-11.5192
▁accomplished	-11.5195
▁badly	-11.5197
ovic	-11.5197
▁Porter	-11.52
▁Application	-11.5201
▁Sebastian	-11.5201
▁affiliation	-11.5201
▁judgment	-11.5201
▁preceding	-11.5201
▁varieties	-11.5201
▁Henderson	-11.5201
▁ESPN	-11.5201
▁conspiracy	-11.5201
▁Belfast	-11.5201
▁populated	-11.5201
▁tribal	-11.5202
▁transmitter	-11.5204
▁Hick	-11.5204
hib	-11.5206
▁equi	-11.521
▁Tiger	-11.5216
▁Dong	-11.5218
▁suburban	-11.522
▁Kali	-11.5221
▁gig	-11.5222
▁Diet	-11.5226
▁Raz	-11.5226
▁Additional	-11.5227
MR	-11.5231
▁basement	-11.5234
▁interviewed	-11.5236
gha	-11.5239
▁comfort	-11.524
UK	-11.5242
▁Religion	-11.5242
▁currency	-11.5242
▁twentieth	-11.5242
▁Custom	-11.5242
▁Qatar	-11.5244
▁Summit	-11.5244
moor	-11.5247
▁Preston	-11.5248
▁ballad	-11.5248
▁Ou	-11.5249
▁Geneva	-11.5249
▁banner	-11.525
songwriter	-11.5253
▁Jew	-11.5254
▁advocated	-11.5254
▁raw	-11.5254
▁bassist	-11.5255
▁Potter	-11.5259
mund	-11.5261
▁stronger	-11.5261
vul	-11.5263
▁pm	-11.5265
▁Yoshi	-11.5276
▁Level	-11.5277
▁acclaimed	-11.5279
▁casting	-11.528
▁dys	-11.5281
seat	-11.5281
▁Achievement	-11.5284
▁libraries	-11.5284
▁renovated	-11.5284
▁Philosophy	-11.5284
▁Pap	-11.5284
▁breach	-11.5284
▁console	-11.5284
▁girlfriend	-11.5285
▁Harbour	-11.5285
khan	-11.5286
▁smart	-11.5286
▁Continental	-11.5286
▁Carlo	-11.5289
lew	-11.529
▁meal	-11.529
tention	-11.5293
▁Sugar	-11.5295
▁chronicle	-11.5295
40,000	-11.5296
Brien	-11.5296
–14	-11.53
ograph	-11.5302
▁reactor	-11.5304
▁Khu	-11.5306
▁resign	-11.5307
▁prohibited	-11.5309
chair	-11.531
▁Sah	-11.5312
kind	-11.5314
▁gable	-11.5314
▁suggestion	-11.5325
▁scattered	-11.5326
▁Frankfurt	-11.5326
▁plaque	-11.5326
▁Ludwig	-11.5326
▁intensity	-11.5326
▁Windsor	-11.5326
▁tumor	-11.5328
▁convey	-11.5328
fess	-11.5334
English	-11.5337
▁Johan	-11.5339
▁Baby	-11.5339
Life	-11.534
▁Tara	-11.5345
▁Milton	-11.5345
▁orphan	-11.5346
ère	-11.5346
▁villain	-11.5349
▁absorbed	-11.5355
eiro	-11.5357
▁Drug	-11.5359
▁Ley	-11.5359
patri	-11.536
wara	-11.5361
3,000	-11.5366
▁diagnosed	-11.5368
▁subspecies	-11.5368
▁unveiled	-11.5368
▁vegetation	-11.5368
▁Seminary	-11.5368
▁sacred	-11.5368
▁sweep	-11.5368
▁activated	-11.5368
▁lodge	-11.5368
▁Buddha	-11.5368
▁marker	-11.5373
▁ease	-11.5387
▁Neg	-11.539
▁CIA	-11.5391
▁Prussia	-11.5396
bee	-11.5396
▁genera	-11.5396
▁$6	-11.5403
▁Pool	-11.5404
lou	-11.541
troducing	-11.541
▁gastropod	-11.5411
▁thorough	-11.5411
▁tornado	-11.5411
▁eagle	-11.5411
▁endorsed	-11.5411
▁Tunisia	-11.5411
▁showcase	-11.5414
▁Compar	-11.5416
▁Bradley	-11.5416
wang	-11.5423
▁Til	-11.5423
Mad	-11.5424
▁Sou	-11.5426
▁1845	-11.5426
▁Bonn	-11.5427
▁Kro	-11.5431
▁chess	-11.5433
▁Steam	-11.5437
established	-11.5437
▁Estonia	-11.544
telli	-11.5441
▁synth	-11.5445
▁corridor	-11.5453
▁proximity	-11.5453
▁allocated	-11.5453
▁utility	-11.5453
▁Inspector	-11.5453
▁alumni	-11.5453
▁Klein	-11.5455
▁ramp	-11.5455
▁joke	-11.5458
▁Brewer	-11.5458
▁spur	-11.5459
▁calculated	-11.5463
▁Meyer	-11.5464
location	-11.5469
▁Rot	-11.5471
▁promotional	-11.5475
▁Alexandria	-11.5477
▁Sant	-11.5477
▁Ellen	-11.5477
▁tile	-11.5483
▁Solar	-11.5485
▁demon	-11.5485
▁Friend	-11.5487
▁Quint	-11.5487
▁Bren	-11.5491
helm	-11.5493
▁Buddhism	-11.5496
▁Indigenous	-11.5496
▁Jennifer	-11.5496
▁adequate	-11.5496
▁nineteenth	-11.5496
▁prominence	-11.5496
▁vulnerable	-11.5496
▁Depression	-11.5496
▁Brighton	-11.5496
▁spectrum	-11.5496
▁communicate	-11.5497
▁Ami	-11.5497
▁Founded	-11.5498
▁Springfield	-11.55
dress	-11.55
▁watched	-11.5503
hausen	-11.5504
▁Singer	-11.5506
ghan	-11.5506
▁Morrison	-11.5509
ggle	-11.551
▁hosting	-11.551
▁laser	-11.5512
▁1500	-11.5516
▁MO	-11.5518
▁finalist	-11.5525
solut	-11.5526
▁chronic	-11.5529
just	-11.5532
▁Brent	-11.5532
▁herb	-11.5535
Chi	-11.5536
▁Large	-11.5538
▁Recreation	-11.5539
▁maternal	-11.5539
▁Schedule	-11.5539
▁temper	-11.5539
▁Tanzania	-11.5539
▁Constantin	-11.5539
▁rejoin	-11.5539
▁dorsal	-11.5539
▁mutation	-11.5539
▁antenna	-11.5539
▁reader	-11.554
icus	-11.5541
▁bread	-11.5542
▁Yard	-11.5544
▁realm	-11.5547
▁spite	-11.5548
▁anger	-11.5551
▁Estonian	-11.5553
▁Gö	-11.5555
hui	-11.5555
▁jointly	-11.556
When	-11.5563
▁egg	-11.5565
charge	-11.5565
▁talking	-11.5571
▁conform	-11.5572
headed	-11.5577
cate	-11.5581
ór	-11.5581
▁Etymology	-11.5582
▁Jeremy	-11.5582
▁conceived	-11.5582
▁evaluate	-11.5582
▁obligation	-11.5582
▁subdivision	-11.5582
▁Literary	-11.5582
▁nursing	-11.5582
▁uprising	-11.5582
▁Grammar	-11.5583
▁supervision	-11.5583
▁Tyler	-11.5586
▁armies	-11.5586
▁attractive	-11.5587
▁Edgar	-11.5593
haus	-11.5597
▁Cran	-11.5599
▁vein	-11.5606
▁Total	-11.5611
▁Constitutional	-11.5613
▁bias	-11.5616
▁intersect	-11.5617
▁Body	-11.5617
won	-11.5619
▁legally	-11.562
▁Siege	-11.5622
▁rectangular	-11.5625
▁remarkable	-11.5625
▁twist	-11.5625
▁Screen	-11.5625
▁Kosovo	-11.5625
▁Universe	-11.5626
▁Strike	-11.5633
▁Fiji	-11.5634
▁Papua	-11.5635
production	-11.5636
cision	-11.564
zier	-11.564
▁loved	-11.5643
:#	-11.5643
flex	-11.5645
▁mud	-11.5648
▁spelling	-11.5649
▁Harper	-11.5649
▁feeding	-11.565
▁axis	-11.5651
izz	-11.5652
▁Planet	-11.5656
▁Richardson	-11.566
▁Dru	-11.5663
▁Copa	-11.5663
communic	-11.5667
semi	-11.5668
▁Dorothy	-11.5669
▁memories	-11.5669
▁tactics	-11.5669
▁Globe	-11.5669
▁predator	-11.567
▁Silva	-11.5671
▁shaft	-11.5672
Day	-11.5673
pine	-11.5676
▁Ghost	-11.5677
▁USSR	-11.5678
▁3–1	-11.568
▁render	-11.5681
▁Marsh	-11.5682
October	-11.5683
▁Duck	-11.5693
▁Merri	-11.5695
model	-11.5696
▁rendered	-11.5703
bbe	-11.5704
onian	-11.5712
▁Herzegovina	-11.5712
▁remnant	-11.5712
▁volcanic	-11.5712
▁innovative	-11.5712
▁undertook	-11.5712
▁NATO	-11.5713
▁chord	-11.5713
▁feather	-11.5714
▁deployment	-11.5716
▁unclear	-11.5722
Rolling	-11.5723
Parliamentary	-11.5727
▁140	-11.5728
▁colonel	-11.5731
▁Eco	-11.5733
▁declare	-11.5735
hari	-11.5741
jack	-11.5744
▁informal	-11.5748
cano	-11.5748
pack	-11.5748
▁physically	-11.5749
though	-11.575
rica	-11.575
▁Kane	-11.5751
▁disk	-11.5751
▁Worth	-11.5753
avian	-11.5756
▁Criminal	-11.5756
▁Physics	-11.5756
▁Swimming	-11.5756
▁vegetable	-11.5756
▁Graduate	-11.5756
▁evaluation	-11.5757
▁navy	-11.5758
▁Cell	-11.5758
heart	-11.576
▁detective	-11.576
▁María	-11.576
▁hetero	-11.576
▁sphere	-11.5762
elect	-11.5763
▁Doll	-11.5771
▁peaceful	-11.5771
▁equally	-11.5776
▁Dunn	-11.5777
▁erect	-11.5781
▁Face	-11.5782
▁examined	-11.5783
▁thrown	-11.5785
▁Quest	-11.5789
▁Notre	-11.5793
▁Lancaster	-11.58
▁vaccine	-11.58
▁synonym	-11.5801
▁Eurovision	-11.5801
▁batteries	-11.5801
▁surrendered	-11.5802
▁Faith	-11.5803
▁Aircraft	-11.5803
▁Bailey	-11.5804
▁Caroline	-11.5805
▁cyclone	-11.5806
conscious	-11.5806
vik	-11.5807
ifier	-11.5808
▁Outside	-11.5808
▁healthy	-11.5813
TU	-11.5815
▁Boat	-11.5815
▁Want	-11.5816
▁warned	-11.5817
max	-11.5819
▁overlap	-11.582
ienne	-11.5827
▁unsuccessfully	-11.5828
▁Georg	-11.5828
▁Linda	-11.583
▁continuously	-11.583
▁Petro	-11.5843
▁Joy	-11.5843
▁Mohammad	-11.5845
▁embrace	-11.5845
▁dispatch	-11.5845
▁Shield	-11.5845
▁Haven	-11.5845
▁Naples	-11.5845
▁Bedford	-11.5845
▁IBM	-11.5845
▁trophy	-11.5845
▁shadow	-11.5845
▁subfamily	-11.5846
▁poorly	-11.5846
▁mild	-11.5847
▁surgeon	-11.585
liv	-11.5851
▁neighbor	-11.5852
▁hull	-11.5852
▁Gent	-11.5854
▁Luck	-11.5854
▁Lynch	-11.5856
asser	-11.5858
▁Hammer	-11.5858
current	-11.5858
1,000	-11.5859
▁Ferry	-11.5863
▁eating	-11.5871
▁voiced	-11.5882
owner	-11.5882
▁rod	-11.5888
▁warehouse	-11.5889
rong	-11.589
▁ultra	-11.589
▁Knox	-11.589
▁Index	-11.589
▁nerve	-11.589
▁unofficial	-11.5891
▁proceedings	-11.5891
▁drainage	-11.5892
▁Scots	-11.5892
throat	-11.5893
▁VIII	-11.5898
▁Allan	-11.5899
girl	-11.5905
▁Cham	-11.5905
▁Rang	-11.5915
solve	-11.5917
▁Nigerian	-11.5917
zie	-11.5921
▁predicted	-11.5932
▁Ill	-11.5933
▁Halifax	-11.5934
▁velocity	-11.5934
▁correspondence	-11.5935
▁Combat	-11.5936
▁invested	-11.5936
▁Lost	-11.5937
▁diploma	-11.5937
▁flagship	-11.5939
▁acute	-11.5939
▁Pai	-11.5942
▁fed	-11.5943
▁Moses	-11.5945
beat	-11.5948
▁separately	-11.5952
▁Tourism	-11.5953
▁optical	-11.5953
▁Wick	-11.5961
czy	-11.5961
▁lip	-11.5966
▁performer	-11.5972
▁ingredient	-11.5978
▁Bulldogs	-11.5978
▁sentiment	-11.5979
▁enrollment	-11.598
▁mythology	-11.598
▁remind	-11.5981
forming	-11.5983
▁Haiti	-11.5988
GP	-11.5989
▁Slovakia	-11.599
tsch	-11.5999
▁pirate	-11.6
▁audit	-11.6001
ologi	-11.6007
▁knowing	-11.6009
plex	-11.6019
▁Serb	-11.602
▁Newfoundland	-11.6023
▁recurring	-11.6023
▁codice	-11.6024
▁naturally	-11.6024
▁Spider	-11.603
▁Self	-11.603
▁Zen	-11.603
▁Victory	-11.6031
▁Anders	-11.6032
▁cruise	-11.6034
XX	-11.6035
▁tap	-11.6035
▁1837	-11.6036
▁prosecutor	-11.6036
▁overcome	-11.6036
▁Lav	-11.6037
▁Yuan	-11.6037
▁expos	-11.6038
▁embarked	-11.6039
published	-11.6041
▁protesters	-11.6041
zzle	-11.6042
jor	-11.6043
cost	-11.605
ević	-11.6052
chet	-11.6054
▁knocked	-11.6061
Port	-11.6064
▁Statistical	-11.6069
▁virtue	-11.6069
▁Plymouth	-11.6069
▁Wyoming	-11.6069
▁fiscal	-11.6069
▁Gandhi	-11.6069
▁Valencia	-11.6069
▁Housing	-11.607
fund	-11.607
▁excessive	-11.6072
drome	-11.6074
▁legendary	-11.6074
▁motivat	-11.6074
▁warrant	-11.6076
▁Hank	-11.6079
▁Eva	-11.608
▁audition	-11.608
▁Stalin	-11.6081
▁Nash	-11.6083
President	-11.6086
Music	-11.6089
▁Papa	-11.6089
itter	-11.6097
▁10%	-11.61
▁Theodore	-11.6101
▁contra	-11.6102
▁Stru	-11.6104
ambo	-11.6105
▁shortage	-11.611
linger	-11.6114
▁juvenile	-11.6114
▁grandmother	-11.6114
▁processor	-11.6118
engine	-11.6119
runner	-11.6119
▁Cohen	-11.6124
party	-11.6125
▁bal	-11.6128
▁bold	-11.613
▁meter	-11.6133
▁metro	-11.6136
▁Adv	-11.6138
▁Programme	-11.6139
▁partition	-11.6139
▁Tab	-11.6142
▁2.0	-11.6145
dependent	-11.6148
▁Look	-11.615
▁sporting	-11.615
▁Pip	-11.6153
▁redesign	-11.6157
cian	-11.6159
pathy	-11.6159
▁Classical	-11.6159
▁Griffith	-11.616
▁Manitoba	-11.616
▁pocket	-11.616
▁healthcare	-11.616
▁Julius	-11.616
▁grammar	-11.616
▁licence	-11.616
▁submission	-11.6163
▁monster	-11.6163
▁prosecution	-11.6165
▁adhere	-11.6166
▁Tap	-11.6169
▁Chuck	-11.617
▁rescued	-11.6171
▁Brother	-11.6171
▁metric	-11.6171
▁Colony	-11.6177
▁Bolton	-11.6178
▁Living	-11.6178
▁streaming	-11.6181
▁Herman	-11.6186
kow	-11.6187
▁surf	-11.6188
▁backup	-11.6191
bear	-11.6196
▁Kyle	-11.6198
▁lion	-11.6198
▁Document	-11.6206
responsibilities	-11.6206
▁Guatemala	-11.6206
▁achieving	-11.6206
▁explosive	-11.6206
▁portfolio	-11.6206
▁Nichols	-11.6206
▁Chemical	-11.6206
▁Sicily	-11.6206
▁dwelling	-11.6206
▁Fiction	-11.6209
▁sustainable	-11.6209
▁Normal	-11.6209
▁Llan	-11.621
▁Stro	-11.621
▁Hugo	-11.6214
isha	-11.6214
▁descend	-11.6215
▁Karen	-11.6216
éri	-11.6218
▁cater	-11.622
ggie	-11.6223
Play	-11.6223
▁boxer	-11.6224
▁consistently	-11.6228
kun	-11.623
▁Rie	-11.6233
▁wishes	-11.6236
▁Martha	-11.624
▁dressed	-11.6241
▁Sharp	-11.6242
▁liner	-11.6247
▁insight	-11.6251
▁cylinder	-11.6251
▁Providence	-11.6252
▁accuracy	-11.6252
▁Baldwin	-11.6252
▁Character	-11.6252
▁cyclist	-11.6252
▁Hopkins	-11.6252
▁harsh	-11.6252
▁swimmer	-11.6253
▁humid	-11.6253
▁digit	-11.6254
▁Tunnel	-11.6254
▁batted	-11.6256
NY	-11.6257
▁foster	-11.626
terra	-11.6263
Game	-11.6264
escent	-11.6267
▁grape	-11.627
▁Mongolia	-11.6273
Mr	-11.6273
structure	-11.6274
▁striker	-11.6274
peak	-11.6281
▁Similar	-11.6283
▁Wave	-11.6283
▁suite	-11.629
▁marginal	-11.6295
berger	-11.6297
▁Industries	-11.6298
▁computation	-11.6298
▁Claus	-11.6299
▁trunk	-11.6299
▁Rochester	-11.6299
▁Boeing	-11.63
▁kids	-11.6301
wolf	-11.6301
▁Chor	-11.6303
▁Manor	-11.6305
▁Publications	-11.6305
▁thermal	-11.6306
▁ITV	-11.6311
lough	-11.6314
▁inhibit	-11.6317
dynamic	-11.6318
▁cease	-11.6323
▁gather	-11.6324
▁ATP	-11.6327
lore	-11.6338
▁specimen	-11.6343
emia	-11.6345
▁Agricultural	-11.6345
▁Constantinople	-11.6345
▁Gibraltar	-11.6345
▁luxury	-11.6345
▁Mercury	-11.6345
▁mystery	-11.6345
▁Effect	-11.6345
▁Crusade	-11.6345
▁Corb	-11.6345
▁violate	-11.6345
▁Maritime	-11.6348
▁Ulster	-11.6348
▁Carroll	-11.6349
lion	-11.635
▁Charleston	-11.6354
▁favorable	-11.6355
▁Gross	-11.6358
▁1836	-11.6358
▁watching	-11.6361
gala	-11.6363
modern	-11.6365
Tur	-11.6369
▁recreational	-11.6369
▁contractor	-11.6371
Donnell	-11.6372
suit	-11.6373
▁mac	-11.6376
▁rope	-11.6376
Comm	-11.6377
chem	-11.6377
▁starter	-11.6378
▁macro	-11.6379
▁donor	-11.6379
▁1,0	-11.6382
▁differential	-11.6383
zong	-11.6385
▁pose	-11.6386
▁interception	-11.6391
▁Nixon	-11.6391
olithic	-11.6391
▁betray	-11.6392
▁Picture	-11.6393
▁Geographic	-11.6393
▁playwright	-11.6393
▁leather	-11.6393
▁intend	-11.6396
▁Wesley	-11.6396
▁accidentally	-11.6397
▁Kala	-11.64
▁Task	-11.6401
▁thriller	-11.6403
▁Salem	-11.6407
▁Valle	-11.6408
xia	-11.6411
appointed	-11.6412
▁Nun	-11.6414
tico	-11.6416
▁guarantee	-11.6416
▁ballet	-11.6419
▁epic	-11.6422
▁Make	-11.6425
▁container	-11.6426
▁sad	-11.6436
▁Settlement	-11.6438
▁assumption	-11.6438
▁propaganda	-11.6438
▁Marriage	-11.6438
▁vacant	-11.6438
▁Process	-11.6439
▁Organisation	-11.6439
▁hazard	-11.6439
▁shareholder	-11.6439
▁Sheriff	-11.6439
▁Speedway	-11.644
▁sponsorship	-11.6441
▁Balkan	-11.6441
▁trademark	-11.6442
▁factories	-11.6443
▁Muk	-11.6444
agno	-11.6444
▁confess	-11.6446
▁reunited	-11.6446
▁1844	-11.645
▁2018–19	-11.6453
▁20,000	-11.6453
channel	-11.646
▁highlighted	-11.646
▁editing	-11.6461
▁staying	-11.6462
▁boxing	-11.6462
onda	-11.6465
there	-11.647
hine	-11.647
▁crowned	-11.6472
▁fix	-11.6476
▁nun	-11.6477
mmel	-11.6479
▁True	-11.6481
▁pad	-11.6482
▁Belt	-11.6483
▁Working	-11.6484
▁Emergency	-11.6485
▁statute	-11.6485
▁voltage	-11.6485
compatible	-11.6486
▁Investment	-11.6486
▁Volume	-11.6486
▁rubber	-11.6487
▁Cairo	-11.6488
/10	-11.6491
ographer	-11.6494
▁imported	-11.6495
gill	-11.6496
▁combin	-11.65
Bra	-11.6501
November	-11.6507
▁priority	-11.6513
▁propose	-11.6515
went	-11.6516
bour	-11.652
▁obtaining	-11.6521
▁Hood	-11.6522
▁Carnegie	-11.6533
▁Lebanese	-11.6533
▁investigator	-11.6533
▁Myanmar	-11.6533
▁migrant	-11.6533
▁Impact	-11.6534
▁Bronze	-11.6534
Miss	-11.6534
▁Claude	-11.6534
▁flame	-11.6537
▁Rica	-11.6539
▁counted	-11.6541
▁Gott	-11.6542
▁Champ	-11.6543
▁Guru	-11.6549
▁Nobel	-11.655
▁Online	-11.6555
United	-11.6555
▁Wald	-11.6557
▁Hou	-11.6572
bili	-11.6575
▁Clu	-11.6576
ometric	-11.6576
▁crest	-11.6579
LR	-11.6579
▁Logan	-11.6579
▁reluctant	-11.658
disciplinary	-11.658
▁Nuclear	-11.658
▁collision	-11.658
▁constituencies	-11.658
▁enormous	-11.658
▁cartridge	-11.658
▁Ernst	-11.6581
▁entities	-11.6581
▁Generation	-11.6582
▁Thames	-11.6582
ebra	-11.6582
–13	-11.6584
▁Rocky	-11.6586
▁mural	-11.6587
▁lineage	-11.6588
▁narrowly	-11.659
▁dragon	-11.6591
▁1832	-11.6593
▁crypt	-11.6594
▁disputed	-11.6598
▁Kiss	-11.6598
▁Southwest	-11.66
European	-11.6603
▁partnered	-11.6609
▁Ballet	-11.661
fast	-11.6612
▁Castro	-11.6618
wake	-11.662
zhi	-11.6621
▁observe	-11.6622
▁NASCAR	-11.6628
▁cognitive	-11.6628
▁coordinator	-11.6628
▁custody	-11.6628
▁ecosystem	-11.6628
▁endangered	-11.6628
▁Resident	-11.6628
▁Tuesday	-11.6628
▁plague	-11.6628
▁Gaelic	-11.6628
▁Lima	-11.6629
▁drunk	-11.6629
▁inception	-11.6629
▁Gala	-11.6629
▁Leadership	-11.663
▁trailer	-11.6634
▁noticed	-11.6637
▁Yemen	-11.6639
▁diving	-11.6639
clad	-11.6641
▁Drag	-11.6642
▁3–0	-11.6644
▁tutor	-11.6646
▁brake	-11.6647
▁Alam	-11.6648
family	-11.665
▁Brun	-11.665
▁defendant	-11.6651
▁Negro	-11.6651
▁Drake	-11.6652
▁3–2	-11.6653
lace	-11.6654
▁Marion	-11.6654
▁Select	-11.6662
purpose	-11.6663
▁0.2	-11.6665
▁Prem	-11.6666
▁Via	-11.6669
▁Congregation	-11.6676
▁ceremonies	-11.6676
▁deceased	-11.6676
▁Initiative	-11.6676
▁Physical	-11.6676
▁translator	-11.6676
▁motif	-11.6676
▁Learning	-11.6676
▁enacted	-11.6676
defunct	-11.6676
▁civic	-11.6676
▁Adolf	-11.6677
▁Bohemia	-11.6677
▁urged	-11.6677
▁purple	-11.6678
▁Dubai	-11.6678
▁arcade	-11.6678
atum	-11.6679
▁blast	-11.6679
▁guided	-11.668
▁Cort	-11.6684
▁Arctic	-11.6684
▁mob	-11.6686
arious	-11.6689
▁Churchill	-11.6691
▁Farmer	-11.6693
▁hail	-11.6701
▁Naka	-11.6703
▁Marty	-11.6703
factor	-11.6704
itude	-11.6707
▁parishes	-11.6708
▁Ethiopia	-11.671
bou	-11.6712
▁advertise	-11.6714
▁Malaysian	-11.6714
▁Cheng	-11.672
▁longtime	-11.6724
▁Bug	-11.6724
▁Budapest	-11.6725
▁Confederation	-11.6725
▁strategies	-11.6725
▁testimony	-11.6725
▁Paraguay	-11.6725
▁pottery	-11.6725
▁pledge	-11.6725
▁Monroe	-11.6725
▁humor	-11.6725
▁Trial	-11.6725
▁anthology	-11.6725
▁Vijay	-11.6725
▁Uttar	-11.6726
▁Janeiro	-11.6726
▁Beatles	-11.6727
▁capability	-11.6728
▁Cornell	-11.6728
▁sitcom	-11.6728
▁periodical	-11.6735
▁1841	-11.6738
NU	-11.674
Institut	-11.6741
Up	-11.6744
eptic	-11.6745
▁seeming	-11.675
wil	-11.6752
1.1	-11.676
▁lamp	-11.676
▁woodland	-11.6763
▁slight	-11.6773
▁Istanbul	-11.6773
▁Malcolm	-11.6773
▁economist	-11.6773
▁clause	-11.6773
▁podcast	-11.6773
▁Testament	-11.6773
▁Afghan	-11.6773
▁boiler	-11.6773
▁Meeting	-11.6774
▁Superior	-11.6774
▁Civic	-11.6774
Il	-11.6774
▁inspection	-11.6774
▁Edwin	-11.6777
▁gentle	-11.6778
▁Angola	-11.6779
▁Marshal	-11.6781
▁adviser	-11.6784
▁absorb	-11.6788
▁arrange	-11.6791
▁pronounced	-11.6793
▁portrayal	-11.6795
▁recreation	-11.6796
▁Hook	-11.6798
▁Mongol	-11.6801
▁Slam	-11.6802
▁Half	-11.6803
▁Baden	-11.6804
terrorism	-11.6804
▁Hub	-11.6805
▁Lance	-11.6805
▁buying	-11.6805
▁Maxim	-11.6806
▁advisory	-11.6806
▁climbing	-11.6808
▁controlling	-11.6811
▁Prussian	-11.6812
▁Educational	-11.6813
fried	-11.6815
▁electorate	-11.6822
▁Devi	-11.6823
▁cloth	-11.6824
▁Butter	-11.6826
▁2017–18	-11.6827
▁Connect	-11.6827
▁Tibetan	-11.6827
Let	-11.6828
▁laugh	-11.6828
▁Louisville	-11.6833
▁hatch	-11.6836
enza	-11.6837
▁lady	-11.6839
▁Blair	-11.6846
2011	-11.6846
cine	-11.6851
hala	-11.6862
▁103	-11.6863
▁Jake	-11.6864
▁reconstruct	-11.6865
▁$7	-11.6867
▁maxim	-11.6869
▁Crawford	-11.6871
▁Kashmir	-11.6871
▁Madagascar	-11.6871
▁militant	-11.6871
▁overwhelming	-11.6871
▁Cowboys	-11.6871
▁philosophical	-11.6871
▁Caesar	-11.6872
▁barb	-11.6873
▁dealt	-11.6873
▁Darwin	-11.6875
▁screened	-11.6875
rigg	-11.6875
▁Counties	-11.6877
▁kiss	-11.6878
▁bitter	-11.688
▁realise	-11.6883
▁Sherman	-11.6883
▁1839	-11.6885
▁Yugoslav	-11.6885
▁merit	-11.6887
horse	-11.6887
“	-11.6896
Blue	-11.6897
▁complexity	-11.69
Que	-11.6902
▁crashed	-11.691
▁throwing	-11.6911
▁0.5	-11.6914
▁Barnes	-11.6914
▁punish	-11.6916
▁concession	-11.692
▁Chennai	-11.692
▁reopened	-11.692
▁invaded	-11.6921
Out	-11.6921
▁concurrent	-11.6922
▁sandstone	-11.6923
sław	-11.6923
▁Hampton	-11.6923
▁lend	-11.6924
▁witnessed	-11.6925
▁Phase	-11.6926
▁Spin	-11.6926
▁dive	-11.693
▁hunter	-11.6932
layer	-11.6934
▁doctoral	-11.6936
▁similarities	-11.6936
▁recount	-11.6937
ador	-11.6937
ło	-11.6944
▁particle	-11.6945
league	-11.6948
▁Yet	-11.6948
▁elderly	-11.6951
flat	-11.6955
icular	-11.6959
▁Brom	-11.6962
▁1820	-11.6963
▁Leigh	-11.6963
God	-11.6969
▁shirt	-11.6969
umba	-11.6969
▁Telugu	-11.697
▁artifacts	-11.697
▁dissolution	-11.697
▁hectares	-11.697
▁Soldier	-11.697
▁Lisbon	-11.697
▁reconnaissance	-11.697
▁derives	-11.697
▁equity	-11.6972
▁Jorge	-11.6974
▁allied	-11.6977
▁Cool	-11.6977
▁rector	-11.6978
▁Lé	-11.6982
▁assess	-11.6988
▁witnesses	-11.6989
▁pyr	-11.6992
development	-11.6996
▁certainly	-11.6997
ophor	-11.7
▁angel	-11.7003
▁exceptional	-11.7009
▁Burke	-11.701
quez	-11.7014
▁explored	-11.7015
▁bug	-11.7017
▁Tribe	-11.7017
▁challenging	-11.702
▁Thursday	-11.702
▁reliable	-11.702
▁tobacco	-11.702
▁bankruptcy	-11.702
▁loaded	-11.702
▁accordance	-11.7021
▁Novel	-11.7021
▁Phi	-11.7023
▁Maxwell	-11.7023
State	-11.7026
▁strand	-11.703
▁2022	-11.7036
▁Sym	-11.7039
nomic	-11.704
▁chaired	-11.704
fighter	-11.7046
▁unlikely	-11.7046
▁Samoa	-11.705
▁sunk	-11.7054
morphic	-11.7057
▁fake	-11.706
[...]
