<unk>	0
<s>	0
</s>	0
▁	0
e	-0.877423
the	-3.66256
.	-3.85004
,	-3.86165
s	-4.16848
of	-4.24347
in	-4.37052
and	-4.37442
a	-4.45088
to	-4.68526
"	-4.84054
was	-5.2326
on	-5.32465
-	-5.35449
is	-5.37144
The	-5.42774
as	-5.62258
'	-5.63207
for	-5.6444
(	-5.74523
d	-5.79234
by	-5.80259
with	-5.81035
at	-5.85852
an	-6.03934
that	-6.04136
r	-6.12297
from	-6.14546
his	-6.2545
In	-6.2757
)	-6.3052
it	-6.41471
ing	-6.42664
he	-6.47358
or	-6.51729
were	-6.58391
th	-6.58955
which	-6.68541
S	-6.72882
A	-6.73365
n	-6.76338
are	-6.78087
He	-6.8289
be	-6.86118
had	-6.86229
also	-6.87884
has	-6.92084
t	-6.92992
;	-6.96759
:	-6.97831
y	-6.97947
first	-6.98
It	-7.05156
her	-7.08046
their	-7.11293
not	-7.1368
its	-7.14739
who	-7.16557
i	-7.1727
but	-7.18137
l	-7.24154
ly	-7.24461
–	-7.26542
two	-7.2927
have	-7.29543
B	-7.29552
D	-7.29679
this	-7.33438
",	-7.34335
been	-7.36105
m	-7.36122
al	-7.41387
L	-7.43603
I	-7.44186
us	-7.44366
time	-7.44429
o	-7.4524
R	-7.45516
after	-7.46883
On	-7.47004
over	-7.47856
M	-7.51095
),	-7.5175
up	-7.52232
".	-7.52455
C	-7.53476
other	-7.53865
H	-7.53958
all	-7.54091
h	-7.56253
).	-7.57857
P	-7.59717
they	-7.6105
no	-7.61498
out	-7.63154
K	-7.67308
New	-7.67483
k	-7.68592
F	-7.69797
more	-7.69985
T	-7.70471
G	-7.71153
W	-7.73395
2	-7.73425
1	-7.73709
when	-7.75048
where	-7.75167
would	-7.7674
years	-7.77426
she	-7.77846
can	-7.77858
This	-7.78766
U	-7.80126
year	-7.80215
during	-7.8028
new	-7.80686
only	-7.81389
un	-7.81879
man	-7.81989
c	-7.82085
season	-7.82295
under	-7.83298
b	-7.83962
E	-7.84202
into	-7.84315
him	-7.8645
between	-7.87561
g	-7.87707
three	-7.88887
N	-7.89701
part	-7.90528
well	-7.92565
made	-7.93198
most	-7.93329
later	-7.93536
ar	-7.94362
used	-7.94385
/	-7.94458
&	-7.94593
United	-7.95051
known	-7.95127
3	-7.9529
such	-7.95339
about	-7.95646
American	-7.95876
team	-7.97181
She	-7.9746
p	-7.97619
became	-7.98269
than	-7.98314
born	-8.00077
then	-8.00471
University	-8.01398
w	-8.05007
film	-8.05194
some	-8.05395
including	-8.06088
V	-8.06581
z	-8.07
being	-8.07227
co	-8.07415
st	-8.07485
second	-8.09568
St	-8.09842
work	-8.117
4	-8.12258
O	-8.13216
through	-8.13271
As	-8.13812
so	-8.13983
there	-8.14428
v	-8.14967
After	-8.16181
J	-8.16524
against	-8.16993
them	-8.17232
before	-8.18591
ic	-8.19055
many	-8.19414
while	-8.19947
World	-8.20492
until	-8.20644
people	-8.20922
album	-8.22058
f	-8.22781
u	-8.22871
May	-8.2302
both	-8.23144
state	-8.23477
school	-8.23601
family	-8.23829
National	-8.23882
name	-8.25815
States	-8.25954
played	-8.26383
number	-8.26522
life	-8.27503
released	-8.27713
amp	-8.27918
5	-8.28012
may	-8.28397
series	-8.30958
x	-8.31201
four	-8.31429
At	-8.32094
men	-8.32399
do	-8.32719
won	-8.32804
age	-8.32865
land	-8.34901
called	-8.34956
6	-8.36244
very	-8.36418
War	-8.36906
August	-8.37132
area	-8.37501
South	-8.37775
John	-8.38385
March	-8.38497
School	-8.38696
career	-8.38819
early	-8.38871
city	-8.3976
7	-8.40315
January	-8.41158
several	-8.41289
back	-8.42313
following	-8.42353
same	-8.42437
September	-8.42793
ers	-8.43003
8	-8.43455
July	-8.43459
ch	-8.4367
October	-8.44129
per	-8.44256
will	-8.44546
found	-8.44579
based	-8.44646
June	-8.44671
His	-8.45915
group	-8.46062
They	-8.46157
game	-8.46787
side	-8.468
began	-8.46888
since	-8.47308
April	-8.47573
off	-8.47594
able	-8.47636
20	-8.47847
17	-8.47915
day	-8.48086
place	-8.49148
November	-8.49537
County	-8.49584
end	-8.50045
16	-8.5014
town	-8.50658
ry	-8.5081
December	-8.50855
way	-8.50899
ation	-8.51457
any	-8.51642
held	-8.52102
9	-8.52124
war	-8.52177
York	-8.52653
long	-8.52656
member	-8.53098
located	-8.5336
State	-8.53539
station	-8.53544
former	-8.54266
son	-8.54285
high	-8.54355
now	-8.5483
if	-8.55344
government	-8.56322
City	-8.56456
named	-8.56491
10	-8.56693
There	-8.56848
line	-8.57045
home	-8.57304
led	-8.5733
go	-8.5785
British	-8.58302
took	-8.58411
15	-8.58607
population	-8.58652
music	-8.59951
song	-8.60032
League	-8.60153
’	-8.60221
like	-8.60565
set	-8.60636
served	-8.60661
North	-8.60902
February	-8.61236
18	-8.61346
j	-8.61665
century	-8.61827
did	-8.61876
di	-8.63003
could	-8.63949
For	-8.64081
However	-8.64177
received	-8.643
company	-8.64413
band	-8.64651
local	-8.66225
ra	-8.66683
each	-8.66759
around	-8.67319
system	-8.68158
include	-8.68782
built	-8.68865
single	-8.69034
West	-8.69839
public	-8.70483
own	-8.70729
field	-8.70742
la	-8.7078
house	-8.70941
left	-8.71069
final	-8.71082
play	-8.71287
Al	-8.71336
died	-8.72075
car	-8.72222
building	-8.7238
No	-8.72422
club	-8.72476
An	-8.72843
13	-8.73103
ur	-8.73321
History	-8.73685
During	-8.74386
Z	-8.7485
ist	-8.74858
national	-8.75044
species	-8.75064
12	-8.75288
water	-8.75481
na	-8.75813
Y	-8.76059
ton	-8.76079
sh	-8.76118
li	-8.76236
world	-8.76253
along	-8.76388
head	-8.76512
All	-8.76566
show	-8.76576
said	-8.76611
published	-8.76668
last	-8.76845
members	-8.77205
down	-8.77291
five	-8.77717
large	-8.77734
é	-8.78158
ity	-8.78466
village	-8.7917
top	-8.79218
because	-8.79433
14	-8.79512
com	-8.7999
main	-8.80226
11	-8.80711
included	-8.80878
ro	-8.81012
College	-8.81414
third	-8.8148
nd	-8.815
ma	-8.81542
30	-8.81843
election	-8.82965
District	-8.83113
book	-8.83229
death	-8.83438
still	-8.83718
small	-8.84275
less	-8.84365
late	-8.84632
form	-8.84661
French	-8.84976
X	-8.85432
ta	-8.85479
English	-8.85906
million	-8.85965
II	-8.86332
ri	-8.86758
non	-8.86916
old	-8.87152
con	-8.87329
River	-8.87374
air	-8.87532
German	-8.87802
am	-8.87851
ian	-8.88017
football	-8.88174
US	-8.88274
La	-8.88448
those	-8.88621
moved	-8.88641
("	-8.88749
ni	-8.88765
San	-8.89209
ion	-8.89361
major	-8.89383
law	-8.89968
To	-8.90233
International	-8.90254
children	-8.90612
dis	-8.90998
service	-8.91335
19	-8.91608
—	-8.91902
im	-8.91918
history	-8.91919
near	-8.91931
district	-8.92085
ia	-8.9265
ten	-8.93149
ti	-8.93304
best	-8.93626
another	-8.9381
ism	-8.93839
Co	-8.93875
women	-8.93973
London	-8.94143
north	-8.94519
win	-8.9468
House	-8.94786
due	-8.95079
different	-8.95209
father	-8.95524
often	-8.95714
ley	-8.9617
original	-8.96401
south	-8.96456
25	-8.97437
Her	-8.97576
order	-8.97849
2016	-8.97868
When	-8.97878
Man	-8.97916
established	-8.97945
record	-8.99017
Park	-8.99075
tt	-8.99147
ant	-8.99298
lt	-8.99658
title	-8.9972
country	-8.99747
total	-9.00452
period	-9.00803
six	-9.00883
started	-9.01509
take	-9.01548
um	-9.01598
2009	-9.01643
development	-9.01759
Cup	-9.01811
went	-9.01979
just	-9.0214
right	-9.02342
again	-9.02951
art	-9.02964
support	-9.03124
general	-9.03333
du	-9.03457
position	-9.03555
power	-9.03569
role	-9.04128
il	-9.04223
announced	-9.04371
games	-9.04387
ment	-9.04644
")	-9.04662
General	-9.04663
By	-9.04791
what	-9.05211
East	-9.05341
joined	-9.05401
ship	-9.0549
much	-9.05532
point	-9.05589
worked	-9.06007
within	-9.06201
ter	-9.0696
run	-9.07051
player	-9.07354
become	-9.07623
produced	-9.07705
married	-9.07706
among	-9.07855
having	-9.08324
make	-9.08694
came	-9.08882
rs	-9.09018
various	-9.0902
given	-9.09103
match	-9.10313
next	-9.10373
level	-9.1043
east	-9.10964
European	-9.11254
wrote	-9.11405
England	-9.11655
High	-9.1182
William	-9.11973
round	-9.12118
community	-9.12455
political	-9.12864
production	-9.12928
elected	-9.13063
created	-9.13084
described	-9.13412
Church	-9.13512
ci	-9.14152
24	-9.1416
From	-9.14496
den	-9.14897
using	-9.15016
short	-9.15211
students	-9.15265
low	-9.15375
returned	-9.15657
Street	-9.16012
Ch	-9.16132
present	-9.16453
red	-9.16521
100	-9.16899
King	-9.16936
ca	-9.17038
pro	-9.17114
version	-9.17371
France	-9.17543
however	-9.17593
According	-9.17669
Australia	-9.17676
post	-9.17823
region	-9.17844
written	-9.17904
br	-9.18206
India	-9.18252
west	-9.19015
ll	-9.19105
professional	-9.19376
founded	-9.19388
bi	-9.19526
list	-9.19581
works	-9.19603
few	-9.19622
church	-9.19647
Council	-9.19836
1,	-9.1999
21	-9.20056
Party	-9.20135
50	-9.20164
ka	-9.20165
James	-9.20225
formula	-9.20434
Division	-9.20486
making	-9.20602
full	-9.21046
site	-9.21111
America	-9.21126
ty	-9.21287
pre	-9.21302
El	-9.21344
signed	-9.21716
continued	-9.21951
TV	-9.22022
half	-9.22304
President	-9.22774
fire	-9.22969
der	-9.23328
Army	-9.23417
2010	-9.23547
George	-9.23698
military	-9.23924
party	-9.23966
lost	-9.23994
story	-9.24078
opened	-9.24209
body	-9.24328
Air	-9.24365
ran	-9.24471
research	-9.24548
23	-9.24611
id	-9.24865
Mor	-9.24875
light	-9.24903
ive	-9.25136
appointed	-9.25597
California	-9.25616
With	-9.25624
style	-9.2564
program	-9.25744
international	-9.25875
days	-9.25954
class	-9.26043
term	-9.26221
without	-9.2646
mid	-9.26644
education	-9.26846
television	-9.26855
ling	-9.26919
22	-9.27004
recorded	-9.271
lo	-9.27138
formed	-9.28175
debut	-9.28309
tic	-9.28326
average	-9.28356
language	-9.28476
ha	-9.28505
considered	-9.2851
control	-9.28985
ul	-9.29186
ner	-9.29214
ler	-9.29221
wife	-9.29278
ck	-9.29302
result	-9.29394
bar	-9.29475
da	-9.29657
even	-9.29658
iz	-9.29817
popular	-9.29826
Association	-9.29896
social	-9.29926
together	-9.30087
Car	-9.30154
important	-9.30334
addition	-9.30391
Di	-9.30429
business	-9.30484
Union	-9.30498
ated	-9.30943
Royal	-9.31121
working	-9.31201
Canada	-9.31248
wood	-9.31321
design	-9.31352
further	-9.31356
director	-9.31379
project	-9.31422
lead	-9.31433
ary	-9.31676
Indian	-9.31775
gt	-9.31891
Go	-9.31961
video	-9.32058
refer	-9.32147
appeared	-9.32281
don	-9.32374
developed	-9.32516
Du	-9.32618
Pro	-9.3262
os	-9.32627
sub	-9.3263
live	-9.32658
race	-9.32787
26	-9.33176
Br	-9.33296
Court	-9.33498
40	-9.33816
my	-9.33828
“	-9.33911
Early	-9.34008
ring	-9.34147
ver	-9.34149
track	-9.34162
ous	-9.34205
Australian	-9.34842
Club	-9.35036
free	-9.35278
event	-9.35302
Ar	-9.3568
Paul	-9.35774
Road	-9.35849
release	-9.35906
office	-9.35907
27	-9.36031
common	-9.36153
times	-9.36435
modern	-9.36478
across	-9.36927
nt	-9.36979
away	-9.36979
example	-9.37046
open	-9.37375
These	-9.37541
mer	-9.37579
playing	-9.37752
28	-9.38345
himself	-9.38688
Jo	-9.38717
Award	-9.38784
2011	-9.38808
km	-9.3896
how	-9.38989
although	-9.39281
Con	-9.39282
president	-9.39672
ol	-9.39792
points	-9.39963
gu	-9.39988
Act	-9.40056
league	-9.40109
case	-9.40351
Hall	-9.40376
put	-9.40655
While	-9.40709
get	-9.40811
First	-9.40874
China	-9.40877
Mo	-9.40926
ga	-9.40944
Music	-9.41251
road	-9.4126
Germany	-9.41278
similar	-9.41479
ng	-9.41895
David	-9.42075
services	-9.42245
lin	-9.4228
character	-9.42386
ir	-9.42487
Black	-9.42631
black	-9.42684
2012	-9.42882
though	-9.42949
construction	-9.43094
0	-9.43302
So	-9.43467
mother	-9.43513
Central	-9.43588
1990	-9.43642
Dr	-9.43761
front	-9.43792
Some	-9.43797
Championship	-9.4386
current	-9.43863
teams	-9.43896
events	-9.43933
court	-9.43998
white	-9.44105
areas	-9.44141
vi	-9.44251
daughter	-9.44375
ness	-9.44377
anti	-9.44493
Ma	-9.44674
au	-9.4475
Group	-9.44959
ham	-9.45119
young	-9.45136
media	-9.4519
designed	-9.45391
finished	-9.45443
Europe	-9.45506
plan	-9.4573
via	-9.45796
Thomas	-9.45829
Company	-9.45843
2006	-9.45908
Red	-9.46073
far	-9.46212
special	-9.46311
mi	-9.46453
performed	-9.46558
living	-9.46614
ach	-9.46787
Other	-9.46924
process	-9.46931
Robert	-9.46976
29	-9.47536
Mar	-9.47642
leading	-9.47671
Or	-9.47684
completed	-9.47886
our	-9.48055
ac	-9.4807
ized	-9.48079
seven	-9.48178
gen	-9.48287
good	-9.48381
tur	-9.48525
1980	-9.48556
never	-9.48643
coach	-9.48672
stage	-9.48674
Center	-9.48799
Li	-9.48835
followed	-9.4904
]	-9.49084
mo	-9.49218
sold	-9.49265
Tr	-9.49306
UK	-9.49453
help	-9.49644
Mc	-9.49731
Japan	-9.49773
ard	-9.49823
op	-9.49962
months	-9.49984
Western	-9.50064
available	-9.50066
2013	-9.50135
!	-9.50278
()	-9.50285
taken	-9.50348
ak	-9.50391
Washington	-9.50466
range	-9.50484
human	-9.50516
once	-9.50605
ko	-9.50772
remained	-9.5082
largest	-9.50871
king	-9.50918
Department	-9.5134
Japanese	-9.51376
ad	-9.51422
gave	-9.51454
Green	-9.51529
official	-9.51616
African	-9.5174
board	-9.51785
central	-9.51795
2015	-9.51852
others	-9.51854
night	-9.51883
ground	-9.5198
return	-9.51992
Roman	-9.51999
Island	-9.52097
should	-9.52144
Art	-9.52234
sent	-9.52266
Q	-9.52267
Charles	-9.52413
reported	-9.52572
radio	-9.52736
saw	-9.52739
bl	-9.5276
brother	-9.53302
eight	-9.53348
training	-9.5357
performance	-9.53645
ov	-9.53658
Lake	-9.53738
pur	-9.53826
Russian	-9.53897
real	-9.54064
Bay	-9.54097
ville	-9.54482
List	-9.546
space	-9.54736
bo	-9.55109
originally	-9.5513
Minister	-9.55141
great	-9.55181
rest	-9.55215
contract	-9.55245
met	-9.55259
Since	-9.553
=	-9.55338
Although	-9.55378
Institute	-9.55537
songs	-9.55647
Bar	-9.55687
currently	-9.56321
groups	-9.56365
1960	-9.56496
Bo	-9.56546
yl	-9.56673
2008	-9.56812
rock	-9.56836
Society	-9.57028
Canadian	-9.57059
ts	-9.57071
ting	-9.57101
Chinese	-9.57173
directed	-9.575
throughout	-9.57516
features	-9.57524
seen	-9.57704
2014	-9.57705
degree	-9.57937
Col	-9.58031
killed	-9.58074
forces	-9.58126
2,	-9.58429
must	-9.58444
usually	-9.58488
pa	-9.58489
includes	-9.58669
2018	-9.58692
study	-9.58746
Grand	-9.58779
campaign	-9.58823
you	-9.58864
size	-9.59091
eventually	-9.59132
close	-9.59221
act	-9.59414
1970	-9.59417
Italian	-9.59464
[	-9.59677
Na	-9.59719
stated	-9.59739
active	-9.59758
awarded	-9.59847
players	-9.59862
2000	-9.60126
states	-9.602
Po	-9.60241
information	-9.60317
My	-9.60332
type	-9.60365
added	-9.60425
2007	-9.60483
police	-9.60608
ji	-9.60755
ster	-9.60867
ja	-9.60929
episode	-9.60946
á	-9.61002
countries	-9.61012
railway	-9.61118
featured	-9.61171
60	-9.61673
ill	-9.62004
rd	-9.62087
tu	-9.62159
ven	-9.62177
winning	-9.62314
dy	-9.62334
center	-9.62414
involved	-9.62506
mm	-9.62731
schools	-9.62733
goal	-9.62973
$	-9.62994
Su	-9.63175
action	-9.63206
cast	-9.63275
does	-9.63432
Michael	-9.63433
si	-9.63527
either	-9.63648
Men	-9.63657
competition	-9.6368
va	-9.63687
ho	-9.63798
model	-9.63969
change	-9.64004
Academy	-9.64044
river	-9.64062
above	-9.64119
section	-9.64156
ability	-9.64265
provided	-9.6447
Peter	-9.64534
success	-9.64547
writing	-9.64626
ski	-9.6467
2017	-9.64695
hit	-9.64828
Un	-9.6495
hand	-9.65137
fourth	-9.65211
Ho	-9.6522
hard	-9.65521
person	-9.65539
novel	-9.65587
attack	-9.65703
Ko	-9.65812
lower	-9.65826
wing	-9.65866
listed	-9.66028
related	-9.66033
college	-9.66088
Star	-9.66116
families	-9.66302
mar	-9.66442
Best	-9.66541
po	-9.66601
placed	-9.66726
Africa	-9.66823
replaced	-9.66951
Saint	-9.66954
ization	-9.66966
Spanish	-9.67288
Republic	-9.6732
Sh	-9.67368
start	-9.67418
pi	-9.67518
private	-9.67636
capital	-9.67714
ish	-9.678
wide	-9.67821
attended	-9.6788
decided	-9.68009
force	-9.6804
Ka	-9.6813
introduced	-9.68172
owned	-9.68196
ros	-9.6826
Catholic	-9.68272
reached	-9.68412
Christian	-9.68593
scored	-9.6869
inter	-9.68789
Henry	-9.68855
upon	-9.68914
van	-9.69021
least	-9.69101
Great	-9.69127
ki	-9.69152
”	-9.69249
Har	-9.69334
organization	-9.69401
Richard	-9.69435
Lo	-9.69453
length	-9.69455
Film	-9.69688
ial	-9.69704
Los	-9.69713
Law	-9.69821
Life	-9.70055
previous	-9.70077
Women	-9.70158
cr	-9.70177
Am	-9.70321
Mary	-9.70359
ba	-9.70417
week	-9.70453
31	-9.70641
ning	-9.70831
Football	-9.70971
ns	-9.71196
health	-9.71326
changed	-9.71482
structure	-9.71489
pl	-9.71652
aircraft	-9.71677
White	-9.71747
Education	-9.718
room	-9.72041
ut	-9.72056
tournament	-9.72292
Soviet	-9.72424
ended	-9.72476
Career	-9.72503
data	-9.72548
market	-9.72602
Hill	-9.72714
Th	-9.72741
del	-9.72949
wa	-9.72998
provide	-9.7309
zi	-9.73115
Sal	-9.73121
ph	-9.73274
ted	-9.73278
Texas	-9.73308
division	-9.73351
ally	-9.73495
Paris	-9.73495
rights	-9.73576
qui	-9.73736
summer	-9.73777
io	-9.73818
Ha	-9.73991
Ben	-9.74555
studio	-9.74609
brought	-9.74664
Ireland	-9.74669
Museum	-9.74671
...	-9.74682
port	-9.74763
rather	-9.74855
census	-9.74932
Super	-9.74953
mal	-9.75055
female	-9.75088
ung	-9.753
taking	-9.75447
route	-9.75517
outside	-9.75658
key	-9.75792
park	-9.75807
behind	-9.75885
star	-9.75898
80	-9.76003
represented	-9.76163
Committee	-9.76392
Later	-9.76413
interest	-9.76428
Pi	-9.76514
Sa	-9.76601
Kingdom	-9.76615
successful	-9.76634
vo	-9.76752
Following	-9.7688
defeated	-9.76902
Summer	-9.76967
books	-9.77036
hi	-9.77108
child	-9.77142
access	-9.77206
self	-9.77477
ang	-9.7749
hu	-9.77504
location	-9.77512
northern	-9.7753
Two	-9.77626
Government	-9.77752
artist	-9.77757
uk	-9.77792
regular	-9.77804
tal	-9.77858
En	-9.77859
ag	-9.77868
lived	-9.77904
plant	-9.77961
buildings	-9.78057
instead	-9.78089
significant	-9.78119
word	-9.7815
ating	-9.78198
tr	-9.78214
3,	-9.78249
island	-9.78327
Sp	-9.78432
sk	-9.78543
You	-9.78625
Its	-9.78628
previously	-9.78668
Lu	-9.78721
Smith	-9.78775
ob	-9.78782
ab	-9.78819
2019	-9.78821
shows	-9.78834
southern	-9.78904
studies	-9.79084
loss	-9.79176
unit	-9.79226
Awards	-9.79245
Most	-9.79295
%	-9.79614
1950	-9.7963
Ro	-9.79649
ies	-9.79718
view	-9.79743
primary	-9.79757
nce	-9.79765
base	-9.79829
runs	-9.79886
ari	-9.79941
Mac	-9.80012
cost	-9.80035
course	-9.80078
bridge	-9.80103
parts	-9.80112
network	-9.80148
possible	-9.80192
Pa	-9.802
turn	-9.80271
cut	-9.80352
individual	-9.8036
tour	-9.80382
author	-9.80534
Do	-9.80643
trade	-9.80723
soon	-9.80999
Martin	-9.81132
movement	-9.8116
2005	-9.81274
approximately	-9.81368
Zealand	-9.81437
beginning	-9.81573
Sir	-9.81585
iv	-9.81639
almost	-9.81699
Virginia	-9.81787
Sam	-9.81806
films	-9.81864
Si	-9.81928
Second	-9.8212
units	-9.8233
thus	-9.82383
western	-9.82393
master	-9.82428
Festival	-9.82451
ever	-9.82475
God	-9.82677
woman	-9.82745
industry	-9.82867
chi	-9.82932
Olympics	-9.8309
Ad	-9.83197
serving	-9.83259
Day	-9.83264
Battle	-9.8329
Ru	-9.833
gun	-9.83412
Bank	-9.83461
commercial	-9.83586
Per	-9.83621
allowed	-9.83691
2021	-9.83696
Brown	-9.83794
manager	-9.83812
ric	-9.8396
opening	-9.83963
Ver	-9.84155
ong	-9.84207
qu	-9.84226
create	-9.8425
65	-9.84589
Old	-9.84619
culture	-9.84651
ful	-9.84713
Ni	-9.84798
70	-9.8481
Championships	-9.84814
food	-9.84881
independent	-9.84913
traditional	-9.8513
2010,	-9.85174
leader	-9.85204
Com	-9.85225
according	-9.85271
little	-9.85309
Mark	-9.85323
Louis	-9.85489
future	-9.85642
natural	-9.85663
disambiguation	-9.85705
itself	-9.85733
towards	-9.8574
county	-9.85826
gold	-9.85875
surface	-9.85895
vers	-9.85972
got	-9.85981
army	-9.86085
spent	-9.86087
writer	-9.86164
strong	-9.86248
closed	-9.86283
chief	-9.86351
higher	-9.8636
launched	-9.86425
Ba	-9.8646
staff	-9.86478
45	-9.86581
fact	-9.86582
Records	-9.86602
magazine	-9.8668
ance	-9.86745
senior	-9.86845
highest	-9.86845
Joseph	-9.86847
2004	-9.86886
award	-9.8697
ger	-9.87158
ik	-9.8724
Force	-9.87269
below	-9.87385
let	-9.87416
especially	-9.87478
face	-9.87497
find	-9.87529
que	-9.8757
Arts	-9.87592
Town	-9.87601
par	-9.87625
sen	-9.87644
eastern	-9.88021
2015,	-9.88097
sky	-9.88121
2020	-9.88141
4,	-9.88146
Bi	-9.88179
running	-9.88216
collection	-9.88257
noted	-9.88343
singer	-9.88394
economic	-9.88547
plays	-9.88571
whose	-9.88575
Board	-9.8861
generally	-9.88616
required	-9.88702
Greek	-9.88754
thought	-9.88776
studied	-9.88799
complete	-9.88818
ology	-9.8895
ap	-9.88972
operations	-9.89108
move	-9.89116
ah	-9.89121
past	-9.89188
whom	-9.89202
entered	-9.89237
date	-9.89308
Sun	-9.89354
love	-9.89394
sometimes	-9.89399
Italy	-9.89457
lines	-9.89457
Chicago	-9.89489
property	-9.8949
going	-9.89524
cur	-9.89564
za	-9.896
2011,	-9.89616
issues	-9.89642
35	-9.89665
Cl	-9.89753
systems	-9.89805
Northern	-9.89838
centre	-9.89855
les	-9.89891
But	-9.89922
dal	-9.90088
month	-9.90198
2002	-9.90206
personal	-9.90219
2014,	-9.90268
2012,	-9.90269
ok	-9.90283
2013,	-9.90533
science	-9.90575
mis	-9.90668
ball	-9.90795
2018,	-9.90874
Jan	-9.90901
test	-9.91012
lan	-9.91027
cross	-9.91068
too	-9.9107
standard	-9.91076
om	-9.91125
ping	-9.91168
Many	-9.91279
Don	-9.91354
student	-9.91449
speed	-9.91473
2003	-9.91573
shot	-9.91744
Under	-9.91981
Ag	-9.92007
Congress	-9.92305
money	-9.92309
If	-9.92345
practice	-9.92377
mat	-9.92492
Lord	-9.92523
tri	-9.92629
ber	-9.92701
older	-9.92862
Pan	-9.9289
pp	-9.92991
har	-9.92999
operated	-9.93004
limited	-9.93133
numerous	-9.93277
Mexico	-9.93283
Can	-9.93304
subject	-9.93367
genus	-9.93499
Mi	-9.93519
Navy	-9.93551
majority	-9.9358
appearance	-9.93656
rich	-9.93795
2001	-9.93847
2017,	-9.93973
victory	-9.94004
ny	-9.94091
2019,	-9.94136
material	-9.94195
Hu	-9.94217
Rock	-9.9423
income	-9.94249
Angeles	-9.94449
Florida	-9.94474
fi	-9.94508
fer	-9.94532
And	-9.94557
companies	-9.94574
additional	-9.9463
famous	-9.9468
means	-9.94712
earlier	-9.94785
already	-9.94802
associated	-9.94836
cover	-9.94885
bank	-9.95
ier	-9.95012
Gr	-9.9506
lic	-9.95126
Games	-9.95271
Gu	-9.95281
oc	-9.95347
issue	-9.95424
response	-9.95467
husband	-9.95472
Route	-9.95582
Chief	-9.95586
cl	-9.95684
ius	-9.95754
Sea	-9.95758
90	-9.95856
score	-9.95942
ani	-9.95997
competed	-9.96128
university	-9.96208
lies	-9.96214
ford	-9.96246
Public	-9.9626
Vi	-9.96266
command	-9.96317
Province	-9.96372
claimed	-9.96373
increased	-9.96382
ig	-9.96402
Irish	-9.96475
Ca	-9.96569
lack	-9.96695
6,	-9.96791
2.	-9.96822
legal	-9.96823
Big	-9.96842
"),	-9.97055
activities	-9.97115
Pacific	-9.97119
medical	-9.97144
Director	-9.97156
passed	-9.97283
gas	-9.97362
complex	-9.97366
battle	-9.9737
train	-9.97422
oil	-9.97665
Research	-9.97722
decision	-9.97747
fall	-9.97812
í	-9.97822
pass	-9.97849
results	-9.97975
Min	-9.97979
matches	-9.97988
code	-9.98065
cell	-9.98132
musical	-9.98201
annual	-9.98281
supported	-9.98403
caused	-9.98507
engine	-9.98541
|	-9.98549
han	-9.98878
becoming	-9.98891
5,	-9.98911
Love	-9.99076
ya	-9.99123
sound	-9.99218
Valley	-9.99246
Ex	-9.99332
Governor	-9.99334
Qu	-9.99443
ries	-9.99633
fight	-9.99669
Bra	-9.99706
religious	-9.9977
Assembly	-9.99829
1994	-9.99844
Tom	-9.99885
mostly	-9.99889
2008,	-9.99934
fish	-9.9996
sports	-9.99983
berg	-10.0003
1995	-10.0006
contains	-10.0007
FC	-10.0008
label	-10.0013
That	-10.0018
give	-10.0026
Year	-10.0026
sur	-10.0029
status	-10.0029
remains	-10.0032
Southern	-10.0033
Cor	-10.0036
direct	-10.0037
ned	-10.0038
+	-10.0039
Service	-10.0052
source	-10.0064
press	-10.0065
officer	-10.0078
lot	-10.0086
Wales	-10.009
characters	-10.0094
Parliament	-10.0098
200	-10.0101
federal	-10.0105
Open	-10.0108
initially	-10.011
cases	-10.012
forced	-10.012
Commission	-10.0124
sister	-10.0135
Pennsylvania	-10.0138
better	-10.0144
forms	-10.0149
hours	-10.0168
leg	-10.018
selected	-10.0182
edition	-10.0195
relationship	-10.02
gg	-10.0203
increase	-10.0203
municipality	-10.0207
Russia	-10.022
entire	-10.0232
terms	-10.0239
particularly	-10.0246
prior	-10.0262
crew	-10.0271
native	-10.0272
Port	-10.0277
Science	-10.0285
feature	-10.0289
gr	-10.0292
Post	-10.0292
yn	-10.0294
Fr	-10.0303
changes	-10.0306
rat	-10.0307
management	-10.0307
multi	-10.0309
financial	-10.0313
Railway	-10.0315
ru	-10.0317
subsequently	-10.0317
People	-10.0324
square	-10.0325
CD	-10.033
Par	-10.0332
2020,	-10.0337
certain	-10.0341
cultural	-10.0364
nine	-10.0364
Democratic	-10.0371
goals	-10.0378
mission	-10.0381
marriage	-10.0381
gi	-10.0388
sp	-10.039
mass	-10.0402
cat	-10.0404
leaving	-10.0404
ot	-10.0406
Queen	-10.0409
Ta	-10.0421
tel	-10.0426
particular	-10.0432
medal	-10.0434
cy	-10.0436
programs	-10.0439
Er	-10.044
tz	-10.0444
evidence	-10.0444
Bill	-10.0444
elections	-10.0445
pop	-10.0454
deal	-10.0461
championship	-10.0467
color	-10.0471
Tri	-10.0474
Gar	-10.0479
retired	-10.0485
policy	-10.049
1930	-10.0495
quality	-10.05
operation	-10.05
fl	-10.0501
mon	-10.0504
Tour	-10.0506
report	-10.0523
referred	-10.0524
professor	-10.0526
ative	-10.0532
artists	-10.0539
stone	-10.0546
vote	-10.0578
Spain	-10.0578
effect	-10.0581
rt	-10.0583
pay	-10.0592
Van	-10.0592
raised	-10.0596
ists	-10.0602
Fort	-10.0604
Ann	-10.0604
Their	-10.0613
jo	-10.0613
Empire	-10.0619
Tim	-10.0625
Jewish	-10.0631
latter	-10.0633
need	-10.0637
1992	-10.0641
Long	-10.0649
basketball	-10.0655
Radio	-10.0664
7,	-10.0669
ships	-10.0674
larger	-10.0691
meaning	-10.0692
double	-10.0698
regional	-10.0701
semi	-10.0706
ston	-10.071
Both	-10.0717
gar	-10.072
politician	-10.0722
earned	-10.0726
call	-10.0735
specific	-10.0735
Station	-10.0735
believed	-10.0735
Frank	-10.0739
Young	-10.0745
helped	-10.0753
foreign	-10.076
shown	-10.0767
Times	-10.0779
cities	-10.0781
technology	-10.0784
middle	-10.079
32	-10.0793
ward	-10.0793
2007,	-10.08
ker	-10.0808
review	-10.0817
1920	-10.0825
civil	-10.083
uses	-10.0835
camp	-10.0835
friend	-10.0836
meeting	-10.0837
bus	-10.0846
und	-10.0849
themselves	-10.085
Ti	-10.0855
ren	-10.0856
turned	-10.0864
mainly	-10.0876
presented	-10.0884
Mont	-10.0889
today	-10.0893
failed	-10.0895
energy	-10.0899
ou	-10.0899
Personal	-10.0901
takes	-10.0905
worth	-10.0911
covered	-10.0915
Pop	-10.0917
allow	-10.0917
ped	-10.0925
carried	-10.094
Bell	-10.0953
weeks	-10.0954
Edward	-10.0955
arch	-10.0956
weight	-10.0957
yard	-10.0977
ations	-10.0978
Eastern	-10.0979
Dan	-10.0982
stop	-10.0982
acquired	-10.0983
III	-10.0984
sign	-10.0985
36	-10.0993
pt	-10.0993
ct	-10.1001
department	-10.1002
council	-10.1013
min	-10.1026
editor	-10.1039
ā	-10.1041
constructed	-10.1043
Ph	-10.1047
Health	-10.1051
gon	-10.106
theory	-10.1062
minutes	-10.1071
composed	-10.109
parents	-10.1092
Not	-10.1097
Wood	-10.1118
offered	-10.1123
border	-10.1124
discovered	-10.1129
sch	-10.1143
longer	-10.1151
Dutch	-10.1155
houses	-10.1167
starting	-10.1174
read	-10.118
footballer	-10.1203
consists	-10.1204
").	-10.1204
multiple	-10.1205
coming	-10.1211
union	-10.1214
Carolina	-10.1224
1993	-10.1231
BC	-10.1237
format	-10.1239
Chi	-10.1241
500	-10.1244
society	-10.1248
app	-10.1248
Ab	-10.1249
despite	-10.1255
dance	-10.1256
q	-10.1259
Team	-10.1262
Kar	-10.1263
8,	-10.1264
separate	-10.1267
ram	-10.1275
col	-10.129
fifth	-10.1292
Civil	-10.1298
Is	-10.1299
green	-10.1302
proposed	-10.1302
Da	-10.131
heart	-10.1313
Middle	-10.1329
Prince	-10.1332
graduated	-10.1339
Despite	-10.1343
Latin	-10.1351
managed	-10.1353
recording	-10.1359
Mal	-10.1365
join	-10.1366
az	-10.1369
ions	-10.1371
always	-10.1373
conference	-10.1374
3.	-10.1376
hall	-10.1379
33	-10.1383
issued	-10.1384
nic	-10.1389
parish	-10.139
lands	-10.1399
Val	-10.1406
Gold	-10.1407
remaining	-10.1411
]]	-10.1414
broadcast	-10.1414
Line	-10.1415
troops	-10.1418
finally	-10.1423
letter	-10.1423
positive	-10.1424
Asia	-10.1426
Main	-10.143
ities	-10.1431
influence	-10.1435
function	-10.1438
[[	-10.1446
enough	-10.1455
Will	-10.1462
Over	-10.1466
stations	-10.147
experience	-10.1472
leave	-10.1474
variety	-10.1481
pen	-10.1483
rid	-10.1493
row	-10.15
attempt	-10.1519
moving	-10.152
overall	-10.1536
direction	-10.1537
Cap	-10.1538
gl	-10.1539
mann	-10.154
directly	-10.1541
build	-10.1541
firm	-10.1542
hold	-10.1543
cor	-10.1544
Ya	-10.1549
Theatre	-10.1556
Series	-10.1556
appearances	-10.156
Tu	-10.1573
Inter	-10.1578
cha	-10.1579
channel	-10.1588
Creek	-10.1598
nearly	-10.1606
des	-10.1607
ium	-10.1622
coast	-10.1625
ney	-10.1627
tax	-10.1631
Sch	-10.1639
Poland	-10.164
Conference	-10.1643
might	-10.1651
movie	-10.1668
table	-10.1669
told	-10.167
Bu	-10.1673
chart	-10.1675
formation	-10.1676
titled	-10.1689
Biography	-10.1697
lli	-10.1698
promoted	-10.1701
Top	-10.1704
conditions	-10.1706
Asian	-10.1708
words	-10.1709
seat	-10.1712
asked	-10.173
hospital	-10.1733
Order	-10.1736
producer	-10.1739
scale	-10.1746
rate	-10.1749
host	-10.1752
38	-10.1767
su	-10.1769
rule	-10.1788
individuals	-10.179
appears	-10.1792
actor	-10.1795
gan	-10.1796
2006,	-10.1803
nature	-10.1804
Major	-10.1811
distance	-10.1813
Development	-10.182
mb	-10.1822
Ju	-10.1843
9,	-10.1846
cap	-10.1853
37	-10.1855
Jones	-10.1859
prominent	-10.1859
Gen	-10.1861
reach	-10.1864
recent	-10.1875
wanted	-10.1895
wall	-10.1897
drama	-10.1909
idea	-10.191
Home	-10.1915
Michigan	-10.192
province	-10.1921
primarily	-10.1926
path	-10.1931
1999	-10.1931
poor	-10.1935
aid	-10.1935
hr	-10.1935
tracks	-10.1936
foot	-10.1937
ious	-10.1938
1981	-10.194
1988	-10.1944
vent	-10.1947
Bridge	-10.195
Foundation	-10.1953
Cross	-10.1955
Another	-10.1964
Cha	-10.197
residents	-10.1977
ä	-10.1981
hill	-10.1986
48	-10.1995
Cr	-10.1996
problems	-10.2002
Republican	-10.2003
arrived	-10.2013
executive	-10.2013
likely	-10.2025
responsible	-10.204
alongside	-10.2042
names	-10.2046
value	-10.2056
Britain	-10.2061
Israel	-10.2062
records	-10.2072
cul	-10.2072
historical	-10.2081
ban	-10.2083
ray	-10.2085
Jack	-10.2095
organized	-10.2099
Hospital	-10.2102
serve	-10.2106
SA	-10.2108
participated	-10.2112
content	-10.2116
Ri	-10.2124
Williams	-10.2137
Senate	-10.215
provides	-10.2158
committee	-10.2163
extended	-10.2186
ft	-10.2189
Far	-10.2198
bit	-10.2201
nearby	-10.2212
1989	-10.222
Johnson	-10.2222
saying	-10.223
cause	-10.2234
ud	-10.2236
news	-10.2239
1940	-10.2239
Office	-10.2244
Of	-10.2246
Columbia	-10.2256
treatment	-10.2261
Ra	-10.2263
Pat	-10.2265
kind	-10.2266
stock	-10.2269
products	-10.2278
Land	-10.2279
candidate	-10.228
museum	-10.228
Up	-10.2284
Centre	-10.2289
34	-10.2293
administrative	-10.2307
rap	-10.2311
forward	-10.2311
website	-10.2316
Ali	-10.2318
text	-10.2323
Jean	-10.2332
Mad	-10.2333
youth	-10.234
minor	-10.2342
branch	-10.2358
ps	-10.2375
assistant	-10.2378
paper	-10.2382
workers	-10.24
Cal	-10.2407
whole	-10.2408
Sub	-10.2411
officially	-10.2412
Georgia	-10.2416
Scotland	-10.2426
Ja	-10.2432
whether	-10.2433
initial	-10.2441
Mu	-10.2442
metal	-10.2445
zo	-10.2445
1.	-10.2447
plans	-10.2453
ax	-10.2458
Fa	-10.2459
od	-10.2464
urban	-10.2464
uff	-10.2467
upper	-10.2483
Gi	-10.2487
4.	-10.2498
ida	-10.2503
MP	-10.2504
friends	-10.2504
produce	-10.2505
pin	-10.2507
Federal	-10.2511
lu	-10.2513
Highway	-10.2528
75	-10.2529
rural	-10.253
Little	-10.2533
draw	-10.2536
val	-10.2544
divided	-10.2546
nu	-10.255
lit	-10.2551
quickly	-10.2555
account	-10.2558
1998	-10.2558
fully	-10.2576
Bal	-10.2578
renamed	-10.2581
mp	-10.2581
newspaper	-10.2587
ordered	-10.2594
growth	-10.2603
super	-10.2613
floor	-10.2617
agreement	-10.2631
sal	-10.2635
activity	-10.2642
conducted	-10.2646
Secretary	-10.2653
transferred	-10.2654
Francisco	-10.2656
risk	-10.2659
brand	-10.2663
_	-10.2671
sex	-10.2673
administration	-10.2675
str	-10.2681
Mount	-10.2681
Mr	-10.2687
capacity	-10.269
intended	-10.2695
Ohio	-10.2704
cho	-10.2718
yet	-10.272
ini	-10.2722
grew	-10.2735
lives	-10.2737
nation	-10.2739
keep	-10.2741
stories	-10.2742
Scottish	-10.2748
elements	-10.2749
merged	-10.275
heavy	-10.2754
distribution	-10.2755
Boston	-10.2764
seasons	-10.2769
ju	-10.2783
Alexander	-10.2784
pressure	-10.2784
levels	-10.2788
academic	-10.2798
ö	-10.2803
Lan	-10.2808
fellow	-10.2826
ancient	-10.2835
Ros	-10.2842
Also	-10.2845
net	-10.2856
ign	-10.2862
Bishop	-10.2872
burg	-10.2873
Avenue	-10.2874
Ga	-10.2874
Scott	-10.2875
continue	-10.288
break	-10.288
USA	-10.289
hol	-10.2897
security	-10.2901
FM	-10.2904
cher	-10.2904
assigned	-10.2909
EP	-10.2911
impact	-10.2916
Good	-10.2925
lock	-10.2926
voice	-10.2932
soldiers	-10.2942
sides	-10.2943
highly	-10.2949
lay	-10.2953
stars	-10.2957
Born	-10.2958
ria	-10.296
cent	-10.2963
ō	-10.2963
physical	-10.2968
defeat	-10.2972
49	-10.2974
teaching	-10.2979
notable	-10.2979
reason	-10.2987
birth	-10.2988
Ram	-10.2992
removed	-10.3
Water	-10.3001
Ten	-10.3003
ó	-10.3004
Ol	-10.3007
females	-10.301
street	-10.3018
og	-10.3023
rail	-10.3024
ending	-10.3029
1997	-10.3041
mor	-10.3044
0.	-10.3053
historic	-10.3057
spring	-10.3064
pan	-10.3071
Pu	-10.3071
potential	-10.3079
designated	-10.3082
ical	-10.3084
39	-10.3086
captain	-10.3087
Polish	-10.3088
BBC	-10.3094
rank	-10.3099
murder	-10.3105
purchased	-10.3107
Dam	-10.3108
travel	-10.3116
Out	-10.3117
officers	-10.3121
Tar	-10.3121
Mon	-10.3123
estimated	-10.3123
1948	-10.3127
1983	-10.3129
giving	-10.3139
lia	-10.3154
News	-10.3159
len	-10.316
focus	-10.3161
mill	-10.3162
Illinois	-10.3162
charge	-10.3166
projects	-10.3167
clear	-10.3168
block	-10.3169
dedicated	-10.317
appear	-10.3171
Game	-10.3172
ways	-10.3177
commonly	-10.318
basis	-10.3189
trial	-10.319
Sydney	-10.3193
ai	-10.3193
smaller	-10.3194
£	-10.32
ago	-10.3213
box	-10.3214
2%	-10.3221
immediately	-10.3225
Daniel	-10.3231
Ber	-10.3232
largely	-10.3233
aged	-10.3237
types	-10.324
Blue	-10.3242
identified	-10.3242
campus	-10.3247
script	-10.3254
Fi	-10.3255
median	-10.3258
revealed	-10.3264
Historic	-10.3266
founder	-10.3267
Ku	-10.3272
pol	-10.3273
Family	-10.3308
planned	-10.3308
Airport	-10.3309
Sports	-10.3311
facilities	-10.3315
formerly	-10.3326
2005,	-10.333
Coast	-10.3332
Jersey	-10.3345
job	-10.3357
featuring	-10.336
1996	-10.336
ü	-10.3361
Show	-10.3362
Jr	-10.3362
ola	-10.3366
cal	-10.3385
settlement	-10.3387
ding	-10.3399
Cat	-10.3402
flight	-10.3403
kar	-10.3406
efforts	-10.3409
mixed	-10.3416
Pre	-10.3417
develop	-10.3425
los	-10.3426
ised	-10.3427
Victoria	-10.3432
bio	-10.3433
percent	-10.3439
$1	-10.3439
needed	-10.3439
accepted	-10.3445
hosted	-10.3463
1944	-10.3466
Bur	-10.347
effects	-10.347
1984	-10.3477
Night	-10.3479
Mer	-10.3491
para	-10.3494
wi	-10.3495
numbers	-10.35
1942	-10.3503
lam	-10.3507
kin	-10.3512
fell	-10.3514
article	-10.3515
boat	-10.3517
drive	-10.3519
1%	-10.352
MA	-10.3523
approach	-10.3526
tion	-10.3526
miles	-10.3528
ella	-10.3532
Mel	-10.3538
ification	-10.3544
2010.	-10.3551
Andrew	-10.3551
winner	-10.3552
territory	-10.3555
makes	-10.3556
Earth	-10.3564
households	-10.3566
piece	-10.357
owner	-10.3575
store	-10.3575
tro	-10.3576
method	-10.3576
loan	-10.3576
iya	-10.3576
serves	-10.3579
respectively	-10.3582
purpose	-10.3586
qua	-10.3588
setting	-10.3588
Vo	-10.3589
races	-10.3589
6.	-10.3589
relations	-10.359
Corps	-10.3602
els	-10.3604
kept	-10.3605
bu	-10.3607
captured	-10.3607
Three	-10.3608
agreed	-10.3627
blood	-10.3628
dead	-10.3628
Each	-10.3653
quarter	-10.3663
til	-10.3664
transfer	-10.3673
FA	-10.3676
typically	-10.3695
finish	-10.3696
housing	-10.37
champion	-10.3712
pal	-10.3713
Elizabeth	-10.3714
silver	-10.3724
1939	-10.3725
gal	-10.373
probably	-10.3738
1965	-10.3738
guitar	-10.3742
amount	-10.3743
follows	-10.3744
prison	-10.3745
Cu	-10.3748
ves	-10.3749
leaders	-10.3754
platform	-10.3754
af	-10.3756
Santa	-10.3759
try	-10.3759
Berlin	-10.3759
paid	-10.3761
governor	-10.3764
1941	-10.3764
places	-10.3765
Four	-10.377
acting	-10.3771
Power	-10.3772
1946	-10.3772
comes	-10.3776
Ban	-10.378
Za	-10.3786
Field	-10.3788
phase	-10.3797
destroyed	-10.3799
fo	-10.3804
attention	-10.381
Ministry	-10.381
4%	-10.3815
AC	-10.3824
Sha	-10.3825
damage	-10.3833
tra	-10.3847
suffered	-10.3854
occurred	-10.386
hop	-10.3862
edge	-10.3865
perform	-10.3868
Bas	-10.3872
Book	-10.3873
bra	-10.3873
ological	-10.3873
Corporation	-10.3875
confirmed	-10.3878
concept	-10.3879
Iran	-10.3883
Gal	-10.3889
Professor	-10.3891
adopted	-10.3896
ks	-10.3898
product	-10.3899
Inc	-10.3901
boy	-10.3901
18,	-10.3912
spread	-10.3917
industrial	-10.392
5.	-10.3925
creation	-10.3931
Olympic	-10.3935
operating	-10.3935
prevent	-10.3941
2014.	-10.3942
awards	-10.3944
farm	-10.3949
standing	-10.3949
47	-10.3952
Dar	-10.3953
2012.	-10.396
Duke	-10.3984
Hong	-10.3989
digital	-10.399
computer	-10.3994
von	-10.3996
widely	-10.4004
generation	-10.4006
iron	-10.4006
gained	-10.4007
reviews	-10.4009
Stadium	-10.4015
blue	-10.402
sources	-10.4022
say	-10.4024
ib	-10.4027
Library	-10.4031
tail	-10.4034
cars	-10.4043
1982	-10.4059
teacher	-10.4072
Dis	-10.4073
stand	-10.4076
offers	-10.4083
compared	-10.4083
ants	-10.4085
scoring	-10.4089
recently	-10.4089
Pakistan	-10.409
meet	-10.4092
split	-10.4092
Before	-10.4102
400	-10.4108
leadership	-10.4115
figure	-10.4116
ranked	-10.4119
solo	-10.4128
equipment	-10.413
connected	-10.4135
2011.	-10.4136
2013.	-10.4136
Sar	-10.4139
reduced	-10.4144
Special	-10.4147
micro	-10.4155
Ed	-10.4159
pr	-10.4159
span	-10.4165
surrounding	-10.4165
vis	-10.4166
inside	-10.4168
presence	-10.4171
expected	-10.4174
transport	-10.4185
Bob	-10.4199
online	-10.4205
Kong	-10.4208
bal	-10.4214
share	-10.422
arms	-10.4228
mountain	-10.423
24,	-10.4235
visit	-10.4236
declared	-10.4236
background	-10.4237
card	-10.424
ow	-10.4241
yards	-10.4243
critical	-10.4244
gate	-10.4253
therefore	-10.4253
Township	-10.426
ix	-10.4261
sexual	-10.4264
principal	-10.4264
gam	-10.4266
claim	-10.4268
Clark	-10.4268
tap	-10.4272
42	-10.4289
Justice	-10.429
istic	-10.4291
combined	-10.4296
PA	-10.4296
disease	-10.4298
10,	-10.4312
commander	-10.4312
suit	-10.4313
leaves	-10.4314
2015.	-10.4321
votes	-10.4321
Sc	-10.4332
š	-10.4332
billion	-10.4342
av	-10.4344
Premier	-10.4347
screen	-10.4348
analysis	-10.4356
Es	-10.4358
growing	-10.4359
64	-10.4361
Korea	-10.4363
positions	-10.4369
defense	-10.4374
Ki	-10.4384
1947	-10.4386
inspired	-10.4391
Supreme	-10.4391
taught	-10.4394
minute	-10.4397
Final	-10.4397
Death	-10.4403
Light	-10.4403
honor	-10.4409
Ham	-10.441
horse	-10.4417
Free	-10.4429
languages	-10.443
look	-10.4432
12,	-10.4433
nominated	-10.4435
Media	-10.4435
contemporary	-10.4435
pair	-10.4436
remain	-10.4443
IS	-10.4445
minister	-10.4447
wind	-10.4448
Whit	-10.4452
unique	-10.4454
300	-10.4467
communities	-10.4486
Castle	-10.4492
Swedish	-10.4495
44	-10.4496
Massachusetts	-10.4504
plants	-10.4511
sta	-10.4515
ties	-10.4517
mentioned	-10.4517
Francis	-10.4523
difficult	-10.4528
ara	-10.4534
xi	-10.4538
CA	-10.4539
);	-10.4539
Fu	-10.454
1991	-10.4543
fuel	-10.4544
squad	-10.4547
except	-10.4548
clubs	-10.456
resulted	-10.456
offer	-10.4562
bed	-10.4564
1956	-10.4567
couple	-10.4571
buried	-10.4574
Point	-10.458
arm	-10.4584
rot	-10.4585
ars	-10.4593
marked	-10.46
Yu	-10.4608
simple	-10.461
Kat	-10.4614
recognized	-10.4614
Regiment	-10.4617
alone	-10.4618
stra	-10.4619
55	-10.4623
contact	-10.463
surname	-10.4632
Boy	-10.4634
Hal	-10.4638
Mus	-10.4641
storm	-10.4645
problem	-10.4648
Head	-10.4653
concert	-10.4658
graduate	-10.4669
hour	-10.4672
effort	-10.4676
scene	-10.4677
Kal	-10.4679
Vol	-10.468
dia	-10.4683
tta	-10.4684
interview	-10.469
knowledge	-10.4694
tar	-10.4696
Korean	-10.4699
án	-10.47
ments	-10.4701
Islands	-10.4701
mod	-10.4701
expanded	-10.4718
dic	-10.4721
sales	-10.4723
Police	-10.4724
dam	-10.4726
compete	-10.4727
ali	-10.4732
winter	-10.4735
hotel	-10.4738
males	-10.4746
global	-10.4747
trains	-10.4751
secondary	-10.4758
fr	-10.4758
2017.	-10.4759
ff	-10.476
9%	-10.4771
zz	-10.4774
granted	-10.4775
46	-10.4783
allows	-10.4785
spin	-10.4786
receive	-10.4788
7.	-10.4791
Journal	-10.4792
1918	-10.4794
11,	-10.4795
Han	-10.4796
tells	-10.4798
rules	-10.4802
Philadelphia	-10.4802
forest	-10.4802
Pr	-10.4805
sell	-10.481
density	-10.4811
Shi	-10.4812
Geography	-10.4813
cu	-10.4816
Brazil	-10.4818
counter	-10.4819
exchange	-10.4823
highway	-10.4824
mark	-10.4825
roles	-10.4826
2004,	-10.4826
Among	-10.483
sons	-10.4837
feet	-10.4837
-1	-10.4843
Military	-10.4847
ura	-10.485
mile	-10.4853
Press	-10.4856
trans	-10.4864
literature	-10.4864
supply	-10.4873
headquarters	-10.4874
!"	-10.4874
ira	-10.4877
felt	-10.4878
resulting	-10.4881
1963	-10.4881
Christ	-10.4882
episodes	-10.489
Maria	-10.4893
Prime	-10.4893
sum	-10.4895
2009.	-10.4895
showed	-10.4899
know	-10.4901
festival	-10.4901
defined	-10.4904
fil	-10.4907
judge	-10.491
Lady	-10.4915
avoid	-10.4919
15,	-10.4924
big	-10.4928
rum	-10.4929
-19	-10.4929
SC	-10.4929
1949	-10.493
oo	-10.4933
Community	-10.4937
Pol	-10.4937
cycle	-10.4937
chairman	-10.4939
holding	-10.4941
tl	-10.4945
twice	-10.4945
Network	-10.4945
sites	-10.4952
Social	-10.4959
AD	-10.4969
performances	-10.4972
Stephen	-10.4973
sector	-10.4982
Hot	-10.4984
43	-10.4988
Sur	-10.4994
newly	-10.4995
Master	-10.4995
ash	-10.4995
painting	-10.4998
tradition	-10.5003
continues	-10.5007
kh	-10.5009
Arthur	-10.5009
2018.	-10.501
arts	-10.502
promotion	-10.5022
AM	-10.5022
traffic	-10.5026
architect	-10.5027
Toronto	-10.5028
1951	-10.5029
Jackson	-10.5031
extra	-10.5031
rating	-10.5036
Billboard	-10.5037
greater	-10.505
Nu	-10.5053
fighting	-10.5063
Mil	-10.5069
Area	-10.507
politics	-10.5073
condition	-10.5078
uri	-10.5085
bill	-10.5085
normal	-10.5085
Project	-10.5091
2016.	-10.5091
vin	-10.51
says	-10.5107
Del	-10.5111
titles	-10.5115
sense	-10.5117
gives	-10.5118
66	-10.5129
Background	-10.513
7%	-10.5133
existing	-10.5133
singles	-10.5135
Junior	-10.5146
Arm	-10.5149
theatre	-10.5154
Captain	-10.5155
Emperor	-10.5156
rated	-10.5156
Forest	-10.5157
mind	-10.5161
injury	-10.5164
twenty	-10.5165
comedy	-10.5167
nc	-10.517
address	-10.5171
aired	-10.5173
scientific	-10.5174
situated	-10.5174
Marine	-10.5174
fin	-10.5175
motion	-10.5178
1977	-10.5178
parties	-10.5186
Nations	-10.5189
arrested	-10.5192
bring	-10.5196
origin	-10.5199
laws	-10.5199
succeeded	-10.5205
think	-10.5211
Hay	-10.5213
environment	-10.5215
shi	-10.5217
applied	-10.522
Wilson	-10.5232
Tor	-10.5236
pick	-10.524
reference	-10.5244
IC	-10.5253
Song	-10.5256
portion	-10.5257
Lin	-10.526
sol	-10.5262
composer	-10.5262
poet	-10.5269
2000,	-10.5278
models	-10.5281
ral	-10.5282
conflict	-10.5283
fort	-10.5283
survey	-10.5295
Ash	-10.5296
Stone	-10.5297
Business	-10.5305
actress	-10.5305
Register	-10.5305
41	-10.5311
dark	-10.5313
climate	-10.5314
00	-10.5314
claims	-10.5314
hal	-10.5316
yan	-10.5318
#	-10.532
Sweden	-10.5323
deep	-10.5328
launch	-10.5332
losing	-10.534
2019.	-10.5342
Mari	-10.5343
sion	-10.5345
oldest	-10.5348
1952	-10.5354
1936	-10.5355
ians	-10.5362
partner	-10.5363
="	-10.5364
ug	-10.5365
Khan	-10.5366
corner	-10.5367
Atlantic	-10.537
ben	-10.537
image	-10.5375
Nam	-10.5375
wan	-10.5379
Like	-10.5383
print	-10.5391
organizations	-10.5392
actions	-10.5394
situation	-10.5397
avi	-10.5398
Because	-10.5403
dom	-10.5405
airport	-10.5408
MS	-10.541
library	-10.5417
figures	-10.5419
mu	-10.5424
attacks	-10.5425
ica	-10.5432
ible	-10.5435
UN	-10.5443
facility	-10.5446
‘	-10.5446
System	-10.5446
bad	-10.545
Pal	-10.5453
Mat	-10.5457
settled	-10.5457
Mountain	-10.5458
metres	-10.5463
nder	-10.5464
85	-10.5465
formal	-10.5469
ku	-10.5473
equal	-10.5481
question	-10.5482
becomes	-10.5483
association	-10.5484
opera	-10.549
versions	-10.5494
burn	-10.5499
Human	-10.5502
providing	-10.5502
occupied	-10.5503
Carl	-10.5503
shape	-10.5505
actually	-10.5505
organ	-10.5507
search	-10.5509
14,	-10.5512
Sunday	-10.5514
glass	-10.5515
nam	-10.5522
hip	-10.5525
Fair	-10.5528
Davis	-10.5531
simply	-10.5536
tower	-10.5537
things	-10.5538
software	-10.5542
castle	-10.5543
Sri	-10.5557
necessary	-10.556
authorities	-10.5561
Netherlands	-10.5561
acid	-10.5572
illa	-10.5572
Ger	-10.5576
programme	-10.5581
8.	-10.5584
1959	-10.5586
step	-10.5595
classes	-10.56
protection	-10.5601
obtained	-10.5605
3%	-10.5605
?	-10.5608
Pen	-10.5609
joint	-10.561
opposed	-10.5614
materials	-10.5621
suggested	-10.5624
fan	-10.5626
2008.	-10.5627
allowing	-10.563
want	-10.5633
fa	-10.5636
effective	-10.5641
och	-10.5645
foundation	-10.5648
sixth	-10.5653
secret	-10.566
SS	-10.5664
Prize	-10.5668
Tel	-10.5668
peace	-10.5672
Fox	-10.5676
cancer	-10.5681
Taylor	-10.5686
zy	-10.5694
religion	-10.5696
follow	-10.5697
Region	-10.5697
sets	-10.5698
Mak	-10.5698
lov	-10.5698
subsequent	-10.5708
Prior	-10.5712
stay	-10.5714
Ak	-10.5715
flag	-10.5716
choice	-10.5717
something	-10.5728
commissioned	-10.5744
qualified	-10.5745
Wall	-10.5746
2007.	-10.5748
Jim	-10.5752
entry	-10.5752
Os	-10.5752
enter	-10.5755
critics	-10.5755
bon	-10.5757
stream	-10.5763
Mexican	-10.5764
rise	-10.5766
Kan	-10.5767
door	-10.5768
object	-10.5768
focused	-10.577
employed	-10.5772
ula	-10.5772
Technology	-10.5784
finals	-10.5785
log	-10.5789
trained	-10.579
Plot	-10.5795
Win	-10.5797
regions	-10.581
straight	-10.5813
baseball	-10.5815
returning	-10.5815
99	-10.5818
officials	-10.5821
Camp	-10.5822
SR	-10.5827
tried	-10.5828
hl	-10.5831
begin	-10.5832
height	-10.5835
signal	-10.5848
sport	-10.5849
6%	-10.585
fields	-10.5854
agent	-10.5854
alternative	-10.5863
frequently	-10.5866
End	-10.5872
DC	-10.5874
wer	-10.5884
Bon	-10.5887
Design	-10.5889
temple	-10.5891
res	-10.5891
Bel	-10.5891
expansion	-10.5893
Between	-10.5894
68	-10.5896
beat	-10.5897
seats	-10.5899
publication	-10.5902
Wi	-10.5909
Ontario	-10.5913
bound	-10.5914
completely	-10.5927
13,	-10.5931
sha	-10.5933
achieved	-10.5941
cells	-10.5941
Oxford	-10.5942
rod	-10.5943
begins	-10.5947
Arab	-10.5951
visited	-10.5957
17,	-10.5961
disc	-10.5961
bought	-10.5963
1914	-10.5973
price	-10.5979
Mill	-10.5986
royal	-10.5987
1955	-10.5988
NA	-10.5988
sight	-10.5989
hot	-10.599
guard	-10.5992
cannot	-10.5996
Shar	-10.5997
bid	-10.5998
flow	-10.5998
Mur	-10.6008
ón	-10.6008
younger	-10.6011
imp	-10.6019
1938	-10.6036
Beach	-10.6039
peak	-10.6049
refused	-10.606
broke	-10.6062
villages	-10.6063
PC	-10.6071
household	-10.6072
plot	-10.6075
arn	-10.608
lake	-10.6081
Chris	-10.6085
bay	-10.6087
ably	-10.6092
uz	-10.6097
Av	-10.6098
25,	-10.6102
neighborhood	-10.6103
safety	-10.6104
authority	-10.6107
brothers	-10.6107
Ray	-10.6109
girls	-10.6111
attempted	-10.6113
vil	-10.6116
95	-10.6119
ST	-10.6119
performing	-10.6135
Albert	-10.614
aj	-10.6141
tag	-10.6145
derived	-10.6147
Earl	-10.6155
roof	-10.6159
birds	-10.6172
Lewis	-10.6173
yo	-10.6176
16,	-10.6179
spot	-10.6186
flat	-10.6187
tti	-10.6191
Today	-10.6197
dar	-10.6198
30,	-10.6201
albums	-10.6202
advanced	-10.6203
1919	-10.6206
Country	-10.6208
hat	-10.6208
med	-10.6212
Dor	-10.6215
cip	-10.6219
borough	-10.622
1933	-10.622
78	-10.6222
districts	-10.6225
creating	-10.6226
approved	-10.6241
fast	-10.6242
1937	-10.625
chosen	-10.6256
domestic	-10.6257
retirement	-10.6258
NFL	-10.6259
receiving	-10.6267
Minnesota	-10.6268
IV	-10.627
scheduled	-10.6274
OS	-10.6274
founding	-10.6275
girl	-10.6276
exist	-10.6279
Pra	-10.628
58	-10.6281
Fo	-10.6282
Sk	-10.6287
Live	-10.6288
Cas	-10.6289
promote	-10.6289
Building	-10.629
speech	-10.6299
adult	-10.6302
represent	-10.6303
frame	-10.6308
unable	-10.6309
duct	-10.631
request	-10.632
Winter	-10.6323
20,	-10.6323
1935	-10.6324
copies	-10.633
57	-10.6337
lap	-10.6341
°	-10.6351
marine	-10.6355
selling	-10.6358
19,	-10.6366
machine	-10.6368
protect	-10.6369
hair	-10.6372
mad	-10.6384
bor	-10.6384
ory	-10.6386
architecture	-10.6393
limit	-10.6397
EC	-10.6399
brown	-10.6402
starring	-10.6404
etc	-10.6405
establishment	-10.6405
56	-10.6409
Gra	-10.6414
1987	-10.6419
profit	-10.6422
Simon	-10.6432
chemical	-10.6434
mouth	-10.6434
inner	-10.6434
23,	-10.6436
extensive	-10.6437
morning	-10.6445
fiction	-10.6446
nor	-10.6447
target	-10.645
volume	-10.645
page	-10.6454
negative	-10.6454
phon	-10.6462
gain	-10.6462
racing	-10.6469
Fire	-10.6476
26,	-10.6479
constituency	-10.6487
commission	-10.6494
regiment	-10.6497
tell	-10.6506
grade	-10.6507
roll	-10.6509
animals	-10.6516
acts	-10.6519
true	-10.6521
Golden	-10.6522
passing	-10.6527
methods	-10.6532
bert	-10.6532
Dun	-10.6536
Reception	-10.654
chain	-10.6543
faced	-10.655
fly	-10.6555
fans	-10.6557
shared	-10.6557
Ocean	-10.6561
Medical	-10.6562
attacked	-10.6562
Bowl	-10.6568
requir	-10.6569
1986	-10.6571
holds	-10.6571
Vietnam	-10.6576
application	-10.6578
1929	-10.658
hir	-10.658
fought	-10.6582
ultimately	-10.6583
Hav	-10.6585
relatively	-10.6586
presidential	-10.6586
aw	-10.6588
AR	-10.6592
consecutive	-10.6592
economy	-10.6592
88	-10.6595
Yo	-10.6597
electric	-10.66
Rome	-10.6606
covers	-10.6606
mayor	-10.6609
unknown	-10.6609
1928	-10.6615
Holy	-10.662
shore	-10.6624
Kam	-10.6628
izing	-10.6629
write	-10.6631
Jay	-10.6632
converted	-10.6632
opposition	-10.6639
Class	-10.664
prize	-10.6641
representing	-10.6643
aries	-10.6646
failure	-10.6646
wheel	-10.6647
guest	-10.6649
escape	-10.6652
Miss	-10.6654
1953	-10.6657
tch	-10.6669
Sid	-10.6672
reports	-10.6673
citizens	-10.6674
poly	-10.668
21,	-10.6683
abandoned	-10.6693
ified	-10.6694
28,	-10.6697
1910	-10.6697
lect	-10.6707
armed	-10.6708
9.	-10.671
funding	-10.671
believe	-10.6713
Bat	-10.6714
entrance	-10.6721
goes	-10.6722
Kr	-10.6724
combination	-10.6724
resources	-10.6726
notes	-10.6728
Rac	-10.6729
Channel	-10.6732
powerful	-10.6734
Ci	-10.6735
69	-10.6739
trust	-10.6741
draft	-10.6744
structures	-10.6749
bronze	-10.6754
yellow	-10.6754
fleet	-10.6758
Trans	-10.676
entitled	-10.6761
electronic	-10.6763
Dal	-10.6763
Ac	-10.6764
Part	-10.677
Federation	-10.6775
Ken	-10.6783
mean	-10.6783
guns	-10.6784
memory	-10.6786
Memorial	-10.6786
rear	-10.6791
var	-10.6793
Melbourne	-10.6797
pilot	-10.6798
79	-10.6803
meant	-10.6816
29,	-10.6822
Command	-10.6824
ref	-10.6824
drug	-10.6825
Real	-10.6829
2003,	-10.6832
Jews	-10.6835
Native	-10.6836
ich	-10.6837
Tan	-10.684
residence	-10.684
visual	-10.684
NCAA	-10.6841
Upon	-10.6841
reaching	-10.6843
1900	-10.6843
Walter	-10.6844
articles	-10.6848
22,	-10.6848
1966	-10.6856
ken	-10.6857
reign	-10.6864
Kim	-10.6871
1934	-10.6877
educational	-10.6877
CE	-10.688
combat	-10.6884
lyrics	-10.6884
ami	-10.6886
Medal	-10.6887
Turkey	-10.6887
increasing	-10.6888
permanent	-10.6888
bell	-10.6894
maximum	-10.6895
contributed	-10.6899
grave	-10.6899
Steve	-10.69
controlled	-10.6902
Bor	-10.6904
dropped	-10.6906
2006.	-10.6908
ridge	-10.6909
Temple	-10.691
1962	-10.691
consisted	-10.6911
attempts	-10.6914
Les	-10.6915
LA	-10.6919
Trust	-10.6921
advance	-10.6925
Wisconsin	-10.6928
audience	-10.693
Pur	-10.693
Though	-10.6937
purchase	-10.6942
pool	-10.6943
Gor	-10.6948
Anti	-10.6952
pos	-10.6953
Alex	-10.6953
rain	-10.6961
Nor	-10.6971
Play	-10.6972
59	-10.6974
containing	-10.6974
internal	-10.6974
reading	-10.6975
uck	-10.698
dry	-10.6981
ky	-10.6982
daily	-10.6985
Ball	-10.6988
27,	-10.6994
Cro	-10.7
rn	-10.7
Hi	-10.7001
theater	-10.7003
ends	-10.7003
pet	-10.7005
invited	-10.7005
identity	-10.7006
Queensland	-10.7007
54	-10.7007
Cur	-10.7012
establish	-10.7018
shaped	-10.7019
basic	-10.7019
Jun	-10.7022
motor	-10.7025
looking	-10.7026
AP	-10.7026
Band	-10.7029
vice	-10.7035
towns	-10.7036
TA	-10.7039
Cambridge	-10.7039
contrast	-10.7041
Christmas	-10.705
98	-10.7051
attend	-10.7052
77	-10.706
slightly	-10.7062
CO	-10.7062
recognition	-10.7062
1925	-10.7067
dra	-10.7068
74	-10.7073
determined	-10.7076
Philippines	-10.7076
add	-10.7081
mes	-10.7082
your	-10.7084
cup	-10.7087
hockey	-10.7087
Mag	-10.7089
broad	-10.7091
doing	-10.7097
1921	-10.71
fur	-10.7109
cer	-10.7113
tus	-10.7115
criminal	-10.7117
behavior	-10.7117
Norwegian	-10.7117
tun	-10.7124
What	-10.7126
contained	-10.7128
Kansas	-10.7129
pic	-10.713
References	-10.7135
67	-10.7141
learning	-10.7146
bas	-10.7147
52	-10.715
investment	-10.715
Description	-10.7152
1927	-10.7153
trip	-10.7156
link	-10.7162
centuries	-10.7162
incorporated	-10.7169
display	-10.7174
engineering	-10.7178
1932	-10.7178
beyond	-10.7185
accident	-10.7186
Norway	-10.7187
reduce	-10.7192
poll	-10.7194
Lar	-10.7195
Brigade	-10.7196
Missouri	-10.7196
Liberal	-10.7199
AS	-10.7199
Mah	-10.72
Now	-10.7203
quit	-10.7206
improve	-10.721
serious	-10.7212
trees	-10.7217
Wil	-10.7222
reception	-10.7231
63	-10.7237
connection	-10.7237
influenced	-10.724
Sciences	-10.724
wear	-10.7241
ington	-10.7245
Sen	-10.7252
Rob	-10.7252
extension	-10.7253
documentary	-10.7253
Nazi	-10.7257
joining	-10.7258
uc	-10.726
aka	-10.7263
tter	-10.7263
shortly	-10.7264
environmental	-10.7266
cricket	-10.7266
CC	-10.7272
Turkish	-10.7276
count	-10.728
hy	-10.728
classical	-10.7284
crime	-10.7286
ologist	-10.7293
lip	-10.7294
Bad	-10.7294
regarding	-10.7297
tank	-10.7297
journalist	-10.73
Ross	-10.7305
2020.	-10.7306
tree	-10.7308
Sol	-10.7311
PS	-10.7318
headed	-10.7319
uch	-10.7319
Maryland	-10.7329
drop	-10.7329
ser	-10.7331
matter	-10.7334
Professional	-10.7334
successfully	-10.7337
Var	-10.7339
exhibition	-10.7342
expressed	-10.7345
educated	-10.7345
Count	-10.7345
planning	-10.7346
pieces	-10.7348
respect	-10.7349
ili	-10.7353
76	-10.7353
51	-10.7356
vehicles	-10.7356
moth	-10.7367
institutions	-10.737
skin	-10.7371
1985	-10.7373
advantage	-10.7377
enemy	-10.7379
aki	-10.7379
Moscow	-10.7391
IP	-10.7392
ika	-10.7395
chair	-10.7397
producing	-10.7402
Senior	-10.7402
lawyer	-10.7403
Ser	-10.7408
Indiana	-10.7408
incident	-10.741
mental	-10.7412
toward	-10.7412
vision	-10.7415
Doctor	-10.7425
properties	-10.7425
Television	-10.7425
pac	-10.7427
hands	-10.7436
worldwide	-10.7441
capture	-10.7442
fair	-10.7444
aff	-10.7444
rates	-10.7445
phone	-10.7448
Labour	-10.7449
contest	-10.7451
2002,	-10.7457
shell	-10.7457
horn	-10.7459
kill	-10.7463
participate	-10.7465
mini	-10.7466
ada	-10.7471
SE	-10.7472
Heart	-10.7473
Program	-10.748
existence	-10.7483
fruit	-10.7484
reserve	-10.7488
Pl	-10.7491
oma	-10.75
Down	-10.7501
Im	-10.7502
Studies	-10.7507
Production	-10.7507
$2	-10.7509
_1	-10.7509
Anna	-10.7513
funds	-10.7517
cker	-10.7521
oid	-10.7524
Plan	-10.7526
occur	-10.7529
functions	-10.7529
Colorado	-10.753
53	-10.7533
Est	-10.7535
Ford	-10.7536
painter	-10.7537
1912	-10.754
vehicle	-10.7541
category	-10.7542
Management	-10.7542
Regional	-10.7542
wave	-10.7542
killing	-10.7546
rugby	-10.7549
Tournament	-10.7554
cus	-10.7556
ranking	-10.7559
Singapore	-10.7565
Hol	-10.7566
gh	-10.7566
carbon	-10.7567
About	-10.7568
translation	-10.7577
collaboration	-10.7578
save	-10.7581
Space	-10.7583
operate	-10.7586
heavily	-10.7588
literary	-10.7588
fashion	-10.7588
partnership	-10.7595
84	-10.76
Au	-10.7601
ron	-10.7608
vert	-10.761
roads	-10.7618
affected	-10.7627
ography	-10.7627
angle	-10.7628
reasons	-10.7629
(;	-10.763
1923	-10.7632
1922	-10.7632
views	-10.7632
bury	-10.7634
arian	-10.7637
Harry	-10.7642
laid	-10.7644
Manchester	-10.7648
developing	-10.7648
debate	-10.765
registered	-10.7654
ama	-10.766
duc	-10.7662
aud	-10.7663
Dav	-10.7665
tropical	-10.7671
Portuguese	-10.7671
Representatives	-10.7673
supporting	-10.7678
budget	-10.7683
Greece	-10.7684
oy	-10.7685
CS	-10.7688
strip	-10.7689
independence	-10.7689
Ren	-10.7692
valley	-10.7699
ethnic	-10.7702
maintained	-10.7706
composition	-10.7706
rac	-10.7707
interior	-10.7707
bodies	-10.7709
protein	-10.771
Mas	-10.7711
Member	-10.7712
Modern	-10.7719
1958	-10.7721
Adam	-10.7723
Eu	-10.7725
ip	-10.7727
idae	-10.7735
2001,	-10.7736
locations	-10.7737
Census	-10.7743
temperature	-10.7746
patients	-10.7755
Tennessee	-10.7755
1931	-10.7762
hor	-10.7766
bel	-10.7767
occupation	-10.7767
Bureau	-10.7768
1926	-10.777
rus	-10.7776
finishing	-10.7778
nuclear	-10.7779
tan	-10.778
Revolution	-10.7781
ming	-10.7782
1972	-10.7782
How	-10.7787
herself	-10.779
Foreign	-10.7792
Ottoman	-10.7792
62	-10.7794
sia	-10.7794
investigation	-10.7795
walls	-10.7795
Tur	-10.7797
stating	-10.7798
Services	-10.7809
Notable	-10.7811
1979	-10.7812
pir	-10.7817
Mid	-10.7826
candidates	-10.7827
Swiss	-10.7828
Frederick	-10.7828
needs	-10.7832
junior	-10.7839
letters	-10.7841
rag	-10.7842
engineer	-10.7842
heard	-10.7843
Cho	-10.785
weather	-10.7851
cia	-10.7854
Bou	-10.7854
Gil	-10.7858
Hop	-10.786
Infantry	-10.7863
NY	-10.7864
dog	-10.7864
plat	-10.7866
chance	-10.7866
sought	-10.7868
72	-10.7869
1924	-10.7875
Operation	-10.788
engaged	-10.789
proved	-10.7891
strength	-10.7899
ators	-10.791
aro	-10.7911
dates	-10.7914
decades	-10.7915
typical	-10.7917
Il	-10.7919
Miller	-10.792
technical	-10.7921
ceremony	-10.7924
ava	-10.7925
whil	-10.7936
Run	-10.7941
voted	-10.7947
stadium	-10.7948
Senator	-10.7953
Muslim	-10.7954
Track	-10.7956
Israeli	-10.7958
Matt	-10.7961
Tak	-10.7961
northeast	-10.7962
Ay	-10.7963
mina	-10.7963
walk	-10.797
Nick	-10.7984
rang	-10.7985
Op	-10.7985
bat	-10.7987
Arizona	-10.7997
tub	-10.7999
jan	-10.8002
passes	-10.8006
Oregon	-10.801
2005.	-10.8016
slow	-10.802
Test	-10.802
Fame	-10.8029
express	-10.803
1916	-10.8038
lum	-10.8042
Metro	-10.8051
accused	-10.8062
Str	-10.8066
Once	-10.8067
87	-10.8068
wo	-10.8073
racial	-10.8084
1968	-10.8092
5%	-10.8095
monument	-10.8096
pu	-10.8107
SP	-10.8107
Jacob	-10.811
1974	-10.8111
starred	-10.8111
ska	-10.8114
tier	-10.8115
73	-10.8117
steel	-10.8117
Zi	-10.8119
DVD	-10.8121
Engineering	-10.8124
Mike	-10.8126
Sky	-10.8127
Em	-10.8127
consider	-10.8129
Ji	-10.8139
cas	-10.8142
Guard	-10.8143
vel	-10.8143
Brian	-10.8145
possibly	-10.8145
specifically	-10.8146
dent	-10.8153
transition	-10.8154
argued	-10.8155
Independent	-10.8155
Hy	-10.8155
speak	-10.816
string	-10.8161
poetry	-10.8161
narrow	-10.8162
Cam	-10.8163
bird	-10.8163
Wal	-10.8164
mont	-10.8179
ux	-10.8182
violence	-10.8182
importance	-10.8182
credited	-10.8182
Saturday	-10.8183
classic	-10.8187
Rad	-10.8197
appeal	-10.82
shire	-10.8203
stein	-10.8204
factory	-10.8205
MC	-10.821
";	-10.8213
5,000	-10.8217
97	-10.8219
Samuel	-10.822
sort	-10.8224
zh	-10.8224
Forces	-10.8226
oli	-10.8229
Security	-10.8232
Political	-10.8233
Places	-10.8234
map	-10.8235
Square	-10.8237
writers	-10.8238
reform	-10.8242
trying	-10.8245
Chang	-10.8254
credit	-10.8255
closely	-10.8257
personnel	-10.8258
brick	-10.8259
dated	-10.8261
Youth	-10.8262
bass	-10.8263
AT	-10.8264
ym	-10.8265
Hotel	-10.8267
crowd	-10.827
occurs	-10.8271
Thus	-10.8272
Officer	-10.8274
Chart	-10.828
resigned	-10.8281
bishop	-10.8283
male	-10.8285
grant	-10.8286
Works	-10.8288
ori	-10.8291
slav	-10.8291
inhabitants	-10.8296
Howard	-10.8298
Lang	-10.8299
ration	-10.83
consisting	-10.8303
1976	-10.8304
representative	-10.8308
pit	-10.8308
franchise	-10.8311
causing	-10.8313
Administration	-10.8321
sun	-10.8329
Executive	-10.8333
1915	-10.8337
labor	-10.8338
Entertainment	-10.8346
carry	-10.8348
hired	-10.8353
mic	-10.8356
description	-10.8359
resistance	-10.8359
mus	-10.8368
concluded	-10.8368
bottom	-10.8372
driver	-10.8378
historian	-10.8385
Ven	-10.8392
scenes	-10.8393
Kh	-10.8399
northwest	-10.8407
lon	-10.841
twelve	-10.841
1913	-10.8414
painted	-10.8417
matic	-10.8417
Key	-10.842
wild	-10.8421
Austria	-10.8422
Hamilton	-10.8423
context	-10.8423
finds	-10.843
rop	-10.8431
Egypt	-10.8433
boys	-10.8434
ruled	-10.8435
check	-10.8435
secretary	-10.8437
Juan	-10.8438
web	-10.8443
Miami	-10.8449
commune	-10.845
Mass	-10.8451
Sound	-10.8452
AA	-10.8457
rk	-10.846
pattern	-10.8463
entirely	-10.8465
offices	-10.8465
kov	-10.8467
animal	-10.8468
protest	-10.8468
calling	-10.8469
observed	-10.8484
hang	-10.8485
Review	-10.8488
89	-10.8491
lying	-10.8496
Mayor	-10.8498
chen	-10.8498
Hungarian	-10.85
Communist	-10.8501
graph	-10.8502
talk	-10.8509
regarded	-10.8509
1978	-10.8511
Max	-10.8512
folk	-10.8513
BA	-10.8513
Affairs	-10.8513
96	-10.8514
session	-10.8514
starts	-10.8518
61	-10.8522
Shah	-10.8522
1957	-10.8526
86	-10.8527
Only	-10.8528
expression	-10.8531
aim	-10.854
owners	-10.8543
ging	-10.8545
parent	-10.8546
-2	-10.8548
installed	-10.8552
Squadron	-10.8552
Spring	-10.8556
Nar	-10.8558
passenger	-10.8568
grounds	-10.8569
IT	-10.8572
premier	-10.8574
greatest	-10.8582
Bl	-10.8584
Americans	-10.8584
meters	-10.8584
1943	-10.8585
Grant	-10.8585
Call	-10.8588
squadron	-10.8591
conduct	-10.8593
tries	-10.8593
Ana	-10.86
Philip	-10.86
municipal	-10.8602
wick	-10.8602
parallel	-10.8604
praised	-10.8604
shed	-10.8607
dan	-10.861
Fred	-10.8612
Bol	-10.8612
garden	-10.8624
clean	-10.8624
vit	-10.8624
gel	-10.8627
tru	-10.8631
maintain	-10.8631
everal	-10.8633
rooms	-10.8635
bb	-10.8637
weapons	-10.8646
refers	-10.8646
tes	-10.865
cru	-10.8652
Douglas	-10.8656
rick	-10.8667
orders	-10.8673
Fund	-10.868
calls	-10.8682
Hockey	-10.8682
mail	-10.8683
Bus	-10.8684
nch	-10.8685
powers	-10.8699
factor	-10.8699
user	-10.87
organisation	-10.8701
actual	-10.8703
Rang	-10.8705
agricultural	-10.8708
invasion	-10.8708
Prix	-10.871
sequence	-10.8713
Baron	-10.8713
lob	-10.8715
scheme	-10.8716
employees	-10.8718
watch	-10.8722
vest	-10.8722
programming	-10.8723
bin	-10.8733
150	-10.8734
introduction	-10.8734
1908	-10.8738
nes	-10.8744
lab	-10.8746
zer	-10.8747
lim	-10.8749
rent	-10.875
Tony	-10.8753
Cer	-10.8755
mit	-10.8759
Iowa	-10.8762
grand	-10.8762
zon	-10.8765
Village	-10.8768
statement	-10.877
Alabama	-10.8775
safe	-10.8778
Ev	-10.8779
forming	-10.8782
1975	-10.8783
soil	-10.8792
Islamic	-10.8793
1911	-10.8795
briefly	-10.8795
brief	-10.8795
yu	-10.8798
getting	-10.8804
charged	-10.8809
rian	-10.881
missions	-10.8812
trail	-10.8812
opportunity	-10.8814
arrest	-10.8818
challenge	-10.8818
chose	-10.8819
Children	-10.8828
Jesus	-10.8828
jazz	-10.8829
Rev	-10.8835
ick	-10.8839
adjacent	-10.8841
opinion	-10.8841
Switzerland	-10.8841
fat	-10.8843
gender	-10.8853
Lincoln	-10.8854
Patrick	-10.8855
ı	-10.8861
coal	-10.8862
1973	-10.8865
Back	-10.8868
Mississippi	-10.8868
contain	-10.8869
Eric	-10.8873
collected	-10.8875
distinct	-10.8875
justice	-10.8875
damaged	-10.8878
Silver	-10.8879
selection	-10.888
ão	-10.8882
Rural	-10.8883
applications	-10.8886
(1	-10.8888
scen	-10.889
mel	-10.889
stan	-10.8894
agency	-10.8897
1906	-10.8897
harm	-10.8899
piano	-10.8899
ł	-10.8907
equivalent	-10.8908
Heritage	-10.8908
mono	-10.8909
exception	-10.8914
ensure	-10.8922
crossing	-10.8923
Season	-10.8927
ncy	-10.8927
31,	-10.8928
lar	-10.8938
instance	-10.8944
medium	-10.8949
broken	-10.895
moral	-10.8952
township	-10.8953
Tech	-10.8955
Para	-10.8958
someone	-10.8965
yer	-10.8973
replace	-10.8975
paintings	-10.8986
NC	-10.8987
kick	-10.8988
Rat	-10.899
premiered	-10.9002
decade	-10.9003
journal	-10.9005
describes	-10.9011
Va	-10.9012
links	-10.9013
Houston	-10.9016
perfect	-10.9018
1967	-10.9023
Rio	-10.9026
rob	-10.9028
bond	-10.9028
causes	-10.9033
AN	-10.9043
(17	-10.9046
distributed	-10.905
interests	-10.9055
1,000	-10.9056
Local	-10.9058
users	-10.9063
vol	-10.9064
isation	-10.9067
gy	-10.9069
factors	-10.907
quot	-10.907
landscape	-10.9071
Naval	-10.9074
brain	-10.9075
1890	-10.9076
Mun	-10.9083
nar	-10.9084
Magazine	-10.9084
easily	-10.9084
musician	-10.9084
classified	-10.9087
kan	-10.9093
abad	-10.9099
improved	-10.9108
ú	-10.9112
č	-10.9124
gra	-10.9125
designer	-10.9127
Wild	-10.9131
stores	-10.9137
Way	-10.9142
Raj	-10.9145
Allen	-10.9146
ay	-10.9146
1969	-10.9153
Antonio	-10.9153
1905	-10.9155
Der	-10.9155
critic	-10.9156
railroad	-10.9158
singing	-10.9163
Iron	-10.9166
colonial	-10.9166
Lieutenant	-10.9166
admitted	-10.9166
Baseball	-10.9167
Pin	-10.9173
delivered	-10.9176
Fl	-10.9176
ien	-10.9176
nik	-10.9179
oz	-10.9179
Kentucky	-10.9181
Diego	-10.9184
Des	-10.9194
demand	-10.9199
wins	-10.9201
Wa	-10.9207
courses	-10.9207
representation	-10.9208
Gordon	-10.9209
speaking	-10.9215
southwest	-10.9215
survived	-10.9219
ii	-10.922
Angel	-10.9222
injured	-10.9222
freedom	-10.9223
rare	-10.9223
Danish	-10.9223
rising	-10.9225
understanding	-10.9227
stands	-10.9236
standards	-10.9238
stem	-10.9245
1945	-10.9248
really	-10.9248
mir	-10.9249
communication	-10.925
values	-10.9256
$3	-10.9257
Len	-10.9257
Rugby	-10.9264
dell	-10.9265
drawn	-10.9269
Harris	-10.927
plain	-10.9271
severe	-10.9277
Third	-10.9278
Hindu	-10.9278
comic	-10.9295
ello	-10.9298
Report	-10.93
passengers	-10.9302
grass	-10.9302
2-	-10.9305
Conservative	-10.9305
Harvard	-10.9305
Czech	-10.9306
feed	-10.931
1999,	-10.9314
successor	-10.9317
measures	-10.9317
Bern	-10.9318
1917	-10.9321
learn	-10.9324
planet	-10.9324
Tru	-10.9325
600	-10.9326
Ur	-10.9331
Ukraine	-10.9333
dress	-10.9334
stood	-10.9335
1909	-10.9337
seventh	-10.9337
Five	-10.9339
experienced	-10.9343
Hart	-10.9343
uli	-10.9344
accept	-10.9344
Reserve	-10.9345
committed	-10.9347
philosophy	-10.9347
criticism	-10.9348
Dream	-10.9359
ret	-10.9361
Commonwealth	-10.9361
earliest	-10.9361
fit	-10.9362
hid	-10.9363
Villa	-10.9373
Week	-10.9376
spirit	-10.9379
sho	-10.9384
tens	-10.9386
policies	-10.9389
circle	-10.939
Cy	-10.939
vic	-10.9391
restored	-10.9392
hood	-10.9393
duty	-10.9396
photo	-10.9397
Sav	-10.9399
Tokyo	-10.9404
auto	-10.9409
COVID	-10.9418
Wolf	-10.9418
tip	-10.9428
Pass	-10.9428
depth	-10.9432
nia	-10.9435
vocals	-10.9436
pack	-10.9437
Sab	-10.9444
protected	-10.9449
ideas	-10.945
strike	-10.9458
800	-10.9459
poem	-10.946
uniform	-10.947
Islam	-10.947
bul	-10.9472
fired	-10.9473
apartment	-10.948
81	-10.9484
progress	-10.9486
itz	-10.9488
Railroad	-10.9489
Motor	-10.9494
domain	-10.9498
Round	-10.9502
Time	-10.9506
Brazilian	-10.9506
lor	-10.9508
grad	-10.9514
Convention	-10.9517
naval	-10.9524
southeast	-10.9526
Market	-10.9526
weak	-10.953
Argentina	-10.9532
shooting	-10.9532
Austrian	-10.9532
Az	-10.9533
formally	-10.9534
priest	-10.9537
Us	-10.9539
colour	-10.954
accompanied	-10.9545
Battalion	-10.9546
warm	-10.9547
defeating	-10.9548
why	-10.9549
items	-10.955
teachers	-10.9551
tall	-10.9558
membership	-10.9563
Additionally	-10.9563
Front	-10.9565
fear	-10.9566
load	-10.9572
Anderson	-10.9576
offering	-10.9577
1907	-10.9578
hundred	-10.9579
1998,	-10.9584
flying	-10.9585
debuted	-10.9585
Singles	-10.9586
signing	-10.9586
Even	-10.9587
Louisiana	-10.9589
craft	-10.959
solid	-10.9595
cc	-10.9597
cited	-10.9597
enberg	-10.9607
1971	-10.9617
contributions	-10.9619
catch	-10.9619
grow	-10.9622
ys	-10.9625
py	-10.9626
tam	-10.9628
twin	-10.9629
nal	-10.9629
lad	-10.9631
Edinburgh	-10.9632
Internet	-10.9633
opposite	-10.9637
cen	-10.9639
2004.	-10.964
Ly	-10.9648
Hills	-10.966
parliament	-10.966
benefit	-10.966
Puerto	-10.9661
Legislative	-10.9661
Karl	-10.9665
nothing	-10.9673
Med	-10.9673
sil	-10.9674
Denmark	-10.9676
Mission	-10.9681
winners	-10.9681
.”	-10.9685
Palace	-10.9692
mounted	-10.9697
Leon	-10.9701
regularly	-10.9702
Detroit	-10.9704
ABC	-10.9706
sections	-10.9709
seems	-10.971
Sy	-10.9711
DNA	-10.9715
Clar	-10.9716
Global	-10.9719
raise	-10.9719
Ltd	-10.972
Auto	-10.9722
rg	-10.9722
Chil	-10.9722
adaptation	-10.9723
inch	-10.9727
Anthony	-10.9734
Gallery	-10.9734
Tam	-10.9735
lik	-10.9736
Cook	-10.9737
Comp	-10.9742
Gun	-10.9748
Hungary	-10.9749
residential	-10.9755
favor	-10.9756
capable	-10.9767
1954	-10.977
arranged	-10.9772
AF	-10.9774
Oklahoma	-10.9778
statue	-10.9778
champions	-10.9778
Dance	-10.9779
dos	-10.9785
hn	-10.9786
Pla	-10.9788
represents	-10.9789
sville	-10.9793
Broadway	-10.9793
Zo	-10.9798
Dark	-10.9798
rejected	-10.9799
intelligence	-10.9806
covering	-10.9816
listing	-10.9816
Sim	-10.9817
reaction	-10.9821
assault	-10.9822
ij	-10.9823
Tamil	-10.9823
reflect	-10.9829
cit	-10.9834
Roy	-10.9834
Wing	-10.9835
appointment	-10.9836
50,000	-10.9839
bomb	-10.9844
Walker	-10.9844
details	-10.9844
Nat	-10.9845
Constitution	-10.9846
IN	-10.9849
flood	-10.985
anniversary	-10.985
Imperial	-10.9851
actors	-10.9852
medicine	-10.9866
è	-10.9866
Welsh	-10.9867
Chairman	-10.9868
Hollywood	-10.9881
Seven	-10.9883
93	-10.9887
reality	-10.9887
divisions	-10.9888
gent	-10.9892
Garden	-10.9894
Deputy	-10.9895
Cemetery	-10.9896
goods	-10.9897
rad	-10.9898
mol	-10.9899
gang	-10.9899
Dom	-10.9903
dating	-10.9908
Hard	-10.9908
institution	-10.991
Dublin	-10.9911
Six	-10.9912
Gulf	-10.9914
94	-10.9914
streets	-10.9917
beach	-10.9917
treat	-10.9921
Helen	-10.9922
shoot	-10.9922
steam	-10.9924
assumed	-10.9924
exercise	-10.9925
extremely	-10.9928
notably	-10.9936
zu	-10.9938
rav	-10.994
71	-10.9941
bil	-10.9947
oni	-10.9947
arrival	-10.9948
defence	-10.9949
Vice	-10.9954
Metropolitan	-10.9955
jump	-10.9955
Matthew	-10.9955
prepared	-10.9957
routes	-10.9963
criticized	-10.997
thi	-10.9972
Judge	-10.9973
device	-10.9974
Tra	-10.9976
1880	-10.9976
RA	-10.9977
Unit	-10.9977
scholars	-10.9978
translated	-10.9979
1964	-10.9979
tiv	-10.9985
license	-10.9985
fu	-10.9985
div	-10.9987
humans	-10.9988
1870	-10.9991
ME	-10.9993
WA	-10.9997
ged	-10.9998
documents	-11.0001
objects	-11.0007
churches	-11.001
bands	-11.001
awa	-11.0014
otherwise	-11.0017
1904	-11.0021
Gro	-11.0027
Baltimore	-11.003
showing	-11.0031
Rh	-11.0035
pitch	-11.004
offensive	-11.0044
visible	-11.0045
Morgan	-11.0046
linked	-11.0046
element	-11.005
habitat	-11.0052
pil	-11.0053
shop	-11.0054
retained	-11.0054
fine	-11.0056
responsibility	-11.0059
Shan	-11.0062
?"	-11.0063
stable	-11.0066
Barr	-11.0069
dr	-11.0073
mos	-11.0074
dynasty	-11.0075
Quebec	-11.0075
Disney	-11.0075
roughly	-11.0077
2000.	-11.0078
Dean	-11.0079
ahead	-11.0087
cop	-11.0087
Capital	-11.009
didn	-11.0093
Athletics	-11.0097
significantly	-11.0099
Bush	-11.0099
ER	-11.0101
Belgium	-11.0105
genetic	-11.0108
Jon	-11.0108
Non	-11.0109
LP	-11.0113
Euro	-11.0114
flows	-11.0117
costs	-11.0117
sail	-11.0119
provincial	-11.012
definition	-11.012
debt	-11.0122
engines	-11.0123
Tower	-11.0123
2002.	-11.0123
Has	-11.0126
1901	-11.0127
correct	-11.0128
Sel	-11.0132
Ky	-11.0135
Margaret	-11.0136
islands	-11.0141
1903	-11.0145
Wind	-11.0146
audio	-11.0148
circuit	-11.015
Phil	-11.0151
ér	-11.0152
gay	-11.0156
Pet	-11.0157
landing	-11.0162
edited	-11.0164
bag	-11.0164
differ	-11.0166
Low	-11.0167
Moon	-11.0174
banks	-11.0174
Den	-11.018
deputy	-11.0181
satellite	-11.0181
Ap	-11.0181
filled	-11.0182
attached	-11.0184
leads	-11.0188
spect	-11.0199
peaked	-11.02
Place	-11.02
Sw	-11.021
Trump	-11.0214
Who	-11.0215
SI	-11.0216
mix	-11.0224
construct	-11.0226
operates	-11.0227
appropriate	-11.0227
businesses	-11.0227
lat	-11.0228
Hawk	-11.0228
Kon	-11.0229
adapted	-11.0235
Opera	-11.0238
aga	-11.0239
Atlanta	-11.0242
mining	-11.0242
Portugal	-11.0242
Ir	-11.0244
wings	-11.0245
sect	-11.0248
ual	-11.0249
Commander	-11.0251
tim	-11.0252
biggest	-11.0257
musicians	-11.026
skills	-11.0262
ub	-11.0262
solution	-11.0263
fixed	-11.0267
2003.	-11.0268
Buck	-11.0271
1902	-11.0273
Taiwan	-11.0273
techniques	-11.0276
employ	-11.0279
stages	-11.028
akh	-11.0286
cht	-11.0293
boats	-11.0294
printed	-11.03
poverty	-11.0303
powered	-11.0303
fund	-11.0303
defensive	-11.0304
Ukrainian	-11.0304
ownership	-11.031
measure	-11.0313
Category	-11.032
designs	-11.0323
Nan	-11.0324
Upper	-11.0327
VI	-11.0331
agh	-11.0333
Colonel	-11.0335
Jordan	-11.0335
feel	-11.0336
Your	-11.0338
Peace	-11.0339
Then	-11.0345
expedition	-11.0349
Express	-11.035
Culture	-11.0351
struggle	-11.0351
elevation	-11.0352
wounded	-11.0359
Iraq	-11.0359
examples	-11.036
assembly	-11.0366
heads	-11.0373
thy	-11.0375
acted	-11.0381
Organization	-11.0382
phil	-11.0384
iro	-11.0385
mine	-11.0388
intention	-11.0391
gets	-11.0393
separated	-11.0394
(2	-11.0397
Bangladesh	-11.0397
learned	-11.0398
Gall	-11.0403
tract	-11.0404
Nova	-11.0406
homes	-11.0408
gger	-11.0409
medieval	-11.0412
ify	-11.0412
bol	-11.0414
duties	-11.0415
Rights	-11.0416
Hor	-11.0418
nan	-11.0425
Ang	-11.0425
Mir	-11.0425
perhaps	-11.0428
qualifying	-11.044
bow	-11.0443
involving	-11.0443
Alliance	-11.0444
Challenge	-11.0444
NBC	-11.0453
tend	-11.0456
gri	-11.0456
num	-11.0457
coastal	-11.0458
CEO	-11.0466
ova	-11.0467
assist	-11.047
novels	-11.0472
institute	-11.0475
bur	-11.0475
ima	-11.0476
caught	-11.0476
rio	-11.0478
Indonesia	-11.0479
lord	-11.0483
flowers	-11.0483
Crown	-11.0485
Work	-11.0487
Donald	-11.049
assistance	-11.0491
evening	-11.0493
Kent	-11.0493
1997,	-11.0494
stayed	-11.0495
relative	-11.0499
ratio	-11.05
Bull	-11.0502
runner	-11.0506
Our	-11.0507
submarine	-11.0508
Trade	-11.0509
meter	-11.0512
onia	-11.0514
differences	-11.0517
sti	-11.0518
Montreal	-11.0524
Brook	-11.0528
suggests	-11.0529
virus	-11.053
Ey	-11.0532
downtown	-11.0542
difference	-11.0543
popularity	-11.0547
requirements	-11.0548
Farm	-11.0549
extrem	-11.0551
driving	-11.0554
Basketball	-11.0554
crisis	-11.0555
Demographics	-11.0555
cm	-11.0557
concerns	-11.0561
ensis	-11.0565
ges	-11.0566
cam	-11.057
Construction	-11.0571
Bab	-11.0571
Hell	-11.0571
ient	-11.0572
sentence	-11.0573
Fal	-11.0576
Glen	-11.0577
stopped	-11.0579
publications	-11.058
thousands	-11.0582
terminal	-11.0588
fill	-11.0591
Hans	-11.0592
000	-11.0592
ati	-11.0593
cards	-11.0594
Alan	-11.0595
Singh	-11.0602
Wei	-11.0602
Ry	-11.0603
honour	-11.0609
export	-11.0615
buy	-11.0617
storage	-11.0618
replacement	-11.0624
publishing	-11.0625
tied	-11.0629
sey	-11.0629
Oak	-11.0631
tum	-11.0632
Energy	-11.0634
camera	-11.0636
Stra	-11.0643
missing	-11.0645
lift	-11.0647
adding	-11.0648
Mountains	-11.0648
proper	-11.0649
hum	-11.0652
Las	-11.0655
Mrs	-11.0658
testing	-11.0658
Georg	-11.067
250	-11.0679
Orchestra	-11.0682
heat	-11.0685
TC	-11.0693
ić	-11.0693
retail	-11.0694
charges	-11.0697
Lawrence	-11.0698
returns	-11.0698
kl	-11.0703
concentration	-11.0716
purposes	-11.0719
lists	-11.0722
acy	-11.0723
substitute	-11.0729
Liverpool	-11.073
Vienna	-11.073
DA	-11.0732
friendly	-11.0732
convention	-11.0736
illegal	-11.0739
BS	-11.0741
spiritual	-11.0746
Lou	-11.0754
Athletic	-11.0755
(),	-11.076
Pad	-11.0763
aq	-11.0767
nut	-11.0768
Char	-11.0773
bringing	-11.0773
persons	-11.078
Just	-11.0788
PR	-11.079
Voivodeship	-11.0795
gat	-11.0795
aria	-11.0797
ock	-11.0798
cio	-11.0798
CR	-11.0799
treated	-11.0816
Tal	-11.0818
José	-11.0827
classification	-11.0829
throw	-11.0829
scope	-11.0836
Rom	-11.0837
faculty	-11.0843
Seattle	-11.0843
Cathedral	-11.0844
Alb	-11.0854
sson	-11.0858
Information	-11.0858
universities	-11.0859
Belgian	-11.086
earning	-11.086
heritage	-11.086
Nicol	-11.0863
Dem	-11.0863
ller	-11.0865
decline	-11.0866
vocal	-11.0868
turns	-11.0868
Gl	-11.0869
Eli	-11.0872
artistic	-11.0873
prop	-11.0875
flu	-11.088
task	-11.088
intersection	-11.0882
publisher	-11.0883
profile	-11.0884
Roger	-11.0884
RO	-11.0891
legislation	-11.0892
initiative	-11.0892
Ryan	-11.0893
lop	-11.0899
NBA	-11.09
possession	-11.0901
Norman	-11.0904
journey	-11.0908
controversial	-11.0908
carrying	-11.0913
explained	-11.0915
Dy	-11.0917
Penn	-11.0918
Lower	-11.0919
Story	-11.0924
dynamic	-11.0925
thing	-11.0927
nations	-11.0931
vessels	-11.0937
shut	-11.0938
ES	-11.0941
Orthodox	-11.0941
Kennedy	-11.0942
Lim	-11.0948
Sarah	-11.0949
restaurant	-11.0954
92	-11.0957
Staff	-11.0958
Cleveland	-11.0959
plic	-11.0961
feld	-11.0963
cable	-11.0965
Shu	-11.0966
interested	-11.0972
window	-11.0972
strategy	-11.0974
changing	-11.0975
constant	-11.0984
ister	-11.0986
tric	-11.0988
sburg	-11.0989
controversy	-11.0991
parliamentary	-11.0992
appearing	-11.0993
3-	-11.1002
achieve	-11.1003
technique	-11.1004
ique	-11.1004
falls	-11.1007
Franklin	-11.101
experiment	-11.1013
83	-11.1013
guitarist	-11.1015
nny	-11.1018
temporary	-11.1021
hom	-11.1024
battalion	-11.1024
Studios	-11.1025
ott	-11.1027
bear	-11.1037
struck	-11.104
Bru	-11.1041
Canal	-11.1045
Malaysia	-11.1045
1996,	-11.1047
arc	-11.1048
manufacturing	-11.1057
choose	-11.1058
Chamber	-11.1058
rival	-11.106
pm	-11.1061
survive	-11.1061
rov	-11.1061
corn	-11.1067
lac	-11.1067
copy	-11.1073
competitive	-11.1074
soccer	-11.1074
Kur	-11.1078
Bos	-11.1079
Egyptian	-11.1079
gui	-11.1079
truck	-11.108
weekly	-11.1086
picture	-11.1089
regime	-11.109
chamber	-11.1091
NS	-11.1092
contested	-11.1093
Bio	-11.1094
cum	-11.1099
CBS	-11.11
document	-11.1106
Meanwhile	-11.1108
tennis	-11.1109
Type	-11.1109
images	-11.1112
characteristics	-11.1119
Wu	-11.112
Natural	-11.1125
cz	-11.1126
subjects	-11.1129
shift	-11.113
earth	-11.1132
handed	-11.1134
Son	-11.1134
Kelly	-11.1135
(3	-11.1138
pel	-11.1141
frequency	-11.1141
Defense	-11.1141
ld	-11.1141
suicide	-11.1141
gn	-11.1144
1898	-11.1144
1899	-11.1144
ici	-11.1145
Qua	-11.1147
Champions	-11.1148
Bruce	-11.1149
2)	-11.1149
send	-11.1153
noble	-11.1154
plus	-11.1155
RC	-11.1156
daughters	-11.1157
Bla	-11.1159
Model	-11.116
windows	-11.1162
Adams	-11.1165
songwriter	-11.1168
soundtrack	-11.1169
hero	-11.1169
practices	-11.117
Wright	-11.1172
RI	-11.1174
Connecticut	-11.1175
ox	-11.1182
ically	-11.1182
Tro	-11.1184
orchestra	-11.1185
resolution	-11.1189
patient	-11.1191
Medicine	-11.1193
branches	-11.1193
ctic	-11.1197
talent	-11.1198
regard	-11.1206
Row	-11.1208
AL	-11.1208
Utah	-11.121
wal	-11.1212
threat	-11.1213
Kevin	-11.1213
combin	-11.1214
Od	-11.1215
2001.	-11.1221
tests	-11.1222
message	-11.1225
wet	-11.1228
recogniz	-11.1229
symbol	-11.1231
coverage	-11.1234
Sport	-11.1236
ready	-11.1238
Through	-11.1239
aux	-11.124
corporation	-11.1242
nest	-11.1243
Movement	-11.1243
boundary	-11.1244
existed	-11.1246
Ty	-11.1247
lett	-11.1252
tunnel	-11.126
120	-11.1261
zar	-11.1262
devices	-11.1263
Burn	-11.1265
lined	-11.1265
keeping	-11.1265
genre	-11.1271
degrees	-11.1275
carrier	-11.1276
influential	-11.1276
conservative	-11.1276
equipped	-11.1276
ów	-11.1276
seek	-11.1279
Stan	-11.1283
fun	-11.1285
layer	-11.1285
entering	-11.1289
prisoners	-11.1293
É	-11.1293
1897	-11.1296
ideal	-11.1297
answer	-11.1298
Kor	-11.1299
;/	-11.1301
cave	-11.1306
manner	-11.131
Ward	-11.131
emergency	-11.131
faith	-11.1311
childhood	-11.1311
courts	-11.1317
uncle	-11.132
ID	-11.1321
hara	-11.1321
revenue	-11.1327
leaf	-11.1329
Sara	-11.1336
Vic	-11.134
Div	-11.1341
Ob	-11.1342
breaking	-11.1342
root	-11.1344
proposal	-11.1346
venue	-11.1349
Horse	-11.1353
spoken	-11.1356
approval	-11.1361
ction	-11.1362
Stewart	-11.1362
memorial	-11.1362
Russell	-11.1362
Campbell	-11.1363
junction	-11.1364
Fall	-11.1365
abuse	-11.1366
CB	-11.1367
authors	-11.1367
bro	-11.1368
Ran	-11.1369
bach	-11.1373
hosts	-11.1378
Standard	-11.1379
venture	-11.138
cousin	-11.1381
Pag	-11.1381
gram	-11.1383
annually	-11.1384
moment	-11.1386
2,000	-11.1391
experiences	-11.1393
passage	-11.1393
Cav	-11.1395
instrument	-11.14
finding	-11.1403
affairs	-11.1404
GA	-11.1411
91	-11.1411
turning	-11.1412
fishing	-11.1412
Tai	-11.1412
architectural	-11.1413
celebrated	-11.1414
CP	-11.1414
pioneer	-11.1416
rig	-11.142
weekend	-11.1422
Rich	-11.1423
fresh	-11.1427
mac	-11.1428
understand	-11.1429
Labor	-11.143
modul	-11.143
Luc	-11.1431
tenure	-11.1437
secure	-11.144
Birmingham	-11.1448
hearing	-11.1449
Brand	-11.1449
stroke	-11.145
Wy	-11.145
Every	-11.1451
surrounded	-11.1451
sufficient	-11.1458
Dick	-11.1463
option	-11.1464
questions	-11.1464
relief	-11.1465
counties	-11.1466
habit	-11.1468
indicated	-11.1471
spoke	-11.1472
aspects	-11.148
liberal	-11.1483
pandemic	-11.1483
nom	-11.1484
spend	-11.1485
Mik	-11.1487
replacing	-11.1488
driven	-11.149
zone	-11.1495
Kir	-11.15
denied	-11.15
Alfred	-11.1501
forests	-11.1501
NE	-11.1501
valid	-11.1505
panel	-11.1507
Bow	-11.1513
requires	-11.1516
completion	-11.1517
Murray	-11.1518
considerable	-11.152
expect	-11.1522
rescue	-11.1528
false	-11.1529
nn	-11.1533
Rod	-11.1535
Baptist	-11.1535
recordings	-11.1539
interpretation	-11.154
nomination	-11.1547
Shin	-11.1548
Jud	-11.1551
practical	-11.1552
Authority	-11.1553
bright	-11.1555
transmission	-11.1556
ages	-11.1559
output	-11.1563
ticket	-11.157
visitors	-11.1571
stick	-11.1574
Cra	-11.1574
Victor	-11.1577
Baker	-11.1585
amateur	-11.1587
commemorat	-11.1587
worn	-11.1589
loop	-11.159
Morris	-11.1603
som	-11.1605
lasted	-11.1608
GP	-11.161
Dallas	-11.1611
filed	-11.1613
1860	-11.1614
huge	-11.1618
mag	-11.1622
dialect	-11.1623
neck	-11.1625
-3	-11.1628
finance	-11.1629
somewhat	-11.1632
kel	-11.1633
viewers	-11.1634
margin	-11.1636
RT	-11.1637
Dur	-11.1637
electoral	-11.164
Kra	-11.1641
Finland	-11.1642
chapel	-11.1642
2021.	-11.1648
Plant	-11.1651
wooden	-11.1652
Agency	-11.1658
concrete	-11.1658
kingdom	-11.1659
Classic	-11.1661
Daily	-11.1661
respond	-11.1664
Vas	-11.1665
2–1	-11.1666
MI	-11.1668
Transport	-11.1675
infrastructure	-11.1675
Jeff	-11.1684
medals	-11.1684
charter	-11.1688
ulu	-11.1691
penalty	-11.1693
drew	-11.1693
Brooklyn	-11.1693
ø	-11.1694
Child	-11.1701
Economic	-11.1701
MO	-11.1705
trick	-11.1708
prim	-11.171
Pittsburgh	-11.1711
Ker	-11.1712
raid	-11.1712
neuro	-11.1713
soul	-11.1717
deliver	-11.172
Training	-11.1723
NR	-11.1724
Cricket	-11.1729
facing	-11.1729
involvement	-11.1729
patent	-11.173
Draft	-11.1732
Thr	-11.1733
threatened	-11.1733
Mod	-11.1743
urg	-11.1747
balance	-11.1747
objective	-11.1749
Fleet	-11.1751
tics	-11.1762
rivers	-11.1762
modified	-11.1765
1999.	-11.1766
Food	-11.1766
Gray	-11.1775
Honor	-11.1779
Mol	-11.1782
Thompson	-11.1783
IA	-11.1784
EU	-11.1786
Brothers	-11.1786
Sho	-11.1793
tern	-11.1794
mot	-11.1799
odd	-11.18
Persian	-11.1802
Ter	-11.1803
rell	-11.1803
82	-11.1804
Girl	-11.1806
marry	-11.181
competitions	-11.1811
Bir	-11.1813
helping	-11.1814
Language	-11.1819
aunt	-11.1826
increasingly	-11.1829
Cast	-11.183
Player	-11.1831
Let	-11.1832
4-	-11.1833
dock	-11.1833
1000	-11.1834
Last	-11.1836
victims	-11.1838
Code	-11.184
serv	-11.185
uro	-11.1852
sley	-11.1852
celebration	-11.1854
jurisdiction	-11.1854
corporate	-11.1854
RE	-11.1858
Dead	-11.1859
dri	-11.1862
mil	-11.1864
claiming	-11.1869
Carr	-11.187
gradually	-11.1873
10.	-11.1874
dl	-11.1878
Champion	-11.1881
uni	-11.1883
segment	-11.1886
SD	-11.1887
instrumental	-11.1889
Roll	-11.189
artillery	-11.189
sang	-11.189
Greg	-11.1891
Hunt	-11.1891
Defence	-11.1893
percentage	-11.1898
tribute	-11.1898
sponsored	-11.19
integrated	-11.1905
duo	-11.1908
Azerbaijan	-11.1909
constitutional	-11.1909
graduating	-11.1909
drafted	-11.1912
posted	-11.1912
thick	-11.1915
affiliated	-11.1916
Dec	-11.1917
nell	-11.1922
cold	-11.1923
Richmond	-11.1927
voting	-11.1928
dream	-11.193
determine	-11.1935
cept	-11.1938
eyes	-11.194
instruments	-11.1941
declined	-11.1942
Stor	-11.1943
reputation	-11.1945
Bri	-11.1947
teen	-11.1949
convert	-11.1952
Bengal	-11.1958
maker	-11.1962
Victorian	-11.1962
Madrid	-11.1964
ila	-11.1965
tribe	-11.1969
Princess	-11.197
belonging	-11.1972
Father	-11.1975
hits	-11.1982
grown	-11.1983
Robinson	-11.1984
touch	-11.1986
Ny	-11.1986
MD	-11.199
1997.	-11.1992
Trail	-11.1994
eighth	-11.1994
mobile	-11.2
160	-11.2002
scholarship	-11.2006
drawing	-11.2011
Cab	-11.2012
Control	-11.2012
petition	-11.2016
colony	-11.2018
surviving	-11.2018
attorney	-11.2018
trouble	-11.2018
adi	-11.202
eleven	-11.202
exit	-11.2027
uf	-11.2028
effectively	-11.2031
seconds	-11.2031
touchdown	-11.2032
employment	-11.2034
Kings	-11.2035
longest	-11.2038
Christopher	-11.2039
anything	-11.2039
massive	-11.204
pip	-11.2041
Pierre	-11.2042
studying	-11.2044
mul	-11.2044
Girls	-11.2046
yr	-11.2047
markets	-11.2049
soft	-11.2053
dominant	-11.2054
preserved	-11.2055
till	-11.2057
Austin	-11.2057
ocean	-11.2058
vy	-11.206
Stock	-11.2062
essential	-11.2066
grey	-11.207
continuing	-11.2073
trading	-11.2074
Jar	-11.2074
Rid	-11.2079
toured	-11.2089
chy	-11.2091
external	-11.2092
ruling	-11.2095
closure	-11.2105
kal	-11.2107
doubt	-11.211
jobs	-11.2111
collections	-11.2111
anger	-11.2112
Chu	-11.2115
Section	-11.2116
enjoy	-11.2118
Theater	-11.2126
NT	-11.2127
prompt	-11.2128
wrong	-11.2128
stress	-11.213
quite	-11.2134
ré	-11.2142
Mai	-11.2144
Tang	-11.2146
Maha	-11.2146
Dragon	-11.2147
lio	-11.2151
innings	-11.2155
patrol	-11.2157
linear	-11.2161
Ul	-11.2161
Fellow	-11.2163
Bachelor	-11.2166
Finnish	-11.2166
underground	-11.2168
Urban	-11.2169
schedule	-11.2173
SO	-11.218
rol	-11.2183
Carter	-11.2183
align	-11.2184
dig	-11.2184
maintenance	-11.2184
organised	-11.2185
Horn	-11.2185
Digital	-11.2185
roy	-11.2185
Guinea	-11.2189
accounts	-11.2192
Well	-11.2192
worship	-11.2192
crash	-11.2195
mut	-11.2197
components	-11.2197
Charlotte	-11.2204
Sil	-11.2205
ition	-11.2211
rib	-11.2212
distinguished	-11.2212
RS	-11.2214
rifle	-11.2216
eliminated	-11.2218
funded	-11.2218
700	-11.2221
participation	-11.2221
Nicholas	-11.2222
Milan	-11.2222
Jimmy	-11.2224
grandfather	-11.2224
HS	-11.2225
Bird	-11.2226
pri	-11.2227
newspapers	-11.2228
Franc	-11.2233
bull	-11.2234
advocat	-11.2235
rapid	-11.2239
beautiful	-11.224
Ivan	-11.2242
1896	-11.2244
occasionally	-11.2244
1895	-11.2244
Originally	-11.2246
Marshall	-11.2248
processing	-11.2258
Off	-11.2259
SL	-11.226
strongly	-11.2268
spending	-11.2272
destruction	-11.2277
recommended	-11.2282
alter	-11.2283
cult	-11.2284
attracted	-11.2285
Chan	-11.2287
Romanian	-11.2288
frequent	-11.2289
Rico	-11.2295
raw	-11.23
Knight	-11.2304
fled	-11.2305
(16	-11.2308
hydro	-11.2309
crown	-11.2311
depending	-11.2313
NO	-11.2316
physics	-11.2316
surgery	-11.2317
error	-11.2322
rapidly	-11.2323
losses	-11.2331
Grade	-11.2334
Nelson	-11.2335
Hispanic	-11.2336
1892	-11.2337
repair	-11.234
Lanka	-11.2342
prime	-11.2344
favour	-11.2344
dominated	-11.2346
desire	-11.2347
Anton	-11.2347
salt	-11.2351
minimum	-11.2353
Rose	-11.2353
Muhammad	-11.2354
Freedom	-11.2354
1961	-11.2354
happened	-11.2359
uv	-11.2359
Portland	-11.2362
3,000	-11.2365
Serbian	-11.2366
Commissioner	-11.2367
kg	-11.2368
filmed	-11.237
Jerusalem	-11.2372
Sad	-11.2374
Stanley	-11.2374
FI	-11.2375
Evans	-11.2376
amo	-11.2376
versus	-11.2378
gli	-11.2386
Ant	-11.2388
fold	-11.2392
infantry	-11.2392
Ok	-11.2397
lig	-11.2397
Shortly	-11.2399
horses	-11.2401
itch	-11.2405
conventional	-11.2406
lung	-11.2408
competing	-11.241
widespread	-11.2412
Common	-11.2414
Vit	-11.2414
erected	-11.2415
Nepal	-11.2415
Around	-11.2416
connect	-11.2418
processes	-11.242
Lor	-11.2423
marketing	-11.2427
Cultural	-11.243
zen	-11.243
elder	-11.2436
iki	-11.2438
arrow	-11.2443
":	-11.2446
viewed	-11.2446
Por	-11.2447
tid	-11.2451
guide	-11.2453
select	-11.2454
executed	-11.2455
traveled	-11.2461
Sultan	-11.2468
reportedly	-11.2469
organize	-11.2472
ssa	-11.2475
PD	-11.2475
fra	-11.248
tsu	-11.2481
rim	-11.2482
signs	-11.2483
deck	-11.2484
heir	-11.2487
Diocese	-11.2488
remainder	-11.2489
pot	-11.249
(4	-11.2491
affect	-11.2491
Barn	-11.2493
useful	-11.2494
dual	-11.2496
fictional	-11.2503
atory	-11.2504
unusual	-11.2504
Syria	-11.2506
injuries	-11.2507
locality	-11.2508
equation	-11.251
Reg	-11.251
determin	-11.2512
pul	-11.2512
Lev	-11.2513
SM	-11.2519
fighter	-11.2519
Instead	-11.2521
strategic	-11.2525
conclusion	-11.2525
cancelled	-11.2526
TE	-11.2529
Arabic	-11.2532
movements	-11.2532
aut	-11.2534
Serbia	-11.2534
concerned	-11.2537
ving	-11.2538
god	-11.2539
én	-11.2539
cot	-11.254
roots	-11.2544
stic	-11.2544
notice	-11.2545
Orange	-11.2547
char	-11.2548
Ice	-11.255
Dol	-11.2551
1991,	-11.2551
Kha	-11.2551
portrayed	-11.2553
uka	-11.2555
Boys	-11.2558
Electric	-11.2559
Peru	-11.256
revolution	-11.2564
agencies	-11.2564
diameter	-11.2566
Bun	-11.2567
omi	-11.2568
discovery	-11.2572
1)	-11.2583
Arkansas	-11.2584
iff	-11.2603
Protestant	-11.2603
Fer	-11.2604
1893	-11.2606
ín	-11.2607
CI	-11.2607
laud	-11.2608
Uni	-11.2608
youngest	-11.2611
rak	-11.2613
Romania	-11.2616
physician	-11.2622
descent	-11.2625
papers	-11.2625
participants	-11.2631
aya	-11.2631
nett	-11.2634
Henri	-11.264
Mall	-11.2641
Critical	-11.2643
1885	-11.2646
wait	-11.2648
Gh	-11.2651
Semi	-11.2658
Billy	-11.2659
encounter	-11.2659
rina	-11.266
liquid	-11.2663
Thailand	-11.2664
orbit	-11.2667
thousand	-11.2667
stretch	-11.2669
Wang	-11.267
Racing	-11.2671
Jam	-11.2671
Mann	-11.2678
UEFA	-11.2681
attributed	-11.2681
demolished	-11.2681
missile	-11.2682
cliff	-11.2682
Warren	-11.2682
Distribution	-11.2682
trap	-11.2683
endemic	-11.2684
Armenian	-11.269
Dog	-11.2691
por	-11.2693
easy	-11.2695
2).	-11.27
heim	-11.27
column	-11.2702
Carlos	-11.2703
mia	-11.2703
deployed	-11.2704
Prim	-11.2707
Flor	-11.2707
cro	-11.2711
DS	-11.2712
defending	-11.2714
Gam	-11.2717
cinema	-11.2717
lag	-11.2719
siege	-11.2721
OC	-11.2721
Ron	-11.2722
rl	-11.2722
merchant	-11.2726
donated	-11.2728
experimental	-11.2731
sized	-11.2732
tools	-11.2733
vet	-11.2734
iol	-11.2734
occasions	-11.2735
rous	-11.2735
pho	-11.2737
visiting	-11.2738
agriculture	-11.274
waters	-11.2741
Moore	-11.2744
Fan	-11.2744
characterized	-11.2745
seeking	-11.2757
Rick	-11.2758
Treaty	-11.276
sample	-11.2764
writes	-11.2765
truth	-11.2767
wealth	-11.277
Such	-11.2773
poems	-11.2775
qualification	-11.2779
Beijing	-11.278
holiday	-11.278
Af	-11.278
Cape	-11.2781
Ship	-11.2781
vessel	-11.2786
ight	-11.279
cad	-11.2792
alleged	-11.2794
thirty	-11.2799
Blu	-11.2801
aimed	-11.2801
CF	-11.2803
Vin	-11.2803
stall	-11.2805
component	-11.2805
anchor	-11.2806
Historical	-11.2808
Socialist	-11.281
Wo	-11.2813
meets	-11.2814
steps	-11.2821
Ever	-11.2821
Charlie	-11.2822
Iranian	-11.2824
Kol	-11.2825
kins	-11.2827
ular	-11.2829
expand	-11.283
Cooper	-11.2832
Vel	-11.2837
Grey	-11.2837
absence	-11.2839
installation	-11.2839
licensed	-11.2839
preparation	-11.2839
phrase	-11.2839
describe	-11.2841
Beck	-11.2843
merger	-11.2843
sharp	-11.2846
whereas	-11.2847
secured	-11.2854
Fur	-11.2857
wedding	-11.286
Kirk	-11.2871
patch	-11.2871
Arch	-11.2871
Kil	-11.2875
Along	-11.2876
Mediterranean	-11.2879
compilation	-11.2879
ost	-11.2879
Graham	-11.2881
Bernard	-11.2882
transportation	-11.2884
tak	-11.2885
sz	-11.2887
Friday	-11.2888
encourage	-11.289
serial	-11.2891
Turk	-11.2892
12.	-11.2894
recovered	-11.2898
10,000	-11.2899
indigenous	-11.2899
conservation	-11.2899
width	-11.2899
Trinity	-11.29
labour	-11.29
everything	-11.29
coat	-11.2904
Kenya	-11.2905
Pont	-11.2908
shares	-11.291
reduction	-11.2913
Mos	-11.2917
hear	-11.2918
alliance	-11.2919
Confederate	-11.2919
outer	-11.2924
meetings	-11.2927
gift	-11.2928
Release	-11.2928
Bible	-11.2936
departure	-11.2939
shan	-11.2939
eligible	-11.2939
_2	-11.294
reporter	-11.2944
index	-11.2946
customers	-11.2946
Dia	-11.2947
defender	-11.2952
scholar	-11.2954
Rail	-11.2954
Warner	-11.2956
attending	-11.2958
constitution	-11.2959
Hampshire	-11.2959
alternate	-11.296
adventure	-11.296
NP	-11.2963
Andy	-11.2964
normally	-11.2965
Books	-11.2967
ranging	-11.2968
rah	-11.2971
CH	-11.2972
Marc	-11.2973
retain	-11.2974
lak	-11.2975
territories	-11.2979
suspended	-11.2979
restoration	-11.2979
ddy	-11.2981
Dev	-11.2988
unk	-11.2988
liga	-11.299
mention	-11.2995
widow	-11.3
entertainment	-11.3
municipalities	-11.3001
legend	-11.3002
generated	-11.3006
TS	-11.3012
Ot	-11.3013
Walt	-11.3015
neighbour	-11.3019
greatly	-11.302
Windows	-11.302
suffering	-11.303
iva	-11.3031
doctor	-11.3032
1850	-11.3038
coalition	-11.304
emperor	-11.304
Neu	-11.3041
oph	-11.3047
Virgin	-11.3047
ddle	-11.3051
directors	-11.3052
Fri	-11.3053
Apple	-11.3054
Had	-11.3054
superior	-11.306
opportunities	-11.306
Manhattan	-11.306
Pun	-11.3061
Mul	-11.3061
mountains	-11.3062
apparently	-11.3066
illi	-11.3068
enjoyed	-11.3074
beam	-11.3079
willing	-11.3079
Communications	-11.308
OR	-11.308
excess	-11.308
Orleans	-11.3081
fossil	-11.3081
tribes	-11.3089
170	-11.3093
Ferr	-11.3095
vast	-11.3095
oral	-11.3097
fence	-11.3098
knew	-11.31
Municipal	-11.31
Attorney	-11.3101
mond	-11.3101
Trophy	-11.3101
creative	-11.3102
ved	-11.3104
syn	-11.3104
rounds	-11.3109
agents	-11.3113
adults	-11.3115
Abu	-11.3115
pier	-11.3117
relocated	-11.3122
lieutenant	-11.3122
ET	-11.3123
concern	-11.3124
responded	-11.3129
tent	-11.3129
Jason	-11.3135
Further	-11.3139
App	-11.3142
significance	-11.3142
Limited	-11.3142
metre	-11.3143
Isle	-11.3144
enable	-11.3147
wants	-11.3147
tested	-11.3148
Lind	-11.3153
Vis	-11.3154
PP	-11.3154
Steel	-11.3157
Scout	-11.3158
sar	-11.3159
Late	-11.3162
recipient	-11.3162
Benjamin	-11.3163
Palm	-11.3164
Municipality	-11.3165
resident	-11.3166
vs	-11.3166
Liga	-11.3166
palace	-11.3166
climb	-11.3169
championships	-11.317
evolution	-11.3176
suggest	-11.3178
WC	-11.3179
clinical	-11.3179
Bristol	-11.3183
Buddhist	-11.3183
Video	-11.3185
merge	-11.3186
Cher	-11.3188
Fla	-11.3189
jet	-11.3189
picked	-11.319
Kay	-11.3194
chapter	-11.3195
sculpture	-11.3196
throne	-11.3198
outbreak	-11.3203
Afghanistan	-11.3204
qualify	-11.3208
Nik	-11.321
cool	-11.3211
Gary	-11.3214
oi	-11.3215
activist	-11.3216
Vancouver	-11.3224
Guy	-11.3225
logical	-11.3226
Short	-11.3227
Soul	-11.323
1-	-11.3231
Tha	-11.3231
exile	-11.3232
Arena	-11.3239
gap	-11.3239
Wayne	-11.324
Wrestling	-11.3245
Tat	-11.3246
radical	-11.3248
Zu	-11.3251
commanded	-11.3252
belonged	-11.3253
core	-11.3253
jur	-11.3255
dies	-11.3255
ua	-11.3261
representatives	-11.3267
gear	-11.3269
1894	-11.3269
Woman	-11.327
ár	-11.3274
operational	-11.3278
IM	-11.328
networks	-11.3281
observe	-11.3281
solar	-11.3284
pra	-11.3286
jun	-11.3287
mathematics	-11.3287
Transportation	-11.329
ces	-11.329
ios	-11.3294
matters	-11.3294
rh	-11.3295
AB	-11.3295
wire	-11.3297
obtain	-11.3299
Springs	-11.3301
exhibit	-11.3307
5-	-11.3308
YouTube	-11.3308
lf	-11.3317
missed	-11.3319
couples	-11.3319
continuous	-11.3321
rub	-11.3323
romantic	-11.3328
legs	-11.3329
relationships	-11.3329
Until	-11.3331
Initially	-11.3331
HL	-11.3332
Pac	-11.3337
toll	-11.3338
1865	-11.3339
benefits	-11.3339
researchers	-11.3341
immediate	-11.3342
Kin	-11.3343
AI	-11.3348
Peninsula	-11.3349
clu	-11.3354
Philippine	-11.3358
illo	-11.3359
Gas	-11.336
ough	-11.3361
broadcasting	-11.3361
substantial	-11.3364
Hunter	-11.3367
handle	-11.3367
aku	-11.3369
blocks	-11.3371
rog	-11.3371
nov	-11.3372
Qui	-11.3372
Pho	-11.3374
ingham	-11.3375
lly	-11.3376
nurse	-11.3376
beetle	-11.3377
assets	-11.338
Cycl	-11.3381
Action	-11.3381
makeup	-11.3382
volunteer	-11.3387
Thi	-11.3388
alcohol	-11.3389
jar	-11.3391
yield	-11.3391
execution	-11.3392
communist	-11.3392
Leonard	-11.3395
cabinet	-11.3396
Johnny	-11.3401
mechanical	-11.3402
delay	-11.3404
abroad	-11.3405
Susan	-11.3405
hing	-11.3411
Glasgow	-11.3413
gil	-11.3414
partially	-11.3418
myth	-11.3419
Drive	-11.3419
electro	-11.3421
scientists	-11.3422
weapon	-11.3429
airline	-11.3434
Mis	-11.3436
Former	-11.3437
Yorkshire	-11.3437
rush	-11.3439
nz	-11.3439
examination	-11.344
-4	-11.3443
angel	-11.3443
tab	-11.3443
charts	-11.3448
perspective	-11.3454
imperial	-11.3455
rebuilt	-11.3455
Ghana	-11.3455
terminus	-11.3455
flower	-11.3459
personality	-11.3461
rant	-11.3463
Than	-11.3463
NHL	-11.3463
remove	-11.3466
tram	-11.3466
Students	-11.3468
ids	-11.3468
01	-11.3471
athletes	-11.3473
protests	-11.3473
DJ	-11.3475
intellectual	-11.3476
advertising	-11.3476
violent	-11.3476
Fat	-11.348
supporters	-11.348
fitted	-11.348
diverse	-11.3481
establishing	-11.3485
rel	-11.3486
Net	-11.3488
shelter	-11.3497
belt	-11.3498
tension	-11.35
styles	-11.35
looked	-11.3507
cream	-11.3508
begun	-11.351
golf	-11.3514
Parish	-11.3516
legislative	-11.3518
peer	-11.3519
timber	-11.352
1861	-11.3522
1889	-11.3522
suitable	-11.3523
):	-11.3528
publicly	-11.3533
behalf	-11.3536
riding	-11.3539
Alice	-11.354
insurance	-11.354
GT	-11.354
Soccer	-11.354
Mitchell	-11.354
sugar	-11.3542
Soon	-11.3544
voters	-11.3545
Branch	-11.3548
ceased	-11.355
march	-11.355
implemented	-11.3551
Was	-11.3554
Anglo	-11.3555
Kas	-11.3555
numbered	-11.3557
animated	-11.3561
Blood	-11.3561
1987,	-11.3564
Neil	-11.3566
Box	-11.3569
finite	-11.3571
Syn	-11.3572
Bulgarian	-11.3574
affiliate	-11.3574
switch	-11.3574
1996.	-11.3578
belief	-11.3579
contribution	-11.3579
jury	-11.3581
dioces	-11.3582
escort	-11.3586
1888	-11.3587
snow	-11.3588
curve	-11.3588
Nigeria	-11.3591
Jess	-11.3594
channels	-11.3594
closing	-11.3596
Storm	-11.3597
quin	-11.3598
tons	-11.36
Leo	-11.3602
predecessor	-11.3604
recognised	-11.3609
encouraged	-11.3614
FL	-11.3619
narrative	-11.3625
Abbey	-11.3627
ninth	-11.3628
logy	-11.3628
Within	-11.3633
crossed	-11.3635
afterwards	-11.3636
rough	-11.3644
Michel	-11.3645
canal	-11.3646
Territory	-11.3647
credits	-11.3649
oppos	-11.365
Franco	-11.3651
Ari	-11.3654
parks	-11.3654
reveals	-11.3658
Small	-11.3659
mineral	-11.366
trend	-11.3662
verb	-11.3662
Rub	-11.3665
prove	-11.3666
abilities	-11.3667
ović	-11.3667
fundamental	-11.3668
FIFA	-11.3669
chemistry	-11.3669
centers	-11.3685
define	-11.3685
Ring	-11.3686
detailed	-11.3687
principle	-11.3689
signature	-11.369
merging	-11.3691
Luis	-11.3692
Zone	-11.3698
ON	-11.3707
telling	-11.3708
Hawaii	-11.371
1995.	-11.371
ico	-11.3711
cemetery	-11.3712
Academic	-11.3713
Alaska	-11.3713
Form	-11.3717
ui	-11.3718
1.5	-11.3722
Andre	-11.3723
displayed	-11.3726
Harrison	-11.3727
connecting	-11.373
ashi	-11.3733
clock	-11.3733
bri	-11.3733
Studio	-11.3734
clan	-11.3736
Lam	-11.3736
bench	-11.3739
giant	-11.374
130	-11.374
commented	-11.3742
apply	-11.3742
overseas	-11.3746
everyone	-11.3752
variant	-11.3756
marks	-11.3757
desert	-11.3758
infection	-11.3758
dismissed	-11.3761
(5	-11.3761
amongst	-11.3766
Gy	-11.3767
exists	-11.3774
acquisition	-11.3777
categories	-11.3777
inscription	-11.3778
Universal	-11.3778
DP	-11.3778
principles	-11.3778
partly	-11.3785
isch	-11.3788
inger	-11.3794
1986,	-11.3794
neo	-11.3795
aging	-11.3797
Sor	-11.3798
destination	-11.3799
Kara	-11.3802
$4	-11.3806
PM	-11.3808
FF	-11.3809
Moor	-11.381
hyper	-11.3816
patron	-11.3819
Punjab	-11.3821
Kl	-11.3823
emotional	-11.3824
1891	-11.3825
remote	-11.3825
implementation	-11.3826
â	-11.3827
illness	-11.3829
producers	-11.383
hav	-11.383
Schools	-11.3831
Mau	-11.3832
Latino	-11.3834
Gri	-11.3839
Kill	-11.3843
Hudson	-11.3843
brigade	-11.3843
Gabriel	-11.3844
cluster	-11.3846
Rangers	-11.3848
identify	-11.3848
Broadcasting	-11.385
ED	-11.3852
DE	-11.3854
sphere	-11.3857
Nation	-11.3858
iko	-11.3859
Record	-11.3862
smooth	-11.3864
Admiral	-11.3864
Ski	-11.3864
swimming	-11.3865
accessible	-11.3866
ault	-11.3867
Greater	-11.387
ranks	-11.3871
nica	-11.3874
Turner	-11.3875
Honours	-11.3875
Mam	-11.3879
farmers	-11.3881
meta	-11.3886
exposed	-11.3894
allies	-11.3894
tight	-11.3896
package	-11.39
ogu	-11.39
Lab	-11.39
logo	-11.39
1991.	-11.3902
pursue	-11.3902
Joan	-11.3903
fifteen	-11.3909
involves	-11.3911
advice	-11.3912
1887	-11.3913
1881	-11.3913
bun	-11.3915
Pot	-11.3916
opponents	-11.3918
Jose	-11.392
listen	-11.392
breast	-11.3921
Coach	-11.3924
resort	-11.3932
Delhi	-11.3933
laps	-11.3934
PhD	-11.3934
vertical	-11.3937
cargo	-11.3942
pull	-11.3945
sham	-11.3945
jail	-11.3948
Members	-11.395
locally	-11.3951
Buffalo	-11.3954
pressed	-11.3956
coup	-11.3956
Much	-11.3958
spaces	-11.3959
photography	-11.3961
steal	-11.3963
Hugh	-11.3964
servant	-11.3964
sleep	-11.3966
6-	-11.3968
tech	-11.3972
designation	-11.3975
1998.	-11.3977
Xi	-11.3979
Hat	-11.3979
relation	-11.398
bing	-11.3981
sponsor	-11.3983
Saudi	-11.3983
Throughout	-11.3983
lets	-11.3983
movies	-11.3984
Pala	-11.3991
assisted	-11.3993
borders	-11.3994
lut	-11.3995
manufacturer	-11.3995
sentenced	-11.3996
zero	-11.3998
Jerry	-11.4
1886	-11.4002
therapy	-11.4002
lid	-11.4005
Tag	-11.4006
05	-11.4007
faction	-11.4008
traded	-11.4011
Mother	-11.4017
sailed	-11.4017
Met	-11.4021
Technical	-11.4021
lowest	-11.4024
implement	-11.4026
IR	-11.4027
cock	-11.4028
Grove	-11.4031
chin	-11.4031
Lock	-11.4031
ç	-11.4038
indicate	-11.404
stones	-11.4041
supplies	-11.4043
isolated	-11.4043
submitted	-11.4043
statistics	-11.4044
kr	-11.4046
1878	-11.4048
MT	-11.4053
lateral	-11.4053
shin	-11.4056
baby	-11.4058
withdrew	-11.4059
kha	-11.4059
GM	-11.4064
Ground	-11.4064
Stevens	-11.4065
Caribbean	-11.4066
Jazz	-11.4067
Clinton	-11.4067
efficient	-11.4085
ongoing	-11.4086
vir	-11.4087
platforms	-11.4089
Results	-11.4089
partners	-11.4092
Leeds	-11.4093
Fil	-11.4095
Therefore	-11.41
pain	-11.4106
cies	-11.4108
inspiration	-11.411
Burg	-11.4114
Formula	-11.4115
engagement	-11.4115
idi	-11.4116
emphasis	-11.4133
comparison	-11.4133
Brisbane	-11.4133
videos	-11.4135
blad	-11.4135
dish	-11.4138
initiated	-11.4141
Mart	-11.4141
discussed	-11.4145
wearing	-11.4145
hundreds	-11.4147
3)	-11.415
Kun	-11.415
patterns	-11.4153
1864	-11.4155
occasion	-11.4155
thirteen	-11.4156
usage	-11.4157
mates	-11.4158
honorary	-11.4159
Barry	-11.4161
lus	-11.4162
hunting	-11.4169
Operations	-11.4169
miss	-11.4171
contribute	-11.4173
Schu	-11.4173
Alberta	-11.4174
Wel	-11.4175
Cuba	-11.4177
agree	-11.4179
EM	-11.4181
RAF	-11.4182
1862	-11.4182
1884	-11.4183
IF	-11.4188
mph	-11.4191
mur	-11.4193
anna	-11.4194
marking	-11.4197
09	-11.4197
mud	-11.4199
completing	-11.4201
settlers	-11.4203
Hur	-11.4207
closer	-11.4208
portrait	-11.4209
clearly	-11.4209
vary	-11.4214
HD	-11.422
prince	-11.4223
inaugural	-11.4224
dozen	-11.4227
asks	-11.4227
1871	-11.4228
beaten	-11.4238
mobil	-11.424
quet	-11.4245
demonstrated	-11.4245
possibility	-11.4247
drummer	-11.4248
Bro	-11.4251
1863	-11.4251
restricted	-11.4253
capita	-11.4253
distinction	-11.4255
arrangement	-11.4255
Aero	-11.4257
businessman	-11.4257
soldier	-11.4258
quest	-11.4265
VA	-11.4269
releases	-11.4271
Fir	-11.4275
thereafter	-11.4276
produces	-11.428
rz	-11.428
doubles	-11.4283
comb	-11.4284
Mars	-11.4284
locomotives	-11.4284
Faculty	-11.4293
vector	-11.4293
Norfolk	-11.4293
happy	-11.4294
Legacy	-11.4294
hawk	-11.4296
evolved	-11.4296
spell	-11.4296
themes	-11.4296
chu	-11.4297
Hen	-11.4298
ovich	-11.4301
Colombia	-11.4301
Salt	-11.4302
lk	-11.4305
Falls	-11.431
destroy	-11.4311
rip	-11.4316
ritual	-11.4316
banned	-11.4317
guilty	-11.4318
1882	-11.4319
Collins	-11.4319
crimes	-11.4324
Math	-11.4325
plastic	-11.4328
touring	-11.4331
defend	-11.4332
communications	-11.4333
Card	-11.4338
Alexandr	-11.4339
expensive	-11.4339
falling	-11.4339
earthquake	-11.434
Barcelona	-11.434
Coll	-11.4343
Micro	-11.4344
mechanism	-11.4348
brook	-11.435
EA	-11.4353
chan	-11.4356
175	-11.4356
SH	-11.4357
Oliver	-11.4359
USS	-11.4359
Assistant	-11.4362
Allied	-11.4362
Magic	-11.4363
extent	-11.4363
electrical	-11.4364
biological	-11.4365
moderate	-11.4369
migrated	-11.437
rem	-11.4376
highlight	-11.4377
discover	-11.4379
altitude	-11.4386
Jamaica	-11.4386
finger	-11.4387
Bul	-11.4389
Costa	-11.439
concerts	-11.4393
Bha	-11.4394
Indians	-11.4398
presentation	-11.4403
fame	-11.4403
relevant	-11.4409
collect	-11.4409
Conservation	-11.4409
flank	-11.4409
Anglican	-11.441
Stage	-11.4414
CM	-11.4416
roster	-11.4419
operator	-11.442
Luci	-11.4422
trace	-11.4422
discuss	-11.4425
kk	-11.4426
seeing	-11.443
Craig	-11.4433
charity	-11.4434
exclusively	-11.4438
Say	-11.4438
oul	-11.4438
1992.	-11.4439
Eugen	-11.444
suburb	-11.4443
detail	-11.4443
conversion	-11.4445
treaty	-11.4446
Chen	-11.4447
corps	-11.4448
civilian	-11.4448
coaching	-11.4452
universal	-11.4455
Survey	-11.4455
meat	-11.4456
McG	-11.4458
tanks	-11.4463
Gate	-11.4465
explore	-11.4467
wound	-11.4467
scar	-11.4469
Lions	-11.447
sheet	-11.447
lash	-11.4473
Crime	-11.4481
trials	-11.4481
Owen	-11.4486
tomb	-11.4489
smith	-11.449
Sat	-11.449
permit	-11.4494
lang	-11.4495
topics	-11.4501
Bot	-11.4502
structural	-11.4502
Circuit	-11.4502
wrestling	-11.4502
certified	-11.4503
Wh	-11.4505
Gau	-11.4506
prices	-11.4509
Democrat	-11.451
Fish	-11.451
delivery	-11.4514
playoffs	-11.4517
tender	-11.4518
Set	-11.4518
Carol	-11.4526
Symphony	-11.4526
Together	-11.4526
sixteen	-11.4528
4,000	-11.4528
Bag	-11.453
Cinema	-11.4531
ivity	-11.4532
negotiations	-11.4533
clothing	-11.4535
corresponding	-11.4536
Yang	-11.4538
cash	-11.4541
permission	-11.4542
affair	-11.4542
UP	-11.4542
collapse	-11.4542
kers	-11.4546
hil	-11.4546
judges	-11.4549
Catherine	-11.455
Munich	-11.4551
Future	-11.4551
ssel	-11.4553
lib	-11.4555
organic	-11.4559
nish	-11.4561
Sever	-11.4565
imo	-11.4565
Current	-11.4567
immigrants	-11.4569
Data	-11.457
assignment	-11.4573
monastery	-11.4573
Microsoft	-11.4573
Writing	-11.4574
dancer	-11.4574
mines	-11.4577
regulations	-11.4577
Those	-11.4578
oriented	-11.4578
focuses	-11.4583
Berg	-11.4586
Start	-11.4587
preferred	-11.4588
Sau	-11.459
doors	-11.4591
ndra	-11.4591
rocket	-11.4595
yi	-11.4595
graphic	-11.4595
custom	-11.4596
wen	-11.4596
fabric	-11.4597
pitcher	-11.4599
Chapel	-11.4601
sharing	-11.4601
GC	-11.4603
hence	-11.4606
Bert	-11.4607
residing	-11.4608
Fab	-11.4615
automatic	-11.462
algorithm	-11.462
Adelaide	-11.4621
aggregate	-11.4621
cattle	-11.4621
guy	-11.4622
attraction	-11.4624
conductor	-11.4624
grid	-11.4626
Snow	-11.4626
populations	-11.4627
Derby	-11.4627
adopt	-11.4631
volumes	-11.4633
download	-11.4636
traditions	-11.4638
lion	-11.4638
Byzantine	-11.4644
Lloyd	-11.4644
Archbishop	-11.4644
nap	-11.4645
eldest	-11.4645
Voice	-11.4648
Break	-11.4653
Gon	-11.4654
register	-11.4655
favorite	-11.4656
vas	-11.4657
phy	-11.4658
opponent	-11.4658
electricity	-11.4659
Album	-11.4661
wish	-11.4665
participating	-11.4668
nephew	-11.4668
Manuel	-11.4668
Climate	-11.4669
typ	-11.4672
rik	-11.4674
Furthermore	-11.4674
iel	-11.4687
winds	-11.469
migration	-11.469
Masters	-11.4691
neither	-11.4691
PL	-11.4692
Secret	-11.4692
funeral	-11.4693
Vincent	-11.4693
burial	-11.4693
AG	-11.4695
Lau	-11.4701
generate	-11.4701
lev	-11.4702
housed	-11.4703
horror	-11.4716
subsidiary	-11.4716
Dakota	-11.4717
Gill	-11.4718
Sher	-11.4718
receiver	-11.4718
fus	-11.4724
drums	-11.4725
photographer	-11.4725
Pul	-11.4728
Hai	-11.473
Brad	-11.473
breeding	-11.4731
settlements	-11.4733
Nas	-11.4734
promise	-11.4735
Southeast	-11.4738
Som	-11.474
resemble	-11.474
1–1	-11.474
enzyme	-11.4741
bombing	-11.4742
commitment	-11.4744
Pictures	-11.4751
wealthy	-11.4751
influences	-11.4753
rist	-11.4757
indicates	-11.4759
Sz	-11.476
ogen	-11.4761
Finally	-11.4761
describing	-11.4763
legislature	-11.4764
Policy	-11.4764
Jonathan	-11.4765
CT	-11.4765
originated	-11.4767
Ridge	-11.477
Christianity	-11.4773
mbo	-11.4775
distinguish	-11.4776
Fisher	-11.4777
tia	-11.4778
punk	-11.4778
Nord	-11.4779
drugs	-11.478
4)	-11.4783
augh	-11.4785
oak	-11.4785
crystal	-11.4787
tool	-11.4788
Nevada	-11.4788
Jefferson	-11.4789
Shir	-11.4789
cub	-11.4792
convicted	-11.4792
$5	-11.4794
Parker	-11.4796
Grace	-11.4797
fighters	-11.4798
devoted	-11.48
Germans	-11.4802
beating	-11.4803
machines	-11.4803
osa	-11.4804
discussion	-11.4806
Songs	-11.4807
congregation	-11.4813
dependent	-11.4813
Performance	-11.4813
Madison	-11.4814
receptor	-11.4814
random	-11.4816
decisions	-11.4817
1945,	-11.4817
teammate	-11.482
Marco	-11.4823
manage	-11.4825
drink	-11.4826
rarely	-11.4827
measurement	-11.4827
dec	-11.4828
decide	-11.4829
uti	-11.483
eggs	-11.4833
cricketer	-11.4833
ña	-11.4833
moves	-11.4836
Congo	-11.4836
witch	-11.4837
progressive	-11.4839
1883	-11.484
1866	-11.4842
gro	-11.4842
Ober	-11.4842
spor	-11.4842
Stars	-11.4847
Gang	-11.4848
bot	-11.4849
Recording	-11.4855
olo	-11.4855
iana	-11.4859
drum	-11.4859
boundaries	-11.4862
Nebraska	-11.4862
pump	-11.4863
cutting	-11.4864
rium	-11.4864
(15	-11.4867
lom	-11.4868
Democrats	-11.4873
Rhod	-11.4873
UC	-11.4876
pointed	-11.4881
Jak	-11.4881
neutral	-11.4885
identical	-11.4886
08	-11.4886
dangerous	-11.4886
Barbara	-11.4886
BL	-11.4887
rom	-11.4889
Sul	-11.4889
Formation	-11.489
engage	-11.4891
boot	-11.4891
Kn	-11.4892
1993.	-11.4894
Train	-11.4894
blow	-11.4896
Muslims	-11.4898
Shaw	-11.49
unsuccessful	-11.4901
Sag	-11.4902
grows	-11.4903
decrease	-11.4904
accommodate	-11.491
strange	-11.491
disaster	-11.491
Mobil	-11.4911
radar	-11.4913
PE	-11.4914
stamp	-11.4914
Get	-11.4918
LE	-11.4924
reviewed	-11.4925
dispute	-11.4928
circumstances	-11.4934
lian	-11.4935
Collection	-11.4935
Industry	-11.4935
alien	-11.4935
Borough	-11.4936
Hip	-11.494
pub	-11.4944
recruit	-11.4945
anyone	-11.4946
extensively	-11.4951
nearest	-11.4954
sequel	-11.4955
rack	-11.4956
Hebrew	-11.4959
requested	-11.4964
Pil	-11.4967
Newcastle	-11.4972
nci	-11.4976
regulation	-11.498
1–0	-11.498
Ara	-11.4986
Plain	-11.4987
Poly	-11.4989
oku	-11.499
wake	-11.4992
connections	-11.4994
uma	-11.4998
fic	-11.4999
Rabbi	-11.5001
itt	-11.5001
honors	-11.5002
Argentine	-11.5003
respective	-11.5004
coll	-11.5004
1989.	-11.5006
Palestinian	-11.5008
farming	-11.5009
kit	-11.5009
doesn	-11.5009
pond	-11.501
halt	-11.5011
ballot	-11.5012
quarterback	-11.5016
NI	-11.502
delayed	-11.5023
demo	-11.5028
quick	-11.5029
Mess	-11.5033
grain	-11.5033
limits	-11.5033
administrator	-11.5035
Species	-11.5035
deaths	-11.5038
raising	-11.5039
Om	-11.5043
Yan	-11.5046
Hum	-11.5049
possess	-11.505
renovation	-11.5058
Pradesh	-11.5058
Stuart	-11.5059
references	-11.5061
colors	-11.5063
nna	-11.5064
Guardian	-11.5064
1985,	-11.5066
monitor	-11.5067
lights	-11.5069
rec	-11.5069
provinces	-11.5077
proteins	-11.5077
argument	-11.5079
manufactured	-11.5083
Antarctic	-11.5083
Century	-11.5083
exposure	-11.5083
Finance	-11.5083
ador	-11.5083
carriage	-11.5083
enrolled	-11.5087
tissue	-11.5091
Fac	-11.5091
Harold	-11.5091
supports	-11.5096
gaining	-11.5097
supposed	-11.51
owed	-11.5101
hur	-11.5106
intervention	-11.5108
berry	-11.5108
Computer	-11.5108
Cri	-11.5108
interchange	-11.5109
prospect	-11.5109
expert	-11.511
sick	-11.5112
flew	-11.5114
Morning	-11.5115
raj	-11.5116
creator	-11.5116
placing	-11.5117
Athens	-11.5117
wider	-11.5121
Rou	-11.5122
vad	-11.5122
outdoor	-11.5124
consistent	-11.5126
temperatures	-11.5127
pper	-11.5131
victim	-11.5131
visits	-11.5132
retreat	-11.5134
;&	-11.5135
1867	-11.5137
BE	-11.514
decides	-11.514
activated	-11.5141
Kel	-11.5144
prefer	-11.5144
mask	-11.5147
iah	-11.5147
partial	-11.5148
Cold	-11.515
Wid	-11.5153
Mason	-11.5154
framework	-11.5156
helicopter	-11.5158
Provincial	-11.5158
enburg	-11.5158
Pedro	-11.5158
substance	-11.5158
Mala	-11.5159
Block	-11.5161
Herbert	-11.5162
settle	-11.5162
Years	-11.5163
Steven	-11.5166
-10	-11.5166
texts	-11.5167
1979,	-11.5171
productions	-11.5173
concerning	-11.5177
flights	-11.5177
parking	-11.518
usual	-11.5181
editions	-11.5184
Gilbert	-11.5185
Ep	-11.5187
Bang	-11.5188
pat	-11.5189
0.0	-11.519
2.5	-11.5191
Rag	-11.5192
unincorporated	-11.5193
wards	-11.5198
waste	-11.5201
Barb	-11.5203
incumbent	-11.5208
citing	-11.5211
lawsuit	-11.5212
minority	-11.5213
buses	-11.5218
apart	-11.5218
reward	-11.5223
Ell	-11.5224
Bobby	-11.5224
Phoenix	-11.5233
compiled	-11.5233
Systems	-11.5233
Sullivan	-11.5233
specialist	-11.5234
functional	-11.5236
1874	-11.5238
Legend	-11.5241
walking	-11.5242
Beat	-11.5246
outstanding	-11.5248
Industrial	-11.5249
boards	-11.5251
wich	-11.5253
oka	-11.5255
Rama	-11.5256
promoting	-11.5258
duction	-11.5259
summit	-11.526
repeated	-11.5262
1879	-11.5266
magic	-11.5267
Where	-11.5272
acres	-11.5274
Sr	-11.5278
apparent	-11.5278
introduce	-11.5279
Tigers	-11.528
keeper	-11.5283
chest	-11.5283
bachelor	-11.5284
Financial	-11.5284
depression	-11.5284
oxygen	-11.5285
Manager	-11.5286
Liu	-11.5288
pid	-11.5288
managing	-11.5289
org	-11.529
grandson	-11.5292
Marie	-11.5297
Saf	-11.53
polar	-11.5302
keyboard	-11.5303
(6	-11.5304
waiting	-11.5306
oh	-11.5309
Article	-11.531
bearing	-11.531
Celtic	-11.5311
forcing	-11.5311
deemed	-11.5312
Independence	-11.5315
1875	-11.5317
Maz	-11.5317
worker	-11.532
undergraduate	-11.5321
strict	-11.5322
DO	-11.5329
contributing	-11.5335
tourist	-11.5335
Beginning	-11.5336
legacy	-11.5336
Qa	-11.5338
Harbor	-11.5339
Johann	-11.5345
Tin	-11.5346
odi	-11.5357
valuable	-11.5361
Malay	-11.5361
Spirit	-11.5361
assessment	-11.5362
loaded	-11.537
ichi	-11.5375
Saints	-11.5376
cel	-11.5378
Fighter	-11.538
behaviour	-11.5386
ambassador	-11.5386
Amsterdam	-11.5386
Uganda	-11.5388
Fra	-11.5388
10-	-11.5389
Males	-11.539
pell	-11.5392
Kaz	-11.5399
milk	-11.54
manga	-11.54
praise	-11.5403
icon	-11.5404
hub	-11.5406
ifying	-11.5407
pitched	-11.5408
Put	-11.5408
fen	-11.5411
comprehensive	-11.5411
photographs	-11.5412
Florence	-11.5412
awareness	-11.5412
fail	-11.5413
Yale	-11.5413
iri	-11.5413
Sony	-11.5416
Transit	-11.5417
collaborated	-11.5418
adapt	-11.5427
sisters	-11.5429
vid	-11.5429
-20	-11.5429
Raja	-11.543
Based	-11.5431
nni	-11.5432
makers	-11.5437
lich	-11.5438
Syrian	-11.5439
1872	-11.5442
Minor	-11.5443
Currently	-11.5446
-12	-11.5448
Student	-11.5449
Perry	-11.5449
wrestler	-11.5451
Ig	-11.5451
traditionally	-11.5452
Croatia	-11.5452
Gran	-11.5452
Thor	-11.5457
columns	-11.5458
Lip	-11.5459
prepare	-11.5461
Robin	-11.5462
midfielder	-11.5464
Sheffield	-11.5464
Cincinnati	-11.5464
muscle	-11.5467
Chester	-11.5467
07	-11.5471
WR	-11.5471
Gan	-11.5472
omb	-11.5472
vocalist	-11.5472
Site	-11.5472
lens	-11.5477
Maj	-11.5481
economics	-11.5486
Obama	-11.549
Competition	-11.5491
Gui	-11.5492
battery	-11.5493
fourteen	-11.5493
las	-11.5493
transit	-11.5495
Secondary	-11.5495
Pri	-11.5496
warning	-11.5502
Gay	-11.5505
nav	-11.5505
thinking	-11.5509
decorated	-11.5515
enforcement	-11.5516
Protection	-11.5516
gallery	-11.5516
consist	-11.5516
Hamburg	-11.5517
difficulties	-11.5517
distinctive	-11.5518
Support	-11.5526
lick	-11.5528
DR	-11.5529
rotation	-11.553
specialized	-11.5531
basin	-11.5532
Sah	-11.5535
Bart	-11.5539
Players	-11.5539
cathedral	-11.5542
Murphy	-11.5542
Next	-11.5542
1986.	-11.5543
blind	-11.5545
Py	-11.5546
pad	-11.5546
Fun	-11.5548
elsewhere	-11.5548
cloud	-11.5551
gio	-11.5557
cooperation	-11.5558
fortune	-11.5559
Raw	-11.556
Bau	-11.5563
beauty	-11.5568
Wilhelm	-11.5568
calendar	-11.5568
Adventure	-11.5568
2.0	-11.5569
External	-11.5569
patri	-11.557
1980,	-11.5571
20,000	-11.5572
hab	-11.5572
1876	-11.5572
Ernest	-11.5572
Private	-11.5575
athlete	-11.5575
Croatian	-11.5579
transform	-11.5581
sul	-11.5581
defended	-11.5582
Jet	-11.5582
dot	-11.5583
sessions	-11.5585
rington	-11.5587
triple	-11.5587
trim	-11.5591
1975,	-11.5591
06	-11.5592
110	-11.5592
holder	-11.5593
facilitate	-11.5593
Campaign	-11.5594
nickname	-11.5595
irr	-11.5595
inducted	-11.5595
Essex	-11.5595
Alt	-11.5596
gauge	-11.5597
ör	-11.5597
archive	-11.5599
rapper	-11.5602
Too	-11.5602
householder	-11.5608
Lac	-11.561
sounds	-11.561
inherited	-11.562
symptoms	-11.562
Dennis	-11.562
Petersburg	-11.5621
counsel	-11.5622
elementary	-11.5622
revival	-11.5623
historically	-11.5623
Montana	-11.5624
periods	-11.5625
1877	-11.5625
restaurants	-11.5627
landed	-11.5629
ulation	-11.563
gathering	-11.563
Oil	-11.5631
sted	-11.5631
input	-11.5633
database	-11.5635
Hand	-11.5637
NH	-11.5637
Slav	-11.5638
gross	-11.5641
shall	-11.5642
101	-11.5642
Highland	-11.5642
Hughes	-11.5643
conversation	-11.5646
demonstration	-11.5646
drivers	-11.5646
bbl	-11.5653
burned	-11.5655
helps	-11.5656
binding	-11.5658
loved	-11.566
lau	-11.5663
advisor	-11.5664
grades	-11.5664
industries	-11.5673
Shanghai	-11.5673
rocks	-11.5674
Bear	-11.5676
campaigns	-11.5678
Grav	-11.5682
Environmental	-11.5683
bases	-11.5686
Interstate	-11.5686
assists	-11.5687
Sai	-11.5689
sim	-11.5691
reporting	-11.5692
Return	-11.5693
removal	-11.5699
temporarily	-11.5699
HA	-11.5708
Ian	-11.571
Albums	-11.571
1945.	-11.571
ked	-11.5711
approached	-11.5715
Origin	-11.572
DI	-11.572
Bet	-11.5722
slaves	-11.5723
pages	-11.5724
increases	-11.5725
Chair	-11.5725
attitude	-11.5725
Christians	-11.5726
valuation	-11.5726
Official	-11.5726
EL	-11.573
mainstream	-11.5732
Temp	-11.5734
ras	-11.5737
lent	-11.574
chrom	-11.5742
artwork	-11.5742
rud	-11.5742
documented	-11.5746
#1	-11.5746
recover	-11.5748
Holland	-11.5751
reaches	-11.5752
cavalry	-11.5752
shopping	-11.5753
Economy	-11.5753
push	-11.5755
saving	-11.5755
Kai	-11.5756
HP	-11.5757
citizen	-11.5758
pod	-11.5758
BR	-11.576
Jur	-11.5764
aspect	-11.5766
Wen	-11.5766
provider	-11.5768
RNA	-11.5768
ía	-11.577
Walk	-11.5775
corp	-11.5777
Abraham	-11.578
permitted	-11.578
prototype	-11.578
Twin	-11.5783
Bass	-11.5783
hai	-11.5785
tourism	-11.5787
Link	-11.5788
Kid	-11.579
paint	-11.5791
talks	-11.5792
saved	-11.5797
shops	-11.5798
Gla	-11.5798
looks	-11.5798
accurate	-11.5799
torial	-11.58
Napoleon	-11.5806
Rud	-11.5808
logic	-11.5809
prayer	-11.5809
topic	-11.581
Still	-11.5811
Bach	-11.5812
Delta	-11.5812
travelled	-11.5813
genes	-11.5816
failing	-11.5822
boarding	-11.5825
Mou	-11.5828
exact	-11.5828
violation	-11.5832
stead	-11.5833
supplied	-11.5833
graduation	-11.5833
shaw	-11.5835
trop	-11.5835
Bond	-11.5836
Monday	-11.5836
continental	-11.5839
Rey	-11.5842
manual	-11.5842
naming	-11.5842
Lil	-11.5842
bet	-11.5843
thanks	-11.5846
breed	-11.5851
Clo	-11.5851
Thunder	-11.5855
festivals	-11.5857
connects	-11.5859
TI	-11.5859
ministry	-11.586
retiring	-11.586
attendance	-11.5861
Rain	-11.5863
Panama	-11.5863
witness	-11.5864
zan	-11.5865
biology	-11.5866
oj	-11.5868
2/	-11.5869
oko	-11.587
characteristic	-11.5871
gard	-11.5876
internationally	-11.5879
virtual	-11.5879
continent	-11.588
-17	-11.5882
Musical	-11.5882
Eagles	-11.5885
academy	-11.5887
sitting	-11.5888
MG	-11.5896
Liv	-11.5896
tant	-11.5896
iano	-11.5896
Cau	-11.5897
coins	-11.5898
Arc	-11.5905
50%	-11.5909
Associate	-11.591
depend	-11.5913
1994.	-11.5913
diversity	-11.5913
familiar	-11.5913
adequate	-11.5913
shield	-11.5914
Hurricane	-11.5914
Delaware	-11.5914
Eventually	-11.5914
Thai	-11.5915
achi	-11.5915
stance	-11.5916
1990.	-11.5918
Leader	-11.5919
Mani	-11.5919
rises	-11.592
copper	-11.592
Abd	-11.5921
sweet	-11.5922
outcome	-11.5924
Devil	-11.5924
origins	-11.5925
Bulgaria	-11.5925
aceae	-11.5926
Hon	-11.5928
hunt	-11.5931
Sum	-11.5932
consideration	-11.5935
excellent	-11.594
amba	-11.5941
believes	-11.5942
Wallace	-11.5942
Methodist	-11.5943
Web	-11.5943
Any	-11.5943
queen	-11.5948
carries	-11.5949
examin	-11.595
locomotive	-11.5951
mature	-11.5953
feeling	-11.5956
Deep	-11.5957
Rogers	-11.5957
04	-11.5958
1976,	-11.5959
igan	-11.5959
hybrid	-11.5965
1988.	-11.5966
trio	-11.5967
reducing	-11.5967
acoustic	-11.5968
yama	-11.5968
Yugoslavia	-11.5969
Beau	-11.597
diplomatic	-11.5973
filming	-11.5975
rman	-11.5975
bonus	-11.5976
murdered	-11.5986
unlike	-11.5988
Cork	-11.5988
playoff	-11.5989
lav	-11.5992
wed	-11.5992
skill	-11.5994
indicating	-11.5994
Berkeley	-11.5995
psychology	-11.5995
Lebanon	-11.5995
inhabited	-11.5995
scorer	-11.5995
ports	-11.5997
Cul	-11.6
resist	-11.6003
sters	-11.6004
Neo	-11.6004
preserve	-11.6004
Giants	-11.6005
1978,	-11.6005
dimensional	-11.6006
mainland	-11.6009
payment	-11.6012
solve	-11.6013
Edwards	-11.6014
Pearl	-11.6016
Blanc	-11.6017
tours	-11.6021
Bud	-11.6022
tributary	-11.6023
Burk	-11.6023
simultaneously	-11.6023
Gru	-11.6025
Nine	-11.6027
Oblast	-11.6028
Rosa	-11.603
depicted	-11.6034
remix	-11.6035
1/	-11.6045
HC	-11.6045
aboard	-11.6047
ür	-11.605
consultant	-11.605
Primary	-11.6051
enko	-11.6054
125	-11.6057
Petr	-11.6058
challenges	-11.6062
Roberts	-11.6062
maps	-11.6063
cow	-11.6063
Andrea	-11.6069
LL	-11.6071
Guide	-11.6072
DF	-11.6076
arriving	-11.6077
Montgomery	-11.6077
Simpson	-11.6077
Cow	-11.6077
Location	-11.6079
firing	-11.6082
understood	-11.6085
Flight	-11.6086
Rai	-11.6088
danger	-11.6089
Armed	-11.6089
observation	-11.609
suspect	-11.6093
pens	-11.6093
switched	-11.6093
friendship	-11.6097
Crow	-11.6097
mistake	-11.6098
Blues	-11.6102
uki	-11.6102
historians	-11.6103
Sierra	-11.6105
Commercial	-11.6106
departed	-11.6106
EF	-11.6106
Friends	-11.6106
Productions	-11.6106
Movie	-11.611
1868	-11.611
Butler	-11.611
Pay	-11.6115
ibn	-11.6117
sung	-11.6119
Chas	-11.612
authored	-11.6125
1840	-11.6126
archaeological	-11.6132
1974,	-11.6132
torpedo	-11.6132
Eight	-11.6133
empty	-11.6134
hm	-11.6136
140	-11.6136
weigh	-11.6136
administered	-11.6138
proof	-11.6141
metric	-11.6141
Cop	-11.6141
latest	-11.6143
pushed	-11.6145
mall	-11.6148
enters	-11.6149
bowl	-11.6149
republic	-11.615
WB	-11.615
Cont	-11.6151
options	-11.6153
agi	-11.6153
tig	-11.6153
tenth	-11.6154
wy	-11.6158
descendants	-11.6159
Wellington	-11.616
sketch	-11.6161
1968,	-11.6161
dramatic	-11.6163
hook	-11.6169
resumed	-11.6171
monthly	-11.6172
una	-11.6174
Playing	-11.6176
pupils	-11.6179
Justin	-11.6185
raz	-11.6187
artificial	-11.6188
Number	-11.6188
Scho	-11.6189
FO	-11.6194
1830	-11.6195
Mario	-11.6198
1972,	-11.6204
variable	-11.6204
PI	-11.6207
pairs	-11.6208
PO	-11.6211
168	-11.6215
rebellion	-11.6215
consumption	-11.6216
Travel	-11.6216
Yellow	-11.6216
ask	-11.6217
fluid	-11.6219
plantation	-11.6219
pictures	-11.622
Larry	-11.6221
internet	-11.6222
uku	-11.6225
scientist	-11.6231
64,	-11.6231
import	-11.6235
mandate	-11.6235
extend	-11.6237
900	-11.6241
convinced	-11.6243
molecular	-11.6244
Audi	-11.6244
Ancient	-11.6244
IL	-11.6245
ERA	-11.6245
afternoon	-11.6245
freight	-11.6246
rai	-11.6246
GB	-11.6259
manuscript	-11.6259
compound	-11.626
Georgian	-11.6263
collective	-11.6265
fusion	-11.6265
Bog	-11.6266
Near	-11.6271
wreck	-11.6272
Cub	-11.6272
explains	-11.6272
SF	-11.6273
-5	-11.6273
resignation	-11.6273
tang	-11.6275
speaker	-11.628
1848	-11.628
unless	-11.6282
Magn	-11.6283
reforms	-11.6283
magazines	-11.6284
commenced	-11.6285
yang	-11.6285
bush	-11.6286
”.	-11.6289
TR	-11.6289
speakers	-11.629
MB	-11.6293
Wis	-11.6296
suspension	-11.63
Spencer	-11.63
MTV	-11.6302
Bah	-11.6304
diesel	-11.6306
cano	-11.6313
orange	-11.6315
relay	-11.6316
vor	-11.6318
interesting	-11.6318
riot	-11.6325
Intelligence	-11.6327
Auckland	-11.6328
Kerala	-11.6328
mixture	-11.6328
Episode	-11.6329
difficulty	-11.6329
posed	-11.6333
McK	-11.6335
anga	-11.6336
3–1	-11.6337
ān	-11.6338
1:	-11.6339
nominee	-11.6345
slip	-11.6346
crops	-11.6346
mun	-11.6346
Ng	-11.6348
Disc	-11.6348
boro	-11.635
Vall	-11.6351
Ottawa	-11.6356
discrimination	-11.6356
scandal	-11.6357
dissolved	-11.6357
configuration	-11.6358
Cruz	-11.6361
Titan	-11.6363
divide	-11.6363
Spi	-11.6365
consul	-11.6366
Reform	-11.6367
ruins	-11.6368
kara	-11.6369
1985.	-11.6372
fairly	-11.6373
slowly	-11.6374
disorder	-11.6374
Price	-11.6375
2–0	-11.6376
Sud	-11.6376
1973,	-11.6378
cord	-11.6379
escaped	-11.6379
03	-11.638
fed	-11.638
cab	-11.6382
Mini	-11.6384
specially	-11.6385
mega	-11.6388
hospitals	-11.6389
guests	-11.6391
awn	-11.6391
escu	-11.6393
Reich	-11.6393
AFL	-11.6393
44,	-11.6403
Sak	-11.6403
pulled	-11.6403
Java	-11.6409
animation	-11.641
pill	-11.641
worst	-11.6413
theatrical	-11.6414
Architecture	-11.6414
intense	-11.6418
Venice	-11.6419
liqu	-11.6425
attempting	-11.6427
interface	-11.6427
nominations	-11.6427
admit	-11.6429
stro	-11.6429
ologi	-11.6437
Wad	-11.6437
Commons	-11.6441
cylinder	-11.6441
LGBT	-11.6441
Stockholm	-11.6442
Nashville	-11.6442
ager	-11.6443
abolished	-11.6445
experiments	-11.6445
1873	-11.6446
Sudan	-11.6447
hung	-11.6448
venues	-11.6453
Vietnamese	-11.6455
sensor	-11.6458
Fol	-11.6461
CL	-11.6461
dealing	-11.6466
measured	-11.6468
circular	-11.647
Watson	-11.6471
realize	-11.6471
cartoon	-11.6472
announcement	-11.6472
Midland	-11.6474
6,000	-11.6474
stad	-11.6474
aims	-11.6475
Tun	-11.6479
governments	-11.6479
essentially	-11.6481
supplement	-11.6481
Oscar	-11.6484
Iv	-11.6488
procedure	-11.6489
Pas	-11.649
shock	-11.6491
crop	-11.6492
democratic	-11.6493
taxes	-11.6494
Swan	-11.6496
relegated	-11.6499
Politics	-11.65
Ahmad	-11.65
diseases	-11.65
traveling	-11.6502
editorial	-11.6502
NG	-11.6503
predict	-11.6503
umi	-11.6504
Comics	-11.6504
nen	-11.6505
shoulder	-11.6507
Lithuanian	-11.6511
wel	-11.6513
Lyon	-11.6515
Jen	-11.6517
knee	-11.6518
instruction	-11.6518
gardens	-11.6519
exclusive	-11.652
Mills	-11.6523
synthesis	-11.6528
Junction	-11.6528
Mara	-11.6528
snake	-11.6529
informed	-11.6529
Rank	-11.653
GS	-11.653
hua	-11.6531
massacre	-11.6534
Kom	-11.6534
ML	-11.6535
sack	-11.6537
electron	-11.6538
organisations	-11.6544
Mega	-11.6544
LC	-11.6545
exhibited	-11.6545
Yama	-11.6546
coffee	-11.6546
wai	-11.6548
belongs	-11.6549
Indonesian	-11.655
compar	-11.6551
Tab	-11.6552
Google	-11.6556
literally	-11.6556
refugees	-11.6558
Eagle	-11.6558
WS	-11.6561
1857	-11.6562
Prison	-11.6562
interviews	-11.6565
ril	-11.6571
decree	-11.6576
drove	-11.6578
Phillips	-11.6578
reverse	-11.6578
programmes	-11.6579
celebrate	-11.6584
ancy	-11.6584
WI	-11.6584
mutual	-11.6585
imprisoned	-11.6585
Bath	-11.6585
Ralph	-11.6585
Ahmed	-11.6585
consumer	-11.6586
attacking	-11.6587
Estate	-11.6588
argues	-11.6589
improvements	-11.659
choir	-11.6592
1983.	-11.6593
landmark	-11.6593
gul	-11.6593
1969,	-11.6594
ière	-11.6595
oda	-11.6599
lier	-11.6602
Golf	-11.6603
atom	-11.6603
ción	-11.6605
veteran	-11.6607
stability	-11.661
ordinary	-11.6614
predominantly	-11.6614
martial	-11.6614
Amazon	-11.6614
defect	-11.6616
Workers	-11.6619
1859	-11.6619
realized	-11.6622
Concert	-11.6623
abstract	-11.6625
Principal	-11.6626
crosses	-11.663
marsh	-11.6633
Laura	-11.6639
ratings	-11.664
depict	-11.6641
Cabinet	-11.6643
currency	-11.6643
Roosevelt	-11.6643
criteria	-11.6643
enterprise	-11.6643
Aviation	-11.6645
authorized	-11.6648
1964,	-11.6648
coaches	-11.6649
Kumar	-11.6649
Romanized	-11.6649
pun	-11.6651
rows	-11.6656
CDP	-11.6656
Albanian	-11.6657
Ib	-11.666
Deb	-11.6661
1971,	-11.6662
zhou	-11.6662
Hom	-11.6663
Metal	-11.6665
tire	-11.6666
golden	-11.6666
sad	-11.6666
1943,	-11.6668
occupy	-11.6672
ographic	-11.6673
Right	-11.6674
Vermont	-11.6674
Arnold	-11.6674
Marvel	-11.6678
perceived	-11.6679
lem	-11.668
1984.	-11.6684
Theodor	-11.6684
1970,	-11.6689
namely	-11.669
feelings	-11.6691
Room	-11.6691
Wells	-11.6692
chip	-11.6693
5)	-11.6696
restrictions	-11.6697
Devon	-11.6702
judicial	-11.6702
Elector	-11.6702
universe	-11.6702
Grammy	-11.6702
saint	-11.6706
seem	-11.6706
Pod	-11.6708
bout	-11.6712
teach	-11.6713
knight	-11.672
iden	-11.6723
1800	-11.6727
Mut	-11.6727
Fen	-11.6728
militia	-11.6731
laboratory	-11.6731
cook	-11.6731
costume	-11.6734
Terry	-11.6734
Tommy	-11.6736
volunteers	-11.6736
ced	-11.6737
theories	-11.6738
1987.	-11.6743
Iraqi	-11.6744
birthday	-11.6745
coached	-11.6754
Finals	-11.6755
1982.	-11.6756
camps	-11.6757
Palestine	-11.676
Literature	-11.676
Prefecture	-11.676
Original	-11.6761
Featur	-11.6761
Stanford	-11.6761
approaches	-11.6763
Eddie	-11.6763
filter	-11.6764
shadow	-11.6764
printing	-11.6766
arena	-11.6767
discharge	-11.6773
prey	-11.6775
Sox	-11.6776
gall	-11.6777
Lucas	-11.6778
recalled	-11.6782
Direct	-11.6784
Pakistani	-11.6785
proportion	-11.6787
Palmer	-11.6788
separation	-11.6789
Ambassador	-11.679
Newton	-11.6792
hills	-11.6798
bha	-11.68
thal	-11.6802
8,000	-11.6808
fortress	-11.6808
Shak	-11.681
rebel	-11.6813
Rhine	-11.6817
achievement	-11.6817
extinct	-11.6817
bomber	-11.6817
Wool	-11.6818
atmosphere	-11.6819
telephone	-11.682
Statistics	-11.682
interaction	-11.6822
empire	-11.6822
rink	-11.6822
View	-11.6825
comprises	-11.683
Course	-11.6834
dollars	-11.6835
lakes	-11.6836
12-	-11.6837
ania	-11.6837
doctorate	-11.6837
carp	-11.6843
lease	-11.6843
FR	-11.6847
improvement	-11.6848
metropolitan	-11.6849
integration	-11.6849
Cameron	-11.6849
Adult	-11.6849
Keith	-11.685
spots	-11.6851
Guild	-11.6852
cruiser	-11.6852
mentor	-11.6852
shirt	-11.6853
Esp	-11.6854
Triple	-11.6854
ovi	-11.6856
Franz	-11.6858
Wir	-11.6859
NL	-11.6859
borg	-11.6875
steep	-11.6875
105	-11.6878
certificate	-11.6879
André	-11.688
immigration	-11.6881
snail	-11.6882
1869	-11.6884
terrorist	-11.6885
sciences	-11.6885
maintaining	-11.6885
touchdowns	-11.6888
Nil	-11.6889
Institution	-11.6894
cious	-11.6894
extending	-11.6896
Peak	-11.6898
boss	-11.6901
Know	-11.6903
Gur	-11.6904
1940,	-11.6905
Representative	-11.6905
forty	-11.6906
Higher	-11.6906
drill	-11.6907
investigate	-11.6908
Boulevard	-11.6909
Solomon	-11.6909
Nevertheless	-11.691
Denver	-11.6911
Ted	-11.6913
Revolutionary	-11.6914
Pir	-11.6917
exhibitions	-11.6917
interpret	-11.6917
Letter	-11.6918
Roch	-11.692
hay	-11.692
recruited	-11.6924
wore	-11.6927
Northwest	-11.6931
bou	-11.6931
aware	-11.6933
Vir	-11.6934
moon	-11.6937
colonies	-11.6939
clerk	-11.6939
Electronic	-11.6939
Brunswick	-11.6939
Diamond	-11.6939
corruption	-11.6939
biography	-11.6941
Corn	-11.6941
lug	-11.6942
rational	-11.6944
ingen	-11.6947
Indies	-11.6947
gathered	-11.6947
utter	-11.695
dé	-11.6951
worthy	-11.6954
succession	-11.6956
hib	-11.6961
wei	-11.6962
gna	-11.6963
technologies	-11.6968
surprise	-11.6968
Shadow	-11.6969
Volunteer	-11.6969
contributor	-11.6969
Sang	-11.6969
radiation	-11.6971
Joint	-11.6971
XI	-11.6972
exactly	-11.6976
HF	-11.6978
Pack	-11.6981
Lyn	-11.6981
Ellis	-11.6982
Et	-11.6984
Venezuela	-11.6985
Tyr	-11.6991
photograph	-11.6992
1977,	-11.6993
Bala	-11.6996
adh	-11.6997
victories	-11.6998
kilometers	-11.6999
sensitive	-11.6999
Maurice	-11.7001
Falcon	-11.7002
senator	-11.7004
Animal	-11.7004
Legal	-11.7006
manufacture	-11.7006
crypt	-11.7007
commit	-11.7007
Drama	-11.701
Leg	-11.7011
gem	-11.7011
asking	-11.7013
portray	-11.7013
pig	-11.7027
Source	-11.7028
convince	-11.7028
variants	-11.7029
Campus	-11.703
OP	-11.703
explain	-11.7031
slot	-11.7031
renowned	-11.7032
Foot	-11.7033
Oc	-11.7033
tournaments	-11.7036
bike	-11.7036
Vegas	-11.7036
Dominican	-11.704
addressed	-11.704
smoke	-11.7041
apo	-11.7042
Bosnia	-11.7046
entity	-11.7049
leagues	-11.7052
Wer	-11.7053
employer	-11.7057
ffer	-11.7058
destroyer	-11.7058
rhythm	-11.706
Gregory	-11.706
Lion	-11.706
specified	-11.7063
Overview	-11.7063
psycho	-11.7064
hurst	-11.7064
hardware	-11.7066
Sham	-11.7066
quiet	-11.7072
geo	-11.7074
shipping	-11.7075
flies	-11.7075
Arg	-11.7075
colleagues	-11.7075
Zh	-11.7078
Artist	-11.708
fault	-11.708
Arabia	-11.7082
extract	-11.7085
underwent	-11.7088
entrepreneur	-11.7088
athletic	-11.7089
feat	-11.709
http	-11.7091
Annual	-11.7091
zel	-11.7092
receives	-11.7092
fiber	-11.7093
Tau	-11.7093
1854	-11.7095
hull	-11.7096
1847	-11.7097
Cent	-11.7105
oxide	-11.7106
Vil	-11.7109
rup	-11.7109
fri	-11.711
Warsaw	-11.7111
ilo	-11.7113
rab	-11.7117
Talk	-11.7117
ota	-11.7118
ads	-11.712
sacrifice	-11.712
Commerce	-11.712
Exhibition	-11.712
Jacques	-11.7121
Bennett	-11.7122
summary	-11.7122
://	-11.7122
ND	-11.7124
Exp	-11.7125
taste	-11.7126
(7	-11.7127
updated	-11.7128
routine	-11.7129
followers	-11.7129
Marl	-11.7131
ferry	-11.7132
hart	-11.7135
Nag	-11.7136
Rap	-11.7137
Cru	-11.714
Fourth	-11.7141
sale	-11.7144
scores	-11.7145
ovsky	-11.7151
portions	-11.7151
conquest	-11.7153
linguistic	-11.7153
iers	-11.7153
Oakland	-11.7156
aviation	-11.7157
Reed	-11.7167
chase	-11.7168
actively	-11.7171
exploit	-11.7177
backed	-11.7179
Cad	-11.7179
companion	-11.7181
fantasy	-11.7181
dancing	-11.7181
disbanded	-11.7182
Twenty	-11.7182
Wonder	-11.7182
variation	-11.7184
(8	-11.7186
Stefan	-11.7189
Grim	-11.7191
Turn	-11.7191
valve	-11.7192
sustained	-11.7192
lai	-11.7195
pulse	-11.7195
Abdul	-11.7196
Queens	-11.7199
HMS	-11.7201
runners	-11.7202
Parti	-11.7208
refuge	-11.721
innovation	-11.7212
revised	-11.7212
fifty	-11.7212
Deutsch	-11.7212
Quarter	-11.7213
Elementary	-11.7213
enhance	-11.7213
Kit	-11.7213
seemed	-11.7213
transaction	-11.7213
phi	-11.7214
hydrogen	-11.7214
Serv	-11.7217
challenged	-11.7219
1974.	-11.722
VII	-11.7222
Sweet	-11.7224
Blake	-11.7225
footage	-11.7225
afford	-11.7226
-16	-11.7226
Jin	-11.7227
displays	-11.7237
runway	-11.7239
polis	-11.7242
Doug	-11.7242
barrier	-11.7243
Renaissance	-11.7243
Revival	-11.7243
casualties	-11.7243
dubbed	-11.7243
elevated	-11.7243
Hitler	-11.7244
fulfill	-11.7244
Population	-11.7245
situations	-11.7245
Watch	-11.7246
otic	-11.725
Exchange	-11.725
genera	-11.7252
handling	-11.7252
"[	-11.7256
Pos	-11.7256
repeat	-11.7263
TO	-11.7264
hamlet	-11.7265
Chal	-11.7265
ggi	-11.7266
statements	-11.7268
duk	-11.727
loyal	-11.7273
registration	-11.7274
protagonist	-11.7274
Citizen	-11.7274
Broad	-11.7275
Outstanding	-11.7276
ket	-11.7278
Clair	-11.7286
ño	-11.7287
lé	-11.7288
1967,	-11.729
layout	-11.7291
transformed	-11.7292
169	-11.7294
assert	-11.7302
fewer	-11.7302
pregnant	-11.7305
threw	-11.7305
Contemporary	-11.7307
files	-11.7308
focusing	-11.7308
Carri	-11.7308
banking	-11.731
seeds	-11.731
recovery	-11.7316
().	-11.7317
revolutionary	-11.7317
plates	-11.7318
Corp	-11.732
GE	-11.7323
Tol	-11.7323
thesis	-11.7326
shifted	-11.7328
Hil	-11.733
Wars	-11.7331
broadcasts	-11.7333
Wol	-11.7334
anza	-11.7334
amounts	-11.7335
dialogue	-11.7336
Milwaukee	-11.7336
bottle	-11.7336
Edmund	-11.7337
shaft	-11.7338
nationalist	-11.7338
Aaron	-11.7341
grants	-11.7341
Total	-11.7347
hypo	-11.7353
Multi	-11.7355
bic	-11.7355
faces	-11.7356
Hus	-11.7356
Dum	-11.7358
holders	-11.7362
stored	-11.7366
doctrine	-11.7367
aggressive	-11.7367
voyage	-11.7367
pala	-11.7368
goalkeeper	-11.7368
poison	-11.7369
Bak	-11.737
Perth	-11.7372
Gab	-11.7372
MR	-11.7372
elaborate	-11.7373
tty	-11.7374
pink	-11.7376
robot	-11.7377
ido	-11.7377
imposed	-11.7378
neighboring	-11.7379
enabled	-11.7381
Tong	-11.7381
165	-11.7383
classroom	-11.7384
bridges	-11.7385
axis	-11.7395
analog	-11.7398
philosopher	-11.7398
referendum	-11.7399
Artillery	-11.7399
minimal	-11.74
TH	-11.7404
Election	-11.7405
indoor	-11.7405
oxy	-11.7406
transformation	-11.7408
alive	-11.7409
Charter	-11.7412
leak	-11.7412
Besides	-11.7413
wyn	-11.7414
Krist	-11.7416
contracts	-11.742
uda	-11.742
Otto	-11.7422
compositions	-11.743
garrison	-11.743
literacy	-11.743
Circle	-11.7431
Alternative	-11.7431
Kos	-11.7432
boom	-11.7433
Baby	-11.7433
ensu	-11.7443
chord	-11.7445
Shore	-11.7446
Cham	-11.7446
storyline	-11.7446
mber	-11.7448
fix	-11.7449
Economics	-11.7449
exceed	-11.7449
Bac	-11.7452
mous	-11.7453
Ages	-11.7454
gno	-11.7455
radi	-11.7458
trait	-11.7462
Vladimir	-11.7462
Isaac	-11.7463
aesthetic	-11.7463
mosque	-11.7464
larva	-11.7464
hidden	-11.7464
ucci	-11.7464
Gothic	-11.747
Lav	-11.7472
assembled	-11.7472
Left	-11.7474
segments	-11.7476
itude	-11.7482
interact	-11.7484
reflected	-11.7488
pray	-11.749
hap	-11.749
nano	-11.7492
Poll	-11.7492
ibility	-11.7493
democracy	-11.7493
reservoir	-11.7494
Friedrich	-11.7494
renewed	-11.7494
Heaven	-11.7495
Columbus	-11.7495
divorce	-11.7495
Bloom	-11.7497
hik	-11.7501
NASA	-11.7502
dio	-11.7504
Mull	-11.7506
Stein	-11.751
Oh	-11.7511
collector	-11.7515
bullet	-11.7515
Moh	-11.7516
magnetic	-11.7517
fallen	-11.7521
bath	-11.7524
Shakespeare	-11.7525
ensemble	-11.7525
explanation	-11.7525
Filipino	-11.7526
Machine	-11.753
Editor	-11.7531
1858	-11.7531
signals	-11.7532
Cardinal	-11.7532
impossible	-11.7534
kills	-11.7537
2000)	-11.7537
prevented	-11.7542
cott	-11.7544
Julian	-11.7545
pha	-11.7545
osi	-11.755
monarch	-11.755
Him	-11.7551
eventual	-11.7552
Flying	-11.7553
liner	-11.7555
François	-11.7557
ides	-11.7557
exterior	-11.7557
Liberty	-11.7558
Legion	-11.756
thermal	-11.7561
ruler	-11.7562
Wildlife	-11.7563
worse	-11.7564
governing	-11.7564
Ill	-11.7567
procedures	-11.7567
favourite	-11.7568
finalist	-11.7569
HR	-11.7571
passion	-11.7574
1993)	-11.7576
psi	-11.7577
Philipp	-11.7578
drinking	-11.7578
odor	-11.758
writings	-11.7584
Cuban	-11.7584
Presbyterian	-11.7589
Cardiff	-11.7589
waves	-11.759
Rolling	-11.7591
Herald	-11.7591
Pitt	-11.7592
Todd	-11.7592
Mé	-11.7592
bias	-11.7592
lud	-11.7593
AV	-11.7593
167	-11.7596
Denis	-11.7597
Amb	-11.7598
infant	-11.76
Single	-11.7602
vari	-11.7603
Weekly	-11.7605
lasting	-11.7606
ivo	-11.7611
ñ	-11.7614
Forum	-11.7617
closest	-11.7618
departments	-11.7618
Tax	-11.7618
Lost	-11.762
statistical	-11.7621
explosion	-11.7621
efficiency	-11.7621
cycling	-11.7621
caps	-11.7621
demands	-11.7621
invented	-11.7621
modification	-11.7622
cular	-11.7623
Gol	-11.7626
studios	-11.7632
exam	-11.7633
nian	-11.7634
bears	-11.7634
relating	-11.7637
discontinued	-11.7641
commissioner	-11.7641
Gul	-11.7644
Nur	-11.7647
mmer	-11.7648
nay	-11.7651
assume	-11.7652
Raymond	-11.7654
vag	-11.7655
barrel	-11.7656
nova	-11.7656
abandon	-11.7658
methyl	-11.7658
1992)	-11.7659
Present	-11.7661
suffer	-11.7661
solutions	-11.7664
clay	-11.7666
ulf	-11.7669
jam	-11.767
Rig	-11.7671
logist	-11.7672
Apollo	-11.7672
Pic	-11.7673
VC	-11.7677
imi	-11.7678
1979.	-11.7678
branded	-11.7679
nau	-11.7679
1966,	-11.768
lifetime	-11.768
upgrade	-11.768
mutation	-11.7681
uru	-11.7681
_3	-11.7682
mak	-11.7682
complement	-11.7685
collegiate	-11.7685
matrix	-11.7685
mirror	-11.7686
automobile	-11.7686
dol	-11.7686
Zimbabwe	-11.7686
slavery	-11.7688
casting	-11.7691
yar	-11.7694
allegedly	-11.7696
nj	-11.7698
targets	-11.7698
arrive	-11.7698
clips	-11.7699
Cir	-11.7702
Reading	-11.7702
3.5	-11.7704
cil	-11.7705
surrender	-11.7705
array	-11.7708
duration	-11.7709
mount	-11.7712
diet	-11.7712
1999)	-11.7714
cid	-11.7714
Scotia	-11.7718
Scientific	-11.7718
streak	-11.7719
silent	-11.772
fal	-11.772
edges	-11.7721
Actor	-11.7722
vital	-11.7723
Finn	-11.7725
2:	-11.7726
owing	-11.7729
BCE	-11.773
varied	-11.773
extends	-11.7733
Fern	-11.7736
server	-11.7737
Kla	-11.7738
permanently	-11.7739
cry	-11.774
Cavalry	-11.775
Chancellor	-11.775
compact	-11.7751
Edition	-11.7751
10%	-11.7754
1996)	-11.7754
Marg	-11.7756
1856	-11.7756
ssen	-11.7758
shots	-11.7758
1855	-11.776
kai	-11.7769
vu	-11.7772
profession	-11.7778
upcoming	-11.7779
hydr	-11.778
noise	-11.778
cultures	-11.7782
membrane	-11.7783
demonstrate	-11.7785
detect	-11.7785
PT	-11.7786
Ah	-11.7786
battles	-11.7787
..."	-11.7788
mari	-11.7789
shrine	-11.7791
theorem	-11.7797
comment	-11.7801
utiliz	-11.7804
parade	-11.7804
altered	-11.7805
indeed	-11.7808
comments	-11.7809
lance	-11.781
prestigious	-11.7815
obvious	-11.7815
intermediate	-11.7815
Enterprise	-11.7816
Sussex	-11.7816
particles	-11.7816
decoration	-11.7816
facade	-11.7816
Pav	-11.7816
30,000	-11.7817
deposit	-11.7818
acquire	-11.7818
specializ	-11.7819
adjust	-11.782
1853	-11.7821
TT	-11.7823
Schw	-11.7826
Raven	-11.7827
Fly	-11.7835
concepts	-11.7838
Vid	-11.7841
oxi	-11.7844
Acc	-11.7848
allegations	-11.7848
Safety	-11.7849
incorporate	-11.785
Ox	-11.7851
Mind	-11.7852
drom	-11.7853
fastest	-11.7853
mili	-11.7853
chor	-11.7854
zoo	-11.7857
crack	-11.7857
KO	-11.7857
(9	-11.7859
admission	-11.786
Rab	-11.7865
immer	-11.7871
Nic	-11.7875
Khal	-11.7879
Ou	-11.7879
amendment	-11.7881
Ferdinand	-11.7881
Chapter	-11.7883
impressed	-11.7883
concentrated	-11.789
struct	-11.7892
Bil	-11.7894
prisoner	-11.7897
holes	-11.7901
owski	-11.7904
lecturer	-11.7908
rius	-11.7908
Bryan	-11.7908
bulk	-11.7912
ensur	-11.7914
borrow	-11.7914
FBI	-11.7914
Mumbai	-11.7914
Harvey	-11.7915
Heath	-11.7915
affirm	-11.7917
experts	-11.7917
enlisted	-11.7921
cuts	-11.7922
Alpha	-11.7923
sbury	-11.7923
ckle	-11.7926
requirement	-11.7928
EN	-11.793
breaks	-11.7931
onym	-11.7931
uga	-11.7932
Edge	-11.7933
blog	-11.7934
seriously	-11.7935
Rec	-11.7937
posts	-11.7937
Saxon	-11.7939
Natal	-11.7942
bread	-11.7942
comprising	-11.7946
Twitter	-11.7947
enemies	-11.7947
preliminary	-11.7947
Gustav	-11.7948
guidance	-11.7948
Ronald	-11.7948
onwards	-11.7949
Fau	-11.795
"|	-11.7954
conducting	-11.7955
Flag	-11.7956
tique	-11.7957
Fig	-11.7958
posit	-11.7958
Pyr	-11.7959
colleges	-11.7963
illustrated	-11.7963
independently	-11.7964
lyn	-11.7968
Cut	-11.7971
Jac	-11.7974
Serie	-11.7979
chant	-11.7979
striking	-11.798
identification	-11.798
authentic	-11.798
cellular	-11.7981
distant	-11.7982
Foster	-11.7983
nationwide	-11.7983
Paulo	-11.7995
suspected	-11.7995
reserves	-11.7997
clinic	-11.7997
promised	-11.7997
Ard	-11.7999
1978.	-11.8
Expedition	-11.8004
Canton	-11.8011
theoretical	-11.8014
hurricane	-11.8014
belong	-11.8014
rebounds	-11.8014
Chronicle	-11.8017
Rib	-11.8017
beliefs	-11.8017
commentator	-11.802
graphics	-11.8022
Manila	-11.8022
Fuji	-11.8023
Blo	-11.8027
Ruth	-11.8031
breath	-11.8033
mitt	-11.8036
Railways	-11.8036
Hir	-11.8038
samples	-11.8038
02	-11.8045
faster	-11.8046
entertain	-11.8046
secular	-11.8047
Popular	-11.8048
1.0	-11.8049
Newport	-11.8051
Viking	-11.8052
Crystal	-11.8053
Ghost	-11.8054
provisions	-11.8054
allied	-11.8054
scout	-11.8056
seed	-11.8056
repeatedly	-11.8056
Gardens	-11.8057
freestyle	-11.806
honored	-11.8063
Rum	-11.8063
Path	-11.8064
Stad	-11.8064
manages	-11.8067
1997)	-11.8069
Days	-11.807
arrives	-11.8072
108	-11.8076
dorf	-11.8076
associations	-11.8079
bold	-11.808
convoy	-11.8081
Uruguay	-11.8081
Hour	-11.8083
rainfall	-11.8083
OT	-11.8084
Pers	-11.8084
Um	-11.8085
Flower	-11.8087
trophy	-11.8088
Word	-11.8089
Def	-11.8093
20%	-11.8095
Double	-11.8097
politicians	-11.81
Sig	-11.8101
dron	-11.8111
lur	-11.8112
potentially	-11.8112
Moreover	-11.8112
100,000	-11.8113
Hau	-11.8114
gable	-11.8114
Monument	-11.8115
Nikola	-11.8116
Yi	-11.8116
punishment	-11.8117
SV	-11.8117
proceed	-11.8119
succeed	-11.812
1851	-11.812
Cox	-11.8125
activists	-11.8127
lady	-11.8128
interpreted	-11.8128
endo	-11.8131
nagar	-11.8132
romance	-11.8134
cotton	-11.8135
reveal	-11.8136
readers	-11.8142
1,0	-11.8144
findings	-11.8145
psychological	-11.8148
replica	-11.8148
algebra	-11.8148
instructor	-11.8148
exhaust	-11.8148
Agriculture	-11.8149
ordained	-11.8149
Found	-11.8149
Amy	-11.815
riv	-11.8154
Rapid	-11.8155
glob	-11.8158
HIV	-11.8165
luck	-11.8173
Xu	-11.8175
sir	-11.8175
denomination	-11.8177
confidence	-11.8182
1973.	-11.8182
threats	-11.8183
Valentin	-11.8183
lex	-11.8185
stolen	-11.8188
Pier	-11.8189
igu	-11.819
counted	-11.8193
Lamb	-11.8193
Arn	-11.8195
iac	-11.8203
priests	-11.8204
Hit	-11.8204
tasks	-11.8208
topped	-11.8209
yam	-11.8209
bacteria	-11.821
notion	-11.8212
demanded	-11.8212
pus	-11.8214
travels	-11.8216
delegation	-11.8216
ás	-11.8216
Morocco	-11.8217
Individual	-11.8217
Prague	-11.8218
voiced	-11.8218
1995)	-11.822
travelling	-11.822
Hag	-11.822
accus	-11.8221
intern	-11.8221
comfort	-11.8225
1849	-11.8225
reinforce	-11.8226
mani	-11.8227
Female	-11.8231
thereby	-11.8232
Knights	-11.8237
encountered	-11.8238
chel	-11.8238
discovers	-11.8238
dogs	-11.8239
Qing	-11.8241
clad	-11.8244
BO	-11.8244
teeth	-11.8244
guards	-11.8249
xo	-11.8249
releasing	-11.825
harvest	-11.8252
Durham	-11.8252
Holl	-11.8255
1846	-11.8258
grove	-11.8258
successive	-11.826
Kab	-11.8262
journalists	-11.8263
hind	-11.8264
processor	-11.8269
civilians	-11.827
Hann	-11.827
mpton	-11.8272
3.0	-11.8273
Wak	-11.8275
rash	-11.8283
Powell	-11.8283
circulation	-11.8285
Maur	-11.8285
syndrome	-11.8285
bru	-11.8285
Personnel	-11.8286
Somali	-11.8287
bourn	-11.8287
1987)	-11.8288
constitute	-11.8289
Lead	-11.829
suddenly	-11.8291
putting	-11.8293
osaur	-11.8293
loc	-11.8295
dealer	-11.8297
restore	-11.8298
Connor	-11.8299
nationally	-11.8299
Match	-11.8301
Cos	-11.8303
static	-11.8303
sustain	-11.8304
Jal	-11.8305
Kot	-11.8308
öl	-11.8309
yev	-11.831
shorter	-11.8312
1971.	-11.8314
improving	-11.8319
Indianapolis	-11.8319
1989)	-11.8319
dil	-11.8321
carved	-11.8322
reserved	-11.8324
Vari	-11.8326
varies	-11.8326
1852	-11.8327
eagle	-11.8328
Bros	-11.8328
filmmaker	-11.8329
doctoral	-11.8329
plo	-11.8331
106	-11.8333
dur	-11.8333
anime	-11.8334
Notes	-11.8338
Lak	-11.834
1991)	-11.834
Curtis	-11.8341
colours	-11.8341
Raz	-11.8342
lecture	-11.8345
expanding	-11.8346
ministers	-11.8349
backing	-11.8352
cles	-11.8353
mathematical	-11.8353
fraud	-11.8355
Heights	-11.8355
conjunction	-11.8356
Agreement	-11.8356
Credit	-11.8364
Bueno	-11.8364
laugh	-11.8365
OL	-11.8366
Lisa	-11.8367
AFC	-11.8367
resource	-11.8368
NSW	-11.8369
Advanced	-11.8372
client	-11.8375
Lay	-11.8379
hitting	-11.8379
zzo	-11.8387
exploration	-11.8388
Gospel	-11.8388
Cyprus	-11.8388
boost	-11.8389
Progressive	-11.839
reviewer	-11.8392
Swa	-11.8393
colored	-11.8394
Mack	-11.8395
atus	-11.8398
dict	-11.8401
Glass	-11.8402
doctors	-11.8406
ural	-11.8408
Tap	-11.8408
Environment	-11.841
maintains	-11.8411
Contest	-11.8412
essay	-11.8414
hail	-11.8417
intent	-11.8417
inches	-11.8421
variations	-11.8422
territorial	-11.8422
quantum	-11.8423
consensus	-11.8423
counterpart	-11.8423
tai	-11.8426
journalism	-11.8426
sheep	-11.8427
1961,	-11.8427
Dub	-11.8429
frog	-11.8429
Malta	-11.8432
Institut	-11.8432
Pel	-11.8437
nac	-11.8438
Fitz	-11.8438
Traditional	-11.8439
Clay	-11.844
pyr	-11.8441
burning	-11.8448
Without	-11.8453
Speed	-11.8453
Og	-11.8453
1998)	-11.8455
1994)	-11.8456
Idaho	-11.8458
Tennis	-11.8458
headquartered	-11.8458
airfield	-11.8458
torture	-11.8458
farmer	-11.8459
Olympia	-11.846
Liber	-11.8465
similarly	-11.8468
bak	-11.847
Marcus	-11.8471
computers	-11.8474
honours	-11.8476
Jami	-11.8476
Baronet	-11.848
lighting	-11.848
owl	-11.8483
rivals	-11.8485
proven	-11.8485
kka	-11.8487
soap	-11.8487
Eng	-11.849
upgraded	-11.849
congressional	-11.8492
creature	-11.8493
volleyball	-11.8493
phenomenon	-11.8493
manipulat	-11.8493
motorcycle	-11.8493
Log	-11.8494
Danny	-11.8496
155	-11.8497
är	-11.8501
stint	-11.8506
clash	-11.8506
ultra	-11.8507
generations	-11.8509
Sean	-11.851
TM	-11.8511
bars	-11.8511
polit	-11.8512
Tul	-11.8515
varying	-11.8517
Burns	-11.8523
heading	-11.8526
killer	-11.8527
curriculum	-11.8528
Paper	-11.8528
commentary	-11.8529
dust	-11.8531
conviction	-11.8531
Zhang	-11.8533
Cecil	-11.8535
specimens	-11.8537
Lei	-11.8538
streams	-11.8539
Bod	-11.8543
sberg	-11.8545
Sex	-11.8545
Apart	-11.8548
158	-11.8551
nath	-11.8552
_4	-11.8554
Engineers	-11.8556
Level	-11.8559
vig	-11.856
nick	-11.8561
ceiling	-11.8563
transmitter	-11.8563
Saskatchewan	-11.8563
Dynasty	-11.8563
Arb	-11.8565
citizenship	-11.8566
Holmes	-11.8568
rally	-11.8569
toxic	-11.8569
(10	-11.857
governmental	-11.8573
considering	-11.8573
rushing	-11.8573
6)	-11.8578
undergo	-11.8579
Pink	-11.8582
Folk	-11.8585
cart	-11.8585
suggesting	-11.8589
omo	-11.859
Lynn	-11.8593
Shiva	-11.8594
ovo	-11.8595
quel	-11.8596
Dil	-11.8596
warrior	-11.8598
Salvador	-11.8598
Giovanni	-11.8598
Lancashire	-11.8599
populated	-11.8599
Nancy	-11.8606
Marcel	-11.8607
Rep	-11.8607
southeastern	-11.8607
centres	-11.861
reactions	-11.861
clothes	-11.861
dying	-11.8612
Films	-11.8613
ugu	-11.8613
font	-11.8621
stops	-11.8622
traction	-11.8623
plum	-11.8626
180	-11.8626
panels	-11.8626
publish	-11.8633
ija	-11.8633
Capitol	-11.8633
Nintendo	-11.8634
Wednesday	-11.8634
comics	-11.8634
Bradford	-11.8635
interval	-11.8637
preservation	-11.8638
Parliamentary	-11.8639
Rice	-11.864
airing	-11.8642
Examples	-11.8643
ario	-11.8643
counts	-11.8645
proceeded	-11.8646
cyclo	-11.8647
properly	-11.8649
knock	-11.8652
arrangements	-11.8657
sending	-11.8661
Hun	-11.8662
Gö	-11.8663
buck	-11.8664
ional	-11.8666
1976.	-11.8667
Complex	-11.8667
Facebook	-11.867
oval	-11.8671
auction	-11.8671
pursuit	-11.8673
flash	-11.8674
centered	-11.8675
pounds	-11.8676
Look	-11.8677
Kw	-11.8679
southwestern	-11.8679
northwestern	-11.8679
altar	-11.8682
Step	-11.8682
lodge	-11.8684
Albania	-11.8688
diplomat	-11.8689
Chau	-11.8691
deals	-11.8691
Dh	-11.8693
shallow	-11.8695
1967.	-11.8696
showcas	-11.8699
reconstruction	-11.87
350	-11.87
ranch	-11.8701
Edmonton	-11.8705
Tasmania	-11.8705
nose	-11.8706
pension	-11.8714
Princeton	-11.8715
1968.	-11.8715
planted	-11.8717
1975.	-11.8719
clients	-11.872
talking	-11.872
drawings	-11.872
rounded	-11.8722
rgy	-11.8722
XX	-11.8723
acknowledged	-11.8723
peaking	-11.8727
7,000	-11.8728
render	-11.8729
moor	-11.873
Johnston	-11.8731
socialist	-11.8735
practiced	-11.8736
manufacturers	-11.8736
Bai	-11.8737
Prof	-11.8738
Benedict	-11.8741
Miguel	-11.8741
welfare	-11.8741
diamond	-11.8741
pound	-11.8742
Fraser	-11.8742
initiat	-11.8743
layers	-11.8744
cleared	-11.8744
Wave	-11.8746
Lao	-11.8747
targeted	-11.8747
feeding	-11.8749
gia	-11.8749
1964.	-11.8752
withdrawn	-11.8757
sequences	-11.876
personally	-11.8761
tables	-11.8765
tian	-11.8765
stationed	-11.8768
audiences	-11.877
Stu	-11.8772
Distinguish	-11.8776
Speaker	-11.8777
Ecuador	-11.8777
Prom	-11.8777
Lodge	-11.8777
PlayStation	-11.8778
1990)	-11.8778
Comedy	-11.8779
regardless	-11.878
customer	-11.8781
villa	-11.8786
consent	-11.8792
hos	-11.8794
Living	-11.8794
mansion	-11.8796
Dai	-11.8796
shrub	-11.88
attract	-11.8804
Riv	-11.8805
Author	-11.8812
Josh	-11.8812
bug	-11.8813
pianist	-11.8813
dub	-11.8813
vowel	-11.8813
Bran	-11.8814
crest	-11.8815
crater	-11.8815
Trent	-11.8822
virtually	-11.8822
blast	-11.8825
nich	-11.8827
provision	-11.8829
104	-11.8836
hometown	-11.8838
tral	-11.8839
Marian	-11.884
Pick	-11.8846
teenager	-11.8847
handled	-11.8849
Laboratory	-11.8849
messages	-11.8849
abortion	-11.8849
Emil	-11.8849
workshops	-11.8849
Episcopal	-11.885
Amateur	-11.885
Iceland	-11.8851
Armstrong	-11.8851
Adrian	-11.8852
Table	-11.8853
staged	-11.8853
vinyl	-11.8855
governed	-11.8856
journals	-11.8858
conflicts	-11.8859
Full	-11.8859
Tampa	-11.886
confirm	-11.886
Clement	-11.8863
Hero	-11.8863
comedian	-11.8864
severely	-11.8868
Duncan	-11.8869
demon	-11.8871
Events	-11.8872
chorus	-11.8874
Got	-11.8877
deeply	-11.8877
bats	-11.8877
performers	-11.8881
correspond	-11.8881
sweep	-11.8882
melt	-11.8882
loose	-11.8884
impressive	-11.8885
peninsula	-11.8886
Using	-11.8886
polymer	-11.8889
villain	-11.8896
Rovers	-11.8897
Mich	-11.8899
pursued	-11.8899
Dock	-11.8901
Lutheran	-11.8901
fraction	-11.8901
precede	-11.8905
hack	-11.8905
manor	-11.8905
uj	-11.8905
Geo	-11.8909
presenter	-11.8916
Libya	-11.8916
Lib	-11.8919
NZ	-11.892
survivors	-11.8921
Amendment	-11.8922
tackles	-11.8922
societies	-11.8922
Memphis	-11.8922
Colonial	-11.8922
Copenhagen	-11.8922
boxing	-11.8926
girlfriend	-11.8927
Bears	-11.8927
CIA	-11.8929
decreased	-11.893
founders	-11.893
upset	-11.8933
bust	-11.8938
Strait	-11.8942
Ost	-11.8946
absolute	-11.8951
Beth	-11.8953
Vill	-11.8954
joy	-11.8958
clergy	-11.8958
Fifth	-11.8959
Santiago	-11.8959
[...]	-11.8959
cyclist	-11.8959
Gerald	-11.8959
councillor	-11.896
Desert	-11.8961
limb	-11.8961
1812	-11.8969
xton	-11.8971
UT	-11.8972
constantly	-11.8974
analyst	-11.8976
Hull	-11.8976
geographical	-11.8977
Pip	-11.8977
Presidential	-11.898
relatives	-11.8983
Rush	-11.8983
jack	-11.899
instant	-11.899
locate	-11.8993
RF	-11.8994
Nacional	-11.8995
sculptor	-11.8995
Canterbury	-11.8996
peasant	-11.8996
Plaza	-11.8997
Locate	-11.9
Bed	-11.9
uter	-11.9001
builder	-11.9002
Color	-11.9003
Hindi	-11.9004
northeastern	-11.9005
singers	-11.9006
creek	-11.9008
Rem	-11.9009
Poli	-11.9013
desired	-11.9017
Lithuania	-11.9017
deposits	-11.9018
159	-11.9021
Watt	-11.9029
inclusion	-11.9032
furniture	-11.9032
expelled	-11.9032
invention	-11.9032
kitchen	-11.9033
Krishna	-11.9033
Nad	-11.9036
ych	-11.9036
aerial	-11.9038
kol	-11.9043
prints	-11.9043
collapsed	-11.9044
appoint	-11.9048
clar	-11.9052
Erik	-11.9053
norm	-11.9057
noting	-11.9062
Cart	-11.9063
Teams	-11.9065
marker	-11.9066
harbour	-11.9069
communicate	-11.9069
inaugurated	-11.9069
disabled	-11.9069
feels	-11.9069
autonomous	-11.9069
revolt	-11.907
automatically	-11.907
pillar	-11.9071
evich	-11.9073
withdrawal	-11.9075
worm	-11.9075
rebels	-11.9076
Cort	-11.9076
recall	-11.9078
Resources	-11.908
Kingston	-11.9081
chapters	-11.9084
transported	-11.9087
lectures	-11.9088
(14	-11.9094
liked	-11.9094
strikes	-11.9096
360	-11.9104
Reid	-11.9106
survival	-11.9106
imprisonment	-11.9106
remembered	-11.9106
Publishing	-11.9106
autumn	-11.9107
Regular	-11.9108
Access	-11.9108
174	-11.9108
Emma	-11.911
VIII	-11.911
easier	-11.911
educator	-11.9111
Rifle	-11.9112
liver	-11.9115
copyright	-11.9116
Astro	-11.9117
Rot	-11.9121
palm	-11.9125
drag	-11.9127
partisan	-11.9128
terrain	-11.913
investors	-11.9131
screenplay	-11.9131
awak	-11.9133
operators	-11.9135
knowing	-11.9137
privately	-11.9139
"...	-11.9139
headline	-11.9139
divorced	-11.9143
preparing	-11.9144
powder	-11.9144
memoir	-11.9144
Cass	-11.9144
Canyon	-11.9145
orientation	-11.9146
rou	-11.9146
offense	-11.915
Artists	-11.915
Stoke	-11.915
kilometres	-11.9151
Cell	-11.9152
loud	-11.9153
qi	-11.9159
eighteen	-11.916
argue	-11.9161
shima	-11.9162
disk	-11.9169
dad	-11.917
izer	-11.917
Planet	-11.9173
nel	-11.9173
Pent	-11.9173
Indo	-11.9175
confront	-11.9178
pilots	-11.918
Orlando	-11.9181
Dow	-11.9182
Interior	-11.9182
Legislature	-11.9182
Stakes	-11.9184
Scha	-11.9186
Aboriginal	-11.9189
Study	-11.9189
disputed	-11.919
Burton	-11.919
update	-11.9192
locked	-11.9193
Jung	-11.9194
Prussian	-11.9195
amino	-11.9195
wald	-11.9197
Body	-11.9199
Armenia	-11.9202
math	-11.9204
weed	-11.9206
digit	-11.9207
thrown	-11.9208
Gamb	-11.9209
screening	-11.9214
Sabha	-11.9216
apprentice	-11.9219
RBI	-11.922
temper	-11.9222
flooding	-11.9222
IX	-11.9223
Against	-11.9225
Similarly	-11.9225
absent	-11.9226
involve	-11.9233
cannon	-11.9233
Tiger	-11.9233
Never	-11.9235
morph	-11.9236
roid	-11.9237
Mot	-11.9238
trud	-11.9238
Crist	-11.924
Liz	-11.924
1500	-11.9241
Shop	-11.9253
revenge	-11.9256
fixture	-11.9257
Chelsea	-11.9257
relegation	-11.9257
Bolivia	-11.9257
organisms	-11.9257
Doll	-11.9258
Belgrade	-11.9258
Aircraft	-11.9259
wagon	-11.926
Leslie	-11.926
riders	-11.9261
ornament	-11.9262
enstein	-11.9263
MLB	-11.9266
systematic	-11.9267
jer	-11.927
bir	-11.9272
mast	-11.9272
ová	-11.9276
Dig	-11.928
chess	-11.9282
irregular	-11.9291
lineup	-11.9292
perception	-11.9294
Relations	-11.9294
integral	-11.9294
feminist	-11.9294
Ek	-11.9296
Extra	-11.9296
missionary	-11.9297
condemned	-11.9301
specification	-11.9303
privat	-11.9306
nig	-11.9306
107	-11.9307
Flo	-11.9308
rica	-11.9309
1845	-11.931
Khu	-11.9312
Aid	-11.9313
zal	-11.9313
Past	-11.9316
Cry	-11.9319
vac	-11.932
depot	-11.932
collecting	-11.932
Brooks	-11.9321
1988)	-11.9322
Joy	-11.9323
GI	-11.9324
Add	-11.9324
ultimate	-11.9325
ATP	-11.9328
Sv	-11.933
horizontal	-11.9332
engineers	-11.9332
AIDS	-11.9333
compensation	-11.9333
starter	-11.9334
Emmy	-11.9335
Viv	-11.9336
Sugar	-11.9337
seized	-11.9338
revived	-11.9339
Oz	-11.9339
skull	-11.9339
Rams	-11.9342
ghost	-11.9344
Paint	-11.9346
Border	-11.9353
meal	-11.9355
Kho	-11.9356
Witt	-11.9356
bills	-11.9358
Chor	-11.9361
Islander	-11.9361
FE	-11.9363
flowering	-11.9363
Cost	-11.9364
invitation	-11.9364
withdraw	-11.9366
Jer	-11.9367
reader	-11.9367
hunter	-11.9368
consequences	-11.9369
socio	-11.9369
arguing	-11.9369
dinner	-11.937
magnitude	-11.9371
pronounced	-11.9371
Brussels	-11.9371
commanding	-11.9371
neighbourhood	-11.9371
Reynolds	-11.9371
ammunition	-11.9371
Chap	-11.9371
towers	-11.9372
tackle	-11.9373
Gibb	-11.9374
plasm	-11.9378
Lud	-11.9379
troop	-11.9379
navigation	-11.938
Emily	-11.938
Dong	-11.9382
Pool	-11.9382
Self	-11.9383
environments	-11.9385
1962.	-11.9388
assi	-11.9388
embrac	-11.9398
blocked	-11.9399
watt	-11.9399
Eg	-11.94
Bonn	-11.9401
glyc	-11.9401
boxer	-11.9403
canton	-11.9405
Cran	-11.9408
crucial	-11.9409
Gram	-11.9409
Calgary	-11.9409
Luxembourg	-11.9409
BP	-11.9409
Critics	-11.941
cession	-11.941
tribal	-11.9411
Davies	-11.9411
Insurance	-11.9413
cheap	-11.9413
Account	-11.9414
salary	-11.9415
Airlines	-11.9417
hopes	-11.9418
Salem	-11.9419
hoped	-11.9419
gust	-11.9423
shak	-11.9429
trips	-11.9433
Lucy	-11.9434
Robertson	-11.9436
pirate	-11.944
Ent	-11.9445
impression	-11.9447
Somerset	-11.9447
colonel	-11.9448
Cornwall	-11.9448
presidency	-11.9449
textile	-11.945
Spider	-11.945
marble	-11.945
Kenneth	-11.9451
intra	-11.9453
punch	-11.9456
yot	-11.9458
MW	-11.9466
Harper	-11.9468
wickets	-11.9471
103	-11.9476
obo	-11.9477
fatal	-11.9477
Webb	-11.9478
blues	-11.9479
brings	-11.948
Pam	-11.948
Hos	-11.9482
necessarily	-11.9486
reliable	-11.9486
advertisement	-11.9486
measuring	-11.9486
Westminster	-11.9486
Schi	-11.9486
twist	-11.9488
sailing	-11.9488
coincid	-11.9489
bicycle	-11.949
amma	-11.9491
Rachel	-11.9491
Sail	-11.9497
1837	-11.9497
beck	-11.9499
dragon	-11.9501
clo	-11.9504
compounds	-11.9505
BB	-11.9506
atomic	-11.9507
Basin	-11.9511
Large	-11.9512
Chess	-11.9514
entries	-11.9515
blend	-11.9517
Cardinals	-11.9517
phag	-11.9518
1972.	-11.9518
udi	-11.9518
laser	-11.9523
Nathan	-11.9524
confused	-11.9525
protocol	-11.9525
investigated	-11.9525
batting	-11.9525
Windsor	-11.9526
hut	-11.9526
tiny	-11.9529
favorable	-11.953
hari	-11.9531
Woods	-11.9532
tear	-11.9533
healthy	-11.9533
Til	-11.9536
storey	-11.9541
bud	-11.9547
dorsal	-11.9548
monitoring	-11.9549
Consul	-11.955
disappeared	-11.9554
acclaim	-11.9555
Tir	-11.9558
Papa	-11.9559
ün	-11.956
watched	-11.9561
Arsenal	-11.9563
Continental	-11.9564
twentieth	-11.9564
1844	-11.9564
turbine	-11.9565
Planning	-11.9566
trigger	-11.9566
occurring	-11.9566
differentiat	-11.9568
consequence	-11.9571
eliminate	-11.9572
vault	-11.9574
questioned	-11.9575
advised	-11.9576
interim	-11.9576
broadcaster	-11.9577
Duck	-11.9577
Aires	-11.9577
1954,	-11.958
TF	-11.9581
GR	-11.9583
1969.	-11.9585
stadt	-11.9589
lb	-11.9589
Epi	-11.9594
violin	-11.9598
Cool	-11.9601
pour	-11.9601
remarkable	-11.9602
utility	-11.9602
iest	-11.9602
accommodation	-11.9603
Dunn	-11.9603
Administrative	-11.9603
stepped	-11.9604
placement	-11.9605
Warriors	-11.9607
Jesuit	-11.9608
Hiro	-11.9609
achievements	-11.961
seller	-11.9611
nicknamed	-11.9611
rino	-11.9614
Kri	-11.9619
workshop	-11.9619
Clear	-11.962
unexpected	-11.9622
oria	-11.9623
Porter	-11.9623
reject	-11.9626
deceased	-11.9627
Republicans	-11.9627
gods	-11.9627
éri	-11.9631
chronicl	-11.9632
Strange	-11.9635
Glenn	-11.9636
-21	-11.9637
citation	-11.964
Whil	-11.9641
probability	-11.9642
intensity	-11.9642
Gibson	-11.9643
criticised	-11.9643
Liberation	-11.9644
Oslo	-11.9647
Fellowship	-11.9648
whale	-11.9649
Inside	-11.9651
igo	-11.9652
supporter	-11.9654
cchi	-11.9654
thread	-11.9658
Lok	-11.9661
Christi	-11.9661
kawa	-11.9663
rookie	-11.9666
lining	-11.9668
Merri	-11.9677
quoted	-11.9679
kur	-11.9679
moments	-11.9679
Read	-11.9679
Inspector	-11.9681
Indigenous	-11.9681
Frankfurt	-11.9681
Portsmouth	-11.9681
diagnosed	-11.9682
Fernando	-11.9682
quarters	-11.9683
ESPN	-11.9683
loading	-11.9683
Impact	-11.9685
Kurt	-11.9687
kiss	-11.9687
1958,	-11.9691
FK	-11.9691
warfare	-11.9692
iness	-11.9695
depiction	-11.9697
LO	-11.97
Zen	-11.9702
0.5	-11.9705
Gren	-11.9705
Ming	-11.9706
Muk	-11.9707
vocation	-11.9711
1985)	-11.9715
2019)	-11.9716
Scholar	-11.9717
1957,	-11.9719
Corr	-11.9719
vicinity	-11.972
derivative	-11.9722
zio	-11.9723
McDonald	-11.9724
Advisory	-11.9726
nineteenth	-11.9727
embarked	-11.9727
Potter	-11.9729
conclude	-11.973
$6	-11.9731
1961.	-11.9733
estimate	-11.9737
flora	-11.9739
haul	-11.9743
guided	-11.9744
paying	-11.975
tooth	-11.9752
Kad	-11.9753
Wick	-11.976
analyze	-11.976
Surrey	-11.9761
Software	-11.9761
Cancer	-11.9762
spider	-11.9763
wise	-11.9766
wildlife	-11.9768
ça	-11.9771
developer	-11.9772
solely	-11.9773
Solar	-11.9774
Indoor	-11.9776
cabin	-11.9777
Carlo	-11.9784
Gav	-11.9786
TD	-11.9786
ballad	-11.9787
Rosen	-11.9791
cation	-11.9793
merit	-11.9796
Ami	-11.9796
lifestyle	-11.9797
Hick	-11.98
Criminal	-11.98
Cambodia	-11.98
Tropical	-11.9801
Custom	-11.9801
Structure	-11.9801
Haz	-11.9802
Dio	-11.9802
www	-11.9802
Neill	-11.9803
Jiang	-11.9803
excavation	-11.9803
occasional	-11.9804
chal	-11.9805
Baltic	-11.9806
Strike	-11.9806
alignment	-11.9807
1979)	-11.9807
nh	-11.9807
Cloud	-11.9809
109	-11.9809
interactions	-11.981
Title	-11.981
temples	-11.9814
tailed	-11.9815
Naga	-11.9817
basement	-11.982
2.8	-11.9821
pathway	-11.9822
Brien	-11.9827
Want	-11.9828
Brig	-11.983
pastor	-11.983
compromise	-11.9831
planes	-11.9839
evaluate	-11.984
vulnerable	-11.984
uncertain	-11.984
1917,	-11.984
Actress	-11.9841
siblings	-11.9841
Shri	-11.9841
1977)	-11.9841
tham	-11.9843
developers	-11.9848
Taka	-11.9854
Batt	-11.9855
apple	-11.9857
trainer	-11.986
conform	-11.9861
hak	-11.9861
payments	-11.9866
dong	-11.9866
Mono	-11.9868
mentions	-11.987
myc	-11.9871
gig	-11.9879
Bug	-11.988
sacred	-11.988
Kru	-11.988
gastropod	-11.988
velocity	-11.988
Screen	-11.9881
confusion	-11.9882
dwelling	-11.9883
Merc	-11.9889
mura	-11.9893
poli	-11.9894
burst	-11.9898
Kap	-11.9902
retire	-11.9903
riots	-11.9903
astro	-11.9904
Macedonia	-11.9905
bind	-11.9909
Architect	-11.991
seal	-11.9913
sudden	-11.9913
unity	-11.9914
skaya	-11.9918
Singer	-11.9919
Nadu	-11.992
conspiracy	-11.992
Coalition	-11.9921
conceived	-11.9921
bones	-11.9921
Aberdeen	-11.9921
Philosophy	-11.9921
capabilities	-11.9921
orphan	-11.9921
Religion	-11.9922
Wagner	-11.9922
limestone	-11.9923
deployment	-11.9923
console	-11.9923
hō	-11.9923
competitors	-11.9924
legally	-11.9924
Lov	-11.9926
ogi	-11.9926
submit	-11.9927
adoption	-11.9929
rolling	-11.9933
Again	-11.9935
blo	-11.9935
opt	-11.9936
arra	-11.9938
ternal	-11.9939
comprised	-11.9939
examined	-11.9939
hosting	-11.9942
Lem	-11.9944
asteroid	-11.995
holm	-11.9952
bassist	-11.9952
Ley	-11.9952
gad	-11.9953
hetero	-11.9956
cloth	-11.9958
ulated	-11.9959
Drug	-11.9961
judgment	-11.9961
mysterious	-11.9961
hypothesis	-11.9961
spectrum	-11.9962
affiliation	-11.9962
considerably	-11.9962
Sebastian	-11.9963
Subsequently	-11.9966
rider	-11.9967
floors	-11.9967
aftermath	-11.9967
Kul	-11.997
Guards	-11.9971
absorbed	-11.9972
novelist	-11.9974
dou	-11.9977
valued	-11.9979
Tall	-11.998
Julia	-11.9981
observations	-11.9983
Vick	-11.9984
accumulat	-11.9986
gray	-11.9987
Half	-11.9987
Ellen	-11.9987
spelling	-11.9991
firms	-11.9993
tough	-11.9997
flame	-11.9998
173	-11.9999
Klein	-11.9999
scattered	-12.0002
pollution	-12.0002
Faith	-12.0002
Ludwig	-12.0002
Ful	-12.0003
convey	-12.0003
Belfast	-12.0003
Henderson	-12.0003
attractive	-12.0003
Geneva	-12.0005
Generation	-12.0007
NW	-12.0007
suburban	-12.0008
Globe	-12.0008
Outside	-12.0014
1836	-12.0015
tumor	-12.0015
zones	-12.0016
Aur	-12.0022
Hank	-12.0022
suburbs	-12.0023
Rip	-12.0025
avid	-12.0027
crafts	-12.0031
badly	-12.0033
Ark	-12.0034
Yoshi	-12.0037
ceded	-12.0042
declaration	-12.0043
beneath	-12.0043
kids	-12.0043
Buddha	-12.0043
varieties	-12.0043
Brighton	-12.0044
Commun	-12.0044
Qatar	-12.0047
Preston	-12.0047
rivalry	-12.0047
accomplished	-12.005
80%	-12.0053
litz	-12.0054
vul	-12.0055
rendered	-12.0056
FT	-12.0059
preference	-12.0059
interviewed	-12.0062
Classical	-12.0062
Map	-12.0065
Victory	-12.0065
hya	-12.0066
Maxim	-12.0069
Estonia	-12.0072
nerve	-12.0074
mund	-12.0075
stronger	-12.0078
learns	-12.0079
troducing	-12.0083
elimination	-12.0084
ancestry	-12.0084
vegetation	-12.0084
Jennifer	-12.0084
Papua	-12.0086
Smart	-12.0086
assassination	-12.0086
Springfield	-12.009
Milton	-12.0092
prohibited	-12.0093
Eri	-12.0095
Nav	-12.0097
Jag	-12.0102
128	-12.0104
noticed	-12.0107
Lot	-12.0109
Prussia	-12.011
bab	-12.0115
Zoo	-12.012
struggled	-12.0122
tina	-12.0124
surgeon	-12.0124
endorsed	-12.0125
preceding	-12.0125
nus	-12.0125
chat	-12.0127
Volume	-12.0128
Prem	-12.0129
Nun	-12.0129
metro	-12.0132
Cant	-12.0132
undertaken	-12.0133
sentiment	-12.0133
1841	-12.0135
thorough	-12.0137
presenting	-12.0143
notation	-12.0144
Notre	-12.015
Being	-12.0153
gni	-12.0155
Spec	-12.0159
Qi	-12.016
Additional	-12.016
Aust	-12.0165
Amar	-12.0165
libraries	-12.0166
Headquarters	-12.0167
float	-12.0168
Summit	-12.0168
genres	-12.017
tourists	-12.017
temp	-12.0172
banner	-12.0172
Santos	-12.0173
codice	-12.0176
Eva	-12.0176
gather	-12.0183
Hydro	-12.0186
lessons	-12.0187
spite	-12.0188
Tsu	-12.0191
promotional	-12.0194
jointly	-12.0196
Maritime	-12.0203
urged	-12.0206
Harbour	-12.0208
plaque	-12.0208
Dad	-12.0208
Achievement	-12.0208
phospho	-12.0209
sustainable	-12.021
Bradley	-12.021
wang	-12.0211
Tunisia	-12.0212
Stalin	-12.0214
Meyer	-12.0217
1839	-12.0218
slopes	-12.0218
3–2	-12.0219
calculated	-12.0222
cement	-12.0222
Neg	-12.0222
joke	-12.0223
Miles	-12.0223
suggestion	-12.0226
Serb	-12.0226
Combat	-12.0226
Bour	-12.0226
acclaimed	-12.0227
Drum	-12.023
ovic	-12.023
fel	-12.023
teamed	-12.0231
Tell	-12.0234
advocated	-12.0235
Marsh	-12.0241
knows	-12.0245
honey	-12.0248
NATO	-12.0249
Why	-12.0249
Buddhism	-12.025
renovated	-12.025
Lancaster	-12.025
40,000	-12.025
Physics	-12.0251
opo	-12.0255
attain	-12.0257
Chuck	-12.0259
Constantin	-12.026
marginal	-12.0261
consumers	-12.0261
discussions	-12.0262
haven	-12.027
nard	-12.0271
kot	-12.0272
Compar	-12.0275
dah	-12.0276
strengthen	-12.0278
Rocky	-12.0283
dimensions	-12.0283
Squ	-12.0283
crowned	-12.0284
$7	-12.0287
1982)	-12.0289
igh	-12.029
unveiled	-12.0291
Seminary	-12.0291
Resident	-12.0292
Literary	-12.0292
Universe	-12.0292
Teacher	-12.0293
Worth	-12.0298
fest	-12.0299
allocated	-12.0301
Kids	-12.0304
Estonian	-12.0305
oir	-12.0306
fragment	-12.0307
raja	-12.0309
vik	-12.0309
dding	-12.0309
realm	-12.0315
mechanisms	-12.0316
4–1	-12.0318
cali	-12.0321
Yard	-12.0322
volv	-12.0324
roller	-12.0326
Merit	-12.0326
ctive	-12.0327
estimates	-12.0327
dressed	-12.0328
Petro	-12.033
physically	-12.0331
Julius	-12.0333
Jeremy	-12.0334
mythology	-12.0335
antenna	-12.0335
IBM	-12.0335
Index	-12.0335
Fiji	-12.0338
watching	-12.0342
habitats	-12.0344
Sons	-12.0348
scribe	-12.0349
Founded	-12.0349
repairs	-12.035
Alf	-12.0351
Chad	-12.0352
1835	-12.0355
yak	-12.0356
wad	-12.0357
subspecies	-12.0358
1973)	-12.0358
Alexandria	-12.0368
chronic	-12.0374
corridor	-12.0375
Haven	-12.0375
Kosovo	-12.0375
Dorothy	-12.0376
nursing	-12.0376
tornado	-12.0376
Tanzania	-12.0376
tends	-12.0376
Brewer	-12.0378
Forbes	-12.0381
spare	-12.0383
photos	-12.0383
proclaimed	-12.0383
nah	-12.0385
Vision	-12.039
agrees	-12.0391
Wheel	-12.0393
111	-12.0393
cyclone	-12.0396
farms	-12.0398
Clan	-12.0399
gum	-12.04
Johan	-12.0401
Spot	-12.0401
jay	-12.0403
Richardson	-12.0404
merchants	-12.0407
Morrison	-12.0408
navy	-12.0411
obligation	-12.0417
pocket	-12.0418
voltage	-12.0418
Scots	-12.0418
Depression	-12.0418
alumni	-12.0419
María	-12.0419
barb	-12.0421
Sharp	-12.0421
incidents	-12.0425
lamp	-12.0426
Caroline	-12.0429
DT	-12.043
Recreation	-12.043
Constitutional	-12.0431
1832	-12.0432
USSR	-12.0435
sculptures	-12.0435
1972)	-12.0438
Pap	-12.0443
depends	-12.0444
subdivision	-12.0444
united	-12.0445
wicket	-12.0448
rigid	-12.045
torn	-12.0451
equally	-12.0452
crush	-12.0453
stern	-12.0454
synth	-12.0454
proximity	-12.046
volcanic	-12.046
Herzegovina	-12.0461
rectangular	-12.0461
invested	-12.0461
printer	-12.0461
Nichols	-12.0461
trapped	-12.0461
icus	-12.0462
predator	-12.0463
comfortable	-12.0463
Tyler	-12.0463
Harmon	-12.0467
partition	-12.0469
humid	-12.0473
instructions	-12.0473
Cove	-12.0476
cephal	-12.048
135	-12.0481
Thur	-12.0485
ITV	-12.049
brake	-12.049
än	-12.049
Angels	-12.0497
prominence	-12.0503
circum	-12.0503
Fiction	-12.0503
Mercury	-12.0503
Tuesday	-12.0504
Shield	-12.0504
1820	-12.0504
Grammar	-12.0504
maternal	-12.0505
semifinals	-12.0506
Baden	-12.0507
Hou	-12.0508
Thorn	-12.0508
Hammer	-12.0508
qualities	-12.0509
insects	-12.0509
Edgar	-12.0509
hausen	-12.051
163	-12.0511
trunk	-12.0512
zier	-12.052
gol	-12.0522
reactor	-12.0532
Sym	-12.0533
homo	-12.0533
Copa	-12.0534
1984)	-12.0537
chet	-12.0541
Boo	-12.0543
forum	-12.0544
innovative	-12.0545
3–0	-12.0545
thriller	-12.0546
Naples	-12.0546
swimmer	-12.0547
supervision	-12.0547
Schedule	-12.0547
legendary	-12.0548
Lynch	-12.055
interrupted	-12.0554
nier	-12.0554
bolt	-12.0554
bounded	-12.0556
clip	-12.0556
1986)	-12.0562
acre	-12.0569
monster	-12.057
Slam	-12.0574
phyl	-12.0575
inhibit	-12.0576
Silva	-12.0576
Mongolia	-12.0579
spy	-12.0579
researcher	-12.0583
tactics	-12.0588
premises	-12.0589
commerce	-12.0589
cki	-12.0589
explosive	-12.0589
vegetable	-12.0589
retriev	-12.059
Eurovision	-12.059
Bedford	-12.059
Etymology	-12.0591
detective	-12.0591
armies	-12.0592
Bailey	-12.0593
warrant	-12.0599
optical	-12.06
throwing	-12.06
continuously	-12.0604
warned	-12.0605
uprising	-12.0606
ought	-12.0609
Negro	-12.061
contra	-12.0612
Anders	-12.0618
Boat	-12.0618
Sisters	-12.0623
nheim	-12.0625
jewel	-12.0625
115	-12.0626
athi	-12.0628
operative	-12.0628
Conc	-12.063
mell	-12.0632
remnant	-12.0632
bishops	-12.0632
vaccine	-12.0632
Halifax	-12.0633
Valencia	-12.0633
Swimming	-12.0633
batteries	-12.0633
Easter	-12.0633
Mohammad	-12.0635
grandmother	-12.0635
mob	-12.0636
tron	-12.0637
Gandhi	-12.0638
hui	-12.0638
mural	-12.0643
1.6	-12.0643
consistently	-12.0644
threatening	-12.0645
harsh	-12.0646
Butt	-12.0647
hatch	-12.0648
Gott	-12.065
dollar	-12.0658
Moses	-12.0659
peaceful	-12.0659
156	-12.0663
3000	-12.0664
acute	-12.0667
proposals	-12.0671
Brother	-12.0675
memories	-12.0675
Graduate	-12.0676
Manitoba	-12.0676
Cohen	-12.0677
poorly	-12.0679
Haiti	-12.0679
Zhu	-12.0682
flagship	-12.0683
450	-12.0684
nominal	-12.0686
performer	-12.0686
Ald	-12.0687
naturally	-12.0689
rulers	-12.0696
regulated	-12.0702
Bend	-12.0704
unsuccessfully	-12.0704
investigations	-12.0705
Nigerian	-12.0705
icular	-12.0707
overlap	-12.0708
Ferry	-12.0708
lifted	-12.071
Diet	-12.0712
Elections	-12.0714
productive	-12.0717
subfamily	-12.0718
dash	-12.0719
accuracy	-12.0719
satisfied	-12.0719
Marriage	-12.072
VE	-12.0721
lah	-12.0722
Ladies	-12.0724
Linda	-12.0726
aided	-12.0728
Roth	-12.073
Berry	-12.0732
Mali	-12.0732
unclear	-12.0733
gran	-12.0735
:#	-12.0736
surrendered	-12.0737
mock	-12.0737
predicted	-12.0738
declare	-12.0739
cosm	-12.0741
streaming	-12.0743
rift	-12.0748
descend	-12.075
Hess	-12.0751
bac	-12.0752
Working	-12.0753
1838	-12.0757
constituted	-12.0758
directing	-12.0759
Steam	-12.0763
Providence	-12.0763
induced	-12.0764
athletics	-12.0764
Normal	-12.0764
licence	-12.0766
Own	-12.0767
barn	-12.0769
sediment	-12.0769
Recent	-12.0772
walks	-12.0773
boxes	-12.0779
1969)	-12.0779
Karen	-12.0784
exceptional	-12.0784
expense	-12.0787
Yun	-12.0788
_5	-12.079
neighbor	-12.0791
editing	-12.0792
monks	-12.0793
Marx	-12.0794
peri	-12.0794
Kiss	-12.0794
Guru	-12.0796
armor	-12.0796
manifest	-12.0799
Daw	-12.08
Quint	-12.0802
Lum	-12.0805
achieving	-12.0807
prevail	-12.0807
Plymouth	-12.0807
Newfoundland	-12.0808
drainage	-12.0808
Wyoming	-12.0808
750	-12.0809
penetrat	-12.0809
Claus	-12.081
Brit	-12.0814
ugh	-12.0814
500,000	-12.0816
aught	-12.0818
Slovakia	-12.0819
Herman	-12.0827
ballet	-12.0828
dir	-12.0829
concentrat	-12.0831
Gross	-12.0836
Gir	-12.0838
iq	-12.0838
sporting	-12.0839
hammer	-12.0843
Jai	-12.0847
gill	-12.0848
mild	-12.085
Lad	-12.0851
undertook	-12.0851
ingredient	-12.0852
Afghan	-12.0852
Thursday	-12.0852
Soldier	-12.0852
Ulster	-12.0853
Thames	-12.0855
separately	-12.0858
rubber	-12.0858
leigh	-12.0858
prosecutor	-12.0862
Tourism	-12.0863
diploma	-12.0864
Housing	-12.0864
arcade	-12.0864
Roo	-12.0865
MV	-12.0866
Kali	-12.0866
Learning	-12.0868
Trial	-12.087
Yuan	-12.0874
Nash	-12.0877
khan	-12.0881
pending	-12.089
ór	-12.0891
feud	-12.0891
grape	-12.0892
luc	-12.0895
happen	-12.0895
promising	-12.0896
mystery	-12.0896
recurring	-12.0896
proceedings	-12.0896
Guatemala	-12.0897
Statistical	-12.0897
franc	-12.09
throat	-12.0902
Hook	-12.0904
remind	-12.0904
cruise	-12.0907
diving	-12.0907
Cel	-12.0908
Mona	-12.091
Vor	-12.0912
mammals	-12.0916
correctly	-12.0917
honest	-12.0917
Dob	-12.0922
pledg	-12.0922
Picture	-12.0923
Kell	-12.0927
resolved	-12.0927
Martha	-12.0927
Geographic	-12.0928
oki	-12.0932
Hab	-12.0934
Sign	-12.0936
quat	-12.0937
Fried	-12.0938
adher	-12.0938
ographer	-12.0938
czy	-12.094
Hob	-12.094
correspondence	-12.0941
Chemical	-12.0941
fiscal	-12.0941
Crusade	-12.0941
enrollment	-12.0942
leather	-12.0946
1981)	-12.0948
Programme	-12.095
protesters	-12.095
Hub	-12.0952
gentle	-12.0953
explored	-12.0953
curing	-12.0954
Yankees	-12.0957
Lé	-12.0959
iger	-12.0961
kow	-12.0964
Doubles	-12.0966
flowing	-12.0968
Moss	-12.0969
fees	-12.0975
Belt	-12.0975
Roma	-12.0975
102	-12.0976
Butter	-12.0979
Kyle	-12.0982
ère	-12.0982
Sicily	-12.0986
Discovery	-12.0986
Myanmar	-12.0986
audition	-12.0986
Bulldogs	-12.0987
Tunnel	-12.0987
trench	-12.0987
grammar	-12.0987
Carroll	-12.0989
Monroe	-12.099
Bolton	-12.0992
Farmer	-12.0992
derm	-12.0993
Hood	-12.0997
Tibetan	-12.1
knocked	-12.1001
summa	-12.1003
2022	-12.1003
lou	-12.1003
raids	-12.1007
Eco	-12.1011
Ach	-12.1011
warehouse	-12.1011
cameras	-12.1015
portraits	-12.1016
Need	-12.1019
Slovenia	-12.102
lava	-12.1022
trailer	-12.1028
Griffith	-12.1031
juvenile	-12.1031
Emergency	-12.1031
Physical	-12.1031
WWE	-12.1031
Ernst	-12.1031
Rochester	-12.1032
Character	-12.1032
plural	-12.1032
factories	-12.1033
£1	-12.1033
hanging	-12.1034
Sheriff	-12.1034
foster	-12.1036
fad	-12.1037
rector	-12.1042
Ultra	-12.1043
confess	-12.1045
Hold	-12.1047
Hugo	-12.1049
complaints	-12.1051
1978)	-12.1051
proceeds	-12.1052
contracted	-12.1055
phyll	-12.106
Oct	-12.1062
Boeing	-12.1068
6–1	-12.1069
lesser	-12.1069
shortage	-12.1071
gaz	-12.1072
symbols	-12.1075
Cheng	-12.1075
NASCAR	-12.1076
obscur	-12.1076
virtue	-12.1076
Baldwin	-12.1076
Hopkins	-12.1077
Effect	-12.1077
fluent	-12.1078
accidentally	-12.1078
Pioneer	-12.1079
trauma	-12.108
Wesley	-12.1081
paired	-12.1084
tongue	-12.1086
gru	-12.1087
lant	-12.1087
Drake	-12.1089
voc	-12.1091
Coal	-12.1091
submission	-12.1092
129	-12.1092
bombs	-12.1094
customs	-12.1094
manuscripts	-12.1097
Charleston	-12.1099
disorders	-12.1099
spelled	-12.1102
helm	-12.1103
Rhodes	-12.1103
particle	-12.1104
bitter	-12.1106
Lyc	-12.1108
rescued	-12.1109
grams	-12.1114
Task	-12.1114
Paralympics	-12.1115
Draw	-12.1119
voluntary	-12.1121
analytic	-12.1121
Constantinople	-12.1121
Colony	-12.1122
prosecution	-12.1124
politically	-12.1125
Cairo	-12.1125
purple	-12.1125
Arctic	-12.1125
tino	-12.1129
healthcare	-12.1129
Helm	-12.1131
Online	-12.1131
1842	-12.1133
chaired	-12.1136
container	-12.1138
Zam	-12.1143
Alam	-12.1145
Mail	-12.1145
staying	-12.1151
overcome	-12.1153
curator	-12.1153
absorb	-12.1154
consciousness	-12.116
propaganda	-12.1167
Nottingham	-12.1167
cognitive	-12.1167
Leicester	-12.1167
luxury	-12.1167
Nixon	-12.1167
Industries	-12.1167
Agricultural	-12.1167
Organisation	-12.1167
Beyond	-12.1167
marketed	-12.1167
Bohemia	-12.1168
Continu	-12.1168
Nuclear	-12.1169
Hawaiian	-12.1172
Dent	-12.1173
Cour	-12.1176
Close	-12.1179
priority	-12.118
40%	-12.118
differential	-12.1182
witnesses	-12.1183
1980)	-12.1184
bail	-12.1185
motif	-12.1185
Marty	-12.1187
max	-12.1188
batted	-12.1199
culminat	-12.1202
climbing	-12.1203
diary	-12.1205
Ballet	-12.1205
1814	-12.1205
SEC	-12.1206
arrange	-12.1207
Similar	-12.1207
expos	-12.1212
1.2	-12.1212
activation	-12.1213
responsibilities	-12.1213
endangered	-12.1213
portfolio	-12.1213
Gibraltar	-12.1213
playwright	-12.1213
translator	-12.1213
Balkan	-12.1215
Logan	-12.1215
Cornell	-12.1216
ssy	-12.122
Churchill	-12.1226
exhibits	-12.1227
recreational	-12.1229
Hind	-12.1232
defendant	-12.1232
zong	-12.1233
imported	-12.1234
possessed	-12.1236
striker	-12.1236
outlets	-12.1241
aligned	-12.1245
haus	-12.125
Goal	-12.125
Kah	-12.1255
punish	-12.1258
molecules	-12.1259
1976)	-12.1259
investigator	-12.1259
Chennai	-12.1259
enormous	-12.1259
Superior	-12.1259
slide	-12.126
Donnell	-12.1261
articulat	-12.1261
vacant	-12.1261
pistol	-12.1262
wives	-12.1262
refuses	-12.1263
Publications	-12.1264
tana	-12.1264
arguments	-12.1265
vani	-12.1267
vić	-12.1269
Font	-12.1273
drift	-12.1273
tters	-12.1275
surf	-12.1278
jaw	-12.1279
pati	-12.128
osh	-12.1282
Manor	-12.1283
highlighted	-12.1283
gag	-12.1287
wishes	-12.129
Money	-12.1291
Ethiopia	-12.1291
tended	-12.1293
backup	-12.1294
bride	-12.1301
kam	-12.1301
assumption	-12.1305
Investment	-12.1305
Lebanese	-12.1305
Malcolm	-12.1305
Bronze	-12.1305
liberation	-12.1305
organizing	-12.1306
boiler	-12.1306
Uttar	-12.1306
generator	-12.1306
Leadership	-12.1308
wolf	-12.1308
NJ	-12.1312
Castro	-12.1315
veterans	-12.1317
entities	-12.1317
COM	-12.1321
Batman	-12.1324
Southwest	-12.1333
idol	-12.1345
1.1	-12.1345
Acad	-12.1346
donations	-12.1348
UM	-12.1348
viral	-12.135
charted	-12.135
Budapest	-12.1352
plague	-12.1352
2018–19	-12.1352
Civic	-12.1353
Gaelic	-12.1353
phen	-12.1355
Austro	-12.1357
Creat	-12.1357
sponsorship	-12.1358
Caesar	-12.1358
Louisville	-12.1359
interception	-12.136
Dru	-12.136
1843	-12.1362
disputes	-12.1362
drunk	-12.1363
wheat	-12.1365
1975)	-12.1367
Eb	-12.1368
Marion	-12.1369
variables	-12.1374
folded	-12.1382
Imp	-12.1383
Algeria	-12.1385
4.5	-12.1385
specimen	-12.1386
Scar	-12.1387
Moo	-12.1387
lva	-12.1394
luk	-12.1396
Congregation	-12.1399
buying	-12.1399
Confederation	-12.14
Beatles	-12.14
volcano	-12.14
Process	-12.14
Vijay	-12.1401
Speedway	-12.1401
Poetry	-12.1402
Nobel	-12.1405
berger	-12.1405
Darwin	-12.1406
Crew	-12.1409
100%	-12.141
Mongol	-12.1411
guarantee	-12.1415
shareholder	-12.1415
deriv	-12.1418
curved	-12.1418
fake	-12.142
leased	-12.1423
narrowly	-12.1425
MIT	-12.1427
dov	-12.1428
Patriots	-12.1429
trademark	-12.1431
Llan	-12.144
badge	-12.1441
Cott	-12.1442
statute	-12.1445
Carnegie	-12.1446
Settlement	-12.1446
Paraguay	-12.1446
Testament	-12.1446
FCC	-12.1448
1964)	-12.1452
Blair	-12.1453
ön	-12.1454
Tank	-12.1455
dip	-12.1455
reunited	-12.1456
Conn	-12.1457
Meeting	-12.1459
enacted	-12.146
Guest	-12.146
rach	-12.1465
propose	-12.1466
gir	-12.1466
lineage	-12.1472
Yemen	-12.1477
Vu	-12.1478
geographic	-12.1479
evident	-12.1479
obtaining	-12.1481
cake	-12.1483
taxi	-12.1485
certainly	-12.1489
Marshal	-12.1489
legitimate	-12.1491
periodical	-12.1492
overwhelming	-12.1492
availability	-12.1493
percussion	-12.1493
Kashmir	-12.1493
Sanskrit	-12.1493
compatible	-12.1493
reluctant	-12.1493
Istanbul	-12.1493
cartridge	-12.1493
Madagascar	-12.1493
UCLA	-12.1493
maxim	-12.1495
solicit	-12.1496
Burma	-12.1499
Gai	-12.1499
Dubai	-12.1499
Jorge	-12.1504
depicts	-12.1504
reasonable	-12.1506
coordinator	-12.1507
VP	-12.1507
clav	-12.1508
partnered	-12.1508
dominate	-12.1511
angi	-12.1514
Iz	-12.1515
NU	-12.1515
bark	-12.1516
Cash	-12.1522
Priv	-12.1523
Brom	-12.1523
akov	-12.1527
Basel	-12.1527
Malaysian	-12.1529
Sant	-12.1531
3/	-12.1532
omic	-12.1534
Zero	-12.1535
ør	-12.1536
Elm	-12.1536
Solo	-12.1538
pleasure	-12.154
collision	-12.154
philosophical	-12.154
Adolf	-12.154
constituencies	-12.154
clause	-12.1541
Strong	-12.1544
90%	-12.1545
Novel	-12.1547
ubi	-12.155
Koh	-12.155
tetra	-12.1551
Bullet	-12.156
Theory	-12.1567
30%	-12.1567
Pig	-12.1569
fragments	-12.157
kilo	-12.1571
recommendations	-12.1571
nag	-12.1571
Medic	-12.1572
Phase	-12.1574
ès	-12.1577
raft	-12.1579
Weather	-12.1584
fitting	-12.1587
pottery	-12.1588
extraordinary	-12.1588
ceremonies	-12.1588
tutor	-12.1588
Initiative	-12.1588
Diploma	-12.1588
interference	-12.1588
Educational	-12.1589
uil	-12.159
spotted	-12.159
civic	-12.1591
humor	-12.1591
grace	-12.1593
sued	-12.1593
clam	-12.1595
ło	-12.1597
flex	-12.1598
Organ	-12.16
1834	-12.1601
openly	-12.1607
equity	-12.1615
Prot	-12.1617
Alma	-12.1623
mood	-12.1625
Carn	-12.1626
gress	-12.1634
federation	-12.1635
militant	-12.1635
custody	-12.1635
abbreviated	-12.1635
economist	-12.1636
inception	-12.1636
Crawford	-12.1636
Bombay	-12.1636
terrorism	-12.1637
Counties	-12.1638
Choice	-12.1642
Priest	-12.1642
delegates	-12.1642
kt	-12.1643
Annie	-12.1644
portrayal	-12.1645
Bharat	-12.1647
enforce	-12.1648
slope	-12.165
Monster	-12.1652
Rah	-12.1653
Truth	-12.1653
Rica	-12.1655
UV	-12.1655
truly	-12.1658
screened	-12.1658
Dayton	-12.1659
Adel	-12.1666
quo	-12.1668
1974)	-12.1669
Fear	-12.167
1.3	-12.167
1828	-12.1676
disrupt	-12.1676
divine	-12.1677
coloured	-12.1678
rial	-12.168
decisive	-12.1683
Kazakhstan	-12.1684
Winnipeg	-12.1684
Sandy	-12.1684
anthology	-12.1684
2017–18	-12.1684
defunct	-12.1684
Mathematics	-12.1685
Empress	-12.1686
podcast	-12.1687
Chandra	-12.1687
Angola	-12.1689
Associated	-12.1689
sitcom	-12.1691
2.7	-12.1694
holy	-12.1695
controlling	-12.17
Mira	-12.1701
1962)	-12.1701
tubes	-12.1702
detected	-12.1702
happens	-12.1704
Brun	-12.1712
Wald	-12.1713
Doo	-12.1716
Coul	-12.1716
odes	-12.1718
professionally	-12.1727
conscious	-12.1727
Yugoslav	-12.1729
challenging	-12.1732
testimony	-12.1732
strategies	-12.1732
physicist	-12.1732
inspection	-12.1732
terrestrial	-12.1732
tobacco	-12.1732
Janeiro	-12.1733
Built	-12.1733
Photograph	-12.1735
effectiveness	-12.1735
resign	-12.1735
Sources	-12.1735
rug	-12.1735
magnet	-12.1735
respected	-12.1736
1,500	-12.1736
capability	-12.1737
accent	-12.1737
incarnation	-12.1737
Kum	-12.1739
reconnaissance	-12.174
screenwriter	-12.1742
Edwin	-12.1743
Shoot	-12.1744
Pak	-12.1747
advisory	-12.1749
116	-12.1749
structed	-12.175
adviser	-12.1754
Yet	-12.1757
Diana	-12.1761
1971)	-12.1767
dealt	-12.177
tempo	-12.1773
iidae	-12.1774
Loch	-12.1774
delegate	-12.1776
Rider	-12.1777
OH	-12.1778
Cord	-12.1778
confident	-12.178
complicated	-12.178
quantity	-12.178
ceramic	-12.1781
Minneapolis	-12.1781
electorate	-12.1781
Lisbon	-12.1781
Cowboys	-12.1781
Telugu	-12.1781
geometry	-12.1781
brutal	-12.1781
Appeals	-12.1782
hurt	-12.1782
Naka	-12.1784
dissolution	-12.1785
similarities	-12.1786
cater	-12.1787
Plus	-12.1789
conquered	-12.1791
0)	-12.1792
Maxwell	-12.1795
stack	-12.1795
Sherman	-12.1796
elderly	-12.1799
asserted	-12.18
foli	-12.18
woodland	-12.18
coil	-12.181
jah	-12.1813
Trip	-12.1816
macro	-12.1816
recreation	-12.1816
ijk	-12.1821
poster	-12.1822
spiral	-12.1822
Frei	-12.1823
critically	-12.1824
fried	-12.1827
termed	-12.1828
mollusk	-12.1829
governance	-12.183
Hampton	-12.183
RCA	-12.1831
1831	-12.1832
trafficking	-12.1833
wool	-12.1834
coordinat	-12.1835
Drag	-12.1837
complexity	-12.1843
Terra	-12.1845
Pilot	-12.1846
stuff	-12.1852
witnessed	-12.1852
linger	-12.1857
enza	-12.1858
chill	-12.1859
garage	-12.186
GO	-12.1861
Chilean	-12.1862
crashed	-12.1862
longtime	-12.1863
Gates	-12.1865
illustrations	-12.1866
plug	-12.1866
viewing	-12.1871
heating	-12.1872
Schl	-12.1875
5–1	-12.1875
EX	-12.1876
artifacts	-12.1878
mandatory	-12.1878
Worcester	-12.1878
certification	-12.1879
solving	-12.1879
decay	-12.1879
Southampton	-12.1879
Boris	-12.1879
concession	-12.188
Wah	-12.1881
restrict	-12.1881
gut	-12.1882
lacked	-12.1884
Cay	-12.1884
Albany	-12.1884
60%	-12.1886
grab	-12.1887
modest	-12.1889
Archives	-12.189
Barnes	-12.1891
strictly	-12.1892
void	-12.1894
Mach	-12.1895
portal	-12.1899
UFC	-12.1916
igen	-12.1919
precise	-12.1921
Tribe	-12.1923
1966)	-12.1925
enhanced	-12.1926
enclosed	-12.1927
isolation	-12.1928
Happy	-12.1928
invaded	-12.1928
Ré	-12.1928
Toyota	-12.1929
cooperative	-12.1931
Troy	-12.1932
eemingly	-12.1934
burgh	-12.1934
lunch	-12.1936
Samoa	-12.1939
MVP	-12.1943
humanity	-12.195
ienne	-12.195
Internal	-12.1953
Corner	-12.1954
busy	-12.1955
Phi	-12.1955
Indi	-12.196
nnes	-12.1963
Derek	-12.1963
rowing	-12.1968
unlikely	-12.1969
Pride	-12.1971
Chip	-12.1971
Agent	-12.1972
competitor	-12.1973
1824	-12.1975
hectares	-12.1977
bankruptcy	-12.1977
Lombard	-12.1978
200,000	-12.1978
Griffin	-12.1978
acceptance	-12.1978
Unfortunately	-12.1978
congress	-12.1978
paved	-12.1979
generating	-12.198
retro	-12.198
ecosystem	-12.1982
sunk	-12.1983
Factory	-12.1983
cken	-12.1985
consecrated	-12.1985
Sleep	-12.1986
attained	-12.1992
Beg	-12.1994
2020)	-12.1994
derives	-12.1996
utilized	-12.1996
Mick	-12.1999
sandstone	-12.1999
kun	-12.2
zhi	-12.2002
translate	-12.2005
Person	-12.2007
bowling	-12.2009
1815	-12.2014
accordance	-12.2026
Trinidad	-12.2027
neglect	-12.2027
Syracuse	-12.2027
Suffolk	-12.2027
Raiders	-12.2027
Mohammed	-12.2027
Surviv	-12.2027
Dylan	-12.2029
bog	-12.2032
infected	-12.2034
Gad	-12.2035
mort	-12.2036
unemployment	-12.2037
Walsh	-12.2043
Dou	-12.2044
breach	-12.2048
Anim	-12.2048
hymn	-12.2052
USC	-12.2053
morphic	-12.2054
(2)	-12.2056
Till	-12.2064
Hardy	-12.2068
Overall	-12.207
reinforced	-12.2071
Ef	-12.2075
catalog	-12.2076
Religious	-12.2077
genuine	-12.2077
Baz	-12.2077
Experiment	-12.2077
División	-12.2077
Cameroon	-12.2077
immune	-12.2077
guidelines	-12.2078
Meta	-12.2078
Linux	-12.2078
Heinrich	-12.2079
hostile	-12.208
motive	-12.2081
definitely	-12.2082
Matter	-12.2082
ncia	-12.2082
Craft	-12.2083
(2007)	-12.2085
sonic	-12.2086
nail	-12.2093
flip	-12.2094
terminated	-12.2098
reopened	-12.21
expenses	-12.21
Bavaria	-12.2115
basal	-12.2116
Comb	-12.2118
conception	-12.2121
uted	-12.2123
0.3	-12.2124
Champ	-12.2125
lesbian	-12.2127
Madonna	-12.2127
Terminal	-12.2127
Visual	-12.2128
pretty	-12.2129
approaching	-12.2129
Pond	-12.213
scrap	-12.213
Rocket	-12.2132
Appeal	-12.2132
1790	-12.2132
Monica	-12.2132
157	-12.2134
motivation	-12.2135
Soundtrack	-12.2137
cottage	-12.2137
1,4	-12.2137
accompanying	-12.2139
Lauri	-12.2139
Fighting	-12.2143
emphasize	-12.2147
witt	-12.2149
essays	-12.215
Flash	-12.215
lux	-12.215
Lima	-12.2154
cooking	-12.2155
127	-12.216
145	-12.2161
uber	-12.2162
4/	-12.2166
retaining	-12.2167
vett	-12.2167
encompass	-12.2167
maid	-12.2173
suppress	-12.2177
trumpet	-12.2177
nervous	-12.2177
subordinate	-12.2177
elephant	-12.2177
quantities	-12.2178
Ferguson	-12.2178
Heavyweight	-12.2178
decorative	-12.2178
Geoffrey	-12.2178
chromosome	-12.2178
Chemistry	-12.2179
Consequently	-12.2179
Coup	-12.2179
Content	-12.2181
Given	-12.2182
livestock	-12.2184
Flu	-12.2186
shark	-12.2186
Downtown	-12.2187
1968)	-12.2187
unofficial	-12.2188
Stro	-12.2194
Antoine	-12.2194
Rally	-12.2199
Basic	-12.2202
commercially	-12.2204
Cassi	-12.2206
ascend	-12.2209
posting	-12.221
beta	-12.2215
NK	-12.2217
punt	-12.222
Belarus	-12.2225
CBC	-12.2227
advancing	-12.2228
satisfy	-12.2228
Fantasy	-12.2228
insisted	-12.2228
nutrition	-12.2228
intelligent	-12.2228
brilliant	-12.2228
Tribune	-12.2228
Stern	-12.2229
comparative	-12.2229
appealed	-12.2229
indication	-12.2229
Montenegro	-12.2229
Kick	-12.2229
25,000	-12.223
morphism	-12.223
Siberia	-12.223
Aqua	-12.223
Kro	-12.2231
ifies	-12.2238
genome	-12.2242
descended	-12.2243
Fresh	-12.2245
controller	-12.2246
flown	-12.2249
rust	-12.225
interactive	-12.2252
coupled	-12.2255
parameters	-12.2259
heroes	-12.2265
kil	-12.2265
persuad	-12.2266
Wag	-12.2271
Hak	-12.2276
Fast	-12.2276
Wai	-12.2279
surprising	-12.2279
Progress	-12.2279
Holocaust	-12.228
Investigation	-12.228
Joshua	-12.228
Text	-12.2283
1829	-12.2284
Wait	-12.2284
Luna	-12.2285
kom	-12.2287
canvas	-12.229
strongest	-12.2294
148	-12.2294
Leigh	-12.2296
Sikh	-12.2298
riya	-12.2299
keen	-12.2304
welcome	-12.2306
oti	-12.2307
LLC	-12.231
ghan	-12.2311
ophor	-12.2313
upward	-12.2316
Slovak	-12.2318
(1)	-12.2318
reservation	-12.2319
smallest	-12.232
Engine	-12.2321
Method	-12.2327
15,000	-12.233
charitable	-12.2331
Observatory	-12.2331
defining	-12.2331
Marathon	-12.2331
phenomena	-12.2331
Gujarat	-12.2331
loyalty	-12.2332
Katherine	-12.2332
Taxonomy	-12.2332
Carson	-12.2332
glu	-12.2333
Madras	-12.2333
descendant	-12.2333
Chick	-12.2334
Concord	-12.2335
#2	-12.2335
Previously	-12.2335
Aftermath	-12.2336
Elliott	-12.2337
lighter	-12.2338
Arrow	-12.2339
vsky	-12.2339
vey	-12.234
rides	-12.2343
silk	-12.2344
Phillip	-12.2346
Dry	-12.2346
alert	-12.2348
thorpe	-12.2352
determination	-12.2352
regulate	-12.2353
revealing	-12.2354
functioning	-12.2357
Lund	-12.2362
Opti	-12.2362
turbo	-12.2364
gawa	-12.2365
destroying	-12.2366
Neuro	-12.2368
Aug	-12.2369
loch	-12.2371
surge	-12.2371
lough	-12.2381
button	-12.2381
diminish	-12.2382
celebrity	-12.2382
threshold	-12.2382
nevertheless	-12.2382
fierce	-12.2382
pseudo	-12.2382
singular	-12.2382
Felix	-12.2382
2015–16	-12.2383
intact	-12.2384
Clyde	-12.2384
Whitney	-12.2385
Creative	-12.2385
accredited	-12.2385
Concept	-12.2386
wingspan	-12.2389
Avi	-12.2392
hostage	-12.2394
Scal	-12.2398
angry	-12.2406
opted	-12.2406
projected	-12.2408
protecting	-12.241
_6	-12.241
Fork	-12.2411
Drew	-12.2414
5000	-12.2417
Sap	-12.2421
applying	-12.2422
Hack	-12.2425
Writers	-12.2426
Bruno	-12.243
linking	-12.2431
Xiao	-12.2433
enabling	-12.2433
surprised	-12.2434
Excellence	-12.2434
inquiry	-12.2434
lifting	-12.2434
explode	-12.2434
Patriarch	-12.2434
Jeffrey	-12.2434
migrants	-12.2435
Communication	-12.2437
realistic	-12.2438
alpha	-12.2439
ethics	-12.2439
regulatory	-12.244
granite	-12.2443
Motion	-12.2443
skating	-12.2446
ACC	-12.2449
shipped	-12.2453
Hang	-12.2455
dining	-12.2461
sperm	-12.2462
remake	-12.2462
Kang	-12.2462
yō	-12.2463
rocky	-12.2464
Protect	-12.2465
Composition	-12.2473
vapor	-12.2476
publishes	-12.2476
UNESCO	-12.2486
slaughter	-12.2486
Calcutta	-12.2486
qualifier	-12.2486
medication	-12.2486
diagnosis	-12.2486
sovereignty	-12.2486
platinum	-12.2486
mah	-12.2491
persist	-12.2491
Fight	-12.2494
maiden	-12.2495
skiing	-12.2496
countryside	-12.2497
Brock	-12.2499
Cock	-12.25
dump	-12.251
gameplay	-12.2511
contestants	-12.2517
Camb	-12.2519
Fran	-12.252
contradict	-12.2523
revision	-12.2523
1961)	-12.2523
Abbas	-12.2525
broader	-12.2528
Alc	-12.2529
Expo	-12.2533
penta	-12.2533
Bé	-12.2536
believing	-12.2537
disciplines	-12.2538
García	-12.2539
knife	-12.2539
Cologne	-12.2539
yuan	-12.2539
Panthers	-12.2539
Sophie	-12.254
Europa	-12.2541
Duchy	-12.2541
comparable	-12.2542
Gaza	-12.2542
PGA	-12.2545
Murder	-12.2545
Grass	-12.2546
Clinical	-12.2546
Oriental	-12.2548
machinery	-12.2548
Marina	-12.2549
1.4	-12.2551
freshman	-12.2551
Kenny	-12.2554
Rao	-12.2556
Phar	-12.2556
Basil	-12.2557
tiles	-12.2558
ancestors	-12.2567
passport	-12.257
optic	-12.2572
Image	-12.2573
rabbi	-12.2574
0–1	-12.258
chemist	-12.2589
ambi	-12.2589
technological	-12.2591
continuation	-12.2591
pseudonym	-12.2591
pregnancy	-12.2591
ardi	-12.2591
Rican	-12.2591
Holdings	-12.2592
Heavy	-12.2592
butterfly	-12.2592
Moldova	-12.2592
selective	-12.2594
Sheikh	-12.2595
freshwater	-12.2596
Seoul	-12.2602
bred	-12.2603
fauna	-12.2604
Vince	-12.2606
Kerry	-12.2606
coordinates	-12.2607
stylis	-12.2607
optional	-12.261
Tid	-12.2613
McCl	-12.2613
Matsu	-12.2613
Lub	-12.2626
Archiv	-12.2626
kirk	-12.2631
recognis	-12.2632
Tales	-12.2632
tah	-12.2633
travers	-12.2638
flux	-12.2641
Roh	-12.2643
investigating	-12.2644
Vatican	-12.2644
Scandinavia	-12.2644
garnered	-12.2644
circa	-12.2644
Rafael	-12.2644
composite	-12.2645
coral	-12.2646
turret	-12.2647
shortened	-12.2648
shk	-12.2651
1833	-12.2661
Teen	-12.2662
collaborat	-12.2663
Conrad	-12.2665
suing	-12.267
Josef	-12.267
bedroom	-12.267
reflection	-12.2674
AAA	-12.2674
hou	-12.2681
25%	-12.2682
expertise	-12.2685
kul	-12.2687
feared	-12.2691
inventor	-12.2692
disciple	-12.2697
prolific	-12.2697
Treasury	-12.2697
computing	-12.2698
sank	-12.2698
detection	-12.27
1821	-12.2704
bigger	-12.2704
xploitation	-12.2704
(2010)	-12.2711
tasked	-12.2717
gau	-12.2717
floating	-12.2718
whatever	-12.272
ICC	-12.272
Haut	-12.272
projection	-12.2721
Coleman	-12.2722
alphabet	-12.2726
tani	-12.2727
Colombian	-12.2732
veil	-12.2733
grip	-12.2735
Czechoslovakia	-12.2735
Prop	-12.2736
simil	-12.2737
annex	-12.2739
138	-12.274
Flat	-12.2742
tik	-12.2742
1956)	-12.2743
recommend	-12.2744
Holly	-12.2746
Spo	-12.2749
promoter	-12.2749
Shell	-12.2751
Producer	-12.2751
Attack	-12.2751
4.0	-12.2751
2013–14	-12.2751
surgical	-12.2751
Counsel	-12.2751
frigate	-12.2751
geometric	-12.2751
spreading	-12.2752
spectators	-12.2752
vertebrate	-12.2757
knockout	-12.2759
Bomb	-12.2761
helmet	-12.2766
1826	-12.2769
Greatest	-12.2769
breakthrough	-12.2772
uddin	-12.2773
tonnes	-12.2775
Hermann	-12.2776
deity	-12.2782
149	-12.2791
Mormon	-12.2793
listening	-12.2793
ortho	-12.2798
brush	-12.2799
Gag	-12.28
pedestrian	-12.2804
obstacle	-12.2804
chancellor	-12.2804
credible	-12.2804
embassy	-12.2805
2011–12	-12.2805
intimate	-12.2805
Garcia	-12.2807
Calvin	-12.2807
Pirates	-12.2808
diffus	-12.2809
texture	-12.2809
generic	-12.281
9,000	-12.2814
breakdown	-12.2816
Cedar	-12.2818
riff	-12.282
Northeast	-12.2821
Vul	-12.2821
duck	-12.2824
Leaf	-12.2826
Dawn	-12.2827
welcomed	-12.2836
weekday	-12.2837
stairs	-12.2842
financed	-12.2843
stereo	-12.2845
ân	-12.2846
Term	-12.2847
ushi	-12.2849
pawn	-12.2856
financing	-12.2858
Hundred	-12.2859
practitioner	-12.2859
Maharashtra	-12.2859
stained	-12.2859
2014–15	-12.2859
enlarged	-12.2859
swamp	-12.2861
subtropical	-12.2863
1825	-12.2865
Slavic	-12.2866
maritime	-12.2868
carefully	-12.2869
Carbon	-12.2869
Devi	-12.287
mechanics	-12.2874
kowski	-12.2878
Almost	-12.2878
Northwestern	-12.288
lumber	-12.2881
hog	-12.2882
identifie	-12.2883
2,500	-12.2887
fever	-12.2889
freely	-12.2891
Broadcast	-12.2898
resolve	-12.29
dimension	-12.2901
everyday	-12.2902
affecting	-12.2904
tactical	-12.2909
Sporting	-12.291
ambitious	-12.2912
syllable	-12.2912
intensive	-12.2912
Floyd	-12.2913
transmitted	-12.2913
flourish	-12.2913
Catalan	-12.2913
Kuwait	-12.2914
Leave	-12.2914
Norwich	-12.2914
Complete	-12.2915
60,000	-12.2915
harbor	-12.2915
Mosque	-12.2916
dai	-12.2917
70%	-12.2919
immigrant	-12.2924
Honda	-12.2925
tico	-12.2928
ISO	-12.2929
westward	-12.2934
1965)	-12.2935
1967)	-12.2935
Very	-12.2935
oath	-12.2937
Rath	-12.294
pressing	-12.2941
Barton	-12.2942
bordered	-12.2944
Gem	-12.2945
Valu	-12.2948
Homer	-12.2953
Kerr	-12.2955
Universit	-12.2958
buyer	-12.2961
1.8	-12.2965
accelerate	-12.2967
capturing	-12.2967
surveillance	-12.2967
deficit	-12.2967
Sinclair	-12.2968
Helsinki	-12.2968
scenario	-12.2968
Reservoir	-12.2968
autobiography	-12.2968
catalogue	-12.2969
walked	-12.2969
bundle	-12.297
Squad	-12.2971
fitness	-12.2971
posthumously	-12.2971
Emb	-12.2971
1801	-12.2973
consolidated	-12.2973
binary	-12.2973
explicitly	-12.2973
extant	-12.2974
1810	-12.2974
153	-12.2977
GDP	-12.2979
Ranch	-12.2981
mortality	-12.2982
supposedly	-12.2982
thrust	-12.2984
1983)	-12.2984
disagreement	-12.2985
modeled	-12.2986
Vernon	-12.2986
Sanders	-12.2986
Neal	-12.2988
laying	-12.2988
avoided	-12.2989
220	-12.299
Job	-12.2995
distribute	-12.2997
1959)	-12.2998
154	-12.2998
Rust	-12.2999
herb	-12.3001
Gunn	-12.3002
backward	-12.3006
Ibn	-12.3009
Georgetown	-12.3014
reef	-12.3014
cameo	-12.3018
Seventh	-12.3018
resided	-12.3021
detachment	-12.3022
Innovation	-12.3022
engaging	-12.3023
goddess	-12.3023
Schwarz	-12.3023
Cumberland	-12.3023
correspondent	-12.3023
Leopold	-12.3023
Dixon	-12.3023
Mikhail	-12.3023
Pseudo	-12.3024
Hannah	-12.3025
yacht	-12.3025
Hoffman	-12.3025
Winston	-12.3026
Fest	-12.3026
Troop	-12.3026
civilization	-12.3029
Beaver	-12.3029
bau	-12.3029
watershed	-12.303
disadvantage	-12.303
feedback	-12.3031
shooter	-12.3031
Touch	-12.3034
Below	-12.3035
Betty	-12.3037
feast	-12.3037
ecological	-12.3037
orbital	-12.304
Nest	-12.3044
=9	-12.3045
jug	-12.3045
Elder	-12.3047
119	-12.3048
1970)	-12.3049
wished	-12.3052
cyst	-12.3054
prohibit	-12.3058
1823	-12.3062
Olive	-12.3069
ograph	-12.307
advocacy	-12.3077
abolition	-12.3077
fortunate	-12.3078
postponed	-12.3078
Conservatory	-12.3078
ecclesiastical	-12.3078
Paramount	-12.3081
Hassan	-12.3083
wig	-12.3083
Isabel	-12.3085
Levi	-12.3085
porch	-12.3085
assessed	-12.3089
modeling	-12.309
rico	-12.3092
1963)	-12.3094
unified	-12.3097
Casey	-12.3103
Koch	-12.3106
Hence	-12.3107
Must	-12.3108
Freeman	-12.3108
Arabian	-12.3109
Engineer	-12.3109
ambo	-12.311
Meg	-12.3117
guer	-12.3118
siding	-12.312
Latvia	-12.3121
Italia	-12.3122
cheer	-12.3124
Lag	-12.3126
progressed	-12.3127
Ultimate	-12.3127
anonymous	-12.3133
admiral	-12.3133
nobility	-12.3133
practis	-12.3133
Sacramento	-12.3133
armament	-12.3133
Reverend	-12.3133
mathematician	-12.3133
Evangelical	-12.3133
Netflix	-12.3133
Glacier	-12.3133
Eleanor	-12.3134
expired	-12.3134
dirt	-12.3134
collaborative	-12.3134
symbolic	-12.3134
Guitar	-12.3135
casino	-12.3135
Session	-12.3135
dropping	-12.3135
Success	-12.3135
reversed	-12.3136
enbach	-12.3137
1816	-12.3138
Pierce	-12.3138
Kaiser	-12.3139
Sister	-12.3142
Xbox	-12.3143
Mix	-12.3144
transcription	-12.3145
Archer	-12.3146
Tac	-12.3148
Saxony	-12.3149
Ethiopian	-12.3151
Hyde	-12.3153
Hyper	-12.3153
Aviv	-12.3158
1813	-12.3159
Tah	-12.316
charm	-12.3168
ovsk	-12.3178
seventeen	-12.3178
recht	-12.3179
repaired	-12.3181
123	-12.3183
nab	-12.3186
Zar	-12.3188
excluding	-12.3188
chassis	-12.3189
Baghdad	-12.3189
Reagan	-12.3189
calculation	-12.3189
Activities	-12.319
Battery	-12.319
Mud	-12.3192
Crisis	-12.3193
rehabilitation	-12.3193
Applications	-12.3194
orium	-12.3195
Borg	-12.3195
Chapman	-12.3195
Biology	-12.3196
Cities	-12.3196
handful	-12.3197
Dag	-12.3198
Maple	-12.3201
persuaded	-12.3202
teaches	-12.3202
2019–20	-12.3202
catcher	-12.3202
Gov	-12.3203
proximate	-12.3204
ikh	-12.3208
agenda	-12.3209
finest	-12.3212
sacked	-12.3213
pong	-12.3221
Barber	-12.3223
UCI	-12.3224
secretly	-12.323
ndorf	-12.3232
meteor	-12.3237
unanimous	-12.3238
124	-12.3239
Raf	-12.324
fountain	-12.3245
uspicious	-12.3245
Baroque	-12.3245
triumph	-12.3245
Script	-12.3245
Schmidt	-12.3246
Timothy	-12.3246
Babylon	-12.3246
consulting	-12.3246
contrary	-12.3247
Friend	-12.3249
Honorary	-12.3249
demographic	-12.3249
convent	-12.325
Ferrari	-12.3251
Norton	-12.3254
Noble	-12.3258
Silesia	-12.3259
Rav	-12.326
Tip	-12.326
bent	-12.327
Jackie	-12.3274
marched	-12.3278
Lut	-12.3283
pupil	-12.3284
erect	-12.3285
Allies	-12.3285
sanction	-12.329
seeded	-12.3293
capped	-12.3299
tendency	-12.3301
Rebel	-12.3301
Partners	-12.3302
notorious	-12.3302
Congressional	-12.3302
2012–13	-12.3302
puzzle	-12.3302
chicken	-12.3303
Livingston	-12.3303
Function	-12.3304
Blackburn	-12.3307
Dim	-12.3307
Michelle	-12.331
Spur	-12.3311
Lambert	-12.3315
acci	-12.3315
graphical	-12.3315
threaten	-12.3319
steady	-12.3321
Johannes	-12.3321
ladder	-12.3322
hiding	-12.3325
doll	-12.3326
blamed	-12.3327
Advance	-12.3329
AllMusic	-12.3331
Venus	-12.3332
brace	-12.3336
Cull	-12.3337
(2004)	-12.3338
Aki	-12.3339
teenage	-12.334
2.3	-12.3343
Janet	-12.3345
7.5	-12.3349
evoke	-12.3353
Boh	-12.3356
2.4	-12.3356
Democracy	-12.3358
Embassy	-12.3358
confined	-12.3358
jersey	-12.3358
substrate	-12.3359
Newark	-12.3359
sanctuary	-12.3359
pursuing	-12.3359
CNN	-12.3359
maz	-12.3359
Fashion	-12.3359
synthetic	-12.3359
Omaha	-12.3359
remarked	-12.336
Francesco	-12.336
Period	-12.336
cuisine	-12.336
missionaries	-12.3361
Normandy	-12.3361
Behind	-12.3364
Manchu	-12.3366
Regard	-12.3368
bump	-12.3372
Sci	-12.3374
Gio	-12.3375
Honey	-12.3375
Quinn	-12.3375
Wong	-12.3376
landowner	-12.3378
motorway	-12.3383
zol	-12.3391
117	-12.3393
bah	-12.3396
wonder	-12.3397
Bergen	-12.3398
funk	-12.3403
gren	-12.3404
humanitarian	-12.3415
struggling	-12.3415
Tao	-12.3415
nucleus	-12.3416
constituent	-12.3416
Abdullah	-12.3416
cultivated	-12.3416
occurrence	-12.3416
lizard	-12.3416
antagonist	-12.3416
ggio	-12.3417
Viscount	-12.3417
Jessica	-12.3418
evacuation	-12.3418
mapping	-12.3418
boo	-12.3419
Jacksonville	-12.3421
protective	-12.3422
Promotion	-12.3422
Nordic	-12.3424
imagery	-12.3427
medalist	-12.343
boyfriend	-12.343
Elite	-12.343
recommendation	-12.3436
sufficiently	-12.3438
smart	-12.3443
Host	-12.3444
Joel	-12.3448
niece	-12.3448
tending	-12.3454
Hild	-12.3456
radius	-12.3456
analys	-12.3458
Kind	-12.346
Chao	-12.3467
commend	-12.3472
charging	-12.3473
reconcil	-12.3473
gravity	-12.3473
archaeologist	-12.3473
settling	-12.3473
Pearson	-12.3473
USD	-12.3473
consonant	-12.3474
Gloria	-12.3474
suffix	-12.3474
spatial	-12.3475
Dodgers	-12.3475
Auburn	-12.3475
Tucker	-12.3476
intervene	-12.3477
demanding	-12.3482
fox	-12.3483
osaurus	-12.3484
León	-12.3487
Telegraph	-12.3489
pipeline	-12.3489
Alder	-12.3491
hp	-12.3492
hexa	-12.3497
deeper	-12.3498
gravel	-12.3503
mum	-12.3505
textbook	-12.3507
loaned	-12.3508
spiring	-12.3511
Monk	-12.3513
lub	-12.3515
azza	-12.3515
Door	-12.3516
ć	-12.3517
Cou	-12.3518
rigg	-12.3522
choosing	-12.353
Luther	-12.353
sovereign	-12.3531
Brigadier	-12.3531
conceal	-12.3531
supervised	-12.3531
Bermuda	-12.3531
ignored	-12.3531
captive	-12.3531
burden	-12.3534
Raion	-12.3535
spanning	-12.3535
Exeter	-12.3536
(2005)	-12.3539
2.9	-12.3539
disappear	-12.3539
Connell	-12.3543
explorer	-12.3543
wu	-12.3545
imitation	-12.3545
Alta	-12.3552
Patriot	-12.3554
Kati	-12.3557
133	-12.3566
Evil	-12.3579
owitz	-12.3585
Kemp	-12.3586
faithful	-12.3587
Commodore	-12.3589
illusion	-12.3589
frequencies	-12.3589
penalties	-12.3589
Hyderabad	-12.3589
Gloucester	-12.3589
replied	-12.3589
auxiliary	-12.3589
Patricia	-12.3589
searching	-12.359
Jenkins	-12.359
Twelve	-12.359
integer	-12.359
Synopsis	-12.3591
Cyril	-12.3591
Pablo	-12.3591
robust	-12.3592
slogan	-12.3592
potato	-12.3593
heaven	-12.3593
IRA	-12.3594
batsman	-12.3596
nonprofit	-12.3597
evacuated	-12.3597
Mell	-12.3599
brib	-12.3602
Terror	-12.3603
Kip	-12.3603
monk	-12.3609
Bengali	-12.3611
Osborn	-12.3613
displaced	-12.3614
Saw	-12.3615
commuter	-12.3616
ouch	-12.3616
lach	-12.3616
whi	-12.3619
proportional	-12.3621
emphasized	-12.3624
Roc	-12.3626
alaya	-12.3639
trustees	-12.364
hyp	-12.3644
flesh	-12.3645
corrupt	-12.3646
nitrogen	-12.3647
Davidson	-12.3647
detained	-12.3647
Gardner	-12.3647
Judaism	-12.3648
González	-12.3648
Patterson	-12.3648
swept	-12.3648
Sutton	-12.3648
Swift	-12.3648
pyramid	-12.3648
boycott	-12.3648
Beverly	-12.3648
Different	-12.3648
Cotton	-12.365
Cliff	-12.365
$20	-12.365
Toledo	-12.3651
wireless	-12.3651
Munster	-12.3652
Boot	-12.3652
ideology	-12.3652
forested	-12.3652
jumping	-12.3652
lunar	-12.3654
Frontier	-12.3654
princess	-12.3654
insult	-12.3655
downstream	-12.3657
HBO	-12.3657
126	-12.3658
(2006)	-12.3659
mortar	-12.3661
Khar	-12.3662
broker	-12.3662
1818	-12.3663
Standing	-12.3664
Resolution	-12.3664
Gaz	-12.3665
northward	-12.3667
gloss	-12.3668
Parade	-12.3668
Sometimes	-12.3668
sixty	-12.3676
Omar	-12.3677
chef	-12.3677
collaborator	-12.3681
oides	-12.3684
Tay	-12.3688
Cruise	-12.369
Petit	-12.369
resume	-12.3702
facto	-12.3705
demonstrating	-12.3706
homeless	-12.3706
Māori	-12.3706
suffrage	-12.3706
relied	-12.3707
Tehran	-12.3707
Xavier	-12.3707
Bundesliga	-12.3707
Sacred	-12.3707
Lecture	-12.3707
Metacritic	-12.3708
Webster	-12.3708
Genesis	-12.3709
Giro	-12.3709
Middlesex	-12.371
motivated	-12.3711
Zap	-12.3717
Primera	-12.3723
Cath	-12.3723
Lap	-12.3724
frontier	-12.3731
inhibitor	-12.3734
Think	-12.3735
118	-12.3737
UTC	-12.3738
Holt	-12.3746
sexually	-12.3755
gaming	-12.376
brass	-12.3762
geological	-12.3763
supplier	-12.3765
devotion	-12.3765
abundant	-12.3765
puppet	-12.3766
melody	-12.3766
Winchester	-12.3766
occupies	-12.3766
dedication	-12.3766
Meadow	-12.3766
supervisor	-12.3766
bracket	-12.3766
Karnataka	-12.3766
detention	-12.3766
cardinal	-12.3766
Graf	-12.3767
Stories	-12.3768
displacement	-12.3768
momentum	-12.377
Spr	-12.3772
Cherry	-12.3772
hound	-12.3774
$8	-12.3774
monkey	-12.3777
Rising	-12.3778
sanctioned	-12.3779
tress	-12.3782
Pomp	-12.3789
1944)	-12.3795
contestant	-12.3798
acknowledge	-12.38
mmel	-12.38
Sally	-12.3801
loot	-12.3801
donation	-12.3801
collar	-12.3801
regain	-12.3802
147	-12.3804
Root	-12.3805
Thu	-12.3806
orient	-12.3807
1803	-12.3809
Kitt	-12.3811
conquer	-12.3813
accord	-12.3814
garh	-12.3816
breaker	-12.3817
Farr	-12.3818
Guil	-12.3819
incorporating	-12.3824
ceremonial	-12.3825
maneuver	-12.3825
primitive	-12.3825
smoking	-12.3825
Ibrahim	-12.3826
Universities	-12.3826
discography	-12.3827
filling	-12.3828
dairy	-12.3829
blank	-12.3829
reflecting	-12.3829
hoping	-12.3831
Barrett	-12.3831
Mao	-12.3837
passive	-12.3838
iku	-12.3838
ković	-12.384
regained	-12.3843
0.6	-12.3844
Psych	-12.3845
wages	-12.3847
Fuller	-12.3849
Tib	-12.3852
Sofia	-12.3852
$10	-12.3852
hani	-12.386
dental	-12.3862
diction	-12.3863
guaranteed	-12.3863
lymph	-12.3864
agged	-12.3865
Shawn	-12.3866
Morton	-12.3866
Peterson	-12.3868
framed	-12.3879
bahn	-12.3883
McCarthy	-12.3885
confluence	-12.3885
pharmaceutical	-12.3885
inflation	-12.3885
Ipswich	-12.3885
Philharmonic	-12.3885
vascular	-12.3886
weakened	-12.3886
Buckingham	-12.3886
attributes	-12.3886
Variety	-12.3886
Zambia	-12.3887
Beauty	-12.3888
applies	-12.389
René	-12.3893
proud	-12.3894
Expressway	-12.3895
1805	-12.3896
cardio	-12.3898
accounting	-12.39
Afro	-12.3909
avant	-12.3912
ancestor	-12.3913
ecology	-12.3918
Miz	-12.3919
colleague	-12.392
1700	-12.3921
Roland	-12.3924
balanced	-12.3926
identifying	-12.3928
courage	-12.3937
(3)	-12.3938
Cai	-12.3941
parked	-12.3943
hwa	-12.3944
deciding	-12.3945
presumably	-12.3945
Leipzig	-12.3945
Traffic	-12.3946
Evolution	-12.3946
Jaguar	-12.3946
rental	-12.3946
2004)	-12.3947
triangle	-12.3948
rotating	-12.3949
1953)	-12.3951
[...]
