<unk>	0
<s>	0
</s>	0
▁t	-0
he	-1
▁a	-2
in	-3
er	-4
▁the	-5
on	-6
re	-7
▁o	-8
nd	-9
ed	-10
▁s	-11
at	-12
▁w	-13
or	-14
is	-15
en	-16
an	-17
ar	-18
it	-19
al	-20
▁of	-21
es	-22
▁in	-23
▁f	-24
▁c	-25
▁b	-26
as	-27
▁p	-28
▁and	-29
ing	-30
ic	-31
ion	-32
ro	-33
▁to	-34
▁m	-35
le	-36
▁d	-37
▁S	-38
▁T	-39
ou	-40
▁h	-41
▁A	-42
▁C	-43
il	-44
ent	-45
▁1	-46
am	-47
▁re	-48
st	-49
om	-50
el	-51
▁M	-52
ol	-53
▁l	-54
ct	-55
▁was	-56
▁I	-57
ad	-58
▁B	-59
▁e	-60
▁n	-61
▁th	-62
▁H	-63
ur	-64
▁The	-65
ch	-66
et	-67
▁P	-68
iv	-69
ation	-70
▁"	-71
▁for	-72
▁on	-73
▁2	-74
ly	-75
id	-76
▁is	-77
ce	-78
ir	-79
ig	-80
ot	-81
im	-82
us	-83
▁g	-84
ut	-85
▁R	-86
la	-87
ra	-88
ter	-89
▁as	-90
▁D	-91
ow	-92
▁(	-93
▁be	-94
ith	-95
▁F	-96
▁19	-97
▁L	-98
ers	-99
▁st	-100
un	-101
▁he	-102
em	-103
▁with	-104
▁G	-105
ist	-106
▁N	-107
▁W	-108
▁20	-109
▁by	-110
ul	-111
th	-112
ver	-113
▁E	-114
▁J	-115
▁at	-116
▁al	-117
▁wh	-118
os	-119
ay	-120
rom	-121
▁an	-122
▁con	-123
um	-124
her	-125
ge	-126
▁that	-127
▁O	-128
ri	-129
est	-130
▁In	-131
▁de	-132
op	-133
oc	-134
▁from	-135
▁se	-136
▁v	-137
▁pro	-138
▁com	-139
ain	-140
pe	-141
▁it	-142
ity	-143
od	-144
ac	-145
if	-146
and	-147
ate	-148
res	-149
art	-150
av	-151
ber	-152
up	-153
ies	-154
ud	-155
▁his	-156
▁K	-157
▁U	-158
ia	-159
ew	-160
ort	-161
all	-162
ian	-163
ard	-164
ab	-165
se	-166
ore	-167
ich	-168
ub	-169
▁or	-170
ld	-171
ated	-172
ak	-173
igh	-174
qu	-175
ill	-176
ip	-177
▁St	-178
▁are	-179
ess	-180
ag	-181
ere	-182
▁201	-183
ant	-184
▁r	-185
ov	-186
ment	-187
ive	-188
▁ch	-189
ary	-190
▁ex	-191
ap	-192
oun	-193
ong	-194
ug	-195
▁were	-196
ial	-197
▁He	-198
our	-199
und	-200
▁Ch	-201
ame	-202
ear	-203
ast	-204
ction	-205
ine	-206
▁le	-207
ell	-208
▁V	-209
▁which	-210
red	-211
og	-212
ust	-213
ost	-214
uc	-215
ish	-216
▁200	-217
so	-218
ord	-219
te	-220
▁y	-221
ical	-222
▁sh	-223
mer	-224
ran	-225
ther	-226
ork	-227
▁comp	-228
ts	-229
▁pla	-230
ue	-231
cl	-232
▁k	-233
irst	-234
▁had	-235
ie	-236
▁also	-237
pt	-238
▁un	-239
ure	-240
ous	-241
ff	-242
▁has	-243
ition	-244
▁It	-245
amp	-246
ric	-247
ign	-248
▁not	-249
ry	-250
▁first	-251
ok	-252
erv	-253
▁whe	-254
fter	-255
▁18	-256
per	-257
▁Un	-258
iz	-259
ire	-260
port	-261
ave	-262
▁te	-263
ass	-264
ome	-265
rit	-266
▁ar	-267
ight	-268
ide	-269
own	-270
are	-271
ond	-272
▁cont	-273
▁Th	-274
▁ro	-275
hed	-276
ater	-277
▁us	-278
man	-279
",	-280
ory	-281
wo	-282
▁their	-283
▁ad	-284
▁part	-285
▁its	-286
ice	-287
ount	-288
▁Re	-289
▁ap	-290
ree	-291
ational	-292
sh	-293
▁who	-294
ect	-295
00	-296
▁res	-297
ang	-298
age	-299
▁cl	-300
▁her	-301
land	-302
ach	-303
clud	-304
ack	-305
▁but	-306
▁3	-307
▁year	-308
to	-309
),	-310
ime	-311
▁j	-312
ence	-313
low	-314
ens	-315
ound	-316
▁play	-317
▁Al	-318
ib	-319
cc	-320
ult	-321
▁one	-322
orn	-323
▁ab	-324
▁Y	-325
".	-326
ations	-327
out	-328
ould	-329
ugh	-330
ren	-331
tern	-332
ph	-333
fer	-334
ally	-335
ru	-336
over	-337
).	-338
ark	-339
▁bec	-340
▁per	-341
wn	-342
▁ag	-343
▁have	-344
▁includ	-345
▁two	-346
ool	-347
uring	-348
▁rec	-349
ke	-350
▁this	-351
ade	-352
ember	-353
ates	-354
▁man	-355
▁De	-356
ile	-357
ild	-358
ubl	-359
▁Se	-360
ces	-361
▁been	-362
oin	-363
ck	-364
▁work	-365
for	-366
▁199	-367
▁On	-368
▁other	-369
ased	-370
old	-371
ited	-372
act	-373
▁sc	-374
ied	-375
▁en	-376
vel	-377
▁Ar	-378
ents	-379
▁after	-380
we	-381
▁dis	-382
les	-383
urn	-384
▁comm	-385
ely	-386
gh	-387
aw	-388
uch	-389
ite	-390
chool	-391
ted	-392
▁im	-393
▁Mar	-394
▁sp	-395
▁Le	-396
▁des	-397
ason	-398
▁As	-399
▁out	-400
ors	-401
▁up	-402
▁An	-403
ivers	-404
ward	-405
▁over	-406
one	-407
iss	-408
ress	-409
ath	-410
oy	-411
ind	-412
ase	-413
ail	-414
▁spe	-415
▁ra	-416
▁ne	-417
▁she	-418
gan	-419
▁off	-420
ose	-421
▁serv	-422
ced	-423
▁4	-424
ions	-425
▁they	-426
ance	-427
▁new	-428
ob	-429
▁loc	-430
▁New	-431
▁Com	-432
able	-433
ings	-434
▁ev	-435
▁und	-436
▁into	-437
ough	-438
▁all	-439
pl	-440
inal	-441
outh	-442
▁ele	-443
ood	-444
ilm	-445
ican	-446
io	-447
▁tra	-448
▁198	-449
cted	-450
▁pre	-451
▁gro	-452
▁form	-453
way	-454
▁time	-455
ons	-456
ne	-457
rough	-458
▁can	-459
▁under	-460
▁sec	-461
rib	-462
▁col	-463
ton	-464
orld	-465
du	-466
19	-467
▁5	-468
ics	-469
▁him	-470
ished	-471
ily	-472
▁reg	-473
▁kn	-474
▁bu	-475
▁pl	-476
ious	-477
ram	-478
oth	-479
ral	-480
▁bet	-481
ft	-482
▁more	-483
▁Amer	-484
oh	-485
ollow	-486
▁team	-487
orth	-488
▁years	-489
ick	-490
ake	-491
▁when	-492
ans	-493
ship	-494
▁would	-495
▁where	-496
ife	-497
▁En	-498
ual	-499
▁197	-500
rad	-501
ve	-502
form	-503
ince	-504
▁publ	-505
ener	-506
▁season	-507
▁cons	-508
cess	-509
▁Sh	-510
▁stud	-511
olog	-512
arly	-513
ween	-514
0,	-515
▁during	-516
ident	-517
▁ind	-518
▁again	-519
▁rep	-520
▁This	-521
ron	-522
ook	-523
▁ret	-524
▁She	-525
▁op	-526
ating	-527
▁pol	-528
ah	-529
▁we	-530
▁sub	-531
iversity	-532
▁film	-533
duc	-534
▁cent	-535
rans	-536
▁me	-537
▁only	-538
▁6	-539
ision	-540
▁sup	-541
The	-542
che	-543
▁found	-544
▁pe	-545
▁act	-546
ative	-547
ix	-548
▁inter	-549
▁most	-550
▁pr	-551
▁ass	-552
▁qu	-553
ball	-554
ered	-555
▁between	-556
use	-557
oot	-558
ouse	-559
▁rele	-560
▁fam	-561
ict	-562
cial	-563
▁att	-564
ities	-565
▁Col	-566
overn	-567
▁Ind	-568
▁Pro	-569
▁three	-570
end	-571
iel	-572
ins	-573
▁acc	-574
ank	-575
ock	-576
any	-577
fore	-578
▁app	-579
▁196	-580
aj	-581
▁fe	-582
▁follow	-583
▁through	-584
ik	-585
▁co	-586
▁rem	-587
▁made	-588
▁there	-589
als	-590
▁pres	-591
pr	-592
▁sy	-593
▁rel	-594
."	-595
▁later	-596
▁Z	-597
▁num	-598
▁then	-599
▁United	-600
ific	-601
▁them	-602
ames	-603
ived	-604
▁mov	-605
ann	-606
oci	-607
ace	-608
▁dist	-609
▁pop	-610
▁about	-611
▁became	-612
round	-613
▁used	-614
az	-615
▁second	-616
▁end	-617
▁such	-618
reat	-619
ier	-620
emb	-621
▁Con	-622
ten	-623
1,	-624
▁University	-625
air	-626
inn	-627
▁so	-628
▁American	-629
▁known	-630
ular	-631
▁ac	-632
0.	-633
son	-634
▁school	-635
ale	-636
arg	-637
▁At	-638
▁inv	-639
velop	-640
7,	-641
att	-642
▁than	-643
hen	-644
ober	-645
ject	-646
▁inc	-647
▁some	-648
▁def	-649
ury	-650
ever	-651
bum	-652
▁ent	-653
led	-654
▁prov	-655
▁194	-656
5,	-657
ople	-658
▁am	-659
erm	-660
arl	-661
rict	-662
▁dec	-663
▁four	-664
ines	-665
▁well	-666
▁being	-667
eries	-668
usic	-669
▁record	-670
ional	-671
til	-672
▁trans	-673
▁ed	-674
pos	-675
▁Sc	-676
ement	-677
▁Joh	-678
4,	-679
iver	-680
8,	-681
ley	-682
▁call	-683
ash	-684
ina	-685
iam	-686
ather	-687
▁including	-688
ros	-689
ield	-690
▁195	-691
istory	-692
ars	-693
▁pos	-694
ctor	-695
▁set	-696
une	-697
▁Eng	-698
2,	-699
▁After	-700
6,	-701
▁art	-702
▁For	-703
▁appe	-704
▁do	-705
ures	-706
ep	-707
arri	-708
very	-709
▁album	-710
▁dire	-711
▁lead	-712
iew	-713
9,	-714
▁against	-715
areer	-716
eb	-717
ys	-718
▁rece	-719
owever	-720
ern	-721
▁7	-722
20	-723
stit	-724
urch	-725
▁before	-726
its	-727
ists	-728
▁sing	-729
▁count	-730
▁add	-731
▁sign	-732
other	-733
ism	-734
▁cre	-735
▁while	-736
tain	-737
▁John	-738
ty	-739
cy	-740
▁May	-741
enn	-742
ague	-743
ired	-744
▁many	-745
ise	-746
3,	-747
▁Comm	-748
▁Is	-749
▁med	-750
▁Cl	-751
▁ph	-752
▁est	-753
▁sur	-754
arn	-755
▁until	-756
▁main	-757
raph	-758
▁Fran	-759
ister	-760
▁Be	-761
erman	-762
▁group	-763
ike	-764
stem	-765
▁Te	-766
ute	-767
▁may	-768
▁Q	-769
▁Jan	-770
illa	-771
▁World	-772
der	-773
ll	-774
▁develop	-775
▁own	-776
▁17	-777
erson	-778
ower	-779
overnment	-780
ural	-781
▁bro	-782
▁States	-783
▁National	-784
▁cap	-785
ution	-786
▁family	-787
▁high	-788
▁writ	-789
▁both	-790
▁number	-791
▁–	-792
ized	-793
▁show	-794
▁people	-795
ven	-796
▁met	-797
amed	-798
▁oper	-799
▁spec	-800
▁8	-801
▁name	-802
▁fin	-803
▁played	-804
elf	-805
▁mod	-806
▁em	-807
▁song	-808
ting	-809
aid	-810
ek	-811
▁Count	-812
▁go	-813
▁sever	-814
uro	-815
▁no	-816
▁Ph	-817
▁build	-818
▁Ju	-819
▁Ad	-820
ctions	-821
▁mon	-822
▁orig	-823
▁day	-824
uss	-825
▁released	-826
▁Aust	-827
tend	-828
000	-829
ved	-830
ternational	-831
ulation	-832
▁193	-833
▁min	-834
ootball	-835
1.	-836
▁area	-837
▁dif	-838
▁series	-839
▁start	-840
▁Sp	-841
▁exp	-842
▁won	-843
▁School	-844
con	-845
▁Ge	-846
▁9	-847
uary	-848
▁gener	-849
ters	-850
▁life	-851
▁fl	-852
▁char	-853
ually	-854
ives	-855
ird	-856
▁mat	-857
ampion	-858
▁Brit	-859
▁design	-860
▁offic	-861
ugust	-862
gram	-863
▁Nov	-864
ey	-865
▁sm	-866
ai	-867
▁Wh	-868
2.	-869
▁War	-870
▁comple	-871
ple	-872
▁South	-873
ract	-874
rid	-875
▁back	-876
ful	-877
fess	-878
▁ann	-879
▁var	-880
▁August	-881
▁German	-882
cept	-883
ax	-884
ograph	-885
▁long	-886
▁system	-887
ues	-888
▁His	-889
▁career	-890
▁called	-891
the	-892
my	-893
▁several	-894
ior	-895
por	-896
▁16	-897
▁Can	-898
▁suc	-899
▁run	-900
▁open	-901
▁early	-902
eng	-903
by	-904
▁return	-905
ajor	-906
▁state	-907
▁public	-908
▁following	-909
ptember	-910
ull	-911
▁March	-912
ission	-913
xt	-914
▁June	-915
ause	-916
▁same	-917
▁will	-918
omen	-919
arm	-920
uth	-921
ital	-922
rop	-923
▁Oct	-924
▁January	-925
iet	-926
▁feat	-927
5.	-928
ology	-929
▁contin	-930
els	-931
▁int	-932
icip	-933
imes	-934
ants	-935
aking	-936
▁produ	-937
▁organ	-938
▁city	-939
▁ob	-940
▁September	-941
ium	-942
rist	-943
▁They	-944
ross	-945
▁former	-946
▁music	-947
▁July	-948
▁10	-949
▁October	-950
ene	-951
duced	-952
▁began	-953
▁Cent	-954
abl	-955
▁these	-956
▁York	-957
▁Or	-958
mber	-959
pril	-960
rand	-961
lege	-962
▁(19	-963
4.	-964
▁use	-965
▁game	-966
stru	-967
3.	-968
▁Me	-969
ised	-970
vent	-971
ient	-972
▁bel	-973
ided	-974
▁Euro	-975
ets	-976
ilt	-977
iving	-978
resent	-979
ped	-980
▁near	-981
▁County	-982
ured	-983
ments	-984
▁town	-985
▁since	-986
▁April	-987
▁cur	-988
ued	-989
cember	-990
▁15	-991
▁any	-992
ible	-993
7.	-994
au	-995
▁child	-996
ared	-997
▁remain	-998
▁join	-999
8.	-1000
▁inf	-1001
▁government	-1002
▁November	-1003
ility	-1004
▁&	-1005
6.	-1006
▁head	-1007
ange	-1008
rent	-1009
ink	-1010
oman	-1011
▁eff	-1012
ined	-1013
▁There	-1014
▁December	-1015
▁North	-1016
ris	-1017
▁Ass	-1018
▁located	-1019
▁land	-1020
▁support	-1021
▁compet	-1022
ica	-1023
▁prom	-1024
ble	-1025
▁station	-1026
▁Pol	-1027
ales	-1028
oard	-1029
▁air	-1030
▁All	-1031
▁192	-1032
part	-1033
▁commun	-1034
ox	-1035
ret	-1036
min	-1037
lay	-1038
▁along	-1039
▁program	-1040
wards	-1041
embers	-1042
ically	-1043
9.	-1044
arch	-1045
▁disc	-1046
▁(1	-1047
▁bl	-1048
▁club	-1049
▁Man	-1050
▁'	-1051
ove	-1052
▁held	-1053
▁villa	-1054
mp	-1055
ae	-1056
ampionship	-1057
amb	-1058
▁did	-1059
▁Austral	-1060
▁each	-1061
▁pass	-1062
▁occ	-1063
▁place	-1064
▁City	-1065
yl	-1066
pend	-1067
▁polit	-1068
▁State	-1069
▁tit	-1070
▁poin	-1071
▁took	-1072
ices	-1073
▁book	-1074
▁named	-1075
▁population	-1076
aving	-1077
▁British	-1078
▁small	-1079
▁Europe	-1080
ruary	-1081
ebruary	-1082
▁desc	-1083
▁gu	-1084
▁differ	-1085
▁sim	-1086
▁member	-1087
ec	-1088
ery	-1089
▁local	-1090
▁191	-1091
ring	-1092
chn	-1093
af	-1094
▁Pr	-1095
▁home	-1096
rol	-1097
▁Will	-1098
▁major	-1099
let	-1100
▁band	-1101
yn	-1102
▁dr	-1103
view	-1104
▁served	-1105
▁February	-1106
▁success	-1107
▁However	-1108
▁could	-1109
▁establ	-1110
ival	-1111
▁received	-1112
▁League	-1113
▁company	-1114
▁house	-1115
orm	-1116
ator	-1117
▁$	-1118
▁Gu	-1119
istor	-1120
▁Dist	-1121
▁event	-1122
illion	-1123
ats	-1124
▁members	-1125
▁US	-1126
▁Car	-1127
▁ins	-1128
▁class	-1129
ilit	-1130
▁Bro	-1131
ored	-1132
▁born	-1133
▁football	-1134
▁Am	-1135
augh	-1136
hes	-1137
lack	-1138
tle	-1139
▁-	-1140
▁world	-1141
erg	-1142
▁inst	-1143
ula	-1144
ane	-1145
▁12	-1146
▁final	-1147
arge	-1148
▁str	-1149
med	-1150
▁around	-1151
born	-1152
▁Ed	-1153
▁age	-1154
ony	-1155
▁tr	-1156
▁Co	-1157
inc	-1158
ately	-1159
▁II	-1160
▁list	-1161
▁national	-1162
ience	-1163
ording	-1164
▁.	-1165
alif	-1166
cer	-1167
ences	-1168
▁Af	-1169
▁charact	-1170
alth	-1171
▁down	-1172
ham	-1173
▁term	-1174
▁line	-1175
▁Mon	-1176
ung	-1177
▁single	-1178
▁due	-1179
▁West	-1180
▁bus	-1181
▁Min	-1182
ling	-1183
oss	-1184
▁ext	-1185
reen	-1186
ott	-1187
ivision	-1188
itions	-1189
ians	-1190
▁based	-1191
▁built	-1192
isc	-1193
▁last	-1194
me	-1195
iness	-1196
▁old	-1197
▁eng	-1198
▁ref	-1199
ask	-1200
pro	-1201
▁King	-1202
▁cour	-1203
ille	-1204
▁now	-1205
▁report	-1206
ently	-1207
oung	-1208
▁Ex	-1209
▁During	-1210
▁hel	-1211
ounc	-1212
▁Ab	-1213
▁refer	-1214
▁Bar	-1215
▁law	-1216
▁six	-1217
▁History	-1218
▁left	-1219
vers	-1220
ality	-1221
▁Geor	-1222
▁profess	-1223
arried	-1224
uck	-1225
▁("	-1226
▁Christ	-1227
▁north	-1228
▁deb	-1229
▁species	-1230
▁Her	-1231
ches	-1232
▁said	-1233
▁Canad	-1234
▁century	-1235
atic	-1236
▁appro	-1237
though	-1238
–1	-1239
▁include	-1240
▁death	-1241
pect	-1242
▁rest	-1243
row	-1244
iod	-1245
com	-1246
▁Har	-1247
que	-1248
▁within	-1249
ights	-1250
ages	-1251
apan	-1252
▁camp	-1253
ze	-1254
▁det	-1255
rew	-1256
▁mark	-1257
▁died	-1258
▁vers	-1259
ides	-1260
▁represent	-1261
▁published	-1262
urg	-1263
▁car	-1264
▁top	-1265
aster	-1266
▁because	-1267
ode	-1268
▁included	-1269
ature	-1270
▁building	-1271
▁ty	-1272
lev	-1273
▁And	-1274
ese	-1275
▁High	-1276
rench	-1277
get	-1278
▁Reg	-1279
▁Sw	-1280
ency	-1281
▁village	-1282
ety	-1283
▁describ	-1284
estern	-1285
▁large	-1286
ration	-1287
tal	-1288
ster	-1289
▁present	-1290
▁requ	-1291
day	-1292
▁result	-1293
▁conf	-1294
▁consid	-1295
eth	-1296
uff	-1297
▁11	-1298
▁five	-1299
▁Mc	-1300
omin	-1301
▁Rep	-1302
ization	-1303
▁larg	-1304
▁leg	-1305
cent	-1306
iven	-1307
eder	-1308
▁south	-1309
▁educ	-1310
▁El	-1311
bor	-1312
▁fac	-1313
▁colle	-1314
hip	-1315
▁190	-1316
▁College	-1317
▁Par	-1318
lish	-1319
ively	-1320
▁202	-1321
ief	-1322
▁Japan	-1323
▁Part	-1324
angu	-1325
▁William	-1326
▁manag	-1327
ner	-1328
ps	-1329
▁District	-1330
▁allow	-1331
ouncil	-1332
▁person	-1333
▁adv	-1334
used	-1335
ially	-1336
▁tri	-1337
▁post	-1338
▁13	-1339
▁third	-1340
reet	-1341
alk	-1342
uthor	-1343
▁14	-1344
▁Park	-1345
eter	-1346
▁just	-1347
▁French	-1348
▁incre	-1349
uk	-1350
▁Air	-1351
▁moved	-1352
▁perform	-1353
laim	-1354
▁men	-1355
oad	-1356
▁still	-1357
ves	-1358
tended	-1359
▁those	-1360
▁different	-1361
▁current	-1362
▁English	-1363
▁dem	-1364
work	-1365
▁stand	-1366
▁period	-1367
▁po	-1368
▁trad	-1369
▁par	-1370
▁resp	-1371
ana	-1372
ocial	-1373
▁short	-1374
▁vis	-1375
▁Bl	-1376
ays	-1377
▁lit	-1378
▁addition	-1379
▁children	-1380
ified	-1381
ining	-1382
inning	-1383
▁crit	-1384
ography	-1385
ata	-1386
ford	-1387
vious	-1388
lor	-1389
▁X	-1390
▁Afric	-1391
side	-1392
▁announ	-1393
▁Sec	-1394
-1	-1395
▁iss	-1396
▁appear	-1397
▁dra	-1398
▁cor	-1399
▁like	-1400
idd	-1401
▁Sy	-1402
▁International	-1403
▁ep	-1404
ering	-1405
▁million	-1406
▁very	-1407
▁River	-1408
▁By	-1409
▁Championship	-1410
▁led	-1411
▁history	-1412
▁Acc	-1413
▁exper	-1414
▁war	-1415
▁Res	-1416
▁son	-1417
▁water	-1418
▁another	-1419
ondon	-1420
riend	-1421
▁av	-1422
adem	-1423
▁Comp	-1424
ged	-1425
ald	-1426
ize	-1427
conom	-1428
▁equ	-1429
▁Russ	-1430
▁women	-1431
▁power	-1432
lu	-1433
ody	-1434
ourn	-1435
")	-1436
▁constru	-1437
attle	-1438
▁level	-1439
▁project	-1440
▁Pres	-1441
ges	-1442
▁often	-1443
aul	-1444
▁district	-1445
▁service	-1446
par	-1447
akes	-1448
▁side	-1449
sk	-1450
▁London	-1451
ino	-1452
▁though	-1453
▁if	-1454
▁best	-1455
ards	-1456
▁Med	-1457
ison	-1458
ness	-1459
ribut	-1460
▁original	-1461
ilitary	-1462
▁Pl	-1463
rick	-1464
▁189	-1465
alf	-1466
read	-1467
ases	-1468
ched	-1469
▁la	-1470
ummer	-1471
▁Ne	-1472
▁pat	-1473
▁country	-1474
ington	-1475
▁among	-1476
urs	-1477
▁late	-1478
▁make	-1479
osp	-1480
▁month	-1481
▁Cor	-1482
▁import	-1483
▁House	-1484
ara	-1485
▁Dav	-1486
▁hand	-1487
▁non	-1488
▁election	-1489
▁port	-1490
▁father	-1491
ublic	-1492
ument	-1493
▁grad	-1494
ti	-1495
ney	-1496
▁Cup	-1497
▁beg	-1498
▁established	-1499
ele	-1500
rest	-1501
ploy	-1502
yle	-1503
▁sold	-1504
▁came	-1505
▁win	-1506
▁aff	-1507
▁started	-1508
▁games	-1509
▁When	-1510
▁Des	-1511
ries	-1512
▁Ang	-1513
▁Tr	-1514
anc	-1515
▁even	-1516
ruct	-1517
▁Sup	-1518
▁Ital	-1519
▁title	-1520
ones	-1521
▁hum	-1522
ridge	-1523
▁attack	-1524
▁Br	-1525
▁fore	-1526
▁el	-1527
ament	-1528
▁stat	-1529
▁character	-1530
▁announced	-1531
eneral	-1532
de	-1533
na	-1534
ugg	-1535
ote	-1536
▁order	-1537
▁award	-1538
▁San	-1539
umb	-1540
ociation	-1541
▁role	-1542
▁One	-1543
▁del	-1544
▁ship	-1545
oph	-1546
▁business	-1547
▁turn	-1548
▁track	-1549
▁Phil	-1550
▁went	-1551
▁poss	-1552
sc	-1553
▁every	-1554
▁field	-1555
hem	-1556
▁previous	-1557
sp	-1558
levision	-1559
ray	-1560
▁invol	-1561
reg	-1562
▁much	-1563
▁,	-1564
▁chang	-1565
▁effect	-1566
▁activ	-1567
rote	-1568
▁worked	-1569
▁es	-1570
ler	-1571
▁kill	-1572
of	-1573
▁rese	-1574
▁author	-1575
▁what	-1576
▁Indian	-1577
ense	-1578
▁young	-1579
▁round	-1580
ption	-1581
▁appoin	-1582
▁week	-1583
▁rad	-1584
epend	-1585
▁total	-1586
▁sol	-1587
hern	-1588
▁init	-1589
▁cult	-1590
▁become	-1591
▁joined	-1592
▁sit	-1593
ta	-1594
partment	-1595
co	-1596
urther	-1597
▁various	-1598
▁arch	-1599
aren	-1600
▁contain	-1601
▁repla	-1602
▁common	-1603
ords	-1604
▁sk	-1605
mit	-1606
▁clos	-1607
▁fact	-1608
▁langu	-1609
▁val	-1610
▁debut	-1611
▁Pe	-1612
minist	-1613
▁having	-1614
▁process	-1615
▁general	-1616
▁1,	-1617
▁rail	-1618
▁next	-1619
forman	-1620
▁origin	-1621
omet	-1622
self	-1623
iber	-1624
▁These	-1625
▁techn	-1626
▁given	-1627
omb	-1628
cast	-1629
▁East	-1630
ociety	-1631
▁fre	-1632
aff	-1633
▁histor	-1634
ms	-1635
▁special	-1636
▁With	-1637
uation	-1638
▁England	-1639
ert	-1640
▁cr	-1641
▁La	-1642
lin	-1643
▁few	-1644
▁married	-1645
posed	-1646
▁control	-1647
▁gr	-1648
▁development	-1649
▁gen	-1650
▁claim	-1651
▁tw	-1652
▁community	-1653
▁cover	-1654
▁player	-1655
ivid	-1656
▁Church	-1657
▁Island	-1658
▁We	-1659
orthern	-1660
▁188	-1661
astern	-1662
▁described	-1663
▁pain	-1664
ops	-1665
▁Mich	-1666
▁students	-1667
off	-1668
oon	-1669
▁produced	-1670
br	-1671
▁wrote	-1672
raft	-1673
▁mag	-1674
▁Ac	-1675
▁returned	-1676
app	-1677
▁ca	-1678
▁defe	-1679
▁created	-1680
ush	-1681
▁(2	-1682
sequ	-1683
▁prim	-1684
▁prote	-1685
avy	-1686
▁No	-1687
▁fem	-1688
▁Ste	-1689
▁political	-1690
ivil	-1691
line	-1692
▁Gro	-1693
field	-1694
urb	-1695
▁tem	-1696
ached	-1697
▁Dem	-1698
ole	-1699
▁From	-1700
▁way	-1701
▁beh	-1702
ories	-1703
▁Sch	-1704
▁international	-1705
ape	-1706
irc	-1707
iron	-1708
▁however	-1709
▁fun	-1710
▁Char	-1711
▁According	-1712
oyal	-1713
▁bre	-1714
thern	-1715
ests	-1716
▁25	-1717
lt	-1718
ogn	-1719
ront	-1720
▁using	-1721
▁Australia	-1722
▁position	-1723
▁Port	-1724
ville	-1725
outhern	-1726
ander	-1727
▁hig	-1728
▁European	-1729
unicip	-1730
▁popular	-1731
▁ren	-1732
ilar	-1733
▁examp	-1734
▁Council	-1735
lect	-1736
▁Art	-1737
▁compos	-1738
▁take	-1739
▁match	-1740
▁particip	-1741
▁Party	-1742
▁Roman	-1743
▁Em	-1744
iment	-1745
▁sent	-1746
▁Bel	-1747
▁Tra	-1748
▁100	-1749
▁region	-1750
be	-1751
ention	-1752
▁[	-1753
▁Gl	-1754
▁India	-1755
▁continued	-1756
▁Ag	-1757
▁sl	-1758
▁Street	-1759
itor	-1760
▁France	-1761
ead	-1762
▁Mal	-1763
aken	-1764
stitute	-1765
▁need	-1766
▁Per	-1767
▁Cour	-1768
▁partic	-1769
▁host	-1770
ateg	-1771
▁great	-1772
▁church	-1773
▁production	-1774
hold	-1775
▁squ	-1776
▁186	-1777
▁performan	-1778
ots	-1779
ances	-1780
reek	-1781
▁President	-1782
formation	-1783
▁works	-1784
▁site	-1785
▁elect	-1786
▁pri	-1787
▁James	-1788
▁General	-1789
ideo	-1790
▁aver	-1791
▁Division	-1792
▁road	-1793
ividual	-1794
ama	-1795
ested	-1796
▁president	-1797
▁official	-1798
ports	-1799
ination	-1800
ha	-1801
▁Rec	-1802
▁Army	-1803
▁Thom	-1804
▁full	-1805
aliforn	-1806
▁intro	-1807
gt	-1808
▁lab	-1809
▁pract	-1810
rem	-1811
▁direct	-1812
▁30	-1813
less	-1814
▁Act	-1815
▁days	-1816
uel	-1817
ico	-1818
etwork	-1819
▁George	-1820
▁version	-1821
▁friend	-1822
▁attem	-1823
ountain	-1824
▁written	-1825
lymp	-1826
▁Rober	-1827
useum	-1828
alifornia	-1829
▁opened	-1830
▁187	-1831
itte	-1832
olution	-1833
▁times	-1834
ours	-1835
lex	-1836
atter	-1837
hib	-1838
▁ter	-1839
▁without	-1840
▁sw	-1841
▁epis	-1842
▁military	-1843
key	-1844
▁Hol	-1845
▁Val	-1846
▁Bra	-1847
▁Mor	-1848
▁indust	-1849
▁broad	-1850
▁brother	-1851
▁lost	-1852
▁formula	-1853
▁research	-1854
oor	-1855
▁Olymp	-1856
▁founded	-1857
ius	-1858
ying	-1859
▁ident	-1860
▁education	-1861
int	-1862
▁daugh	-1863
▁Sm	-1864
ream	-1865
▁California	-1866
▁Que	-1867
▁Nor	-1868
▁signed	-1869
▁Pal	-1870
▁elected	-1871
▁television	-1872
era	-1873
▁professional	-1874
▁considered	-1875
▁lim	-1876
ellow	-1877
▁view	-1878
▁comb	-1879
▁proper	-1880
▁influ	-1881
▁party	-1882
▁2010	-1883
van	-1884
ership	-1885
ological	-1886
press	-1887
▁Rich	-1888
▁real	-1889
▁social	-1890
put	-1891
▁east	-1892
▁recorded	-1893
▁deg	-1894
▁appointed	-1895
ipp	-1896
▁find	-1897
year	-1898
▁important	-1899
▁vol	-1900
▁econom	-1901
▁invest	-1902
aign	-1903
▁half	-1904
pecial	-1905
▁point	-1906
▁Ap	-1907
▁further	-1908
▁America	-1909
▁engine	-1910
▁Association	-1911
▁story	-1912
▁promot	-1913
▁struct	-1914
▁individual	-1915
▁similar	-1916
ex	-1917
▁appeared	-1918
uit	-1919
bs	-1920
▁right	-1921
ising	-1922
ference	-1923
▁making	-1924
▁wife	-1925
▁areas	-1926
plic	-1927
▁Sen	-1928
▁Union	-1929
ensus	-1930
alt	-1931
▁bas	-1932
▁nov	-1933
▁mult	-1934
ishing	-1935
▁Canada	-1936
▁ke	-1937
▁Qu	-1938
ule	-1939
▁hold	-1940
▁Early	-1941
oll	-1942
▁grow	-1943
ij	-1944
irl	-1945
▁priv	-1946
gether	-1947
▁together	-1948
ope	-1949
▁good	-1950
▁tradition	-1951
imately	-1952
▁dest	-1953
ournal	-1954
▁Club	-1955
dom	-1956
▁working	-1957
ocr	-1958
oe	-1959
▁offer	-1960
▁Paul	-1961
▁formed	-1962
▁Kh	-1963
201	-1964
▁reported	-1965
▁less	-1966
ya	-1967
tar	-1968
▁vict	-1969
▁hon	-1970
▁low	-1971
▁fund	-1972
nect	-1973
▁Lou	-1974
iles	-1975
▁div	-1976
iddle	-1977
acy	-1978
▁west	-1979
ger	-1980
,"	-1981
▁teams	-1982
arliam	-1983
▁developed	-1984
uf	-1985
anish	-1986
rap	-1987
▁Road	-1988
▁director	-1989
BC	-1990
▁review	-1991
ma	-1992
▁mid	-1993
ning	-1994
ills	-1995
▁help	-1996
▁read	-1997
▁himself	-1998
▁signific	-1999
▁gl	-2000
▁Dr	-2001
ably	-2002
itect	-2003
▁example	-2004
▁average	-2005
▁cer	-2006
▁While	-2007
▁cond	-2008
▁meet	-2009
▁Royal	-2010
ittee	-2011
wh	-2012
arliament	-2013
▁office	-2014
ael	-2015
ained	-2016
▁“	-2017
olic	-2018
▁typ	-2019
ells	-2020
▁coach	-2021
aper	-2022
▁services	-2023
now	-2024
▁case	-2025
▁fail	-2026
iol	-2027
▁Award	-2028
▁conc	-2029
idence	-2030
ks	-2031
▁David	-2032
ee	-2033
▁Mary	-2034
▁get	-2035
▁rank	-2036
▁star	-2037
▁release	-2038
ither	-2039
itive	-2040
▁aut	-2041
▁Hen	-2042
▁hous	-2043
▁employ	-2044
▁ten	-2045
▁mater	-2046
▁ground	-2047
▁exist	-2048
▁video	-2049
stitut	-2050
▁across	-2051
▁21	-2052
▁points	-2053
ification	-2054
▁events	-2055
▁arr	-2056
▁others	-2057
cing	-2058
hel	-2059
▁should	-2060
▁administ	-2061
▁Rail	-2062
▁modern	-2063
ways	-2064
▁recogn	-2065
ground	-2066
most	-2067
ming	-2068
▁Town	-2069
go	-2070
▁Court	-2071
▁Germany	-2072
▁rock	-2073
pite	-2074
▁2011	-2075
uated	-2076
▁language	-2077
estival	-2078
▁Hall	-2079
▁Australian	-2080
ari	-2081
rated	-2082
▁Red	-2083
▁24	-2084
ators	-2085
▁never	-2086
–19	-2087
rie	-2088
-19	-2089
▁playing	-2090
val	-2091
▁although	-2092
▁laun	-2093
iding	-2094
▁Ber	-2095
▁race	-2096
▁Pri	-2097
▁independ	-2098
atch	-2099
▁successful	-2100
▁belie	-2101
▁Stud	-2102
▁body	-2103
50	-2104
▁avail	-2105
anted	-2106
▁hy	-2107
▁vot	-2108
ont	-2109
▁Off	-2110
ederal	-2111
▁produc	-2112
▁campaign	-2113
nder	-2114
iting	-2115
▁Academ	-2116
▁Central	-2117
▁suff	-2118
▁disp	-2119
▁First	-2120
▁fire	-2121
lands	-2122
wood	-2123
ceed	-2124
ili	-2125
gin	-2126
▁Group	-2127
▁Vir	-2128
▁Company	-2129
aur	-2130
▁Pat	-2131
▁foc	-2132
ults	-2133
▁style	-2134
▁cast	-2135
▁strong	-2136
▁2012	-2137
▁tro	-2138
shire	-2139
ecut	-2140
▁performed	-2141
▁China	-2142
▁live	-2143
▁daughter	-2144
ibr	-2145
▁Black	-2146
▁assist	-2147
ensive	-2148
▁Other	-2149
craft	-2150
▁does	-2151
igned	-2152
▁mother	-2153
▁black	-2154
▁league	-2155
▁Some	-2156
▁Music	-2157
▁ide	-2158
▁mot	-2159
ential	-2160
▁ord	-2161
▁living	-2162
▁()	-2163
▁free	-2164
hers	-2165
▁completed	-2166
▁human	-2167
leg	-2168
▁Mart	-2169
▁followed	-2170
odes	-2171
▁cle	-2172
▁cross	-2173
▁Thomas	-2174
▁months	-2175
burg	-2176
▁rev	-2177
▁base	-2178
▁Je	-2179
▁away	-2180
CA	-2181
▁finished	-2182
▁how	-2183
ien	-2184
▁municip	-2185
▁Sam	-2186
▁construction	-2187
▁mar	-2188
▁separ	-2189
ashington	-2190
▁my	-2191
istic	-2192
men	-2193
band	-2194
▁remained	-2195
▁cost	-2196
west	-2197
▁let	-2198
rian	-2199
▁tour	-2200
▁2006	-2201
▁becom	-2202
▁Mac	-2203
gress	-2204
ston	-2205
chie	-2206
▁designed	-2207
ett	-2208
▁light	-2209
ani	-2210
▁Prov	-2211
▁Mex	-2212
cle	-2213
▁rul	-2214
itz	-2215
icle	-2216
▁songs	-2217
▁Robert	-2218
arth	-2219
▁associ	-2220
elling	-2221
ilities	-2222
▁Gr	-2223
▁Sing	-2224
anding	-2225
▁available	-2226
viron	-2227
ened	-2228
▁contract	-2229
aint	-2230
▁Law	-2231
▁Mag	-2232
oney	-2233
eh	-2234
ospital	-2235
▁gave	-2236
rag	-2237
▁Cap	-2238
▁Cong	-2239
▁product	-2240
▁taken	-2241
▁Center	-2242
ought	-2243
▁Department	-2244
▁Alex	-2245
▁material	-2246
▁Western	-2247
▁attempt	-2248
▁(18	-2249
inese	-2250
▁agre	-2251
▁impro	-2252
▁significant	-2253
▁To	-2254
▁sour	-2255
▁Ser	-2256
▁2013	-2257
▁Bay	-2258
▁leading	-2259
ique	-2260
▁acqu	-2261
▁Washington	-2262
▁Institute	-2263
alls	-2264
▁includes	-2265
ida	-2266
▁market	-2267
▁2014	-2268
▁Sal	-2269
▁groups	-2270
▁dev	-2271
▁Serv	-2272
▁22	-2273
▁Tur	-2274
▁enc	-2275
▁health	-2276
▁seven	-2277
overnor	-2278
time	-2279
▁Charles	-2280
▁largest	-2281
▁Since	-2282
▁Minister	-2283
eal	-2284
▁Japanese	-2285
ump	-2286
.,	-2287
▁2008	-2288
▁expl	-2289
▁Although	-2290
▁once	-2291
▁Fl	-2292
▁doc	-2293
▁forces	-2294
azine	-2295
aker	-2296
ades	-2297
ago	-2298
▁Mad	-2299
▁features	-2300
rab	-2301
rain	-2302
▁training	-2303
▁subsequ	-2304
▁Jack	-2305
▁red	-2306
▁throughout	-2307
isl	-2308
▁UK	-2309
▁2009	-2310
atural	-2311
ude	-2312
▁flow	-2313
▁Society	-2314
▁put	-2315
▁players	-2316
▁Jew	-2317
▁phys	-2318
▁schools	-2319
▁performance	-2320
imate	-2321
ores	-2322
hest	-2323
▁Its	-2324
aged	-2325
aching	-2326
▁Cath	-2327
atives	-2328
back	-2329
▁Commun	-2330
▁circ	-2331
▁condu	-2332
iers	-2333
arian	-2334
ware	-2335
▁relig	-2336
fic	-2337
berg	-2338
▁African	-2339
▁goal	-2340
▁bo	-2341
▁earn	-2342
atory	-2343
▁Christian	-2344
▁185	-2345
▁originally	-2346
▁Mark	-2347
▁access	-2348
..	-2349
▁Franc	-2350
▁2016	-2351
▁sele	-2352
▁inj	-2353
bert	-2354
▁tourn	-2355
Ch	-2356
▁Op	-2357
aries	-2358
▁eventually	-2359
▁must	-2360
▁prot	-2361
▁tre	-2362
▁plan	-2363
▁List	-2364
ala	-2365
▁Sim	-2366
ym	-2367
ements	-2368
ev	-2369
omm	-2370
▁Educ	-2371
ularly	-2372
▁awarded	-2373
▁study	-2374
mercial	-2375
▁proble	-2376
▁test	-2377
▁press	-2378
▁phot	-2379
▁liter	-2380
roy	-2381
▁eight	-2382
▁stated	-2383
▁bank	-2384
▁2015	-2385
▁seen	-2386
erous	-2387
utes	-2388
here	-2389
▁stage	-2390
▁entire	-2391
udd	-2392
▁countries	-2393
rey	-2394
▁earl	-2395
▁But	-2396
ilies	-2397
▁featured	-2398
▁court	-2399
duction	-2400
▁network	-2401
▁Bi	-2402
▁front	-2403
▁dam	-2404
▁23	-2405
▁sugg	-2406
▁Film	-2407
▁Chinese	-2408
▁z	-2409
▁Met	-2410
▁Angel	-2411
ona	-2412
▁cand	-2413
▁added	-2414
▁able	-2415
▁wid	-2416
▁novel	-2417
▁currently	-2418
▁degree	-2419
▁household	-2420
▁board	-2421
▁park	-2422
▁relation	-2423
▁information	-2424
▁involved	-2425
▁radio	-2426
ka	-2427
asing	-2428
▁Vict	-2429
▁directed	-2430
▁Jose	-2431
▁Trans	-2432
▁Not	-2433
iction	-2434
▁anim	-2435
ids	-2436
▁consist	-2437
hood	-2438
▁reb	-2439
▁sound	-2440
▁Grand	-2441
▁polic	-2442
▁Don	-2443
▁Louis	-2444
cri	-2445
arter	-2446
▁respons	-2447
▁know	-2448
▁Rad	-2449
▁meth	-2450
vironment	-2451
▁Up	-2452
▁Miss	-2453
▁colla	-2454
ply	-2455
asket	-2456
-2	-2457
ishop	-2458
▁white	-2459
oms	-2460
▁2,	-2461
▁Cont	-2462
incip	-2463
▁Academy	-2464
▁TV	-2465
▁model	-2466
▁Virgin	-2467
ergy	-2468
ranch	-2469
▁architect	-2470
▁provided	-2471
bour	-2472
▁saw	-2473
▁1980	-2474
▁km	-2475
▁2018	-2476
sec	-2477
▁dou	-2478
rought	-2479
▁above	-2480
▁Lat	-2481
head	-2482
▁discover	-2483
▁cou	-2484
▁killed	-2485
▁episode	-2486
▁competition	-2487
ength	-2488
▁Scott	-2489
▁ste	-2490
emor	-2491
tt	-2492
▁Democr	-2493
▁Canadian	-2494
▁police	-2495
▁range	-2496
right	-2497
▁capt	-2498
▁interest	-2499
▁Russian	-2500
▁Ir	-2501
ky	-2502
icated	-2503
▁private	-2504
airs	-2505
och	-2506
za	-2507
▁Wil	-2508
▁Tex	-2509
ician	-2510
sel	-2511
▁surv	-2512
▁White	-2513
▁anal	-2514
▁Italian	-2515
▁Lake	-2516
▁Dan	-2517
▁bar	-2518
▁2007	-2519
rel	-2520
▁civil	-2521
–2	-2522
▁replaced	-2523
▁184	-2524
▁bi	-2525
▁you	-2526
▁states	-2527
istry	-2528
sy	-2529
▁1.	-2530
atre	-2531
▁wind	-2532
▁Green	-2533
▁sen	-2534
▁sem	-2535
▁1990	-2536
▁subject	-2537
board	-2538
▁stri	-2539
▁command	-2540
▁fourth	-2541
▁transfer	-2542
▁50	-2543
medi	-2544
aval	-2545
▁college	-2546
▁occur	-2547
▁Great	-2548
▁central	-2549
▁26	-2550
▁decided	-2551
oviet	-2552
▁railway	-2553
▁Mer	-2554
itch	-2555
ception	-2556
▁2000	-2557
▁Arch	-2558
30	-2559
dis	-2560
oice	-2561
▁attended	-2562
uture	-2563
▁Cons	-2564
▁usually	-2565
uses	-2566
embly	-2567
apt	-2568
▁past	-2569
▁close	-2570
▁least	-2571
▁Michael	-2572
▁mus	-2573
▁fight	-2574
▁Africa	-2575
▁either	-2576
▁arg	-2577
▁Republic	-2578
▁see	-2579
▁change	-2580
▁Second	-2581
▁respect	-2582
▁Cal	-2583
rd	-2584
▁hit	-2585
▁upon	-2586
▁approx	-2587
▁loss	-2588
mar	-2589
▁contribut	-2590
▁Del	-2591
▁critic	-2592
▁pot	-2593
▁learn	-2594
annel	-2595
▁space	-2596
▁achie	-2597
▁2017	-2598
▁effort	-2599
St	-2600
▁candid	-2601
aut	-2602
▁placed	-2603
▁via	-2604
▁night	-2605
▁Football	-2606
▁Ham	-2607
▁pur	-2608
iation	-2609
iff	-2610
▁Richard	-2611
gen	-2612
▁27	-2613
▁scored	-2614
▁Henry	-2615
▁treat	-2616
▁der	-2617
▁meas	-2618
▁Inter	-2619
▁introduced	-2620
▁media	-2621
▁connect	-2622
▁Education	-2623
▁Pla	-2624
▁mean	-2625
▁Che	-2626
oul	-2627
▁2.	-2628
▁aud	-2629
▁cop	-2630
▁occup	-2631
ena	-2632
ribution	-2633
▁ill	-2634
▁rights	-2635
▁reached	-2636
▁fav	-2637
▁express	-2638
▁Bu	-2639
▁purch	-2640
ems	-2641
▁Im	-2642
▁imp	-2643
▁Career	-2644
road	-2645
▁look	-2646
unn	-2647
▁Spanish	-2648
▁fig	-2649
ving	-2650
▁plant	-2651
▁river	-2652
▁capital	-2653
order	-2654
▁Peter	-2655
▁Pet	-2656
ability	-2657
▁Leg	-2658
erve	-2659
▁films	-2660
▁tournament	-2661
arily	-2662
▁travel	-2663
idae	-2664
▁ser	-2665
reland	-2666
▁2019	-2667
rael	-2668
▁Gold	-2669
▁Women	-2670
▁lo	-2671
▁My	-2672
stant	-2673
idents	-2674
▁Frank	-2675
asketball	-2676
▁size	-2677
▁obs	-2678
abit	-2679
thlet	-2680
▁Follow	-2681
lav	-2682
▁brought	-2683
▁Museum	-2684
stitution	-2685
olf	-2686
▁Mus	-2687
▁Play	-2688
▁mass	-2689
face	-2690
mon	-2691
▁accept	-2692
▁census	-2693
▁broadcast	-2694
urity	-2695
▁Lab	-2696
▁Ter	-2697
▁Victor	-2698
▁Camp	-2699
▁Penn	-2700
▁method	-2701
0,000	-2702
▁center	-2703
▁1970	-2704
▁miss	-2705
▁shows	-2706
▁fif	-2707
unk	-2708
▁Catholic	-2709
▁Texas	-2710
gy	-2711
▁Cast	-2712
▁parts	-2713
▁viol	-2714
▁Kore	-2715
▁28	-2716
ufact	-2717
vert	-2718
▁gold	-2719
▁aircraft	-2720
oz	-2721
▁farm	-2722
▁pay	-2723
▁listed	-2724
▁provide	-2725
▁prem	-2726
▁buildings	-2727
▁Awards	-2728
▁say	-2729
▁Later	-2730
▁Following	-2731
▁hom	-2732
▁changed	-2733
uns	-2734
▁jud	-2735
▁paren	-2736
▁commercial	-2737
▁neigh	-2738
▁deal	-2739
ibrary	-2740
ota	-2741
lam	-2742
▁Dire	-2743
▁sex	-2744
▁Soviet	-2745
▁behind	-2746
icles	-2747
ria	-2748
▁active	-2749
▁rather	-2750
▁studio	-2751
hi	-2752
▁Commission	-2753
ume	-2754
▁Kingdom	-2755
pecially	-2756
▁northern	-2757
olk	-2758
▁reve	-2759
▁cy	-2760
▁mix	-2761
▁Paris	-2762
▁Tor	-2763
▁Mont	-2764
▁Flor	-2765
▁lik	-2766
ano	-2767
▁Mel	-2768
ini	-2769
irth	-2770
▁Hill	-2771
▁represented	-2772
▁relationship	-2773
–0	-2774
▁action	-2775
▁female	-2776
▁studies	-2777
▁Government	-2778
▁exhib	-2779
▁section	-2780
ux	-2781
asc	-2782
rup	-2783
▁hard	-2784
▁sil	-2785
oper	-2786
▁Smith	-2787
▁southern	-2788
▁runs	-2789
▁families	-2790
▁writing	-2791
edy	-2792
iences	-2793
▁instead	-2794
▁dep	-2795
▁Swed	-2796
oint	-2797
aves	-2798
▁ended	-2799
▁regular	-2800
▁winning	-2801
▁books	-2802
▁plann	-2803
▁regard	-2804
▁island	-2805
uz	-2806
▁Committee	-2807
▁Wal	-2808
▁Tom	-2809
▁far	-2810
oring	-2811
▁tax	-2812
▁championship	-2813
▁primary	-2814
rown	-2815
▁Saint	-2816
▁maintain	-2817
▁sch	-2818
▁Zeal	-2819
▁reason	-2820
istan	-2821
▁compan	-2822
ometimes	-2823
▁Most	-2824
▁frequ	-2825
▁division	-2826
oo	-2827
cies	-2828
ping	-2829
▁data	-2830
▁Ma	-2831
ises	-2832
▁outside	-2833
▁Fin	-2834
▁Carol	-2835
rial	-2836
▁qualif	-2837
▁previously	-2838
aring	-2839
▁possible	-2840
str	-2841
retary	-2842
▁Israel	-2843
▁ran	-2844
▁lower	-2845
▁artist	-2846
SA	-2847
▁Best	-2848
aled	-2849
▁Rou	-2850
▁Olympics	-2851
▁Fore	-2852
▁2010,	-2853
▁force	-2854
▁Zealand	-2855
▁Sant	-2856
▁You	-2857
▁Histor	-2858
▁care	-2859
▁investig	-2860
▁Championships	-2861
▁Ben	-2862
▁Super	-2863
▁coast	-2864
ancial	-2865
▁units	-2866
rack	-2867
▁neg	-2868
▁whose	-2869
In	-2870
rig	-2871
▁pred	-2872
rative	-2873
▁link	-2874
ites	-2875
▁Rev	-2876
▁nomin	-2877
irm	-2878
based	-2879
porary	-2880
ita	-2881
▁defeated	-2882
▁organization	-2883
"),	-2884
pts	-2885
▁industry	-2886
▁pers	-2887
▁Day	-2888
ambig	-2889
elled	-2890
▁almost	-2891
▁movement	-2892
▁Summer	-2893
▁Year	-2894
,000	-2895
▁Oper	-2896
pan	-2897
▁Two	-2898
▁chart	-2899
▁summer	-2900
▁type	-2901
10	-2902
heast	-2903
▁approximately	-2904
▁Lit	-2905
▁bur	-2906
ola	-2907
▁execut	-2908
▁allowed	-2909
rim	-2910
▁draw	-2911
▁sym	-2912
▁cut	-2913
▁Congress	-2914
ura	-2915
▁Profess	-2916
▁Rock	-2917
▁towards	-2918
...	-2919
▁0.	-2920
ambiguation	-2921
▁anc	-2922
inent	-2923
▁ask	-2924
▁2020	-2925
▁stop	-2926
▁cred	-2927
ada	-2928
▁Bur	-2929
adium	-2930
disambiguation	-2931
▁grand	-2932
▁fall	-2933
▁journal	-2934
▁owned	-2935
▁sister	-2936
▁Virginia	-2937
▁2015,	-2938
▁itself	-2939
▁transl	-2940
▁function	-2941
▁plays	-2942
va	-2943
ios	-2944
clus	-2945
▁2004	-2946
ror	-2947
▁imm	-2948
▁Records	-2949
▁especially	-2950
nown	-2951
▁Festival	-2952
alled	-2953
▁structure	-2954
teg	-2955
▁spent	-2956
▁object	-2957
iqu	-2958
▁Los	-2959
▁route	-2960
▁Ireland	-2961
▁Pre	-2962
▁plat	-2963
▁army	-2964
ounter	-2965
▁block	-2966
ye	-2967
▁Pac	-2968
▁Brown	-2969
▁princip	-2970
lim	-2971
▁document	-2972
▁esc	-2973
▁higher	-2974
▁taking	-2975
like	-2976
▁29	-2977
▁God	-2978
▁soon	-2979
atal	-2980
▁2005	-2981
tic	-2982
▁2016,	-2983
▁Georg	-2984
▁Life	-2985
▁Sir	-2986
▁systems	-2987
▁2011,	-2988
▁Cur	-2989
▁2012,	-2990
ams	-2991
▁Bank	-2992
▁2014,	-2993
▁conv	-2994
▁beginning	-2995
cher	-2996
▁operations	-2997
ready	-2998
▁2013,	-2999
▁below	-3000
▁according	-3001
▁Public	-3002
▁Parliament	-3003
pected	-3004
▁manufact	-3005
▁traditional	-3006
▁king	-3007
▁complex	-3008
▁(200	-3009
▁length	-3010
ires	-3011
ocal	-3012
▁sus	-3013
▁Found	-3014
▁remov	-3015
▁40	-3016
iety	-3017
igan	-3018
▁future	-3019
ternal	-3020
▁territ	-3021
ows	-3022
▁Person	-3023
▁2018,	-3024
▁ever	-3025
ension	-3026
▁personal	-3027
▁required	-3028
NA	-3029
lant	-3030
orpor	-3031
▁wood	-3032
▁concern	-3033
▁Arts	-3034
enced	-3035
icago	-3036
▁defend	-3037
▁Board	-3038
▁studied	-3039
umn	-3040
▁Rob	-3041
fit	-3042
lag	-3043
▁break	-3044
▁whom	-3045
▁independent	-3046
▁Gra	-3047
▁determ	-3048
▁county	-3049
▁property	-3050
chan	-3051
▁girl	-3052
▁mer	-3053
▁too	-3054
TV	-3055
▁1960	-3056
▁little	-3057
2)	-3058
ban	-3059
▁launched	-3060
3)	-3061
oid	-3062
▁Just	-3063
▁Joseph	-3064
▁Spe	-3065
▁magazine	-3066
▁cele	-3067
▁food	-3068
uter	-3069
▁issues	-3070
▁natural	-3071
vey	-3072
▁Work	-3073
well	-3074
▁ge	-3075
▁teac	-3076
▁standard	-3077
▁lived	-3078
▁noted	-3079
unt	-3080
▁highest	-3081
▁Bo	-3082
▁collection	-3083
ils	-3084
▁applic	-3085
▁senior	-3086
▁2017,	-3087
▁entered	-3088
▁Du	-3089
▁Many	-3090
▁commission	-3091
▁prison	-3092
ibility	-3093
▁leader	-3094
venue	-3095
▁2019,	-3096
FL	-3097
▁closed	-3098
▁Squ	-3099
ylvan	-3100
itiz	-3101
▁move	-3102
▁Italy	-3103
wer	-3104
▁ball	-3105
position	-3106
arriage	-3107
usband	-3108
▁multip	-3109
sych	-3110
▁self	-3111
▁quest	-3112
▁Old	-3113
▁Battle	-3114
▁Northern	-3115
▁related	-3116
aps	-3117
oys	-3118
▁nar	-3119
▁Force	-3120
overs	-3121
mark	-3122
▁course	-3123
▁numerous	-3124
▁generally	-3125
ado	-3126
▁enter	-3127
oke	-3128
▁den	-3129
▁staff	-3130
utch	-3131
▁Greek	-3132
▁don	-3133
▁2009,	-3134
1)	-3135
oma	-3136
inner	-3137
▁Angeles	-3138
inals	-3139
▁settle	-3140
▁lack	-3141
▁destroy	-3142
▁student	-3143
▁victory	-3144
▁newsp	-3145
not	-3146
ands	-3147
▁emer	-3148
▁surround	-3149
▁serving	-3150
ua	-3151
▁183	-3152
▁Navy	-3153
▁thus	-3154
orse	-3155
ficult	-3156
action	-3157
▁opening	-3158
▁Over	-3159
▁means	-3160
▁location	-3161
▁Sl	-3162
eg	-3163
▁already	-3164
▁(201	-3165
▁sett	-3166
earch	-3167
▁money	-3168
ervation	-3169
▁practice	-3170
reme	-3171
asion	-3172
▁Ele	-3173
▁Mil	-3174
▁results	-3175
▁Mass	-3176
▁earlier	-3177
▁squad	-3178
▁environment	-3179
plied	-3180
itar	-3181
▁come	-3182
inary	-3183
▁Mexico	-3184
▁majority	-3185
").	-3186
ylvania	-3187
zil	-3188
▁sum	-3189
▁sea	-3190
▁Fort	-3191
▁competed	-3192
▁schol	-3193
uate	-3194
▁Techn	-3195
ste	-3196
▁31	-3197
isions	-3198
▁difficult	-3199
▁certain	-3200
▁Games	-3201
aught	-3202
▁adop	-3203
ki	-3204
▁prior	-3205
▁Emp	-3206
▁Scot	-3207
▁date	-3208
▁increased	-3209
▁key	-3210
4)	-3211
▁Mur	-3212
▁matches	-3213
▁appearance	-3214
▁Go	-3215
▁Sub	-3216
▁dram	-3217
▁woman	-3218
▁Pan	-3219
▁sat	-3220
ublican	-3221
▁Florida	-3222
▁companies	-3223
▁Sa	-3224
▁battle	-3225
▁trade	-3226
▁anti	-3227
onse	-3228
mitted	-3229
writ	-3230
▁cal	-3231
▁sometimes	-3232
▁activities	-3233
down	-3234
▁Carl	-3235
eds	-3236
▁Er	-3237
▁seat	-3238
uments	-3239
▁che	-3240
▁gra	-3241
erved	-3242
▁associated	-3243
ulated	-3244
▁goals	-3245
▁husband	-3246
known	-3247
▁Bet	-3248
ether	-3249
gn	-3250
▁genus	-3251
▁2008,	-3252
▁Chicago	-3253
▁wide	-3254
anded	-3255
▁scient	-3256
▁running	-3257
▁university	-3258
▁Mod	-3259
5)	-3260
▁pen	-3261
▁characters	-3262
60	-3263
etic	-3264
lying	-3265
iled	-3266
istics	-3267
▁minor	-3268
▁forest	-3269
▁income	-3270
▁mur	-3271
▁singer	-3272
▁Jun	-3273
teen	-3274
▁caused	-3275
▁thought	-3276
▁becoming	-3277
Amer	-3278
▁centre	-3279
▁cases	-3280
▁manager	-3281
▁selected	-3282
hy	-3283
▁super	-3284
▁percent	-3285
▁terms	-3286
▁transport	-3287
▁Men	-3288
▁Mos	-3289
▁unit	-3290
▁writer	-3291
▁remains	-3292
▁western	-3293
cel	-3294
▁contains	-3295
▁Liber	-3296
▁arrest	-3297
▁Mr	-3298
▁culture	-3299
▁mission	-3300
▁Wood	-3301
imb	-3302
▁score	-3303
▁academ	-3304
▁decision	-3305
ockey	-3306
▁annual	-3307
▁passed	-3308
vention	-3309
5%	-3310
▁Valley	-3311
▁operated	-3312
▁syn	-3313
▁older	-3314
▁prob	-3315
▁Route	-3316
den	-3317
▁decl	-3318
plement	-3319
▁abs	-3320
airman	-3321
▁quick	-3322
ingu	-3323
▁immedi	-3324
▁job	-3325
▁2020,	-3326
bon	-3327
▁changes	-3328
▁supported	-3329
▁Assembly	-3330
uan	-3331
ricult	-3332
▁Wales	-3333
▁Ol	-3334
▁programs	-3335
▁Line	-3336
▁Sur	-3337
rying	-3338
▁mountain	-3339
▁emb	-3340
▁economic	-3341
sylvania	-3342
▁musical	-3343
▁Mill	-3344
▁Province	-3345
▁chief	-3346
▁threat	-3347
▁additional	-3348
▁equip	-3349
yr	-3350
▁initially	-3351
ón	-3352
▁hot	-3353
▁limited	-3354
inct	-3355
▁create	-3356
gl	-3357
▁hours	-3358
▁status	-3359
▁ens	-3360
▁Brazil	-3361
▁big	-3362
▁dig	-3363
▁dom	-3364
▁train	-3365
▁collabor	-3366
▁claimed	-3367
▁Ha	-3368
izing	-3369
Th	-3370
▁bene	-3371
▁officer	-3372
▁medal	-3373
▁attend	-3374
▁Win	-3375
▁Class	-3376
▁legal	-3377
lit	-3378
▁nine	-3379
▁Inc	-3380
ero	-3381
ift	-3382
▁Irish	-3383
▁vir	-3384
ras	-3385
▁trib	-3386
▁subsequently	-3387
▁mostly	-3388
▁Cla	-3389
▁Service	-3390
▁love	-3391
▁famous	-3392
▁science	-3393
▁Pennsylvania	-3394
enth	-3395
▁Den	-3396
▁cust	-3397
onn	-3398
▁financial	-3399
▁Ev	-3400
amily	-3401
80	-3402
▁Hum	-3403
▁artists	-3404
6)	-3405
▁Hot	-3406
▁pie	-3407
▁saf	-3408
isation	-3409
▁Under	-3410
▁better	-3411
▁increase	-3412
raw	-3413
▁veh	-3414
▁municipality	-3415
An	-3416
bur	-3417
▁keep	-3418
▁som	-3419
▁Arab	-3420
▁Fred	-3421
wide	-3422
▁Research	-3423
itan	-3424
▁going	-3425
▁Southern	-3426
▁particular	-3427
▁Columb	-3428
8)	-3429
spe	-3430
obal	-3431
▁medical	-3432
▁Pak	-3433
▁Democratic	-3434
▁et	-3435
▁feature	-3436
▁leaving	-3437
▁Back	-3438
▁obtain	-3439
ees	-3440
▁Russia	-3441
▁Mat	-3442
▁Martin	-3443
▁Railway	-3444
▁religious	-3445
standing	-3446
▁Cle	-3447
▁forced	-3448
▁Kn	-3449
▁drop	-3450
▁interview	-3451
▁Pacific	-3452
▁Sk	-3453
▁3,	-3454
▁fle	-3455
▁2007,	-3456
▁rap	-3457
▁Bill	-3458
▁Tour	-3459
▁complete	-3460
rast	-3461
▁Haw	-3462
▁retired	-3463
▁got	-3464
▁Bus	-3465
▁elections	-3466
han	-3467
iring	-3468
▁quarter	-3469
▁management	-3470
▁du	-3471
▁Ann	-3472
▁Ros	-3473
▁federal	-3474
▁Their	-3475
7)	-3476
▁editor	-3477
FA	-3478
lo	-3479
▁Gar	-3480
cement	-3481
ady	-3482
▁accom	-3483
itation	-3484
▁sports	-3485
▁Republican	-3486
▁Sol	-3487
▁exc	-3488
▁Chief	-3489
▁policy	-3490
▁edition	-3491
▁establish	-3492
▁Ke	-3493
ider	-3494
▁(199	-3495
▁screen	-3496
▁consider	-3497
▁Hon	-3498
▁larger	-3499
▁Dou	-3500
▁Iran	-3501
BA	-3502
▁Ill	-3503
▁issue	-3504
40	-3505
▁stay	-3506
▁Atlant	-3507
elt	-3508
house	-3509
▁indic	-3510
▁helped	-3511
▁weeks	-3512
▁particularly	-3513
▁names	-3514
▁account	-3515
velopment	-3516
▁referred	-3517
iy	-3518
▁ded	-3519
ients	-3520
anda	-3521
▁believed	-3522
▁belong	-3523
▁Do	-3524
▁Post	-3525
▁Science	-3526
ato	-3527
▁Lu	-3528
▁norm	-3529
▁Sar	-3530
▁Vol	-3531
▁birth	-3532
▁lay	-3533
iance	-3534
arters	-3535
▁estim	-3536
▁text	-3537
▁raised	-3538
ulf	-3539
see	-3540
▁Def	-3541
▁shown	-3542
bers	-3543
▁Mic	-3544
selves	-3545
▁basketball	-3546
▁themselves	-3547
9)	-3548
ss	-3549
▁=	-3550
col	-3551
iana	-3552
▁shot	-3553
▁insp	-3554
▁discuss	-3555
▁Both	-3556
▁Governor	-3557
▁colon	-3558
▁Open	-3559
▁lines	-3560
▁contro	-3561
▁CD	-3562
▁fort	-3563
▁Spain	-3564
▁give	-3565
change	-3566
▁Mo	-3567
rief	-3568
▁legisl	-3569
azz	-3570
▁Fre	-3571
mond	-3572
▁failed	-3573
▁Jer	-3574
▁Sil	-3575
American	-3576
▁platform	-3577
▁earned	-3578
▁theory	-3579
▁response	-3580
▁foreign	-3581
▁Tw	-3582
▁er	-3583
urban	-3584
▁That	-3585
▁carried	-3586
▁presented	-3587
using	-3588
▁today	-3589
▁di	-3590
▁Mountain	-3591
▁If	-3592
▁meeting	-3593
▁McC	-3594
▁bound	-3595
bit	-3596
▁minutes	-3597
ić	-3598
iro	-3599
▁Inf	-3600
▁prop	-3601
▁forms	-3602
▁evidence	-3603
▁poet	-3604
▁mainly	-3605
▁parents	-3606
▁2003	-3607
▁stations	-3608
bre	-3609
▁Lord	-3610
▁instr	-3611
▁council	-3612
▁Belg	-3613
▁chall	-3614
stra	-3615
▁rate	-3616
ette	-3617
aches	-3618
▁phil	-3619
▁surface	-3620
▁0	-3621
ties	-3622
▁Jud	-3623
▁longer	-3624
▁consists	-3625
play	-3626
▁acquired	-3627
▁altern	-3628
▁offered	-3629
▁3.	-3630
▁Spr	-3631
▁seasons	-3632
▁news	-3633
▁happ	-3634
▁Times	-3635
▁mention	-3636
▁Mah	-3637
▁2002	-3638
▁regional	-3639
isco	-3640
▁soft	-3641
▁Out	-3642
ID	-3643
▁Edward	-3644
▁eastern	-3645
▁Queen	-3646
▁Health	-3647
▁Station	-3648
▁Cam	-3649
▁middle	-3650
imum	-3651
▁Main	-3652
war	-3653
▁mach	-3654
▁Jewish	-3655
▁latter	-3656
▁department	-3657
▁lic	-3658
bury	-3659
▁energy	-3660
▁complet	-3661
▁guitar	-3662
▁graduated	-3663
ailed	-3664
▁step	-3665
▁society	-3666
▁Hy	-3667
▁cities	-3668
▁composed	-3669
▁uses	-3670
▁Personal	-3671
▁Book	-3672
▁ant	-3673
▁bring	-3674
▁Empire	-3675
▁Long	-3676
▁appearances	-3677
▁arm	-3678
▁proposed	-3679
arden	-3680
▁Carolina	-3681
ga	-3682
ols	-3683
itors	-3684
▁2001	-3685
stitu	-3686
]]	-3687
▁Oh	-3688
▁starting	-3689
▁Rh	-3690
ugby	-3691
▁bomb	-3692
▁sequ	-3693
▁remaining	-3694
▁Eastern	-3695
▁specific	-3696
▁opt	-3697
▁box	-3698
ously	-3699
▁More	-3700
▁Despite	-3701
▁marriage	-3702
ault	-3703
ucle	-3704
▁finally	-3705
▁word	-3706
▁arran	-3707
▁Bas	-3708
▁Fer	-3709
▁takes	-3710
▁2006,	-3711
▁meaning	-3712
▁1950	-3713
▁troops	-3714
ati	-3715
▁citiz	-3716
▁despite	-3717
▁variety	-3718
▁politician	-3719
emporary	-3720
▁managed	-3721
▁eas	-3722
▁Social	-3723
reater	-3724
▁influence	-3725
▁inn	-3726
▁Are	-3727
▁overall	-3728
▁professor	-3729
isk	-3730
▁always	-3731
▁Young	-3732
▁demon	-3733
▁4,	-3734
ffic	-3735
▁Bow	-3736
▁records	-3737
▁concer	-3738
▁recording	-3739
▁individuals	-3740
ache	-3741
irit	-3742
▁enough	-3743
antry	-3744
▁diss	-3745
ipl	-3746
▁Bre	-3747
mission	-3748
▁require	-3749
▁Creek	-3750
▁integ	-3751
▁Arg	-3752
▁Broad	-3753
▁Civil	-3754
▁conditions	-3755
▁adj	-3756
▁Lee	-3757
▁People	-3758
▁bridge	-3759
bl	-3760
▁Big	-3761
▁peak	-3762
12	-3763
▁room	-3764
▁dise	-3765
wa	-3766
▁label	-3767
ication	-3768
▁native	-3769
enty	-3770
vement	-3771
▁Poland	-3772
▁nearly	-3773
▁technology	-3774
▁Bul	-3775
▁square	-3776
▁Director	-3777
▁Biography	-3778
▁discovered	-3779
RA	-3780
inet	-3781
▁III	-3782
▁Jim	-3783
▁poor	-3784
▁Radio	-3785
▁tracks	-3786
▁succeed	-3787
▁Ty	-3788
▁vote	-3789
▁turned	-3790
oir	-3791
▁targ	-3792
▁Prem	-3793
▁Ro	-3794
atively	-3795
▁multiple	-3796
itt	-3797
▁Dutch	-3798
▁promoted	-3799
wan	-3800
ysis	-3801
▁Land	-3802
▁temper	-3803
ora	-3804
uing	-3805
▁partn	-3806
aters	-3807
ca	-3808
uries	-3809
▁Star	-3810
▁serve	-3811
▁experience	-3812
▁Cro	-3813
▁operation	-3814
▁done	-3815
▁capac	-3816
uge	-3817
▁Series	-3818
▁#	-3819
▁[[	-3820
▁sched	-3821
▁ships	-3822
emorial	-3823
▁Theatre	-3824
▁minister	-3825
▁problems	-3826
▁separate	-3827
▁eth	-3828
ategory	-3829
▁Hel	-3830
▁crew	-3831
II	-3832
▁182	-3833
▁mem	-3834
ession	-3835
▁BC	-3836
iger	-3837
▁fifth	-3838
fect	-3839
▁recent	-3840
▁How	-3841
▁appears	-3842
aya	-3843
pose	-3844
▁Sun	-3845
▁provides	-3846
ersey	-3847
▁Latin	-3848
poration	-3849
70	-3850
peror	-3851
▁pick	-3852
▁might	-3853
▁source	-3854
struction	-3855
▁hospital	-3856
▁brief	-3857
▁arrived	-3858
har	-3859
▁Jo	-3860
aily	-3861
▁fellow	-3862
▁houses	-3863
▁Conference	-3864
ental	-3865
▁Middle	-3866
lah	-3867
ails	-3868
▁Sat	-3869
▁Team	-3870
▁likely	-3871
▁residents	-3872
yan	-3873
▁FC	-3874
▁Ram	-3875
▁constructed	-3876
▁Development	-3877
▁Gal	-3878
▁£	-3879
▁told	-3880
▁organiz	-3881
▁affect	-3882
▁celebr	-3883
▁participated	-3884
▁Portug	-3885
▁nearby	-3886
▁covered	-3887
ken	-3888
▁Av	-3889
ao	-3890
▁face	-3891
▁incorpor	-3892
▁pra	-3893
▁sla	-3894
ares	-3895
▁Bob	-3896
▁batt	-3897
ali	-3898
▁passeng	-3899
cean	-3900
rich	-3901
▁primarily	-3902
▁Michigan	-3903
▁male	-3904
▁honor	-3905
▁Philipp	-3906
▁Tri	-3907
▁plans	-3908
▁heavy	-3909
rice	-3910
▁webs	-3911
▁responsible	-3912
▁Luc	-3913
▁merg	-3914
▁alongside	-3915
▁Senate	-3916
▁i	-3917
▁ver	-3918
▁Foundation	-3919
▁Az	-3920
▁movie	-3921
▁Tro	-3922
▁depend	-3923
AS	-3924
▁Asian	-3925
inated	-3926
▁Britain	-3927
▁asked	-3928
▁So	-3929
ledge	-3930
▁border	-3931
▁province	-3932
▁Major	-3933
▁/	-3934
▁Mot	-3935
▁charg	-3936
ify	-3937
ricket	-3938
▁log	-3939
▁pil	-3940
verse	-3941
anced	-3942
▁issued	-3943
▁directly	-3944
▁increasing	-3945
▁News	-3946
▁Johnson	-3947
▁saying	-3948
▁extended	-3949
awa	-3950
▁Jul	-3951
▁nature	-3952
▁Another	-3953
aped	-3954
▁ult	-3955
▁products	-3956
▁historical	-3957
je	-3958
esh	-3959
more	-3960
▁youth	-3961
▁Di	-3962
aria	-3963
▁180	-3964
▁cultural	-3965
▁wanted	-3966
▁Fe	-3967
itude	-3968
▁Order	-3969
▁Asia	-3970
ources	-3971
▁expla	-3972
▁leave	-3973
▁levels	-3974
osh	-3975
▁chap	-3976
▁shoot	-3977
▁producer	-3978
▁necess	-3979
cription	-3980
add	-3981
▁numbers	-3982
iant	-3983
umed	-3984
abeth	-3985
burgh	-3986
▁cell	-3987
▁psych	-3988
light	-3989
▁lives	-3990
▁mechan	-3991
▁ess	-3992
▁headqu	-3993
▁!	-3994
ging	-3995
ensity	-3996
▁double	-3997
▁Ur	-3998
▁Kar	-3999
ella	-4000
▁comment	-4001
oura	-4002
nding	-4003
▁Engine	-4004
omer	-4005
ansas	-4006
ounts	-4007
▁parish	-4008
ila	-4009
town	-4010
▁prevent	-4011
▁neighbor	-4012
oned	-4013
▁candidate	-4014
ko	-4015
▁quickly	-4016
▁System	-4017
▁firm	-4018
▁los	-4019
▁Jones	-4020
▁initial	-4021
▁Bor	-4022
▁progress	-4023
▁$1	-4024
class	-4025
▁jun	-4026
▁Sund	-4027
▁domin	-4028
▁Coast	-4029
▁Sea	-4030
secut	-4031
▁letter	-4032
iano	-4033
▁inh	-4034
▁whole	-4035
▁whether	-4036
▁transferred	-4037
ips	-4038
gypt	-4039
▁Est	-4040
illed	-4041
▁rule	-4042
▁autom	-4043
0%	-4044
3%	-4045
▁oil	-4046
▁decla	-4047
ech	-4048
ador	-4049
▁commit	-4050
▁Francisco	-4051
ira	-4052
▁conducted	-4053
oston	-4054
▁Bal	-4055
▁think	-4056
▁depart	-4057
▁museum	-4058
▁Uk	-4059
onic	-4060
▁foot	-4061
▁Os	-4062
▁Tim	-4063
▁Charl	-4064
▁Cross	-4065
▁Scotland	-4066
▁Williams	-4067
▁Dis	-4068
▁Ver	-4069
isher	-4070
▁heart	-4071
▁Prince	-4072
▁idea	-4073
▁spread	-4074
▁Georgia	-4075
▁address	-4076
▁Tem	-4077
rison	-4078
▁speed	-4079
▁females	-4080
▁friends	-4081
AC	-4082
▁Mu	-4083
kins	-4084
▁rural	-4085
▁elements	-4086
▁renamed	-4087
▁Ly	-4088
▁Hung	-4089
▁chem	-4090
▁Hospital	-4091
▁projects	-4092
ny	-4093
▁Of	-4094
▁gun	-4095
▁1999	-4096
▁path	-4097
irmed	-4098
▁Centre	-4099
▁Stan	-4100
▁master	-4101
▁cause	-4102
▁ordered	-4103
1%	-4104
emic	-4105
ounds	-4106
rif	-4107
▁5,	-4108
▁Top	-4109
▁sal	-4110
ube	-4111
▁sn	-4112
▁corn	-4113
▁makes	-4114
6%	-4115
▁—	-4116
bed	-4117
▁pow	-4118
▁Eliz	-4119
Ar	-4120
▁conver	-4121
▁prominent	-4122
adel	-4123
▁officially	-4124
enes	-4125
▁Four	-4126
▁newspaper	-4127
osoph	-4128
▁actor	-4129
▁display	-4130
▁har	-4131
▁Song	-4132
ferences	-4133
▁divided	-4134
lace	-4135
ocated	-4136
▁Office	-4137
▁administrative	-4138
nam	-4139
▁brand	-4140
▁grew	-4141
▁premi	-4142
ias	-4143
▁value	-4144
ulations	-4145
▁concept	-4146
▁capacity	-4147
▁Cy	-4148
Le	-4149
nel	-4150
▁Lim	-4151
▁confl	-4152
▁strateg	-4153
▁Islam	-4154
▁intended	-4155
Al	-4156
▁179	-4157
▁Van	-4158
▁Federal	-4159
▁removed	-4160
BS	-4161
▁Jes	-4162
▁Mount	-4163
ications	-4164
▁officers	-4165
▁laws	-4166
▁impact	-4167
▁soldiers	-4168
resp	-4169
▁Secretary	-4170
igr	-4171
phy	-4172
▁our	-4173
inois	-4174
▁Matt	-4175
▁share	-4176
iga	-4177
cont	-4178
ully	-4179
portun	-4180
▁ancient	-4181
▁Ohio	-4182
▁Step	-4183
▁Egypt	-4184
▁univers	-4185
▁assistant	-4186
▁dead	-4187
▁Alexander	-4188
ski	-4189
▁Tod	-4190
▁aim	-4191
icted	-4192
dro	-4193
▁65	-4194
uten	-4195
▁paper	-4196
▁Econom	-4197
▁positive	-4198
anks	-4199
▁Scottish	-4200
▁institut	-4201
can	-4202
▁Rel	-4203
▁prin	-4204
▁notable	-4205
▁workers	-4206
▁administration	-4207
4%	-4208
dney	-4209
▁Mid	-4210
▁2005,	-4211
aka	-4212
ela	-4213
▁Jac	-4214
stone	-4215
▁Gall	-4216
▁talk	-4217
▁Highway	-4218
▁181	-4219
▁Kent	-4220
▁Wind	-4221
▁2010.	-4222
▁nation	-4223
▁Ox	-4224
▁walk	-4225
▁Avenue	-4226
▁highly	-4227
▁Sand	-4228
▁here	-4229
undred	-4230
▁Water	-4231
▁except	-4232
mad	-4233
rance	-4234
▁Also	-4235
▁kind	-4236
puty	-4237
▁feel	-4238
▁smaller	-4239
▁dut	-4240
ellig	-4241
▁Viet	-4242
500	-4243
▁purchased	-4244
▁channel	-4245
▁Jr	-4246
▁br	-4247
▁dyn	-4248
▁Athlet	-4249
▁Columbia	-4250
▁Manag	-4251
oration	-4252
mir	-4253
▁bird	-4254
▁Dev	-4255
omy	-4256
ening	-4257
▁continue	-4258
▁7,	-4259
▁constitu	-4260
▁potential	-4261
▁Pop	-4262
ilding	-4263
▁extra	-4264
▁Head	-4265
▁growth	-4266
▁Illinois	-4267
ampions	-4268
▁efforts	-4269
▁stories	-4270
▁revealed	-4271
sen	-4272
akers	-4273
ja	-4274
lab	-4275
▁Add	-4276
▁stra	-4277
▁places	-4278
▁facilities	-4279
▁immediately	-4280
▁Ok	-4281
chester	-4282
ronic	-4283
no	-4284
law	-4285
oud	-4286
▁Ak	-4287
▁pan	-4288
▁Camb	-4289
▁withd	-4290
▁words	-4291
2%	-4292
▁yet	-4293
▁Boston	-4294
▁estimated	-4295
8%	-4296
iest	-4297
▁Historic	-4298
▁Gh	-4299
▁basis	-4300
▁implement	-4301
edd	-4302
ript	-4303
▁dedicated	-4304
▁reform	-4305
▁effects	-4306
nds	-4307
▁Born	-4308
▁Love	-4309
▁largely	-4310
AF	-4311
New	-4312
▁CO	-4313
▁Tam	-4314
▁Pen	-4315
▁Brig	-4316
▁opportun	-4317
▁households	-4318
▁ang	-4319
▁Jean	-4320
▁dark	-4321
▁Jersey	-4322
▁drug	-4323
▁lies	-4324
▁amount	-4325
tainment	-4326
win	-4327
▁1998	-4328
▁solo	-4329
▁activity	-4330
▁historic	-4331
7%	-4332
▁Ep	-4333
obile	-4334
▁Bang	-4335
▁Brook	-4336
ributed	-4337
ropical	-4338
▁controvers	-4339
▁Li	-4340
rupt	-4341
▁produce	-4342
▁commonly	-4343
akh	-4344
▁Far	-4345
▁accepted	-4346
iated	-4347
▁captain	-4348
▁format	-4349
▁median	-4350
▁contact	-4351
án	-4352
met	-4353
▁touch	-4354
ederation	-4355
▁featuring	-4356
uer	-4357
ulpt	-4358
▁Ash	-4359
▁mic	-4360
▁behav	-4361
yard	-4362
▁planned	-4363
▁Represent	-4364
zy	-4365
ctors	-4366
orning	-4367
▁stars	-4368
hew	-4369
yer	-4370
rics	-4371
ennis	-4372
▁deep	-4373
istered	-4374
▁Polish	-4375
▁moving	-4376
▁relations	-4377
▁territory	-4378
▁era	-4379
astic	-4380
▁races	-4381
▁Sydney	-4382
▁executive	-4383
▁6,	-4384
▁security	-4385
stein	-4386
▁follows	-4387
▁website	-4388
▁footballer	-4389
emy	-4390
▁Ken	-4391
▁2012.	-4392
▁Earth	-4393
▁upper	-4394
▁Airport	-4395
inem	-4396
▁BBC	-4397
▁needed	-4398
▁counter	-4399
▁approach	-4400
▁Tre	-4401
▁direction	-4402
▁titled	-4403
▁question	-4404
▁respectively	-4405
▁awards	-4406
▁types	-4407
greg	-4408
▁Card	-4409
▁branch	-4410
wick	-4411
▁color	-4412
▁reach	-4413
▁agricult	-4414
▁Cr	-4415
grad	-4416
▁2011.	-4417
thing	-4418
▁8,	-4419
▁2013.	-4420
▁organized	-4421
▁Polit	-4422
▁green	-4423
▁12,	-4424
▁Three	-4425
emet	-4426
apers	-4427
▁2014.	-4428
▁giving	-4429
mas	-4430
▁Bh	-4431
▁serves	-4432
▁treatment	-4433
▁gas	-4434
▁clear	-4435
fort	-4436
▁Corps	-4437
▁focus	-4438
▁leaders	-4439
ih	-4440
▁conne	-4441
▁scene	-4442
▁Cult	-4443
▁Form	-4444
▁clubs	-4445
▁Andrew	-4446
▁inside	-4447
chen	-4448
onia	-4449
▁apart	-4450
▁floor	-4451
▁municipal	-4452
enge	-4453
▁Ott	-4454
▁Each	-4455
▁Jackson	-4456
▁purs	-4457
▁Mas	-4458
▁Max	-4459
▁Child	-4460
▁housing	-4461
▁destroyed	-4462
▁conference	-4463
▁rat	-4464
▁suffered	-4465
oral	-4466
itled	-4467
▁Bern	-4468
▁semi	-4469
▁Bishop	-4470
▁street	-4471
▁occurred	-4472
▁60	-4473
▁Daniel	-4474
▁parliament	-4475
etts	-4476
▁card	-4477
▁agreed	-4478
▁sources	-4479
▁Blue	-4480
▁Bridge	-4481
▁pit	-4482
▁uns	-4483
▁Anton	-4484
▁assigned	-4485
vis	-4486
alle	-4487
ancy	-4488
▁Ministry	-4489
▁Victoria	-4490
▁Bol	-4491
nic	-4492
▁Cat	-4493
▁Game	-4494
▁union	-4495
▁recover	-4496
▁quality	-4497
pton	-4498
ropol	-4499
▁store	-4500
▁seek	-4501
▁adopted	-4502
▁15,	-4503
▁2015.	-4504
▁aband	-4505
▁weap	-4506
▁article	-4507
▁Elizabeth	-4508
▁Str	-4509
eld	-4510
▁vac	-4511
▁Orig	-4512
ieuten	-4513
▁forward	-4514
ione	-4515
▁cat	-4516
inger	-4517
▁split	-4518
▁settlement	-4519
▁slow	-4520
▁languages	-4521
▁1997	-4522
▁Wild	-4523
▁champion	-4524
edom	-4525
▁online	-4526
▁stren	-4527
▁Little	-4528
ograp	-4529
▁heav	-4530
▁hosted	-4531
▁Stadium	-4532
▁physical	-4533
▁widely	-4534
aces	-4535
duce	-4536
▁miles	-4537
▁interp	-4538
IS	-4539
Sh	-4540
▁ut	-4541
▁favor	-4542
▁attention	-4543
▁Corporation	-4544
inity	-4545
▁exam	-4546
IA	-4547
roll	-4548
▁18,	-4549
▁Base	-4550
icine	-4551
▁Field	-4552
▁reviews	-4553
TA	-4554
▁gained	-4555
▁recently	-4556
▁distribution	-4557
li	-4558
ried	-4559
▁comes	-4560
▁defeat	-4561
▁therefore	-4562
izes	-4563
▁leadership	-4564
ricts	-4565
▁Argent	-4566
▁Sports	-4567
gs	-4568
▁ly	-4569
includ	-4570
▁typically	-4571
25	-4572
▁cerem	-4573
▁perman	-4574
11	-4575
▁pattern	-4576
▁problem	-4577
▁protect	-4578
mann	-4579
▁max	-4580
▁1996	-4581
▁table	-4582
istance	-4583
▁Common	-4584
▁nucle	-4585
▁votes	-4586
▁industrial	-4587
het	-4588
▁affili	-4589
▁captured	-4590
ez	-4591
achus	-4592
aging	-4593
▁offers	-4594
▁1930	-4595
▁equipment	-4596
90	-4597
ivity	-4598
▁Library	-4599
aly	-4600
onto	-4601
▁Show	-4602
▁gain	-4603
▁retire	-4604
▁target	-4605
▁reduced	-4606
▁confirmed	-4607
▁identified	-4608
isted	-4609
▁Villa	-4610
▁singles	-4611
▁rare	-4612
▁2009.	-4613
illy	-4614
▁Raj	-4615
▁Berlin	-4616
▁Queens	-4617
▁..	-4618
▁Kong	-4619
encies	-4620
ounded	-4621
▁Before	-4622
▁Independ	-4623
▁Township	-4624
hat	-4625
▁45	-4626
▁Ca	-4627
ogue	-4628
respond	-4629
ieutenant	-4630
▁ability	-4631
▁presence	-4632
▁leaves	-4633
▁winner	-4634
▁Olympic	-4635
▁Professor	-4636
▁fa	-4637
▁Hong	-4638
▁trial	-4639
▁compared	-4640
▁probably	-4641
umber	-4642
▁operating	-4643
bo	-4644
▁Ba	-4645
miss	-4646
▁repe	-4647
▁estate	-4648
▁prec	-4649
▁concent	-4650
75	-4651
ba	-4652
▁Det	-4653
▁lif	-4654
▁flag	-4655
▁2016.	-4656
▁4.	-4657
▁thr	-4658
▁2017.	-4659
range	-4660
▁roles	-4661
ima	-4662
▁Islands	-4663
▁expected	-4664
unte	-4665
▁Prime	-4666
▁Pakistan	-4667
arent	-4668
▁elev	-4669
▁declared	-4670
ef	-4671
▁11,	-4672
worth	-4673
▁combined	-4674
icient	-4675
▁Program	-4676
▁pet	-4677
▁stone	-4678
hens	-4679
▁Ell	-4680
ishes	-4681
▁Turk	-4682
▁blood	-4683
▁24,	-4684
▁Kenn	-4685
▁Ray	-4686
▁Univers	-4687
9%	-4688
cul	-4689
ses	-4690
resh	-4691
▁cars	-4692
▁drama	-4693
achusetts	-4694
CC	-4695
wing	-4696
onents	-4697
-3	-4698
yal	-4699
▁flight	-4700
▁communities	-4701
▁contemporary	-4702
▁Rod	-4703
▁Tay	-4704
▁urban	-4705
▁silver	-4706
hemat	-4707
▁Hind	-4708
▁Sever	-4709
▁Muslim	-4710
▁resulted	-4711
bu	-4712
▁Rome	-4713
▁academic	-4714
ova	-4715
riz	-4716
▁ice	-4717
▁mill	-4718
▁recon	-4719
▁plants	-4720
▁agreement	-4721
▁fell	-4722
perial	-4723
▁episodes	-4724
▁Es	-4725
ighter	-4726
pression	-4727
ething	-4728
▁2004,	-4729
▁Korea	-4730
▁collect	-4731
sex	-4732
phia	-4733
▁10,	-4734
▁electric	-4735
▁performances	-4736
sky	-4737
▁Clark	-4738
▁charge	-4739
iform	-4740
▁Corn	-4741
▁Offic	-4742
▁coming	-4743
▁serious	-4744
▁mixed	-4745
▁conclud	-4746
▁peace	-4747
▁Ant	-4748
▁coin	-4749
▁creation	-4750
▁Massachusetts	-4751
MA	-4752
▁Organ	-4753
▁disease	-4754
▁Administ	-4755
thur	-4756
rical	-4757
▁males	-4758
rane	-4759
with	-4760
▁2018.	-4761
▁Supreme	-4762
▁bad	-4763
ctoral	-4764
▁distance	-4765
cend	-4766
▁Good	-4767
cles	-4768
▁Lew	-4769
▁Home	-4770
agon	-4771
▁fit	-4772
bourne	-4773
emetery	-4774
▁albums	-4775
▁recomm	-4776
▁teaching	-4777
▁CE	-4778
olid	-4779
▁Guard	-4780
▁Jeff	-4781
▁sens	-4782
▁owner	-4783
▁Special	-4784
▁Chap	-4785
▁critical	-4786
uts	-4787
urer	-4788
▁joint	-4789
▁taught	-4790
▁fr	-4791
▁coal	-4792
▁rules	-4793
adelphia	-4794
▁positions	-4795
iat	-4796
ibly	-4797
▁beat	-4798
▁doub	-4799
▁scoring	-4800
▁expanded	-4801
▁amb	-4802
▁symb	-4803
▁buried	-4804
aug	-4805
▁resident	-4806
▁mentioned	-4807
MS	-4808
book	-4809
iter	-4810
▁Dar	-4811
ji	-4812
una	-4813
▁sales	-4814
uled	-4815
▁Cop	-4816
▁pal	-4817
ables	-4818
▁tells	-4819
▁sculpt	-4820
▁stream	-4821
ronze	-4822
▁Elect	-4823
";	-4824
ologist	-4825
outheast	-4826
▁becomes	-4827
▁billion	-4828
ansion	-4829
▁yards	-4830
▁granted	-4831
▁habit	-4832
▁thous	-4833
▁pressure	-4834
▁Geography	-4835
gu	-4836
▁Ut	-4837
▁elim	-4838
▁sevent	-4839
▁committee	-4840
▁continues	-4841
kee	-4842
▁9,	-4843
▁titles	-4844
▁resulting	-4845
water	-4846
▁kept	-4847
▁content	-4848
▁computer	-4849
oles	-4850
▁Justice	-4851
▁headquarters	-4852
rence	-4853
▁newly	-4854
▁Revolution	-4855
▁showed	-4856
▁hundred	-4857
oted	-4858
▁1994	-4859
▁ranked	-4860
▁formation	-4861
▁code	-4862
▁(,	-4863
▁Among	-4864
▁recognized	-4865
▁Swedish	-4866
iate	-4867
weight	-4868
▁labor	-4869
▁metal	-4870
▁1992	-4871
▁spring	-4872
vest	-4873
▁feet	-4874
▁motor	-4875
vin	-4876
▁Arm	-4877
▁acting	-4878
▁receive	-4879
▁correspond	-4880
▁literature	-4881
▁Aut	-4882
olved	-4883
▁Budd	-4884
▁surrounding	-4885
18	-4886
▁Conf	-4887
▁dance	-4888
▁governor	-4889
▁knowledge	-4890
▁Bec	-4891
▁Human	-4892
▁Police	-4893
▁couple	-4894
▁contest	-4895
nes	-4896
▁wor	-4897
▁2000,	-4898
▁teacher	-4899
▁Duke	-4900
▁blue	-4901
▁vess	-4902
western	-4903
▁Nether	-4904
▁recommend	-4905
–18	-4906
▁prep	-4907
▁slight	-4908
▁Regiment	-4909
onent	-4910
urname	-4911
▁campus	-4912
▁models	-4913
rin	-4914
osen	-4915
estic	-4916
▁liber	-4917
▁nominated	-4918
▁...	-4919
▁greater	-4920
▁distinct	-4921
▁Ah	-4922
▁Mov	-4923
aling	-4924
ender	-4925
▁true	-4926
▁experiment	-4927
ker	-4928
▁Background	-4929
▁organizations	-4930
▁ir	-4931
▁Rog	-4932
▁murder	-4933
ulty	-4934
ented	-4935
▁sites	-4936
▁spons	-4937
▁condition	-4938
da	-4939
▁su	-4940
omot	-4941
▁Boy	-4942
▁(198	-4943
▁stre	-4944
▁2019.	-4945
▁inform	-4946
▁injury	-4947
▁Nations	-4948
▁analysis	-4949
▁paid	-4950
▁density	-4951
▁Community	-4952
▁Premier	-4953
▁digital	-4954
▁Military	-4955
urt	-4956
▁1995	-4957
▁gives	-4958
▁growing	-4959
▁situated	-4960
▁Serb	-4961
▁2008.	-4962
▁parties	-4963
▁35	-4964
▁mess	-4965
="	-4966
iced	-4967
▁twice	-4968
▁allows	-4969
ervative	-4970
PA	-4971
pass	-4972
▁task	-4973
▁figure	-4974
▁Way	-4975
▁1920	-4976
▁Bell	-4977
▁Crit	-4978
▁fast	-4979
▁succeeded	-4980
imal	-4981
▁Han	-4982
▁arrested	-4983
▁Brad	-4984
▁villages	-4985
▁secondary	-4986
▁nort	-4987
▁twenty	-4988
▁politics	-4989
pur	-4990
hedral	-4991
▁versions	-4992
▁Philadelphia	-4993
gers	-4994
odies	-4995
▁loan	-4996
▁Enter	-4997
iser	-4998
▁fix	-4999
alion	-5000
amber	-5001
occer	-5002
erc	-5003
▁Fle	-5004
▁Fair	-5005
ancing	-5006
▁wa	-5007
▁Aff	-5008
▁Death	-5009
▁sexual	-5010
▁Network	-5011
ographic	-5012
which	-5013
▁Band	-5014
▁2007.	-5015
▁instrument	-5016
▁figures	-5017
▁festival	-5018
▁32	-5019
▁mm	-5020
▁Att	-5021
▁pack	-5022
▁Castle	-5023
▁Journal	-5024
▁inspired	-5025
▁Dam	-5026
▁Dun	-5027
▁Ven	-5028
▁Press	-5029
▁voice	-5030
15	-5031
▁comedy	-5032
uous	-5033
▁Mir	-5034
▁bal	-5035
▁1991	-5036
▁Minn	-5037
▁trains	-5038
▁ve	-5039
▁17,	-5040
▁Bir	-5041
▁Due	-5042
▁wild	-5043
▁Oxford	-5044
▁supply	-5045
▁officials	-5046
erb	-5047
asty	-5048
▁hop	-5049
eding	-5050
track	-5051
▁propos	-5052
▁applied	-5053
gal	-5054
▁ce	-5055
real	-5056
▁consum	-5057
ternet	-5058
▁strugg	-5059
▁attacks	-5060
▁painting	-5061
▁connected	-5062
ng	-5063
▁Ira	-5064
▁1940	-5065
heim	-5066
▁dia	-5067
yond	-5068
iling	-5069
▁facility	-5070
▁Bad	-5071
▁paint	-5072
igen	-5073
▁14,	-5074
▁wall	-5075
▁alone	-5076
▁Sweden	-5077
▁weight	-5078
▁designated	-5079
▁pun	-5080
▁tim	-5081
▁Marg	-5082
▁Forest	-5083
▁Wilson	-5084
.)	-5085
▁damage	-5086
▁Int	-5087
▁fully	-5088
▁Family	-5089
▁claims	-5090
oty	-5091
urd	-5092
▁Korean	-5093
▁enj	-5094
▁felt	-5095
▁provin	-5096
▁actress	-5097
▁chairman	-5098
ouri	-5099
▁Stat	-5100
▁unique	-5101
▁25,	-5102
▁Toronto	-5103
▁regions	-5104
▁authorities	-5105
CO	-5106
▁marked	-5107
▁library	-5108
▁providing	-5109
aven	-5110
▁things	-5111
▁ec	-5112
▁500	-5113
▁seats	-5114
▁search	-5115
▁Die	-5116
▁spirit	-5117
▁obtained	-5118
▁suggested	-5119
▁13,	-5120
▁Ker	-5121
erick	-5122
▁says	-5123
▁Indust	-5124
▁classes	-5125
▁partner	-5126
ois	-5127
▁stock	-5128
▁scholar	-5129
▁materials	-5130
▁burn	-5131
▁subs	-5132
▁Because	-5133
▁traffic	-5134
▁16,	-5135
▁Naz	-5136
▁hall	-5137
▁secret	-5138
▁simply	-5139
▁Sab	-5140
▁Sus	-5141
▁Transport	-5142
16	-5143
▁Ta	-5144
▁Joe	-5145
▁Final	-5146
▁pair	-5147
bro	-5148
▁Bab	-5149
▁Jon	-5150
ennes	-5151
usion	-5152
▁losing	-5153
▁measure	-5154
▁mom	-5155
▁oppos	-5156
▁Netherlands	-5157
▁Sher	-5158
▁carri	-5159
▁govern	-5160
▁Emperor	-5161
▁concert	-5162
▁subsequent	-5163
osa	-5164
▁Kir	-5165
▁wing	-5166
-4	-5167
▁Project	-5168
elligence	-5169
▁meant	-5170
arc	-5171
▁dial	-5172
▁proceed	-5173
▁allowing	-5174
▁situation	-5175
▁rain	-5176
▁Media	-5177
▁begins	-5178
▁critics	-5179
▁returning	-5180
▁Abb	-5181
▁wear	-5182
▁actually	-5183
▁rapid	-5184
▁association	-5185
▁End	-5186
▁Les	-5187
▁cam	-5188
kin	-5189
▁Rac	-5190
▁boy	-5191
▁Santa	-5192
▁Business	-5193
▁Earl	-5194
▁pict	-5195
▁column	-5196
LA	-5197
load	-5198
▁von	-5199
tario	-5200
▁spot	-5201
century	-5202
aks	-5203
▁Ra	-5204
▁fish	-5205
▁Colon	-5206
▁founder	-5207
▁software	-5208
14	-5209
▁districts	-5210
35	-5211
▁UN	-5212
▁sides	-5213
▁Legisl	-5214
▁purpose	-5215
▁Girl	-5216
▁Lady	-5217
▁element	-5218
▁Register	-5219
▁oldest	-5220
▁brothers	-5221
▁Technology	-5222
gian	-5223
lers	-5224
▁Der	-5225
▁Maria	-5226
▁Night	-5227
▁athlet	-5228
ropolitan	-5229
FC	-5230
inate	-5231
▁tree	-5232
▁Pers	-5233
▁Plot	-5234
▁Master	-5235
▁conflict	-5236
sey	-5237
text	-5238
▁sons	-5239
▁tried	-5240
▁illust	-5241
▁sixth	-5242
▁Captain	-5243
zech	-5244
▁risk	-5245
▁theme	-5246
▁scientific	-5247
▁$2	-5248
▁Hu	-5249
ucky	-5250
▁Tal	-5251
▁achieved	-5252
inson	-5253
ashion	-5254
▁sport	-5255
▁launch	-5256
▁Kel	-5257
▁Mun	-5258
ighth	-5259
▁1993	-5260
▁Region	-5261
▁cannot	-5262
▁metres	-5263
ava	-5264
▁Circ	-5265
erland	-5266
▁narrow	-5267
▁Through	-5268
▁Light	-5269
chestra	-5270
oren	-5271
▁aired	-5272
▁|	-5273
room	-5274
▁visit	-5275
▁bought	-5276
▁extend	-5277
▁Francis	-5278
▁principal	-5279
jan	-5280
eller	-5281
▁suit	-5282
▁portion	-5283
▁suggest	-5284
▁younger	-5285
▁challeng	-5286
▁80	-5287
amin	-5288
▁Gen	-5289
▁Kal	-5290
▁cells	-5291
rep	-5292
orter	-5293
▁Area	-5294
▁Mike	-5295
▁Mexican	-5296
bec	-5297
eral	-5298
▁shop	-5299
▁existing	-5300
▁Cub	-5301
▁lot	-5302
▁ven	-5303
▁refused	-5304
▁Down	-5305
▁finish	-5306
▁temple	-5307
▁attempted	-5308
ruit	-5309
▁bow	-5310
▁straight	-5311
▁Fire	-5312
▁settled	-5313
ocese	-5314
▁Prize	-5315
▁Junior	-5316
▁publication	-5317
CAA	-5318
▁custom	-5319
▁restaur	-5320
▁authority	-5321
▁20,	-5322
▁cert	-5323
▁2021,	-5324
▁Davis	-5325
▁global	-5326
▁NA	-5327
▁image	-5328
▁Taylor	-5329
lan	-5330
▁Atlantic	-5331
▁neighborhood	-5332
ée	-5333
▁respond	-5334
pet	-5335
▁Po	-5336
▁USA	-5337
▁van	-5338
osophy	-5339
▁Som	-5340
▁iron	-5341
▁thir	-5342
▁commander	-5343
een	-5344
▁Moh	-5345
▁Tai	-5346
▁Walk	-5347
uls	-5348
▁FI	-5349
inners	-5350
▁Municip	-5351
▁frequently	-5352
▁Da	-5353
▁safety	-5354
▁climate	-5355
▁underst	-5356
▁something	-5357
EC	-5358
▁Ontario	-5359
▁advanced	-5360
▁Gi	-5361
bell	-5362
orph	-5363
▁want	-5364
▁Color	-5365
▁hands	-5366
▁royal	-5367
▁towns	-5368
▁completely	-5369
▁(3	-5370
▁Khan	-5371
▁Between	-5372
▁arts	-5373
▁Stephen	-5374
▁fighting	-5375
yo	-5376
▁Zh	-5377
esota	-5378
▁1988	-5379
▁fair	-5380
▁promotion	-5381
life	-5382
▁cho	-5383
13	-5384
▁(;	-5385
bi	-5386
ilton	-5387
▁attra	-5388
▁Arthur	-5389
▁advert	-5390
▁methods	-5391
▁surname	-5392
▁visited	-5393
yes	-5394
▁Batt	-5395
▁Beach	-5396
▁chosen	-5397
▁Dor	-5398
▁Indones	-5399
▁focused	-5400
▁Vo	-5401
▁Alf	-5402
illery	-5403
ES	-5404
▁Ger	-5405
▁sets	-5406
▁2006.	-5407
▁Czech	-5408
▁protection	-5409
▁Fox	-5410
▁cab	-5411
▁begin	-5412
▁Addition	-5413
▁occasion	-5414
▁Time	-5415
▁defin	-5416
▁copies	-5417
▁unable	-5418
▁mis	-5419
imens	-5420
▁Week	-5421
▁receiving	-5422
HL	-5423
Bill	-5424
▁ple	-5425
▁Leon	-5426
▁Like	-5427
▁adapt	-5428
▁animals	-5429
po	-5430
▁Us	-5431
▁mut	-5432
▁Balt	-5433
urance	-5434
▁Marsh	-5435
▁graph	-5436
▁spect	-5437
▁Spring	-5438
▁reports	-5439
▁accident	-5440
owa	-5441
anth	-5442
gend	-5443
acter	-5444
▁Iraq	-5445
45	-5446
organ	-5447
▁lake	-5448
▁prof	-5449
▁defined	-5450
▁Wel	-5451
▁rot	-5452
▁2021	-5453
▁enjoy	-5454
▁cancer	-5455
▁baseball	-5456
▁retirement	-5457
orney	-5458
▁tend	-5459
ection	-5460
▁tower	-5461
▁aspect	-5462
▁commissioned	-5463
▁Hay	-5464
▁Sem	-5465
▁voc	-5466
▁victim	-5467
elve	-5468
▁magn	-5469
▁holds	-5470
▁creating	-5471
iang	-5472
osis	-5473
▁Baron	-5474
▁Power	-5475
▁Several	-5476
▁actions	-5477
oln	-5478
mouth	-5479
writer	-5480
▁covers	-5481
▁conduct	-5482
kes	-5483
ifically	-5484
▁Kim	-5485
▁Squad	-5486
▁winter	-5487
▁founding	-5488
idi	-5489
rog	-5490
▁2003,	-5491
▁extensive	-5492
▁fans	-5493
▁Reception	-5494
2).	-5495
mes	-5496
▁Cape	-5497
rip	-5498
▁36	-5499
▁expansion	-5500
▁background	-5501
▁Nic	-5502
▁portray	-5503
▁""	-5504
▁Bla	-5505
iable	-5506
▁arms	-5507
lyn	-5508
ains	-5509
inus	-5510
ureau	-5511
▁goes	-5512
itness	-5513
▁formerly	-5514
▁Minnesota	-5515
arp	-5516
▁defense	-5517
▁performing	-5518
▁relatively	-5519
▁ultimately	-5520
rum	-5521
▁178	-5522
▁19,	-5523
▁economy	-5524
▁setting	-5525
▁Sum	-5526
ading	-5527
▁broke	-5528
▁attempts	-5529
▁agent	-5530
▁Ob	-5531
▁Pit	-5532
▁Tok	-5533
▁flood	-5534
▁reject	-5535
▁structures	-5536
aret	-5537
▁shared	-5538
▁resources	-5539
▁constituency	-5540
bar	-5541
▁fields	-5542
▁simple	-5543
igration	-5544
▁articles	-5545
79	-5546
cow	-5547
abad	-5548
▁cart	-5549
▁roof	-5550
▁storm	-5551
▁highway	-5552
▁necessary	-5553
▁Short	-5554
▁earth	-5555
▁Design	-5556
▁converted	-5557
▁opposition	-5558
rade	-5559
▁hor	-5560
▁Ocean	-5561
▁normal	-5562
▁opposed	-5563
▁attacked	-5564
aming	-5565
also	-5566
▁30,	-5567
–3	-5568
▁Rom	-5569
▁Medical	-5570
Un	-5571
iner	-5572
▁23,	-5573
▁bul	-5574
▁tele	-5575
▁girls	-5576
▁citizens	-5577
outs	-5578
athan	-5579
▁Upon	-5580
ructure	-5581
▁entitled	-5582
▁virt	-5583
▁derived	-5584
ii	-5585
rec	-5586
wise	-5587
▁rob	-5588
▁abandoned	-5589
▁representing	-5590
fl	-5591
▁bill	-5592
▁consecut	-5593
▁presidential	-5594
VD	-5595
▁Su	-5596
phas	-5597
onsin	-5598
▁generation	-5599
▁etc	-5600
▁fought	-5601
▁unknown	-5602
cell	-5603
▁kil	-5604
▁bott	-5605
ipe	-5606
onym	-5607
ples	-5608
fully	-5609
▁beaut	-5610
▁occupied	-5611
▁application	-5612
It	-5613
ami	-5614
eman	-5615
udget	-5616
▁Anth	-5617
▁alle	-5618
▁Prior	-5619
▁Today	-5620
▁5.	-5621
▁lect	-5622
▁contributed	-5623
▁sand	-5624
isconsin	-5625
restling	-5626
▁consisted	-5627
aki	-5628
rate	-5629
▁22,	-5630
▁rid	-5631
▁seem	-5632
▁26,	-5633
▁approved	-5634
▁effective	-5635
▁reference	-5636
gar	-5637
ante	-5638
state	-5639
▁Pass	-5640
▁horse	-5641
▁Country	-5642
▁sense	-5643
▁lyrics	-5644
▁memory	-5645
▁Vietnam	-5646
▁‘	-5647
oto	-5648
▁Free	-5649
▁inhabit	-5650
▁maximum	-5651
▁1989	-5652
▁Greg	-5653
▁dropped	-5654
▁starring	-5655
▁scheduled	-5656
▁Federation	-5657
kh	-5658
▁28,	-5659
▁aged	-5660
▁Memorial	-5661
▁Sciences	-5662
▁33	-5663
▁2020.	-5664
▁Melbourne	-5665
agh	-5666
enna	-5667
bra	-5668
);	-5669
inth	-5670
rect	-5671
▁21,	-5672
▁theatre	-5673
▁Bah	-5674
▁Cre	-5675
▁negot	-5676
▁funding	-5677
▁Chris	-5678
▁Lewis	-5679
▁Further	-5680
De	-5681
TC	-5682
anguage	-5683
gest	-5684
▁bass	-5685
▁crim	-5686
▁notes	-5687
▁Albert	-5688
▁sle	-5689
▁daily	-5690
▁decre	-5691
▁wealth	-5692
▁powerful	-5693
ika	-5694
▁Lt	-5695
▁Slov	-5696
urches	-5697
▁Trust	-5698
▁height	-5699
▁Wat	-5700
▁bronze	-5701
▁References	-5702
17	-5703
alo	-5704
enz	-5705
anna	-5706
▁Jews	-5707
▁mile	-5708
▁audience	-5709
Se	-5710
set	-5711
anning	-5712
▁drive	-5713
▁consult	-5714
▁slightly	-5715
▁Lind	-5716
▁guest	-5717
▁airport	-5718
▁cricket	-5719
▁invited	-5720
▁contrast	-5721
▁Queensland	-5722
▁EP	-5723
▁vocal	-5724
ogs	-5725
▁1987	-5726
▁Test	-5727
▁2002,	-5728
▁machine	-5729
▁Pier	-5730
▁guns	-5731
▁lands	-5732
▁employed	-5733
▁identity	-5734
OS	-5735
▁Ho	-5736
▁resc	-5737
▁samp	-5738
achelor	-5739
▁architecture	-5740
▁dipl	-5741
iments	-5742
▁Turkey	-5743
pool	-5744
▁NCAA	-5745
▁rear	-5746
olished	-5747
Billboard	-5748
anga	-5749
ivals	-5750
▁hotel	-5751
▁vehicles	-5752
lets	-5753
▁Cab	-5754
▁Gre	-5755
▁Philippines	-5756
ns	-5757
▁vent	-5758
▁distingu	-5759
▁Wisconsin	-5760
▁permanent	-5761
▁institutions	-5762
ito	-5763
▁Sri	-5764
▁Tourn	-5765
▁corner	-5766
▁shortly	-5767
▁centuries	-5768
▁touchdown	-5769
▁Vi	-5770
▁opp	-5771
ulate	-5772
▁1919	-5773
atures	-5774
▁consecutive	-5775
▁Bat	-5776
▁qualified	-5777
ears	-5778
lain	-5779
▁tal	-5780
▁Indiana	-5781
▁morning	-5782
▁Labor	-5783
▁Stock	-5784
▁exchange	-5785
▁Hun	-5786
▁seg	-5787
▁castle	-5788
▁encoura	-5789
▁Ret	-5790
▁Holy	-5791
▁trees	-5792
▁exclus	-5793
▁Description	-5794
▁successfully	-5795
ori	-5796
▁Id	-5797
▁avoid	-5798
▁glass	-5799
SP	-5800
▁Lo	-5801
▁29,	-5802
▁Nick	-5803
▁poll	-5804
section	-5805
pot	-5806
▁70	-5807
king	-5808
▁Jos	-5809
raine	-5810
wegian	-5811
▁hockey	-5812
▁incorporated	-5813
▁)	-5814
▁MP	-5815
aska	-5816
▁ways	-5817
▁phase	-5818
long	-5819
apore	-5820
▁Burn	-5821
▁Gree	-5822
▁faced	-5823
▁merch	-5824
▁beyond	-5825
icy	-5826
iny	-5827
mun	-5828
▁entry	-5829
▁reasons	-5830
▁documentary	-5831
iva	-5832
▁Sav	-5833
▁Kansas	-5834
▁Brother	-5835
▁regarding	-5836
▁recognition	-5837
AR	-5838
pson	-5839
▁Hart	-5840
▁your	-5841
duct	-5842
▁Abd	-5843
▁Gil	-5844
▁Steve	-5845
actions	-5846
▁Native	-5847
▁yellow	-5848
▁engineering	-5849
23	-5850
▁flu	-5851
▁1986	-5852
▁onto	-5853
▁rang	-5854
▁deploy	-5855
▁prepar	-5856
▁contained	-5857
▁worldwide	-5858
stream	-5859
asy	-5860
▁rough	-5861
incoln	-5862
uccess	-5863
▁funds	-5864
▁quant	-5865
▁toward	-5866
▁planning	-5867
▁Americans	-5868
',	-5869
gth	-5870
▁coord	-5871
▁functions	-5872
▁fer	-5873
▁fuel	-5874
▁vice	-5875
▁Norway	-5876
▁learning	-5877
IC	-5878
▁Ts	-5879
▁Fac	-5880
plies	-5881
▁Nich	-5882
▁2001,	-5883
▁Point	-5884
▁holding	-5885
▁apparent	-5886
▁Staff	-5887
▁write	-5888
iations	-5889
▁Maryland	-5890
umes	-5891
▁basic	-5892
▁Services	-5893
▁domestic	-5894
▁expressed	-5895
otic	-5896
cript	-5897
oured	-5898
▁Ford	-5899
lywood	-5900
▁needs	-5901
▁detect	-5902
▁ending	-5903
▁candidates	-5904
▁properties	-5905
'.	-5906
▁27,	-5907
▁Eth	-5908
▁hero	-5909
▁price	-5910
▁Temple	-5911
▁advant	-5912
▁emphas	-5913
ropri	-5914
while	-5915
▁racing	-5916
amm	-5917
rowd	-5918
▁convers	-5919
▁Management	-5920
▁exhibition	-5921
▁Representatives	-5922
uese	-5923
▁Bru	-5924
▁Ball	-5925
▁Ross	-5926
▁deliver	-5927
▁Missouri	-5928
▁Ten	-5929
▁Prot	-5930
ecutive	-5931
▁Channel	-5932
▁heavily	-5933
▁containing	-5934
▁Six	-5935
iques	-5936
▁rein	-5937
▁spok	-5938
▁Golden	-5939
▁equal	-5940
▁partnership	-5941
▁Writ	-5942
former	-5943
▁Bos	-5944
▁Nap	-5945
▁poly	-5946
▁piece	-5947
▁Studies	-5948
▁advance	-5949
▁Building	-5950
▁literary	-5951
▁Christmas	-5952
▁Marc	-5953
▁cycl	-5954
▁entrance	-5955
▁Production	-5956
76	-5957
iab	-5958
raf	-5959
▁ox	-5960
▁views	-5961
▁Winter	-5962
▁Television	-5963
▁90	-5964
▁Ka	-5965
▁Cas	-5966
▁enemy	-5967
We	-5968
ici	-5969
sis	-5970
▁2005.	-5971
▁mayor	-5972
▁trust	-5973
ennessee	-5974
▁1984	-5975
▁mind	-5976
▁combat	-5977
▁survey	-5978
ão	-5979
isa	-5980
▁Hou	-5981
▁Sound	-5982
▁reign	-5983
▁sector	-5984
▁Colorado	-5985
▁Norwegian	-5986
▁determined	-5987
74	-5988
▁1900	-5989
uration	-5990
▁letters	-5991
ader	-5992
▁decades	-5993
▁patients	-5994
▁developing	-5995
▁doing	-5996
▁Walter	-5997
▁connection	-5998
▁supporting	-5999
orders	-6000
▁walls	-6001
▁Census	-6002
iversary	-6003
▁herself	-6004
▁educated	-6005
▁alternative	-6006
▁Moscow	-6007
▁category	-6008
fall	-6009
▁rise	-6010
▁sust	-6011
▁Medal	-6012
▁Though	-6013
▁rom	-6014
▁Bureau	-6015
▁merged	-6016
▁offices	-6017
▁vehicle	-6018
▁influenced	-6019
US	-6020
▁inaug	-6021
▁existence	-6022
isms	-6023
▁Tan	-6024
▁About	-6025
▁multi	-6026
▁sought	-6027
▁Notable	-6028
▁finishing	-6029
▁locations	-6030
ho	-6031
oly	-6032
▁Bon	-6033
▁bor	-6034
ateur	-6035
▁auth	-6036
▁compar	-6037
▁Lincoln	-6038
▁locomot	-6039
car	-6040
▁Fa	-6041
regon	-6042
▁1983	-6043
▁Singapore	-6044
▁Rang	-6045
season	-6046
▁crime	-6047
▁Forces	-6048
▁Philip	-6049
▁speech	-6050
▁volume	-6051
▁Infantry	-6052
iti	-6053
▁Then	-6054
▁Malays	-6055
▁valley	-6056
▁improve	-6057
▁6.	-6058
▁Brigade	-6059
▁ceremony	-6060
-0	-6061
ikh	-6062
▁Ast	-6063
▁hydro	-6064
▁Labour	-6065
▁matter	-6066
▁Manchester	-6067
▁maintained	-6068
▁pieces	-6069
fe	-6070
Don	-6071
▁NFL	-6072
after	-6073
▁ring	-6074
▁Greece	-6075
▁stadium	-6076
▁constant	-6077
▁pul	-6078
▁grade	-6079
▁refers	-6080
▁script	-6081
▁accompan	-6082
▁Tennessee	-6083
▁Professional	-6084
▁Prim	-6085
▁conce	-6086
▁fleet	-6087
▁pilot	-6088
stitutional	-6089
▁investigation	-6090
":	-6091
▁acts	-6092
rizona	-6093
▁micro	-6094
▁voted	-6095
▁stating	-6096
stead	-6097
▁Senior	-6098
▁promote	-6099
▁programme	-6100
▁environmental	-6101
appe	-6102
olis	-6103
wich	-6104
▁impr	-6105
▁Frederick	-6106
rav	-6107
opher	-6108
risis	-6109
▁Gord	-6110
▁Turkish	-6111
▁passing	-6112
▁Cambridge	-6113
osed	-6114
▁Now	-6115
▁educational	-6116
ui	-6117
anton	-6118
▁Stone	-6119
rat	-6120
▁plot	-6121
▁swim	-6122
▁finds	-6123
▁alleged	-6124
▁Pot	-6125
place	-6126
▁reflect	-6127
▁temperature	-6128
21	-6129
Sp	-6130
ogen	-6131
▁Member	-6132
▁descend	-6133
▁composer	-6134
▁religion	-6135
▁Od	-6136
▁Chen	-6137
▁brown	-6138
▁quite	-6139
▁graduate	-6140
▁Portuguese	-6141
equ	-6142
gency	-6143
▁ethnic	-6144
▁occurs	-6145
▁powers	-6146
▁Foreign	-6147
vard	-6148
▁1985	-6149
▁Places	-6150
▁extrem	-6151
▁accused	-6152
▁engaged	-6153
▁Tournament	-6154
▁establishment	-6155
urday	-6156
▁shape	-6157
▁formal	-6158
▁experien	-6159
▁independence	-6160
▁Ali	-6161
▁Gram	-6162
▁argued	-6163
▁volunte	-6164
itter	-6165
▁load	-6166
▁doctor	-6167
▁observ	-6168
▁starts	-6169
▁importance	-6170
▁Pa	-6171
▁Sunday	-6172
▁appoint	-6173
▁compete	-6174
▁fresh	-6175
▁install	-6176
▁strength	-6177
alty	-6178
▁Hor	-6179
▁Loc	-6180
icide	-6181
▁Hard	-6182
▁Niger	-6183
▁Engineering	-6184
PS	-6185
udi	-6186
acent	-6187
illing	-6188
▁draft	-6189
▁Command	-6190
▁closely	-6191
▁san	-6192
▁try	-6193
▁Stand	-6194
ription	-6195
▁reaching	-6196
24	-6197
La	-6198
000.	-6199
olas	-6200
oster	-6201
▁decor	-6202
78	-6203
ré	-6204
cia	-6205
igation	-6206
▁resigned	-6207
▁inhabitants	-6208
agues	-6209
▁Turn	-6210
▁trav	-6211
▁Track	-6212
▁adult	-6213
lines	-6214
ource	-6215
▁diam	-6216
▁trying	-6217
▁playoff	-6218
▁Bowl	-6219
▁folk	-6220
▁sale	-6221
▁reserve	-6222
▁nob	-6223
▁Plan	-6224
▁Thus	-6225
▁poetry	-6226
▁Regional	-6227
rees	-6228
▁aid	-6229
▁swe	-6230
itage	-6231
▁Harry	-6232
▁choice	-6233
▁foundation	-6234
▁bra	-6235
ships	-6236
▁harm	-6237
friend	-6238
▁judge	-6239
▁failure	-6240
64	-6241
▁Ot	-6242
elle	-6243
▁Bou	-6244
▁mel	-6245
▁acid	-6246
▁guard	-6247
▁Fellow	-6248
heastern	-6249
▁joining	-6250
▁Security	-6251
▁personnel	-6252
▁journalist	-6253
ghan	-6254
▁clin	-6255
▁ends	-6256
▁gall	-6257
▁marg	-6258
▁Chart	-6259
▁Oregon	-6260
▁incident	-6261
▁concluded	-6262
▁registered	-6263
▁7.	-6264
▁Ku	-6265
▁Hur	-6266
▁cas	-6267
ublin	-6268
▁mand	-6269
▁Domin	-6270
▁calls	-6271
!"	-6272
▁birds	-6273
▁believe	-6274
▁producing	-6275
▁technical	-6276
Sc	-6277
hol	-6278
aved	-6279
hing	-6280
▁Div	-6281
prise	-6282
▁Adam	-6283
▁roll	-6284
▁tall	-6285
▁proved	-6286
▁causing	-6287
▁rugby	-6288
▁junior	-6289
▁nuclear	-6290
iami	-6291
▁Ron	-6292
▁Beng	-6293
▁Pope	-6294
▁passes	-6295
▁300	-6296
▁gar	-6297
▁sac	-6298
▁Wall	-6299
▁creat	-6300
▁Current	-6301
▁internal	-6302
pa	-6303
▁pup	-6304
allel	-6305
▁Administration	-6306
▁Jacob	-6307
▁roads	-6308
▁Wars	-6309
▁homes	-6310
▁overs	-6311
▁Miller	-6312
▁landsc	-6313
mb	-6314
father	-6315
▁orders	-6316
▁Affairs	-6317
▁affected	-6318
BI	-6319
usal	-6320
▁400	-6321
▁Tel	-6322
▁carry	-6323
▁instru	-6324
▁consisting	-6325
oa	-6326
ager	-6327
burn	-6328
▁Whit	-6329
▁heard	-6330
ographer	-6331
▁Arizona	-6332
▁trained	-6333
▁entirely	-6334
▁resistance	-6335
▁AD	-6336
ryst	-6337
▁1972	-6338
▁deliv	-6339
▁escape	-6340
▁twelve	-6341
aded	-6342
unction	-6343
65	-6344
▁Disc	-6345
▁Even	-6346
▁wins	-6347
▁observed	-6348
▁McG	-6349
▁Ren	-6350
under	-6351
▁hired	-6352
▁rival	-6353
▁Howard	-6354
ía	-6355
▁god	-6356
▁specifically	-6357
isf	-6358
ques	-6359
▁jur	-6360
tered	-6361
▁Finn	-6362
▁Album	-6363
▁interests	-6364
▁representative	-6365
ippi	-6366
▁Gab	-6367
▁Youth	-6368
▁steel	-6369
▁visual	-6370
▁selection	-6371
oli	-6372
▁gradu	-6373
▁occas	-6374
▁Square	-6375
iants	-6376
▁Bulg	-6377
▁Fame	-6378
▁Rose	-6379
▁moth	-6380
▁Author	-6381
▁fashion	-6382
vens	-6383
▁Dig	-6384
▁1968	-6385
▁fram	-6386
ifying	-6387
▁opera	-6388
▁praised	-6389
eline	-6390
▁analy	-6391
▁Review	-6392
▁weapons	-6393
haps	-6394
ieval	-6395
orage	-6396
▁boat	-6397
▁kick	-6398
▁Brian	-6399
▁Swiss	-6400
▁request	-6401
▁violence	-6402
▁applications	-6403
▁1979	-6404
▁warn	-6405
clusion	-6406
▁someone	-6407
▁interior	-6408
eke	-6409
come	-6410
▁laid	-6411
▁causes	-6412
▁Mississ	-6413
▁profession	-6414
▁Kr	-6415
▁Vis	-6416
▁dang	-6417
▁chose	-6418
▁employees	-6419
He	-6420
▁IV	-6421
▁Alab	-6422
▁Vice	-6423
ER	-6424
SR	-6425
aga	-6426
▁Cer	-6427
▁Barb	-6428
▁writers	-6429
▁demonstr	-6430
▁mathemat	-6431
▁negative	-6432
▁combination	-6433
gor	-6434
▁Ale	-6435
▁scenes	-6436
▁Austria	-6437
▁Gib	-6438
▁Roy	-6439
icial	-6440
▁dates	-6441
▁Oak	-6442
▁Coll	-6443
▁Hans	-6444
▁Jane	-6445
▁steam	-6446
▁paintings	-6447
▁opportunity	-6448
▁participate	-6449
uv	-6450
▁Ec	-6451
rete	-6452
▁ast	-6453
▁Once	-6454
▁Croat	-6455
▁watch	-6456
igenous	-6457
▁cooper	-6458
▁licens	-6459
▁briefly	-6460
itzerland	-6461
▁classical	-6462
point	-6463
▁sole	-6464
▁Colomb	-6465
entially	-6466
▁purchase	-6467
agan	-6468
going	-6469
▁1974	-6470
▁Fund	-6471
▁Well	-6472
▁Liberal	-6473
73	-6474
aro	-6475
▁Ga	-6476
▁Web	-6477
▁greatest	-6478
▁Executive	-6479
▁historian	-6480
2),	-6481
run	-6482
▁DVD	-6483
▁opin	-6484
▁franch	-6485
▁protein	-6486
▁reading	-6487
▁Political	-6488
▁northeast	-6489
uct	-6490
rait	-6491
▁sail	-6492
▁scale	-6493
▁bodies	-6494
▁FM	-6495
▁(),	-6496
▁ere	-6497
▁Barn	-6498
▁Armen	-6499
▁Heart	-6500
▁limit	-6501
borough	-6502
▁Marine	-6503
▁assess	-6504
▁divers	-6505
▁strike	-6506
▁standards	-6507
▁ax	-6508
odox	-6509
▁adap	-6510
▁armed	-6511
7),	-6512
oes	-6513
poses	-6514
▁Simon	-6515
▁prefer	-6516
election	-6517
▁Hamilton	-6518
only	-6519
▁core	-6520
▁compl	-6521
▁Ky	-6522
inder	-6523
▁edge	-6524
▁ment	-6525
inally	-6526
wealth	-6527
▁dismiss	-6528
▁describes	-6529
▁installed	-6530
▁secretary	-6531
▁agricultural	-6532
zh	-6533
pir	-6534
zen	-6535
▁Dougl	-6536
▁brick	-6537
▁comput	-6538
▁adjacent	-6539
▁behavior	-6540
▁possibly	-6541
iful	-6542
antic	-6543
▁Hockey	-6544
anes	-6545
▁Kat	-6546
▁Low	-6547
▁Prix	-6548
▁flat	-6549
▁pros	-6550
▁Rural	-6551
ivalent	-6552
▁convent	-6553
▁factory	-6554
▁Operation	-6555
▁collected	-6556
pes	-6557
▁tor	-6558
▁rich	-6559
▁dress	-6560
▁Samuel	-6561
▁animal	-6562
▁belief	-6563
▁bishop	-6564
▁weather	-6565
▁chemical	-6566
▁premiered	-6567
aph	-6568
rine	-6569
▁calling	-6570
▁passenger	-6571
▁controlled	-6572
▁programming	-6573
▁Hal	-6574
▁Jay	-6575
▁Anne	-6576
▁Modern	-6577
▁operate	-6578
▁regarded	-6579
▁map	-6580
▁Only	-6581
▁Miami	-6582
including	-6583
▁da	-6584
▁Dal	-6585
▁1982	-6586
▁Buddh	-6587
▁Alabama	-6588
-5	-6589
adi	-6590
▁Wy	-6591
▁cru	-6592
▁pione	-6593
▁ruled	-6594
▁Iowa	-6595
▁Tony	-6596
▁consequ	-6597
▁extension	-6598
▁composition	-6599
VID	-6600
tra	-6601
ommod	-6602
▁door	-6603
▁rebu	-6604
▁driver	-6605
▁moment	-6606
▁witness	-6607
▁Squadron	-6608
28	-6609
ums	-6610
▁1981	-6611
▁Juan	-6612
▁Front	-6613
▁Hills	-6614
▁crowd	-6615
▁fiction	-6616
▁revolution	-6617
DA	-6618
zo	-6619
ür	-6620
▁8.	-6621
vant	-6622
▁isol	-6623
▁ideas	-6624
▁links	-6625
▁worth	-6626
▁transform	-6627
▁x	-6628
term	-6629
▁Tar	-6630
▁2004.	-6631
▁suppor	-6632
▁passengers	-6633
TS	-6634
–4	-6635
▁Clin	-6636
▁1999,	-6637
▁reduce	-6638
▁reserv	-6639
▁Patrick	-6640
▁tropical	-6641
▁Switzerland	-6642
▁Mayor	-6643
▁racial	-6644
▁grounds	-6645
▁fine	-6646
▁nick	-6647
active	-6648
▁Diego	-6649
▁grant	-6650
▁Palest	-6651
▁proced	-6652
▁survived	-6653
DP	-6654
▁hun	-6655
▁crown	-6656
▁typical	-6657
▁northwest	-6658
eler	-6659
▁diplom	-6660
▁delivered	-6661
roit	-6662
▁aware	-6663
▁bands	-6664
▁budget	-6665
▁residence	-6666
Ne	-6667
apes	-6668
▁Live	-6669
▁Brand	-6670
ologies	-6671
▁agency	-6672
▁corpor	-6673
▁regiment	-6674
▁Mit	-6675
▁1978	-6676
ounted	-6677
▁exped	-6678
▁railroad	-6679
▁Lar	-6680
▁row	-6681
▁jazz	-6682
▁Naval	-6683
▁ancest	-6684
▁easily	-6685
box	-6686
ogy	-6687
adow	-6688
sect	-6689
abled	-6690
▁1976	-6691
▁Works	-6692
▁uncle	-6693
▁factors	-6694
▁34	-6695
ania	-6696
rator	-6697
▁Shah	-6698
▁initi	-6699
▁shell	-6700
▁getting	-6701
▁Heritage	-6702
▁collaboration	-6703
.”	-6704
vo	-6705
▁Hug	-6706
ushed	-6707
▁Mand	-6708
▁1998,	-6709
▁stores	-6710
▁damaged	-6711
▁Karl	-6712
▁surg	-6713
▁courses	-6714
63	-6715
level	-6716
▁Magazine	-6717
RC	-6718
des	-6719
▁sell	-6720
▁advoc	-6721
▁signal	-6722
▁Independent	-6723
▁38	-6724
▁IS	-6725
▁Na	-6726
uther	-6727
▁Wolf	-6728
▁stands	-6729
▁singing	-6730
▁earliest	-6731
icts	-6732
▁Rab	-6733
overty	-6734
▁Sport	-6735
▁goods	-6736
▁improved	-6737
▁Dur	-6738
▁coll	-6739
▁Rugby	-6740
▁Territ	-6741
▁superv	-6742
▁killing	-6743
▁admitted	-6744
▁statement	-6745
69	-6746
anned	-6747
night	-6748
▁benef	-6749
▁exerc	-6750
resents	-6751
▁policies	-6752
▁restored	-6753
iot	-6754
▁Kam	-6755
▁ans	-6756
antly	-6757
▁deleg	-6758
▁Kentucky	-6759
lock	-6760
▁shut	-6761
▁delay	-6762
▁painted	-6763
▁reception	-6764
▁dry	-6765
ourney	-6766
▁medium	-6767
▁owners	-6768
▁distributed	-6769
▁Inn	-6770
▁Jam	-6771
iller	-6772
▁Farm	-6773
▁emot	-6774
▁qual	-6775
▁drink	-6776
▁values	-6777
▁injured	-6778
68	-6779
▁(4	-6780
▁Pun	-6781
owned	-6782
▁Real	-6783
▁ille	-6784
▁Treat	-6785
▁seconds	-6786
▁substant	-6787
▁transition	-6788
▁Alb	-6789
▁page	-6790
▁ahead	-6791
▁replace	-6792
▁criminal	-6793
▁Dom	-6794
▁Lank	-6795
▁routes	-6796
▁Antonio	-6797
▁starred	-6798
▁credited	-6799
agu	-6800
chi	-6801
▁Nik	-6802
imore	-6803
▁gene	-6804
▁Gordon	-6805
▁Harris	-6806
▁decade	-6807
▁Islamic	-6808
▁capture	-6809
▁debuted	-6810
enh	-6811
▁Buck	-6812
▁really	-6813
▁Baseball	-6814
▁Railroad	-6815
▁teachers	-6816
ci	-6817
▁Cra	-6818
▁Pap	-6819
▁throw	-6820
▁marine	-6821
▁committed	-6822
▁Additionally	-6823
▁Commonwealth	-6824
▁Roc	-6825
▁ped	-6826
▁Mean	-6827
▁zone	-6828
▁accommod	-6829
▁introduction	-6830
zer	-6831
▁31,	-6832
▁boys	-6833
▁ones	-6834
▁Space	-6835
▁stood	-6836
vements	-6837
▁Houston	-6838
▁possess	-6839
▁defeating	-6840
▁philosophy	-6841
▁contributions	-6842
ooth	-6843
ducing	-6844
▁COVID	-6845
▁headed	-6846
▁Israeli	-6847
▁islands	-6848
▁measures	-6849
▁membership	-6850
▁Mississippi	-6851
agn	-6852
cha	-6853
uerto	-6854
▁Hand	-6855
▁exact	-6856
▁items	-6857
▁renov	-6858
▁Singles	-6859
▁designs	-6860
ographics	-6861
▁engineer	-6862
:00	-6863
▁Ban	-6864
oslav	-6865
▁1975	-6866
▁Lang	-6867
inburgh	-6868
▁meters	-6869
▁rating	-6870
▁waters	-6871
▁winners	-6872
▁standing	-6873
hr	-6874
jo	-6875
▁$3	-6876
▁FA	-6877
yles	-6878
▁Eag	-6879
▁Ern	-6880
▁costs	-6881
▁Danish	-6882
▁churches	-6883
▁1973	-6884
▁tank	-6885
▁Colle	-6886
▁check	-6887
ilation	-6888
▁bottom	-6889
▁Children	-6890
▁parallel	-6891
rastructure	-6892
▁represents	-6893
▁See	-6894
▁Prin	-6895
▁2002.	-6896
▁Jesus	-6897
▁humans	-6898
▁Ukraine	-6899
▁uniform	-6900
stan	-6901
▁enl	-6902
▁Orth	-6903
▁Louisiana	-6904
ów	-6905
athe	-6906
▁Let	-6907
▁Lyn	-6908
▁Gard	-6909
▁2000.	-6910
▁batter	-6911
▁sections	-6912
irt	-6913
▁Nag	-6914
▁why	-6915
icians	-6916
▁stages	-6917
▁painter	-6918
▁streets	-6919
▁Lieutenant	-6920
▁Legislative	-6921
dam	-6922
▁Harvard	-6923
▁seventh	-6924
▁examples	-6925
–9	-6926
▁Sel	-6927
eless	-6928
▁Cost	-6929
▁feed	-6930
avalry	-6931
▁leads	-6932
▁actual	-6933
▁Entertainment	-6934
▁Ark	-6935
▁bran	-6936
lahoma	-6937
▁Hotel	-6938
▁Gallery	-6939
▁Ottoman	-6940
▁engines	-6941
▁invasion	-6942
▁repeated	-6943
▁advantage	-6944
-18	-6945
ordan	-6946
▁seems	-6947
▁Express	-6948
amic	-6949
east	-6950
▁Dick	-6951
▁Hawai	-6952
IN	-6953
1),	-6954
▁Ltd	-6955
▁ban	-6956
▁mole	-6957
▁users	-6958
▁displa	-6959
▁symbol	-6960
▁details	-6961
▁champions	-6962
▁Nar	-6963
▁prize	-6964
▁divisions	-6965
▁accompanied	-6966
aux	-6967
▁remark	-6968
▁susp	-6969
▁2003.	-6970
▁context	-6971
▁Ul	-6972
▁Connect	-6973
▁Douglas	-6974
▁rejected	-6975
▁regularly	-6976
▁investment	-6977
-8	-6978
▁eg	-6979
–200	-6980
▁shel	-6981
▁faith	-6982
▁arrang	-6983
▁impress	-6984
▁objects	-6985
▁documents	-6986
▁reput	-6987
▁rooms	-6988
▁Season	-6989
▁Internet	-6990
▁Argentina	-6991
obe	-6992
▁AC	-6993
onom	-6994
tery	-6995
▁fly	-6996
cious	-6997
othing	-6998
▁Third	-6999
▁archae	-7000
▁novels	-7001
▁Cemetery	-7002
▁scholars	-7003
▁1969	-7004
▁bond	-7005
▁chain	-7006
▁enfor	-7007
▁businesses	-7008
bal	-7009
▁Tokyo	-7010
▁looking	-7011
▁selling	-7012
▁sequence	-7013
coh	-7014
ardo	-7015
ules	-7016
▁Run	-7017
▁Alber	-7018
▁Phill	-7019
▁Puerto	-7020
▁garden	-7021
▁Denmark	-7022
▁anniversary	-7023
IT	-7024
rome	-7025
aired	-7026
pective	-7027
▁Deputy	-7028
▁favour	-7029
▁neighbour	-7030
200	-7031
▁Il	-7032
otte	-7033
star	-7034
▁recip	-7035
▁suburb	-7036
▁Athletics	-7037
▁criticized	-7038
emble	-7039
▁somew	-7040
▁Palace	-7041
▁Anthony	-7042
▁assumed	-7043
▁commune	-7044
▁Anderson	-7045
ifications	-7046
▁experienced	-7047
29	-7048
▁Bry	-7049
▁Trib	-7050
insula	-7051
▁kilomet	-7052
▁returns	-7053
▁opposite	-7054
▁Architect	-7055
aby	-7056
don	-7057
iders	-7058
▁Gulf	-7059
▁Saturday	-7060
▁interpret	-7061
▁residential	-7062
pat	-7063
ymn	-7064
▁web	-7065
▁anth	-7066
▁duty	-7067
▁conqu	-7068
▁Edinburgh	-7069
argo	-7070
cons	-7071
▁1977	-7072
▁Pict	-7073
▁demand	-7074
▁freedom	-7075
▁Set	-7076
angel	-7077
▁doll	-7078
▁Local	-7079
▁Moore	-7080
▁Detroit	-7081
▁UC	-7082
▁1967	-7083
▁hair	-7084
▁mist	-7085
▁Alban	-7086
▁piano	-7087
▁priest	-7088
▁Oklahoma	-7089
▁retained	-7090
▁determine	-7091
▁institution	-7092
AM	-7093
▁Fal	-7094
▁save	-7095
▁solid	-7096
▁veter	-7097
▁dynasty	-7098
▁reality	-7099
▁protected	-7100
lad	-7101
uri	-7102
▁Non	-7103
▁Ped	-7104
▁accur	-7105
▁grass	-7106
▁courts	-7107
▁minute	-7108
▁48	-7109
idel	-7110
racy	-7111
▁milit	-7112
issance	-7113
▁Dublin	-7114
▁refuge	-7115
▁Alexand	-7116
▁Communist	-7117
▁techniques	-7118
26	-7119
olt	-7120
idden	-7121
inema	-7122
▁hour	-7123
▁reaction	-7124
▁occupation	-7125
ello	-7126
▁Berg	-7127
rolled	-7128
▁skills	-7129
▁session	-7130
▁significantly	-7131
▁responsibility	-7132
▁sed	-7133
▁Maur	-7134
▁Rand	-7135
▁lawyer	-7136
▁musicians	-7137
▁southwest	-7138
IV	-7139
mat	-7140
dale	-7141
▁Rem	-7142
▁Silver	-7143
▁peaked	-7144
do	-7145
Mar	-7146
found	-7147
▁Fern	-7148
ellite	-7149
▁knock	-7150
▁broken	-7151
▁device	-7152
▁vocals	-7153
▁colonial	-7154
▁Brazilian	-7155
unch	-7156
▁eye	-7157
itals	-7158
▁didn	-7159
▁musician	-7160
gro	-7161
aver	-7162
▁Lin	-7163
▁Sky	-7164
▁copy	-7165
▁flying	-7166
▁Phys	-7167
▁Welsh	-7168
▁Roberts	-7169
▁charged	-7170
▁otherwise	-7171
Star	-7172
▁hill	-7173
▁1997,	-7174
▁advis	-7175
▁carbon	-7176
▁deputy	-7177
rong	-7178
ture	-7179
▁Var	-7180
▁trip	-7181
▁Chile	-7182
▁Walker	-7183
▁chance	-7184
▁select	-7185
▁Matthew	-7186
ugar	-7187
▁lat	-7188
▁naval	-7189
related	-7190
km	-7191
▁10.	-7192
lades	-7193
▁Hamp	-7194
▁brain	-7195
▁drawn	-7196
▁Afghan	-7197
▁Battalion	-7198
48	-7199
agen	-7200
▁nor	-7201
icket	-7202
▁Meth	-7203
▁Liver	-7204
▁Prote	-7205
▁depth	-7206
▁Reserve	-7207
▁Imperial	-7208
▁operates	-7209
▁franchise	-7210
▁Convention	-7211
▁Whe	-7212
unnel	-7213
▁nothing	-7214
▁publications	-7215
▁(195	-7216
▁Bart	-7217
▁Stew	-7218
▁Allen	-7219
▁renew	-7220
▁circum	-7221
▁showing	-7222
▁Constitution	-7223
▁intelligence	-7224
cop	-7225
▁Aud	-7226
▁Doctor	-7227
▁Rights	-7228
▁notably	-7229
▁translated	-7230
pse	-7231
who	-7232
bass	-7233
▁mine	-7234
▁categ	-7235
▁Quebec	-7236
▁refere	-7237
▁attached	-7238
▁extremely	-7239
▁Environment	-7240
)"	-7241
hum	-7242
▁summ	-7243
▁Chall	-7244
▁wings	-7245
▁Market	-7246
▁Belgium	-7247
▁adapted	-7248
▁citizen	-7249
▁Chairman	-7250
▁Saf	-7251
▁daughters	-7252
di	-7253
▁SR	-7254
▁Five	-7255
▁rose	-7256
▁Andre	-7257
▁clean	-7258
▁Cooper	-7259
▁Disney	-7260
▁duties	-7261
▁attract	-7262
▁crossing	-7263
▁purposes	-7264
▁restrict	-7265
33	-7266
▁Kaz	-7267
▁fan	-7268
orial	-7269
▁alleg	-7270
▁severe	-7271
▁Mountains	-7272
▁electronic	-7273
▁differences	-7274
etime	-7275
▁1971	-7276
coming	-7277
▁suggests	-7278
▁requirements	-7279
▁1945	-7280
▁heat	-7281
▁vary	-7282
profit	-7283
▁Liter	-7284
▁Round	-7285
▁concerns	-7286
▁Baltimore	-7287
▁Hollywood	-7288
▁involving	-7289
▁unsuccess	-7290
▁assistance	-7291
hess	-7292
icut	-7293
▁Here	-7294
finals	-7295
▁cycle	-7296
▁fired	-7297
▁poverty	-7298
–8	-7299
rik	-7300
rix	-7301
▁upd	-7302
▁Pear	-7303
▁Grant	-7304
▁preced	-7305
▁biggest	-7306
▁charges	-7307
▁wounded	-7308
▁southeast	-7309
ads	-7310
▁arrival	-7311
▁demonst	-7312
▁Portugal	-7313
▁classified	-7314
▁description	-7315
▁understanding	-7316
Is	-7317
▁Son	-7318
uster	-7319
▁Anna	-7320
▁Voiv	-7321
lected	-7322
▁Micro	-7323
▁tries	-7324
▁gender	-7325
▁theater	-7326
▁Demographics	-7327
▁Metropolitan	-7328
▁Cook	-7329
teenth	-7330
▁Austrian	-7331
▁imprison	-7332
▁communication	-7333
icks	-7334
ilst	-7335
▁flo	-7336
arner	-7337
▁1964	-7338
▁Lith	-7339
▁unus	-7340
▁Tamil	-7341
▁chair	-7342
▁flows	-7343
▁Associ	-7344
▁Global	-7345
▁learned	-7346
▁protest	-7347
▁stopped	-7348
▁arranged	-7349
▁thousands	-7350
FM	-7351
SC	-7352
oyd	-7353
ayan	-7354
enny	-7355
▁Pow	-7356
▁Lanc	-7357
▁tail	-7358
▁Pitts	-7359
▁Officer	-7360
▁separated	-7361
▁Basketball	-7362
hab	-7363
▁Key	-7364
igious	-7365
▁habitat	-7366
▁challenge	-7367
▁defensive	-7368
▁catal	-7369
▁comic	-7370
igrants	-7371
▁Taiwan	-7372
▁Village	-7373
▁downtown	-7374
▁prepared	-7375
▁shooting	-7376
▁Banglades	-7377
▁44	-7378
inch	-7379
odge	-7380
▁aer	-7381
onder	-7382
▁phen	-7383
istant	-7384
odeship	-7385
▁caught	-7386
▁stayed	-7387
▁degrees	-7388
▁subjects	-7389
▁provincial	-7390
gon	-7391
cular	-7392
▁shall	-7393
ogether	-7394
▁translation	-7395
▁organisation	-7396
orf	-7397
▁soci	-7398
▁Metro	-7399
▁compris	-7400
▁medieval	-7401
▁Indonesia	-7402
lov	-7403
umin	-7404
▁bed	-7405
▁persons	-7406
▁equivalent	-7407
▁ago	-7408
▁1948	-7409
▁1965	-7410
▁1966	-7411
▁Trump	-7412
▁ensure	-7413
▁motion	-7414
▁popularity	-7415
▁Pur	-7416
▁Yan	-7417
▁cup	-7418
icate	-7419
▁Bush	-7420
▁herit	-7421
▁inher	-7422
▁nickn	-7423
▁Cru	-7424
▁Eric	-7425
inding	-7426
▁1996,	-7427
▁theore	-7428
▁assembly	-7429
▁practices	-7430
27	-7431
IP	-7432
▁Fil	-7433
ework	-7434
ultan	-7435
▁mort	-7436
▁crisis	-7437
▁Atlanta	-7438
▁37	-7439
▁PA	-7440
pers	-7441
riff	-7442
▁Cow	-7443
▁Sud	-7444
allas	-7445
▁releg	-7446
▁actors	-7447
▁roughly	-7448
▁Alliance	-7449
▁criticism	-7450
Cl	-7451
My	-7452
utt	-7453
ista	-7454
▁Iron	-7455
▁Donald	-7456
▁Morgan	-7457
▁linked	-7458
▁coastal	-7459
▁qualifying	-7460
▁Voivodeship	-7461
95	-7462
En	-7463
asa	-7464
rene	-7465
inian	-7466
▁colour	-7467
ctic	-7468
lete	-7469
eland	-7470
▁Upper	-7471
▁thick	-7472
▁turns	-7473
tenance	-7474
▁exception	-7475
dd	-7476
▁NY	-7477
▁Sn	-7478
▁Age	-7479
▁Beg	-7480
▁myth	-7481
▁Crown	-7482
▁Singh	-7483
▁Ow	-7484
▁alt	-7485
▁canc	-7486
▁advent	-7487
▁ownership	-7488
▁Construction	-7489
ugu	-7490
iler	-7491
▁Ran	-7492
▁pool	-7493
▁factor	-7494
atherine	-7495
▁Senator	-7496
▁squadron	-7497
▁publishing	-7498
66	-7499
El	-7500
zi	-7501
ensis	-7502
ridges	-7503
▁plate	-7504
▁synthe	-7505
▁storage	-7506
▁formally	-7507
▁universities	-7508
EA	-7509
Ph	-7510
▁calc	-7511
▁vide	-7512
▁1995,	-7513
▁Energy	-7514
▁Jordan	-7515
▁flowers	-7516
▁expression	-7517
dr	-7518
lon	-7519
iece	-7520
▁DNA	-7521
▁Sym	-7522
▁Culture	-7523
▁Studios	-7524
▁driving	-7525
▁ign	-7526
▁kid	-7527
ecution	-7528
▁Garden	-7529
rak	-7530
▁util	-7531
▁Kings	-7532
▁faculty	-7533
▁Montreal	-7534
–5	-7535
▁Ay	-7536
udden	-7537
▁pand	-7538
▁mouth	-7539
General	-7540
▁Ukrain	-7541
▁vessels	-7542
▁heritage	-7543
▁Cathedral	-7544
ín	-7545
isd	-7546
▁Pas	-7547
▁Init	-7548
▁divor	-7549
▁stret	-7550
▁Johann	-7551
▁experiences	-7552
▁legislation	-7553
hus	-7554
uma	-7555
evin	-7556
▁Gon	-7557
▁tack	-7558
▁Peters	-7559
▁images	-7560
▁retail	-7561
▁terror	-7562
rov	-7563
▁DC	-7564
▁McK	-7565
▁Yug	-7566
▁José	-7567
shaped	-7568
ushing	-7569
▁Liverpool	-7570
▁characteristics	-7571
atus	-7572
idge	-7573
song	-7574
▁Ext	-7575
▁Row	-7576
estyle	-7577
▁2001.	-7578
▁Peace	-7579
▁Mission	-7580
▁classic	-7581
▁photograph	-7582
▁controversy	-7583
▁AM	-7584
▁Las	-7585
▁dim	-7586
▁seed	-7587
marine	-7588
▁2021.	-7589
▁wheel	-7590
▁dating	-7591
▁authors	-7592
▁Athletic	-7593
;/	-7594
Con	-7595
rac	-7596
▁Fu	-7597
roke	-7598
▁Cel	-7599
▁Ryan	-7600
▁1994,	-7601
▁diagn	-7602
▁windows	-7603
▁Lawrence	-7604
▁appropri	-7605
38	-7606
aine	-7607
bach	-7608
▁Lane	-7609
▁Dream	-7610
▁cited	-7611
▁innov	-7612
▁testing	-7613
▁Margaret	-7614
▁49	-7615
aked	-7616
–201	-7617
laimed	-7618
▁Vienna	-7619
▁devices	-7620
▁branches	-7621
▁encounter	-7622
▁AT	-7623
heme	-7624
chang	-7625
▁Dean	-7626
▁gets	-7627
▁sort	-7628
▁Hungary	-7629
▁strategy	-7630
▁Broadcast	-7631
▁Champions	-7632
olly	-7633
▁Mrs	-7634
▁bat	-7635
enses	-7636
story	-7637
▁medicine	-7638
▁relative	-7639
▁township	-7640
intend	-7641
▁banks	-7642
▁resign	-7643
▁Meanwhile	-7644
▁offensive	-7645
ilk	-7646
sch	-7647
olar	-7648
▁Hig	-7649
▁rates	-7650
▁disappe	-7651
▁Broadway	-7652
▁artistic	-7653
▁competitions	-7654
rm	-7655
ovo	-7656
uda	-7657
▁Syn	-7658
▁Drag	-7659
veland	-7660
▁fixed	-7661
▁veget	-7662
▁mobile	-7663
▁recept	-7664
▁missing	-7665
iki	-7666
aman	-7667
ifer	-7668
▁CEO	-7669
▁Tit	-7670
▁carrying	-7671
▁parliamentary	-7672
▁Py	-7673
▁Nort	-7674
▁Race	-7675
▁murd	-7676
edding	-7677
mingham	-7678
stances	-7679
▁Information	-7680
Be	-7681
pen	-7682
span	-7683
▁Rub	-7684
▁sun	-7685
miral	-7686
▁poem	-7687
▁weak	-7688
▁justice	-7689
▁perhaps	-7690
▁Commander	-7691
▁questions	-7692
ović	-7693
xual	-7694
ishment	-7695
▁credit	-7696
▁medals	-7697
▁capable	-7698
▁solution	-7699
All	-7700
▁Imp	-7701
▁wave	-7702
▁mining	-7703
▁stress	-7704
▁Seattle	-7705
▁Orthodox	-7706
▁offering	-7707
▁Cleveland	-7708
▁Orchestra	-7709
On	-7710
olo	-7711
▁Dark	-7712
▁liqu	-7713
▁warm	-7714
▁Lower	-7715
▁gather	-7716
▁legend	-7717
▁forests	-7718
▁successor	-7719
▁manufacturing	-7720
ET	-7721
▁ru	-7722
hard	-7723
▁Sha	-7724
▁hors	-7725
▁adding	-7726
▁struck	-7727
▁coverage	-7728
▁evolution	-7729
▁temporary	-7730
ref	-7731
crib	-7732
iley	-7733
unes	-7734
▁buy	-7735
▁hits	-7736
apolis	-7737
astery	-7738
▁depos	-7739
▁Confeder	-7740
▁childhood	-7741
▁prisoners	-7742
mi	-7743
cut	-7744
▁39	-7745
▁9.	-7746
▁user	-7747
▁Laure	-7748
▁Sarah	-7749
▁climb	-7750
▁Invest	-7751
▁contra	-7752
ictional	-7753
▁Schools	-7754
▁Franklin	-7755
▁recordings	-7756
▁influential	-7757
edia	-7758
rons	-7759
▁Nel	-7760
▁nom	-7761
▁brig	-7762
cester	-7763
▁Marie	-7764
▁debate	-7765
▁window	-7766
▁affairs	-7767
▁replacement	-7768
Man	-7769
▁Dyn	-7770
inter	-7771
▁Bull	-7772
▁Dave	-7773
▁print	-7774
▁recru	-7775
▁entering	-7776
▁contested	-7777
but	-7778
ogan	-7779
olph	-7780
▁1944	-7781
▁hosts	-7782
▁Kennedy	-7783
▁interested	-7784
34	-7785
osm	-7786
break	-7787
▁frag	-7788
▁Kelly	-7789
▁assault	-7790
▁existed	-7791
▁boundary	-7792
▁Hungarian	-7793
lac	-7794
bishop	-7795
utions	-7796
▁manus	-7797
▁react	-7798
▁explained	-7799
▁restaurant	-7800
oen	-7801
▁(5	-7802
This	-7803
▁emp	-7804
▁fal	-7805
arest	-7806
chell	-7807
▁crop	-7808
▁Story	-7809
▁alcoh	-7810
▁prime	-7811
▁Members	-7812
▁aspects	-7813
▁supposed	-7814
lig	-7815
rell	-7816
acher	-7817
▁Buff	-7818
▁Rick	-7819
▁Bruce	-7820
▁expert	-7821
▁correct	-7822
▁Malaysia	-7823
▁technique	-7824
▁soundtrack	-7825
▁Connecticut	-7826
MP	-7827
lem	-7828
▁Ry	-7829
emen	-7830
enez	-7831
rant	-7832
▁Ward	-7833
▁raise	-7834
▁emergency	-7835
GB	-7836
▁vo	-7837
▁ABC	-7838
▁cod	-7839
▁Angl	-7840
▁Utah	-7841
▁dies	-7842
▁synd	-7843
ocracy	-7844
▁Kevin	-7845
▁Patri	-7846
igrated	-7847
▁requires	-7848
▁appearing	-7849
▁surrounded	-7850
ni	-7851
▁É	-7852
die	-7853
hyth	-7854
rett	-7855
seud	-7856
▁withdraw	-7857
▁celebrated	-7858
▁+	-7859
▁150	-7860
▁Box	-7861
▁pric	-7862
▁proposal	-7863
22	-7864
és	-7865
▁Lev	-7866
▁bit	-7867
▁lov	-7868
▁cold	-7869
▁cous	-7870
▁Roger	-7871
▁weeke	-7872
▁denied	-7873
inations	-7874
▁Stewart	-7875
Ind	-7876
▁PC	-7877
mina	-7878
▁fra	-7879
▁1999.	-7880
▁instance	-7881
▁pandemic	-7882
39	-7883
acc	-7884
iege	-7885
ocks	-7886
orne	-7887
▁Lam	-7888
5,000	-7889
aints	-7890
▁Opera	-7891
▁Medicine	-7892
▁memorial	-7893
▁difference	-7894
▁frame	-7895
atically	-7896
▁Belgian	-7897
▁forming	-7898
▁nations	-7899
▁annually	-7900
▁visitors	-7901
▁Gran	-7902
▁heads	-7903
inction	-7904
istical	-7905
▁assign	-7906
▁scheme	-7907
▁suspend	-7908
▁commemor	-7909
▁counties	-7910
▁monument	-7911
ibl	-7912
▁soil	-7913
▁surf	-7914
▁speak	-7915
▁Authority	-7916
LC	-7917
from	-7918
▁Lib	-7919
rehens	-7920
▁falls	-7921
▁finals	-7922
▁message	-7923
▁spiritual	-7924
TO	-7925
isi	-7926
▁cm	-7927
▁bes	-7928
ester	-7929
person	-7930
▁Camer	-7931
ruction	-7932
▁markets	-7933
AA	-7934
▁75	-7935
rapy	-7936
▁hur	-7937
▁tie	-7938
▁Alan	-7939
▁eyes	-7940
called	-7941
verseas	-7942
▁edited	-7943
▁mental	-7944
▁Capital	-7945
▁considerable	-7946
III	-7947
▁SS	-7948
▁Equ	-7949
▁Agency	-7950
▁tennis	-7951
hu	-7952
100	-7953
ando	-7954
▁filled	-7955
ographical	-7956
▁Nep	-7957
▁Vik	-7958
▁Nash	-7959
▁expect	-7960
▁penalty	-7961
▁Yugoslav	-7962
ige	-7963
top	-7964
merce	-7965
▁1956	-7966
▁teen	-7967
ellect	-7968
▁1997.	-7969
▁extens	-7970
▁lasted	-7971
▁weekly	-7972
▁wooden	-7973
▁Russell	-7974
▁Training	-7975
amo	-7976
cho	-7977
▁tied	-7978
ribute	-7979
gressive	-7980
▁achieve	-7981
▁suicide	-7982
▁replacing	-7983
▁Canal	-7984
▁filed	-7985
▁Defense	-7986
▁indicated	-7987
▁Birmingham	-7988
aron	-7989
door	-7990
▁Arn	-7991
▁shif	-7992
▁snow	-7993
▁Leban	-7994
▁kingdom	-7995
▁signing	-7996
▁victims	-7997
▁whereas	-7998
▁instruments	-7999
▁controversial	-8000
▁Rot	-8001
amental	-8002
▁bringing	-8003
▁involvement	-8004
elli	-8005
▁12.	-8006
▁dog	-8007
▁rif	-8008
▁cool	-8009
▁jobs	-8010
▁turb	-8011
ilarly	-8012
▁wides	-8013
▁Alfred	-8014
▁Friend	-8015
▁soccer	-8016
▁Finland	-8017
▁Lithuan	-8018
▁finding	-8019
▁Campbell	-8020
▁newspapers	-8021
As	-8022
las	-8023
▁Nazi	-8024
▁Muham	-8025
▁fruit	-8026
▁tests	-8027
▁dialect	-8028
▁helping	-8029
▁treated	-8030
▁accounts	-8031
erbai	-8032
▁vert	-8033
▁Place	-8034
▁repro	-8035
▁appeal	-8036
▁threatened	-8037
pha	-8038
attan	-8039
▁Qual	-8040
▁imag	-8041
▁Honor	-8042
▁jurisd	-8043
▁gradually	-8044
▁completion	-8045
▁expedition	-8046
▁collections	-8047
-9	-8048
nia	-8049
orb	-8050
aware	-8051
▁Cole	-8052
asters	-8053
▁truck	-8054
▁Wright	-8055
▁output	-8056
▁somewhat	-8057
▁movements	-8058
PC	-8059
Re	-8060
uy	-8061
ials	-8062
▁Wol	-8063
pread	-8064
where	-8065
▁note	-8066
bridge	-8067
▁surre	-8068
▁Method	-8069
▁aggreg	-8070
graduate	-8071
▁fishing	-8072
▁opinion	-8073
▁perfect	-8074
▁Movement	-8075
▁graduating	-8076
▁increasingly	-8077
▁Rio	-8078
▁Tig	-8079
▁unf	-8080
▁Fleet	-8081
▁Gener	-8082
▁option	-8083
▁Brothers	-8084
▁concrete	-8085
▁declined	-8086
▁artillery	-8087
opal	-8088
orig	-8089
▁1958	-8090
▁Judge	-8091
▁studying	-8092
▁frequency	-8093
▁intersection	-8094
1).	-8095
▁ble	-8096
▁Priv	-8097
▁prohib	-8098
▁secure	-8099
▁benefit	-8100
▁evening	-8101
▁journey	-8102
▁Ukrainian	-8103
org	-8104
▁AR	-8105
inea	-8106
phony	-8107
▁Nord	-8108
▁amend	-8109
▁posted	-8110
▁rounds	-8111
▁electoral	-8112
▁surviving	-8113
▁architectural	-8114
lie	-8115
mate	-8116
eping	-8117
▁1946	-8118
▁Vinc	-8119
▁pitch	-8120
▁adaptation	-8121
▁understand	-8122
ners	-8123
▁neut	-8124
▁reun	-8125
▁sufficient	-8126
oni	-8127
▁Ll	-8128
rage	-8129
▁177	-8130
▁Vic	-8131
▁ben	-8132
phone	-8133
▁Ever	-8134
▁rout	-8135
ricane	-8136
▁Derby	-8137
▁dated	-8138
▁Hispan	-8139
▁decline	-8140
▁landing	-8141
▁designer	-8142
dy	-8143
▁UE	-8144
▁Nob	-8145
▁lin	-8146
▁1959	-8147
idency	-8148
▁Dallas	-8149
▁Thompson	-8150
DS	-8151
eed	-8152
▁55	-8153
-201	-8154
race	-8155
▁1962	-8156
▁Mach	-8157
▁Adams	-8158
▁Economic	-8159
▁directors	-8160
▁processes	-8161
▁Pittsburgh	-8162
–6	-8163
host	-8164
phan	-8165
▁Bed	-8166
▁Norm	-8167
▁Every	-8168
▁Tower	-8169
▁colony	-8170
▁manner	-8171
▁Colonel	-8172
▁defence	-8173
▁classification	-8174
GA	-8175
gow	-8176
hai	-8177
udes	-8178
▁Ult	-8179
▁ham	-8180
▁hang	-8181
ounced	-8182
▁shore	-8183
▁eleven	-8184
▁reputation	-8185
3),	-8186
▁Si	-8187
▁ori	-8188
▁Care	-8189
ooking	-8190
usalem	-8191
▁1990,	-8192
▁genre	-8193
▁losses	-8194
▁Defence	-8195
▁accompl	-8196
▁Conservative	-8197
asts	-8198
rang	-8199
▁Glas	-8200
▁Unlike	-8201
▁filmed	-8202
▁toured	-8203
▁picture	-8204
▁components	-8205
OC	-8206
oom	-8207
▁Hend	-8208
▁Moon	-8209
▁drew	-8210
aptist	-8211
▁rivers	-8212
▁Cricket	-8213
▁Bangladesh	-8214
eta	-8215
mosp	-8216
▁175	-8217
▁Sin	-8218
▁rend	-8219
ivated	-8220
▁elder	-8221
▁Scient	-8222
▁relief	-8223
▁Brooklyn	-8224
▁covering	-8225
▁modified	-8226
▁elevation	-8227
▁nomination	-8228
▁Organization	-8229
bat	-8230
amps	-8231
orer	-8232
osph	-8233
▁Hop	-8234
▁Rap	-8235
▁fear	-8236
▁1991,	-8237
▁Chand	-8238
▁Madrid	-8239
▁Azerbai	-8240
▁Protest	-8241
▁anything	-8242
▁equipped	-8243
▁representation	-8244
-20	-8245
lap	-8246
roc	-8247
sea	-8248
aste	-8249
▁fled	-8250
▁plane	-8251
▁Morris	-8252
▁Richmond	-8253
▁approval	-8254
▁eliminated	-8255
▁CBS	-8256
▁Nav	-8257
otype	-8258
▁Trad	-8259
▁Your	-8260
aments	-8261
▁Chang	-8262
▁Hindu	-8263
▁retain	-8264
▁sudden	-8265
▁Constant	-8266
▁attracted	-8267
▁maintenance	-8268
din	-8269
nal	-8270
▁tex	-8271
asure	-8272
lease	-8273
▁Food	-8274
▁Prom	-8275
▁gang	-8276
ported	-8277
ranean	-8278
▁lists	-8279
▁tenure	-8280
▁themes	-8281
▁guitarist	-8282
▁appointment	-8283
▁infrastructure	-8284
stic	-8285
▁NBC	-8286
▁Neb	-8287
▁1952	-8288
▁Emer	-8289
encing	-8290
▁Natural	-8291
▁rapidly	-8292
▁strongly	-8293
▁Originally	-8294
▁effectively	-8295
77	-8296
esc	-8297
▁Hom	-8298
▁Unit	-8299
antasy	-8300
▁cards	-8301
theless	-8302
▁papers	-8303
▁longest	-8304
▁Champion	-8305
▁underground	-8306
nik	-8307
olia	-8308
▁Dak	-8309
▁Dec	-8310
▁bear	-8311
▁jump	-8312
▁explos	-8313
▁Chamber	-8314
▁associate	-8315
ét	-8316
▁Hold	-8317
▁draf	-8318
▁eval	-8319
▁ster	-8320
annels	-8321
▁acted	-8322
▁worksh	-8323
▁happened	-8324
▁Victorian	-8325
▁recommended	-8326
-10	-8327
tes	-8328
▁Dub	-8329
ellor	-8330
▁Gene	-8331
leased	-8332
▁Event	-8333
force	-8334
▁strip	-8335
▁teach	-8336
ruption	-8337
▁vision	-8338
ductions	-8339
▁Shortly	-8340
▁license	-8341
▁landscape	-8342
▁participation	-8343
"-	-8344
len	-8345
tha	-8346
▁Fel	-8347
▁bot	-8348
▁pregn	-8349
▁segment	-8350
▁destruction	-8351
▁occasionally	-8352
▁Ins	-8353
▁Rud	-8354
▁wrong	-8355
▁Muhammad	-8356
NS	-8357
▁64	-8358
▁mob	-8359
ijing	-8360
▁Beat	-8361
▁elig	-8362
▁Dance	-8363
▁Norman	-8364
▁turning	-8365
▁meetings	-8366
▁continuing	-8367
▁widespread	-8368
▁furn	-8369
▁Girls	-8370
▁trading	-8371
▁Robinson	-8372
iac	-8373
▁Dh	-8374
▁vs	-8375
acon	-8376
ocol	-8377
▁recre	-8378
▁Nicholas	-8379
▁injuries	-8380
eria	-8381
▁App	-8382
▁Lud	-8383
▁tur	-8384
▁vic	-8385
cknow	-8386
oples	-8387
▁Appe	-8388
▁minimum	-8389
▁infantry	-8390
▁populations	-8391
▁42	-8392
▁Ru	-8393
icon	-8394
▁skin	-8395
▁Draft	-8396
▁Trade	-8397
▁Austin	-8398
▁Murray	-8399
▁Record	-8400
▁spaces	-8401
▁locality	-8402
▁traveled	-8403
▁competing	-8404
Pro	-8405
nce	-8406
usc	-8407
▁ri	-8408
rock	-8409
▁Ald	-8410
▁Kan	-8411
▁1939	-8412
▁amateur	-8413
▁reportedly	-8414
▁WW	-8415
▁die	-8416
erted	-8417
▁1957	-8418
▁pray	-8419
▁Lanka	-8420
▁meets	-8421
▁Theater	-8422
▁erected	-8423
▁executed	-8424
▁percentage	-8425
sm	-8426
ahn	-8427
iya	-8428
soft	-8429
▁(20	-8430
▁tact	-8431
▁valid	-8432
▁Finnish	-8433
▁Instead	-8434
▁spending	-8435
▁cancelled	-8436
▁Christopher	-8437
illo	-8438
▁Chem	-8439
ailand	-8440
▁1992,	-8441
▁1993,	-8442
▁inner	-8443
ighters	-8444
▁Carter	-8445
▁emerged	-8446
▁listing	-8447
▁agencies	-8448
▁occasions	-8449
▁remainder	-8450
▁participants	-8451
36	-8452
▁Brist	-8453
▁poems	-8454
rations	-8455
▁Player	-8456
▁behavi	-8457
▁Marshall	-8458
46	-8459
▁unp	-8460
ingly	-8461
▁Anti	-8462
▁fest	-8463
▁Around	-8464
▁Diocese	-8465
▁Stanley	-8466
▁worship	-8467
▁Egyptian	-8468
▁networks	-8469
▁concerned	-8470
▁construct	-8471
▁championships	-8472
ED	-8473
ned	-8474
▁fil	-8475
▁lob	-8476
gi	-8477
▁Hit	-8478
▁Sac	-8479
▁phone	-8480
▁versus	-8481
▁innings	-8482
▁net	-8483
antine	-8484
▁celeb	-8485
▁useful	-8486
▁subsidi	-8487
▁defending	-8488
▁mountains	-8489
HS	-8490
No	-8491
mm	-8492
zz	-8493
inos	-8494
▁Guy	-8495
▁Heb	-8496
▁1936	-8497
▁1947	-8498
▁Bomb	-8499
▁subd	-8500
keeper	-8501
▁Venez	-8502
▁expos	-8503
▁tribe	-8504
▁venue	-8505
▁Compet	-8506
▁acknow	-8507
▁camera	-8508
▁styles	-8509
▁donated	-8510
iterranean	-8511
▁Jerusalem	-8512
asi	-8513
oven	-8514
rama	-8515
▁Beck	-8516
▁Mans	-8517
▁boats	-8518
▁eighth	-8519
▁ranking	-8520
▁Agricult	-8521
▁Portland	-8522
▁changing	-8523
▁missions	-8524
▁depending	-8525
▁intention	-8526
▁Distribution	-8527
inist	-8528
ouver	-8529
▁Benj	-8530
▁easy	-8531
▁Fried	-8532
▁Motor	-8533
▁Never	-8534
▁Carlos	-8535
▁definition	-8536
Bl	-8537
RS	-8538
oca	-8539
▁Wa	-8540
▁1963	-8541
▁Tang	-8542
ocratic	-8543
▁Nelson	-8544
▁regime	-8545
▁shares	-8546
▁visible	-8547
▁employment	-8548
▁distinguished	-8549
Ex	-8550
▁160	-8551
▁eld	-8552
▁Bris	-8553
▁UEFA	-8554
terior	-8555
▁admin	-8556
▁panel	-8557
▁tools	-8558
essions	-8559
▁satisf	-8560
▁intellect	-8561
85	-8562
gie	-8563
iop	-8564
▁Kum	-8565
▁Mack	-8566
▁wine	-8567
master	-8568
▁moder	-8569
▁Racing	-8570
▁Serbia	-8571
▁Within	-8572
▁endemic	-8573
▁marketing	-8574
▁satellite	-8575
▁agriculture	-8576
jab	-8577
olds	-8578
▁Ori	-8579
▁hip	-8580
▁Call	-8581
▁Manh	-8582
▁Publ	-8583
▁file	-8584
▁tempor	-8585
▁Romania	-8586
▁youngest	-8587
▁demolished	-8588
37	-8589
uru	-8590
alia	-8591
mund	-8592
rena	-8593
▁cul	-8594
▁nav	-8595
orous	-8596
▁tribut	-8597
▁illegal	-8598
ls	-8599
ashi	-8600
otes	-8601
▁wants	-8602
Category	-8603
▁integrated	-8604
obi	-8605
▁Kon	-8606
mates	-8607
▁Mong	-8608
struct	-8609
▁Catal	-8610
▁holid	-8611
ivation	-8612
▁processing	-8613
▁characterized	-8614
aku	-8615
oga	-8616
▁SA	-8617
fish	-8618
▁Eug	-8619
▁Maj	-8620
▁Gill	-8621
▁mart	-8622
▁plus	-8623
▁tell	-8624
▁Books	-8625
▁audio	-8626
▁friendly	-8627
Com	-8628
▁arc	-8629
▁Benn	-8630
▁Magn	-8631
▁beet	-8632
▁Along	-8633
▁loyal	-8634
▁Reform	-8635
▁adults	-8636
▁planet	-8637
▁viewed	-8638
▁voting	-8639
ologists	-8640
▁Digital	-8641
▁earning	-8642
▁surgery	-8643
▁attending	-8644
▁preserved	-8645
▁recovered	-8646
ulu	-8647
ivan	-8648
▁Bes	-8649
▁NBA	-8650
▁tow	-8651
leans	-8652
opter	-8653
▁Frid	-8654
▁foss	-8655
▁pron	-8656
▁Jimmy	-8657
▁prede	-8658
isition	-8659
▁prompt	-8660
▁rescue	-8661
▁spoken	-8662
▁thirty	-8663
▁writes	-8664
▁seeking	-8665
▁Arkansas	-8666
▁Bachelor	-8667
▁visiting	-8668
▁customers	-8669
▁portrayed	-8670
▁attributed	-8671
oda	-8672
▁Bud	-8673
▁Dra	-8674
▁Mem	-8675
tical	-8676
▁Prad	-8677
▁competitive	-8678
▁conservation	-8679
hand	-8680
orus	-8681
poss	-8682
wall	-8683
▁Hud	-8684
▁Bird	-8685
▁Wang	-8686
▁dream	-8687
▁thing	-8688
▁Treaty	-8689
▁undert	-8690
▁couples	-8691
▁greatly	-8692
▁relationships	-8693
▁municipalities	-8694
4),	-8695
oba	-8696
▁Aqu	-8697
▁Fall	-8698
ultane	-8699
▁Warren	-8700
▁domain	-8701
▁horses	-8702
▁videos	-8703
▁printed	-8704
▁belonging	-8705
▁fictional	-8706
▁transportation	-8707
▁representatives	-8708
iah	-8709
iph	-8710
▁intent	-8711
▁massive	-8712
▁Cultural	-8713
▁Thailand	-8714
▁Hampshire	-8715
▁relocated	-8716
▁Historical	-8717
▁opportunities	-8718
anny	-8719
final	-8720
▁Hell	-8721
estone	-8722
▁Bernard	-8723
▁enjoyed	-8724
LS	-8725
bel	-8726
▁Gaz	-8727
▁Nev	-8728
▁Tax	-8729
andal	-8730
ouses	-8731
▁Boys	-8732
▁Rico	-8733
▁What	-8734
▁huge	-8735
▁infl	-8736
▁knew	-8737
ingham	-8738
orship	-8739
▁catch	-8740
▁ratio	-8741
▁assass	-8742
▁charts	-8743
▁Germans	-8744
▁Orleans	-8745
▁describe	-8746
▁predomin	-8747
▁territories	-8748
▁transmission	-8749
▁Kit	-8750
ashed	-8751
▁pure	-8752
▁soul	-8753
▁Again	-8754
▁deaths	-8755
▁suspended	-8756
▁Mediterranean	-8757
49	-8758
sa	-8759
én	-8760
▁AS	-8761
▁Om	-8762
feld	-8763
stad	-8764
ickets	-8765
▁1995.	-8766
▁aimed	-8767
▁Michel	-8768
▁stable	-8769
▁Critical	-8770
▁41	-8771
▁Pad	-8772
archy	-8773
borne	-8774
▁vessel	-8775
▁battles	-8776
▁responded	-8777
▁resolution	-8778
▁constitution	-8779
atab	-8780
▁Mes	-8781
▁Tol	-8782
▁mir	-8783
▁1943	-8784
▁1955	-8785
▁Such	-8786
umbent	-8787
▁1996.	-8788
archers	-8789
▁Trophy	-8790
▁honour	-8791
▁matters	-8792
▁Princess	-8793
▁benefits	-8794
▁phenomen	-8795
acre	-8796
arma	-8797
▁Ent	-8798
▁Chel	-8799
▁none	-8800
▁safe	-8801
▁Parish	-8802
▁statue	-8803
ancouver	-8804
▁centers	-8805
▁circuit	-8806
▁secured	-8807
orporated	-8808
▁claiming	-8809
▁deployed	-8810
▁thousand	-8811
▁apartment	-8812
▁conservative	-8813
ME	-8814
mod	-8815
rub	-8816
zes	-8817
atur	-8818
folk	-8819
such	-8820
▁Nad	-8821
▁Ivan	-8822
▁Mort	-8823
▁Limited	-8824
▁normally	-8825
▁discovery	-8826
▁essential	-8827
▁convention	-8828
usk	-8829
▁Ko	-8830
bane	-8831
▁Pir	-8832
▁Sax	-8833
otton	-8834
▁1918	-8835
▁beach	-8836
▁spoke	-8837
▁external	-8838
erk	-8839
▁mo	-8840
agar	-8841
math	-8842
ussian	-8843
▁adopt	-8844
elected	-8845
▁abroad	-8846
▁ruling	-8847
▁switch	-8848
▁Trinity	-8849
▁absence	-8850
▁facilit	-8851
▁belonged	-8852
▁merchant	-8853
▁protests	-8854
▁Municipal	-8855
▁Municipality	-8856
hythm	-8857
▁debt	-8858
▁nurs	-8859
▁send	-8860
castle	-8861
▁Bible	-8862
iration	-8863
uations	-8864
▁excess	-8865
▁resemb	-8866
▁commanded	-8867
▁affiliated	-8868
▁Communications	-8869
fare	-8870
uble	-8871
▁duo	-8872
▁grown	-8873
▁Sultan	-8874
▁congress	-8875
▁component	-8876
▁researchers	-8877
▁significance	-8878
weet	-8879
▁1942	-8880
▁Andy	-8881
ewhere	-8882
minute	-8883
ounsel	-8884
▁theat	-8885
▁assets	-8886
▁cousin	-8887
▁excell	-8888
▁makeup	-8889
▁Beijing	-8890
▁Serbian	-8891
▁Windows	-8892
▁viewers	-8893
▁everything	-8894
▁indigenous	-8895
▁entertainment	-8896
cht	-8897
▁Sign	-8898
▁anch	-8899
▁gone	-8900
▁1989,	-8901
▁Father	-8902
▁sustain	-8903
▁Benjamin	-8904
▁Venezuel	-8905
▁Initially	-8906
West	-8907
▁120	-8908
▁dub	-8909
▁1910	-8910
▁grey	-8911
▁Knight	-8912
▁labour	-8913
▁Indians	-8914
▁passage	-8915
▁unusual	-8916
▁Transportation	-8917
?"	-8918
Am	-8919
fers	-8920
▁Nam	-8921
▁Gray	-8922
▁Salv	-8923
contin	-8924
▁1987,	-8925
▁missed	-8926
abilities	-8927
iri	-8928
acks	-8929
▁Jenn	-8930
▁Mond	-8931
▁Soon	-8932
▁mode	-8933
▁wrest	-8934
fielder	-8935
▁patron	-8936
▁strict	-8937
▁diameter	-8938
▁releases	-8939
▁immediate	-8940
PR	-8941
oria	-8942
▁Vas	-8943
▁YouT	-8944
▁Billy	-8945
▁Carib	-8946
▁Graham	-8947
▁tribes	-8948
resident	-8949
▁Bristol	-8950
▁drawing	-8951
▁rebuilt	-8952
▁supporters	-8953
▁restoration	-8954
BM	-8955
▁11.	-8956
▁pod	-8957
▁Carm	-8958
▁Fitz	-8959
▁Baker	-8960
▁Maine	-8961
▁behalf	-8962
▁string	-8963
▁Electric	-8964
▁Students	-8965
▁IC	-8966
issue	-8967
usted	-8968
▁1941	-8969
▁1991.	-8970
▁Jason	-8971
▁agents	-8972
▁blocks	-8973
▁discip	-8974
▁whilst	-8975
▁borders	-8976
▁publicly	-8977
▁departure	-8978
▁apparently	-8979
▁possession	-8980
▁scientists	-8981
▁instrumental	-8982
otal	-8983
roph	-8984
uits	-8985
▁gay	-8986
▁Horn	-8987
▁Eston	-8988
▁Evans	-8989
▁begun	-8990
▁explo	-8991
iveness	-8992
▁exists	-8993
▁patient	-8994
▁supports	-8995
ohn	-8996
olit	-8997
ector	-8998
▁Wing	-8999
▁legs	-9000
▁descent	-9001
▁channels	-9002
▁advertising	-9003
▁grandfather	-9004
▁mathematics	-9005
▁broadcasting	-9006
▁experimental	-9007
cur	-9008
onian	-9009
▁1961	-9010
▁Warner	-9011
▁chapter	-9012
▁schedule	-9013
▁suffering	-9014
boy	-9015
kov	-9016
ère	-9017
▁Rav	-9018
▁hal	-9019
▁Gary	-9020
▁1998.	-9021
▁choose	-9022
▁voters	-9023
▁Conserv	-9024
▁Manhattan	-9025
32	-9026
TE	-9027
▁Iv	-9028
cour	-9029
ilty	-9030
▁bid	-9031
▁Cass	-9032
▁Rena	-9033
▁evac	-9034
▁1986,	-9035
▁chapel	-9036
▁qualify	-9037
▁reveals	-9038
▁Romanian	-9039
▁highlight	-9040
▁encouraged	-9041
▁Afghanistan	-9042
Wh	-9043
bean	-9044
orge	-9045
rove	-9046
▁Rest	-9047
▁swit	-9048
▁Grade	-9049
▁Bengal	-9050
▁Soccer	-9051
▁astron	-9052
▁operational	-9053
oming	-9054
▁1949	-9055
ricted	-9056
▁Shang	-9057
certain	-9058
ictions	-9059
▁Guinea	-9060
▁facing	-9061
▁movies	-9062
▁picked	-9063
ancellor	-9064
▁Glasgow	-9065
▁Persian	-9066
▁Attorney	-9067
▁organised	-9068
OR	-9069
▁Kos	-9070
▁Rol	-9071
▁hope	-9072
▁trap	-9073
▁Gmina	-9074
▁crash	-9075
▁ready	-9076
▁Arabic	-9077
▁Orange	-9078
▁atmosp	-9079
▁ceased	-9080
▁activist	-9081
▁producers	-9082
▁concentration	-9083
NC	-9084
arus	-9085
athy	-9086
film	-9087
rank	-9088
▁170	-9089
▁Tak	-9090
isters	-9091
▁Steel	-9092
▁Comple	-9093
▁Provin	-9094
▁invent	-9095
▁Section	-9096
▁Mitchell	-9097
▁partially	-9098
▁platforms	-9099
▁afterwards	-9100
▁substantial	-9101
unc	-9102
high	-9103
▁Lad	-9104
▁sees	-9105
▁Griff	-9106
▁Seven	-9107
▁convin	-9108
language	-9109
▁Freedom	-9110
▁diverse	-9111
▁corporate	-9112
▁displayed	-9113
▁principles	-9114
▁governments	-9115
▁implemented	-9116
62	-9117
uper	-9118
▁Cad	-9119
▁fur	-9120
ailing	-9121
rystal	-9122
▁Abdul	-9123
▁coordin	-9124
▁Territory	-9125
▁Vancouver	-9126
▁Yorkshire	-9127
▁NS	-9128
avan	-9129
brid	-9130
gate	-9131
▁rig	-9132
ipper	-9133
▁Cart	-9134
▁Poly	-9135
▁Ghana	-9136
▁hearing	-9137
▁cemetery	-9138
▁commented	-9139
▁dominated	-9140
▁predecess	-9141
▁personality	-9142
▁SC	-9143
▁kg	-9144
▁Net	-9145
▁Cher	-9146
▁Code	-9147
▁Last	-9148
▁cann	-9149
ceived	-9150
▁Until	-9151
mentary	-9152
▁escort	-9153
▁weapon	-9154
▁monitor	-9155
▁detailed	-9156
▁overseas	-9157
▁legislative	-9158
Ad	-9159
▁Ug	-9160
asan	-9161
emed	-9162
izon	-9163
▁(15	-9164
▁Ice	-9165
▁urg	-9166
onomy	-9167
▁Plat	-9168
▁Verm	-9169
rehensive	-9170
▁everyone	-9171
▁establishing	-9172
▁AP	-9173
▁Mi	-9174
atar	-9175
▁wel	-9176
▁wet	-9177
▁dual	-9178
▁Model	-9179
▁Trail	-9180
ulating	-9181
▁YouTube	-9182
▁balance	-9183
▁dismissed	-9184
▁opponents	-9185
▁sculpture	-9186
▁contribution	-9187
ML	-9188
Col	-9189
anner	-9190
itual	-9191
▁1951	-9192
▁apply	-9193
▁signs	-9194
▁repair	-9195
▁Charlie	-9196
▁alcohol	-9197
▁liberal	-9198
▁partners	-9199
mers	-9200
▁Ref	-9201
endar	-9202
▁1992.	-9203
▁Milan	-9204
▁Start	-9205
▁trail	-9206
▁yield	-9207
agement	-9208
▁patrol	-9209
▁doubles	-9210
▁Therefore	-9211
▁coalition	-9212
▁strategic	-9213
):	-9214
7).	-9215
▁Cha	-9216
enger	-9217
▁Jama	-9218
▁Tele	-9219
cribed	-9220
▁casual	-9221
formance	-9222
▁Nigeria	-9223
▁amongst	-9224
▁credits	-9225
▁Hispanic	-9226
▁athletes	-9227
▁involves	-9228
▁licensed	-9229
▁coff	-9230
▁Abbey	-9231
▁liquid	-9232
▁partly	-9233
▁Iranian	-9234
▁Rangers	-9235
▁creative	-9236
▁premiere	-9237
▁struggle	-9238
▁publisher	-9239
▁Philippine	-9240
▁bon	-9241
▁1928	-9242
▁Wayne	-9243
▁outer	-9244
▁disput	-9245
▁farmers	-9246
sequently	-9247
▁interpre	-9248
▁Charlotte	-9249
▁beautiful	-9250
▁recognised	-9251
▁CA	-9252
▁EU	-9253
fire	-9254
ulum	-9255
▁Mak	-9256
▁Obs	-9257
▁Vel	-9258
▁conj	-9259
▁leaf	-9260
▁marry	-9261
▁Honours	-9262
▁illness	-9263
▁proport	-9264
▁Harrison	-9265
▁Wrestling	-9266
▁Broadcasting	-9267
arks	-9268
reck	-9269
▁Tun	-9270
▁wat	-9271
▁Former	-9272
▁Having	-9273
▁advice	-9274
▁bacter	-9275
▁funded	-9276
▁borough	-9277
▁crossed	-9278
▁periods	-9279
▁terminus	-9280
▁insurance	-9281
.'	-9282
MC	-9283
aha	-9284
igg	-9285
▁mal	-9286
▁1954	-9287
▁Mess	-9288
plicit	-9289
▁Speed	-9290
▁truth	-9291
▁survive	-9292
▁frequent	-9293
acht	-9294
uart	-9295
▁Pra	-9296
▁Ric	-9297
amese	-9298
▁lock	-9299
ducted	-9300
itable	-9301
include	-9302
▁desire	-9303
▁judges	-9304
▁concerts	-9305
▁identify	-9306
▁patterns	-9307
▁remember	-9308
▁sentence	-9309
▁sentenced	-9310
▁substitute	-9311
uki	-9312
omon	-9313
▁Pav	-9314
▁hat	-9315
▁mac	-9316
bound	-9317
▁Burg	-9318
▁FIFA	-9319
ennial	-9320
gorith	-9321
▁ranks	-9322
▁Floren	-9323
▁traded	-9324
▁congreg	-9325
▁discrim	-9326
▁extreme	-9327
▁mounted	-9328
▁attorney	-9329
▁sponsored	-9330
Can	-9331
▁Pil	-9332
▁Tib	-9333
▁deck	-9334
▁wire	-9335
▁abuse	-9336
▁ongoing	-9337
▁withdrew	-9338
▁lieutenant	-9339
rot	-9340
aran	-9341
othy	-9342
▁().	-9343
▁Byz	-9344
▁Lis	-9345
▁Pay	-9346
▁1938	-9347
▁solar	-9348
▁runner	-9349
▁trials	-9350
▁Stevens	-9351
▁categories	-9352
▁continuous	-9353
▁MA	-9354
quir	-9355
▁Tob	-9356
▁Glen	-9357
▁Pack	-9358
▁proc	-9359
ospitals	-9360
▁drafted	-9361
▁exposed	-9362
▁animated	-9363
▁hundreds	-9364
▁supplies	-9365
▁Throughout	-9366
▁photography	-9367
You	-9368
eli	-9369
uka	-9370
body	-9371
pent	-9372
▁Bog	-9373
encer	-9374
maker	-9375
▁Nova	-9376
▁Rain	-9377
▁Nation	-9378
▁exceed	-9379
▁resort	-9380
▁Alberta	-9381
▁isolated	-9382
▁thereafter	-9383
▁:	-9384
care	-9385
holm	-9386
▁Our	-9387
▁kit	-9388
▁Tech	-9389
▁rect	-9390
▁1988,	-9391
▁Moham	-9392
▁index	-9393
▁talent	-9394
▁Frances	-9395
▁electron	-9396
▁Operations	-9397
fly	-9398
▁43	-9399
▁Tu	-9400
▁ha	-9401
andy	-9402
eign	-9403
arked	-9404
closed	-9405
▁Ground	-9406
▁Control	-9407
▁Princip	-9408
▁locally	-9409
▁weekend	-9410
▁imperial	-9411
SS	-9412
gun	-9413
uez	-9414
-200	-9415
geon	-9416
asant	-9417
ffect	-9418
▁1929	-9419
▁1953	-9420
▁Conn	-9421
▁Dead	-9422
▁cable	-9423
▁ocean	-9424
fecture	-9425
▁crimes	-9426
▁parent	-9427
▁upgrad	-9428
▁Azerbaijan	-9429
▁locomotives	-9430
bul	-9431
▁Sz	-9432
▁Ye	-9433
empt	-9434
ixed	-9435
iture	-9436
▁Grad	-9437
▁Know	-9438
▁Mall	-9439
▁rated	-9440
▁roots	-9441
▁sympt	-9442
▁Hawaii	-9443
▁prices	-9444
▁cabinet	-9445
▁terminal	-9446
▁decisions	-9447
▁simultane	-9448
▁completing	-9449
▁scholarship	-9450
▁intellectual	-9451
ör	-9452
lik	-9453
agre	-9454
▁Grey	-9455
▁1981,	-9456
▁1993.	-9457
iciency	-9458
▁Punjab	-9459
▁Results	-9460
▁honorary	-9461
▁produces	-9462
▁swimming	-9463
▁Challenge	-9464
▁influences	-9465
▁manufacturer	-9466
98	-9467
▁;	-9468
fam	-9469
yst	-9470
▁Fr	-9471
ario	-9472
▁phr	-9473
uable	-9474
▁gate	-9475
celand	-9476
▁Apple	-9477
▁Falls	-9478
leyball	-9479
▁Luther	-9480
▁expand	-9481
▁chamber	-9482
▁principle	-9483
▁compilation	-9484
At	-9485
hour	-9486
pany	-9487
▁Aer	-9488
▁PhD	-9489
▁rub	-9490
▁1933	-9491
▁Alice	-9492
▁Arena	-9493
▁Psych	-9494
▁moves	-9495
▁ninth	-9496
▁settlers	-9497
▁submitted	-9498
▁connecting	-9499
▁traditions	-9500
itis	-9501
▁Cob	-9502
stance	-9503
▁1,000	-9504
▁Plant	-9505
▁Urban	-9506
▁mines	-9507
▁persu	-9508
ocation	-9509
▁inaugural	-9510
▁settlements	-9511
▁Dod	-9512
▁Sig	-9513
▁Late	-9514
▁Gabri	-9515
▁agree	-9516
▁param	-9517
▁tanks	-9518
▁closer	-9519
▁sailed	-9520
▁seeing	-9521
▁Baptist	-9522
▁Greater	-9523
▁volumes	-9524
▁discussed	-9525
onlyinclude	-9526
via	-9527
hill	-9528
▁Fem	-9529
▁Veg	-9530
▁Lead	-9531
celona	-9532
making	-9533
▁1980,	-9534
▁Adela	-9535
▁touring	-9536
▁Socialist	-9537
▁statistics	-9538
vi	-9539
rez	-9540
cient	-9541
▁1890	-9542
family	-9543
▁Leeds	-9544
▁manif	-9545
▁driven	-9546
▁Clinton	-9547
▁indicate	-9548
▁outbreak	-9549
▁demonstrated	-9550
ethe	-9551
leton	-9552
owski	-9553
▁Much	-9554
▁Mult	-9555
▁Stra	-9556
▁Delhi	-9557
▁excav	-9558
▁Turner	-9559
▁wedding	-9560
▁Brisbane	-9561
▁coaching	-9562
▁initiated	-9563
67	-9564
BO	-9565
–20	-9566
type	-9567
went	-9568
▁Rat	-9569
▁Type	-9570
▁gram	-9571
▁cargo	-9572
▁false	-9573
▁Johnny	-9574
▁housed	-9575
▁clearly	-9576
▁earthqu	-9577
▁playoffs	-9578
▁businessman	-9579
May	-9580
vol	-9581
acle	-9582
flow	-9583
othe	-9584
rows	-9585
▁lap	-9586
abric	-9587
eters	-9588
▁Amaz	-9589
▁Coal	-9590
▁Fine	-9591
▁Peru	-9592
ampton	-9593
▁banned	-9594
▁timber	-9595
▁topics	-9596
▁Springs	-9597
▁organis	-9598
▁clinical	-9599
▁junction	-9600
abil	-9601
away	-9602
case	-9603
roid	-9604
▁Lag	-9605
elect	-9606
enberg	-9607
▁Jerry	-9608
itional	-9609
▁assemb	-9610
▁guilty	-9611
▁merger	-9612
overeign	-9613
▁superior	-9614
▁exclusively	-9615
44	-9616
style	-9617
▁Josh	-9618
▁Vlad	-9619
▁Zone	-9620
▁winds	-9621
▁Advent	-9622
▁Hudson	-9623
▁Faculty	-9624
▁focuses	-9625
▁regulations	-9626
▁jurisdiction	-9627
akia	-9628
aris	-9629
▁Who	-9630
gener	-9631
German	-9632
▁1989.	-9633
▁comed	-9634
▁sight	-9635
mediate	-9636
▁palace	-9637
▁throne	-9638
▁continu	-9639
▁Colombia	-9640
▁immigrants	-9641
sha	-9642
ygen	-9643
zing	-9644
▁Cou	-9645
▁Fact	-9646
▁asks	-9647
▁torn	-9648
▁Barry	-9649
▁Maced	-9650
▁const	-9651
▁Pierre	-9652
▁Buffalo	-9653
▁Technical	-9654
▁reduction	-9655
▁conventional	-9656
Pr	-9657
RT	-9658
mo	-9659
ups	-9660
abor	-9661
opes	-9662
▁else	-9663
▁1945,	-9664
▁Lions	-9665
▁Monte	-9666
▁Syria	-9667
▁ideal	-9668
achment	-9669
▁Report	-9670
▁linear	-9671
▁rising	-9672
▁revenue	-9673
▁generated	-9674
▁negotiations	-9675
6),	-9676
▁1990.	-9677
▁reven	-9678
▁Studio	-9679
▁extent	-9680
▁notice	-9681
▁Language	-9682
▁editions	-9683
▁mechanism	-9684
▁Conservation	-9685
aja	-9686
▁ju	-9687
arged	-9688
later	-9689
urers	-9690
▁Kirk	-9691
commun	-9692
▁steps	-9693
onymous	-9694
reprene	-9695
▁bright	-9696
▁honors	-9697
▁lowest	-9698
▁charity	-9699
▁clothing	-9700
▁machines	-9701
▁Peninsula	-9702
▁eat	-9703
▁(197	-9704
▁drugs	-9705
▁config	-9706
▁closing	-9707
▁falling	-9708
▁Standard	-9709
▁speaking	-9710
▁productions	-9711
–7	-9712
▁MS	-9713
rose	-9714
▁Near	-9715
▁Saudi	-9716
▁grows	-9717
▁ritual	-9718
▁treaty	-9719
▁disband	-9720
▁Anglican	-9721
▁delivery	-9722
▁monastery	-9723
ivic	-9724
phew	-9725
rypt	-9726
▁800	-9727
▁NHL	-9728
eenth	-9729
▁1921	-9730
▁anyone	-9731
▁eldest	-9732
▁Formula	-9733
▁Adelaide	-9734
▁romantic	-9735
▁Assistant	-9736
▁indicates	-9737
▁Furthermore	-9738
game	-9739
mont	-9740
venth	-9741
▁Hamb	-9742
▁Daily	-9743
▁Years	-9744
▁hypot	-9745
▁Allied	-9746
▁Iceland	-9747
▁keeping	-9748
▁peoples	-9749
▁civilian	-9750
▁download	-9751
▁acknowled	-9752
▁campaigns	-9753
▁provision	-9754
▁Protestant	-9755
▁appropriate	-9756
▁participating	-9757
_1	-9758
▁Len	-9759
▁USS	-9760
raham	-9761
▁1914	-9762
▁Bour	-9763
▁Clay	-9764
▁Cuba	-9765
▁Pant	-9766
▁Anglo	-9767
▁Serge	-9768
▁rebell	-9769
▁soldier	-9770
▁Buddhist	-9771
▁provinces	-9772
incorporated	-9773
ugs	-9774
▁CP	-9775
anne	-9776
oded	-9777
unct	-9778
▁Bot	-9779
itime	-9780
▁Face	-9781
▁Liga	-9782
▁Sche	-9783
▁gard	-9784
▁spir	-9785
▁vast	-9786
▁1983,	-9787
▁Horse	-9788
▁Secret	-9789
▁emperor	-9790
▁preferred	-9791
▁possibility	-9792
DC	-9793
WA	-9794
oro	-9795
ivia	-9796
▁165	-9797
▁Gun	-9798
▁Cond	-9799
▁Mars	-9800
▁jury	-9801
apping	-9802
present	-9803
▁Fisher	-9804
▁Legacy	-9805
▁Saints	-9806
▁margin	-9807
▁visits	-9808
▁Barcelona	-9809
▁subsidiary	-9810
▁(8	-9811
▁Isa	-9812
chers	-9813
eston	-9814
▁Aber	-9815
Donald	-9816
▁Woman	-9817
▁input	-9818
arriors	-9819
▁Branch	-9820
▁cattle	-9821
▁Support	-9822
▁compens	-9823
▁reorgan	-9824
▁wealthy	-9825
▁dominant	-9826
▁Microsoft	-9827
▁Confederate	-9828
▁communications	-9829
▁constitutional	-9830
EP	-9831
▁DJ	-9832
foot	-9833
omic	-9834
▁stim	-9835
▁1985,	-9836
▁Moroc	-9837
▁texts	-9838
▁algorith	-9839
▁Caribbean	-9840
▁wrestling	-9841
IM	-9842
oj	-9843
▁(9	-9844
anim	-9845
eton	-9846
▁Obl	-9847
▁Ple	-9848
▁bay	-9849
sized	-9850
▁1935	-9851
▁spin	-9852
▁Phoen	-9853
▁condem	-9854
▁fighter	-9855
▁finance	-9856
▁discontin	-9857
▁describing	-9858
▁originated	-9859
asp	-9860
nan	-9861
rus	-9862
▁neck	-9863
▁prest	-9864
▁slave	-9865
onomous	-9866
▁profit	-9867
▁remove	-9868
▁tunnel	-9869
▁Circuit	-9870
▁Symphony	-9871
▁convicted	-9872
▁boundaries	-9873
▁permission	-9874
6).	-9875
orp	-9876
▁54	-9877
▁250	-9878
▁Seb	-9879
month	-9880
scale	-9881
▁Goth	-9882
▁Craig	-9883
▁Video	-9884
▁widow	-9885
▁endors	-9886
▁riding	-9887
▁opponent	-9888
▁Democrats	-9889
▁Universal	-9890
▁practical	-9891
▁temperatures	-9892
aba	-9893
bow	-9894
def	-9895
ixon	-9896
raska	-9897
▁Mend	-9898
▁Shel	-9899
▁Yang	-9900
▁stem	-9901
icking	-9902
▁1944,	-9903
athered	-9904
▁serial	-9905
▁Norfolk	-9906
▁Together	-9907
▁operator	-9908
▁Christians	-9909
▁unsuccessful	-9910
ais	-9911
▁600	-9912
ierra	-9913
▁baby	-9914
▁eggs	-9915
▁smooth	-9916
▁Finally	-9917
▁breaking	-9918
outheastern	-9919
▁electricity	-9920
bus	-9921
▁"(	-9922
▁$4	-9923
▁py	-9924
▁Alt	-9925
amics	-9926
▁Conc	-9927
▁Side	-9928
▁chrom	-9929
▁insect	-9930
▁devoted	-9931
▁assisted	-9932
▁accessible	-9933
;&	-9934
IL	-9935
ido	-9936
pop	-9937
cycl	-9938
▁Hugh	-9939
▁Ship	-9940
▁twin	-9941
▁Small	-9942
▁Storm	-9943
▁Theod	-9944
▁helic	-9945
issions	-9946
▁Action	-9947
▁Munich	-9948
▁Classic	-9949
▁flights	-9950
▁nearest	-9951
▁circumstances	-9952
bb	-9953
▁Sr	-9954
▁Ian	-9955
▁Latino	-9956
▁decides	-9957
▁alliance	-9958
▁Southeast	-9959
▁execution	-9960
▁conclusion	-9961
▁extensively	-9962
▁implementation	-9963
▁Yu	-9964
▁168	-9965
▁Beh	-9966
▁Pon	-9967
▁1934	-9968
▁Lock	-9969
▁empt	-9970
▁lose	-9971
▁sang	-9972
▁tort	-9973
ouncill	-9974
▁Policy	-9975
▁Borough	-9976
▁Vincent	-9977
▁neither	-9978
▁Democrat	-9979
▁portrait	-9980
▁suitable	-9981
▁connections	-9982
▁RAF	-9983
▁Shaw	-9984
▁fill	-9985
enburg	-9986
▁1979,	-9987
inental	-9988
▁Oliver	-9989
▁limits	-9990
▁pursue	-9991
▁Jonathan	-9992
▁Pictures	-9993
▁Catherine	-9994
▁increases	-9995
▁discussion	-9996
▁arrangement	-9997
▁interpretation	-9998
For	-9999
▁2-	-10000
▁CN	-10001
idal	-10002
▁Jazz	-10003
▁Luis	-10004
▁1942,	-10005
▁surve	-10006
▁Dakota	-10007
▁Manuel	-10008
▁Nevada	-10009
▁Climate	-10010
▁charter	-10011
▁Armenian	-10012
31	-10013
”.	-10014
aced	-10015
olen	-10016
▁Sad	-10017
▁1000	-10018
▁fold	-10019
▁heir	-10020
▁Males	-10021
▁gross	-10022
▁wider	-10023
angular	-10024
▁Hunter	-10025
▁dispute	-10026
▁requested	-10027
▁Commissioner	-10028
▁corresponding	-10029
oka	-10030
▁1880	-10031
▁Bron	-10032
▁1994.	-10033
▁Advis	-10034
▁Collins	-10035
▁drummer	-10036
▁Industry	-10037
▁Christianity	-10038
igo	-10039
igs	-10040
nda	-10041
▁46	-10042
eded	-10043
rass	-10044
▁(17	-10045
▁Maz	-10046
erior	-10047
ifies	-10048
sters	-10049
▁Mann	-10050
▁tons	-10051
azines	-10052
▁compr	-10053
▁doesn	-10054
▁noble	-10055
▁shock	-10056
ificate	-10057
▁Herman	-10058
▁manage	-10059
▁rarely	-10060
▁surviv	-10061
▁Muslims	-10062
▁farming	-10063
▁hunting	-10064
▁wearing	-10065
▁enrolled	-10066
▁dangerous	-10067
▁mechanical	-10068
▁references	-10069
ön	-10070
▁Ze	-10071
asha	-10072
izer	-10073
▁vul	-10074
works	-10075
▁rand	-10076
elfare	-10077
▁marks	-10078
▁simpl	-10079
▁spend	-10080
itarian	-10081
▁comfort	-10082
Sm	-10083
▁CS	-10084
helm	-10085
imir	-10086
▁Mut	-10087
trans	-10088
▁Range	-10089
▁affair	-10090
▁Pradesh	-10091
▁eligible	-10092
▁battalion	-10093
▁initiative	-10094
▁unincorporated	-10095
enc	-10096
gom	-10097
▁Wu	-10098
▁nut	-10099
▁1917	-10100
▁Gust	-10101
▁flew	-10102
▁Antar	-10103
ricketer	-10104
▁Masters	-10105
▁Systems	-10106
▁petition	-10107
▁quarterback	-10108
-7	-10109
3).	-10110
gel	-10111
▁47	-10112
▁Ve	-10113
aser	-10114
▁Hav	-10115
▁pip	-10116
keley	-10117
ospel	-10118
▁1925	-10119
▁eigh	-10120
▁golf	-10121
▁absor	-10122
▁answer	-10123
▁certified	-10124
▁electrical	-10125
uber	-10126
▁ski	-10127
▁1932	-10128
▁Cinc	-10129
▁Full	-10130
▁pull	-10131
▁ride	-10132
▁salt	-10133
employ	-10134
uction	-10135
▁Athens	-10136
▁Tigers	-10137
▁enthus	-10138
▁Species	-10139
▁sisters	-10140
zed	-10141
▁LP	-10142
eway	-10143
▁14.	-10144
▁Pin	-10145
▁spr	-10146
gthen	-10147
▁Brew	-10148
▁Those	-10149
osexual	-10150
▁Alaska	-10151
▁Nebraska	-10152
▁Formation	-10153
▁framework	-10154
▁orchestra	-10155
▁$5	-10156
▁Ja	-10157
eper	-10158
ieth	-10159
▁Esc	-10160
ching	-10161
▁1922	-10162
▁guar	-10163
▁1982,	-10164
▁1986.	-10165
▁acres	-10166
▁Harold	-10167
▁fitted	-10168
▁beating	-10169
▁delayed	-10170
▁compiled	-10171
▁Archbishop	-10172
▁concerning	-10173
▁manufactured	-10174
5),	-10175
▁52	-10176
ampa	-10177
▁Wor	-10178
▁mask	-10179
▁ward	-10180
▁1975,	-10181
▁1988.	-10182
▁Mason	-10183
▁Nepal	-10184
▁bases	-10185
▁diver	-10186
inating	-10187
viously	-10188
▁geomet	-10189
▁random	-10190
▁photographs	-10191
py	-10192
irk	-10193
jar	-10194
▁AA	-10195
▁Wes	-10196
▁Yam	-10197
cover	-10198
white	-10199
▁Gate	-10200
▁Gonz	-10201
▁1970,	-10202
▁rocks	-10203
sterdam	-10204
▁Parker	-10205
▁columns	-10206
▁ranging	-10207
▁proteins	-10208
▁Newcastle	-10209
▁avo	-10210
▁les	-10211
▁Bath	-10212
▁Roll	-10213
▁bats	-10214
▁pale	-10215
ffield	-10216
▁Living	-10217
▁argument	-10218
▁managing	-10219
▁Jefferson	-10220
▁collaborated	-10221
HA	-10222
eo	-10223
net	-10224
iche	-10225
scar	-10226
▁176	-10227
▁Gor	-10228
▁Lov	-10229
▁Mol	-10230
▁Ord	-10231
▁1937	-10232
▁Math	-10233
▁gast	-10234
▁Costa	-10235
▁clock	-10236
▁doors	-10237
▁parks	-10238
aration	-10239
ullivan	-10240
▁10,000	-10241
▁Spirit	-10242
▁Stuart	-10243
▁Survey	-10244
▁ambass	-10245
▁colors	-10246
▁Barbara	-10247
▁filming	-10248
▁physics	-10249
▁radical	-10250
▁minority	-10251
▁Provincial	-10252
Qu	-10253
One	-10254
–10	-10255
auge	-10256
▁São	-10257
▁Bund	-10258
▁looked	-10259
▁nephew	-10260
▁genetic	-10261
▁venture	-10262
▁Argentine	-10263
▁festivals	-10264
itro	-10265
uman	-10266
▁13.	-10267
▁Mul	-10268
▁Pel	-10269
apped	-10270
onies	-10271
▁Hann	-10272
▁thin	-10273
▁ties	-10274
innati	-10275
vision	-10276
▁1984,	-10277
▁lingu	-10278
▁Friday	-10279
▁exclud	-10280
▁Edwards	-10281
▁sessions	-10282
▁magazines	-10283
▁promoting	-10284
▁restaurants	-10285
9),	-10286
gam	-10287
▁58	-10288
▁CC	-10289
enia	-10290
▁Tag	-10291
▁Thir	-10292
▁hence	-10293
▁moral	-10294
▁Rivers	-10295
▁legacy	-10296
▁propag	-10297
▁origins	-10298
▁economics	-10299
▁contributing	-10300
Or	-10301
▁Joy	-10302
▁Pic	-10303
etary	-10304
▁(190	-10305
▁Bobby	-10306
▁Kenya	-10307
▁layer	-10308
▁landed	-10309
▁Players	-10310
▁assists	-10311
▁drivers	-10312
elsewhere	-10313
▁difficulties	-10314
▁"[	-10315
▁Ni	-10316
▁PS	-10317
▁Snow	-10318
mother	-10319
rupted	-10320
▁Altern	-10321
▁curren	-10322
▁elsewhere	-10323
▁Industrial	-10324
RO	-10325
cat	-10326
pre	-10327
▁Fif	-10328
▁mos	-10329
▁1931	-10330
▁Lloyd	-10331
▁Pedro	-10332
▁resid	-10333
▁Albums	-10334
▁Currently	-10335
▁restricted	-10336
Te	-10337
pla	-10338
uzz	-10339
▁Kle	-10340
▁aqu	-10341
▁fat	-10342
▁Shar	-10343
▁inhib	-10344
▁Harbor	-10345
▁intern	-10346
▁Century	-10347
▁Herbert	-10348
▁gallery	-10349
▁tribute	-10350
ibilities	-10351
▁Campaign	-10352
▁exercise	-10353
▁symptoms	-10354
▁Secondary	-10355
▁identical	-10356
▁uncertain	-10357
▁ib	-10358
ogle	-10359
▁Abu	-10360
▁Und	-10361
Music	-10362
ipped	-10363
▁Bond	-10364
▁Cann	-10365
▁Soul	-10366
▁Alger	-10367
▁absol	-10368
rington	-10369
winning	-10370
released	-10371
▁specialized	-10372
rob	-10373
wig	-10374
▁Kap	-10375
▁por	-10376
iliar	-10377
▁Jess	-10378
▁Henri	-10379
▁Stage	-10380
▁datab	-10381
▁hyper	-10382
▁scope	-10383
▁Finance	-10384
▁inducted	-10385
▁submarine	-10386
▁Cincinnati	-10387
▁Protection	-10388
▁Kl	-10389
▁VI	-10390
iors	-10391
rary	-10392
▁Hob	-10393
▁Ral	-10394
▁Bald	-10395
▁Soph	-10396
ishers	-10397
▁1945.	-10398
▁canal	-10399
▁shift	-10400
▁usual	-10401
jection	-10402
▁Hebrew	-10403
▁promin	-10404
▁sample	-10405
▁believes	-10406
▁transmit	-10407
▁Bulgarian	-10408
▁narrative	-10409
▁approached	-10410
▁biological	-10411
▁cooperation	-10412
▁designation	-10413
▁historically	-10414
-6	-10415
iji	-10416
▁(6	-10417
▁51	-10418
oked	-10419
▁164	-10420
ected	-10421
▁1923	-10422
▁Soft	-10423
▁blow	-10424
▁cash	-10425
▁surpr	-10426
▁usage	-10427
▁waste	-10428
ificial	-10429
▁Bright	-10430
▁Ethiop	-10431
▁Hughes	-10432
▁controll	-10433
▁awareness	-10434
▁industries	-10435
▁distinction	-10436
▁Independence	-10437
▁Ny	-10438
aton	-10439
–199	-10440
▁Kab	-10441
▁Toy	-10442
▁Case	-10443
▁Merc	-10444
▁Grace	-10445
▁Obama	-10446
▁Ridge	-10447
▁saved	-10448
▁sounds	-10449
▁Admiral	-10450
▁funeral	-10451
▁Sheffield	-10452
▁hospitals	-10453
▁conversion	-10454
▁perspective	-10455
▁traditionally	-10456
–15	-10457
ente	-10458
otten	-10459
▁Slav	-10460
▁1972,	-10461
▁alter	-10462
▁neuro	-10463
iscopal	-10464
▁Steven	-10465
▁roster	-10466
▁slaves	-10467
▁Croatia	-10468
▁leagues	-10469
▁Florence	-10470
▁Aj	-10471
▁15.	-10472
▁Hem	-10473
▁Sah	-10474
▁Ton	-10475
atche	-10476
rafts	-10477
rooms	-10478
▁Term	-10479
▁Yale	-10480
▁diet	-10481
▁burned	-10482
▁distribut	-10483
▁permitted	-10484
▁challenges	-10485
▁elementary	-10486
▁Productions	-10487
▁householder	-10488
▁legislature	-10489
bes	-10490
eda	-10491
yll	-10492
rost	-10493
▁Sic	-10494
▁Tas	-10495
▁1927	-10496
▁coup	-10497
▁hear	-10498
▁tens	-10499
▁tool	-10500
arrier	-10501
inking	-10502
▁1978,	-10503
▁camps	-10504
▁ninet	-10505
▁Ernest	-10506
▁aboard	-10507
ablished	-10508
formerly	-10509
▁Student	-10510
▁cavalry	-10511
▁informed	-10512
▁physician	-10513
▁historians	-10514
▁midfielder	-10515
▁fundamental	-10516
oi	-10517
▁Nan	-10518
▁tub	-10519
irect	-10520
stown	-10521
▁Kath	-10522
▁maps	-10523
strong	-10524
▁1976,	-10525
▁horror	-10526
▁ticket	-10527
stituted	-10528
▁Economy	-10529
▁Hamburg	-10530
▁battery	-10531
▁reaches	-10532
istration	-10533
▁bachelor	-10534
▁retiring	-10535
▁aggregate	-10536
▁respective	-10537
▁strengthen	-10538
▁inspiration	-10539
pm	-10540
iast	-10541
oons	-10542
▁vow	-10543
otion	-10544
▁Cold	-10545
▁forg	-10546
▁1974,	-10547
▁Blues	-10548
▁pages	-10549
▁pharm	-10550
▁collapse	-10551
▁ministry	-10552
▁inherited	-10553
▁reporting	-10554
▁acquisition	-10555
ean	-10556
acts	-10557
itic	-10558
pine	-10559
▁nam	-10560
icing	-10561
▁1926	-10562
▁Sony	-10563
▁1985.	-10564
▁Grove	-10565
▁cloud	-10566
▁disch	-10567
▁tight	-10568
▁Eagles	-10569
▁remote	-10570
▁defended	-10571
▁travelled	-10572
she	-10573
▁2–1	-10574
▁Sid	-10575
▁orn	-10576
aping	-10577
▁1870	-10578
▁Buch	-10579
▁Vers	-10580
▁Filip	-10581
▁regul	-10582
compass	-10583
olition	-10584
▁Napole	-10585
▁reforms	-10586
▁connects	-10587
▁favorite	-10588
imensional	-10589
▁cathedral	-10590
▁temporarily	-10591
▁internationally	-10592
ubb	-10593
▁fee	-10594
athon	-10595
berry	-10596
grade	-10597
piece	-10598
▁therm	-10599
▁Mother	-10600
▁beauty	-10601
▁academy	-10602
▁fifteen	-10603
▁murdered	-10604
▁relevant	-10605
▁shopping	-10606
▁institute	-10607
▁Eventually	-10608
▁outstanding	-10609
▁Environmental	-10610
tz	-10611
él	-10612
new	-10613
pin	-10614
▁3-	-10615
enos	-10616
haus	-10617
rawn	-10618
▁Moz	-10619
▁Bass	-10620
▁Curt	-10621
▁Ring	-10622
▁subt	-10623
ortion	-10624
▁Songs	-10625
▁inhab	-10626
▁shops	-10627
▁butter	-10628
▁deemed	-10629
▁options	-10630
▁consolid	-10631
▁diseases	-10632
▁mainland	-10633
▁Amsterdam	-10634
▁Petersburg	-10635
▁enforcement	-10636
▁tournaments	-10637
nex	-10638
▁59	-10639
noon	-10640
▁Kur	-10641
alymp	-10642
stery	-10643
▁1924	-10644
▁Hope	-10645
▁Luke	-10646
levard	-10647
oustic	-10648
▁1984.	-10649
▁pseud	-10650
▁Giants	-10651
▁Oblast	-10652
▁compla	-10653
▁acceler	-10654
▁parking	-10655
▁External	-10656
▁efficient	-10657
▁incumbent	-10658
FF	-10659
GC	-10660
vet	-10661
inum	-10662
rors	-10663
umps	-10664
▁Adv	-10665
▁Lan	-10666
child	-10667
▁1912	-10668
▁caps	-10669
ishops	-10670
▁1983.	-10671
▁Blood	-10672
▁Exper	-10673
▁virus	-10674
rection	-10675
▁Writing	-10676
▁tourist	-10677
▁depicted	-10678
▁automatic	-10679
▁decorated	-10680
▁expensive	-10681
▁depression	-10682
▁preparation	-10683
MI	-10684
sor	-10685
two	-10686
anni	-10687
disc	-10688
ilia	-10689
oses	-10690
▁Rah	-10691
▁tot	-10692
▁Hunt	-10693
▁Vill	-10694
▁cruc	-10695
▁worn	-10696
gomery	-10697
▁1968,	-10698
▁Helen	-10699
▁coins	-10700
lington	-10701
▁Chapel	-10702
▁capita	-10703
▁guests	-10704
▁carries	-10705
▁walking	-10706
▁breeding	-10707
▁Interstate	-10708
▁mainstream	-10709
free	-10710
olve	-10711
velt	-10712
▁Kil	-10713
▁Lux	-10714
▁Oil	-10715
▁enh	-10716
▁tag	-10717
▁Diam	-10718
atorial	-10719
▁Montana	-10720
▁collaps	-10721
▁evolved	-10722
▁neutral	-10723
▁arriving	-10724
▁affiliate	-10725
▁simultaneously	-10726
var	-10727
irms	-10728
▁Dog	-10729
▁Say	-10730
▁ris	-10731
album	-10732
oking	-10733
▁Brun	-10734
▁Crim	-10735
▁Note	-10736
▁1973,	-10737
▁Perry	-10738
▁Syrian	-10739
▁circle	-10740
▁Abraham	-10741
▁Madison	-10742
▁carrier	-10743
▁explains	-10744
▁tributary	-10745
▁graduation	-10746
RI	-10747
cz	-10748
agg	-10749
occ	-10750
etta	-10751
idad	-10752
isan	-10753
aceae	-10754
▁bath	-10755
▁fasc	-10756
▁Heavy	-10757
▁cinema	-10758
▁Chester	-10759
▁departed	-10760
▁switched	-10761
▁interviews	-10762
▁programmes	-10763
VP	-10764
▁78	-10765
▁(10	-10766
▁18.	-10767
▁1916	-10768
▁Cork	-10769
▁root	-10770
▁yard	-10771
▁1982.	-10772
▁Stars	-10773
▁chron	-10774
▁sugar	-10775
▁Murphy	-10776
▁Rogers	-10777
▁breast	-10778
▁decide	-10779
▁grades	-10780
▁pupils	-10781
▁Phoenix	-10782
▁removal	-10783
▁Bulgaria	-10784
▁pictures	-10785
▁prosecut	-10786
▁reporter	-10787
▁locomotive	-10788
ju	-10789
00,	-10790
iko	-10791
pic	-10792
pow	-10793
▁Gw	-10794
irds	-10795
▁Had	-10796
▁Sang	-10797
▁prol	-10798
length	-10799
▁1940,	-10800
▁Drive	-10801
▁Essex	-10802
▁incom	-10803
▁siege	-10804
▁subsc	-10805
▁Return	-10806
▁pushed	-10807
▁Commons	-10808
▁Wallace	-10809
▁partial	-10810
▁variant	-10811
▁keyboard	-10812
▁experiments	-10813
▁neighbouring	-10814
And	-10815
▁169	-10816
▁gal	-10817
stand	-10818
▁Hond	-10819
▁horn	-10820
▁Examp	-10821
▁Mahar	-10822
▁Franco	-10823
▁thanks	-10824
football	-10825
▁resumed	-10826
▁alternate	-10827
▁contracts	-10828
▁comparison	-10829
▁interchange	-10830
NT	-10831
▁°	-10832
avi	-10833
roe	-10834
▁SP	-10835
mits	-10836
▁Dol	-10837
▁Kol	-10838
▁Lie	-10839
ovich	-10840
▁kidn	-10841
▁mamm	-10842
▁till	-10843
▁wasn	-10844
orough	-10845
▁1987.	-10846
▁Exhib	-10847
▁Minor	-10848
▁talks	-10849
▁allies	-10850
▁closure	-10851
▁placing	-10852
▁emotional	-10853
▁Montgomery	-10854
▁descendants	-10855
▁organisations	-10856
ás	-10857
was	-10858
lett	-10859
▁16.	-10860
▁doct	-10861
▁meat	-10862
▁sket	-10863
▁Armed	-10864
▁alive	-10865
▁orbit	-10866
▁semif	-10867
▁tours	-10868
▁revers	-10869
▁torped	-10870
-17	-10871
8).	-10872
awn	-10873
▁57	-10874
▁Din	-10875
▁Occ	-10876
▁Suz	-10877
▁rac	-10878
▁rib	-10879
▁tox	-10880
▁Past	-10881
▁1943,	-10882
▁Based	-10883
▁Malay	-10884
uckland	-10885
▁hybrid	-10886
▁sequel	-10887
▁Primary	-10888
▁powered	-10889
▁scatter	-10890
▁diplomatic	-10891
47	-10892
BL	-10893
DF	-10894
GBT	-10895
▁IP	-10896
Best	-10897
achi	-10898
align	-10899
▁bull	-10900
▁libr	-10901
alling	-10902
▁Butler	-10903
▁scores	-10904
▁Gilbert	-10905
▁coaches	-10906
▁escaped	-10907
▁feeling	-10908
▁pointed	-10909
▁Delaware	-10910
▁Paralymp	-10911
▁Shanghai	-10912
▁sovereign	-10913
▁Wellington	-10914
▁indicating	-10915
▁Eg	-10916
amer	-10917
uran	-10918
▁Map	-10919
▁kne	-10920
▁Bert	-10921
▁drum	-10922
▁prox	-10923
istani	-10924
namese	-10925
▁recur	-10926
▁taxes	-10927
lection	-10928
through	-10929
▁copper	-10930
▁disapp	-10931
▁latest	-10932
▁crosses	-10933
▁gardens	-10934
▁holiday	-10935
▁profile	-10936
▁Berkeley	-10937
▁exposure	-10938
▁difficulty	-10939
▁distinctive	-10940
then	-10941
▁odd	-10942
▁rum	-10943
ussia	-10944
▁Mind	-10945
▁Salt	-10946
iology	-10947
▁1964,	-10948
▁Exped	-10949
▁giant	-10950
▁helps	-10951
▁pairs	-10952
▁prove	-10953
▁radar	-10954
▁pulled	-10955
▁unlike	-10956
possible	-10957
▁Holland	-10958
▁ratings	-10959
▁Auckland	-10960
▁Financial	-10961
▁recipient	-10962
▁attempting	-10963
▁installation	-10964
▁archaeological	-10965
RE	-10966
Aust	-10967
phal	-10968
umer	-10969
umni	-10970
▁Bav	-10971
power	-10972
tense	-10973
▁1913	-10974
▁fulf	-10975
thlete	-10976
▁1969,	-10977
▁march	-10978
▁metre	-10979
▁exhibit	-10980
▁Mathemat	-10981
▁manuscript	-10982
▁consumption	-10983
▁improvements	-10984
"'	-10985
4).	-10986
tym	-10987
irus	-10988
▁Liu	-10989
▁Wed	-10990
▁(196	-10991
▁Cycl	-10992
▁vacc	-10993
▁zero	-10994
▁beetle	-10995
▁failing	-10996
▁raising	-10997
▁virtual	-10998
▁internet	-10999
▁reducing	-11000
▁writings	-11001
▁commenced	-11002
▁dissolved	-11003
▁Commercial	-11004
▁comprehensive	-11005
aco	-11006
▁Ib	-11007
ulus	-11008
week	-11009
▁vel	-11010
icting	-11011
▁corps	-11012
▁Future	-11013
▁Manager	-11014
▁belongs	-11015
▁defender	-11016
▁refugees	-11017
▁abolished	-11018
BE	-11019
-12	-11020
aho	-11021
appy	-11022
urst	-11023
▁Fab	-11024
▁gran	-11025
isting	-11026
▁1971,	-11027
▁steep	-11028
▁Sebast	-11029
▁enroll	-11030
▁slowly	-11031
▁summit	-11032
▁recalled	-11033
▁behaviour	-11034
▁engagement	-11035
42	-11036
bet	-11037
inf	-11038
alis	-11039
eras	-11040
four	-11041
▁Cov	-11042
▁Esp	-11043
▁1977,	-11044
▁Block	-11045
▁Roose	-11046
▁angle	-11047
▁tenth	-11048
▁culmin	-11049
▁oxygen	-11050
▁confess	-11051
▁revival	-11052
▁violent	-11053
▁Croatian	-11054
▁feelings	-11055
▁supplied	-11056
▁vertical	-11057
▁encompass	-11058
▁administered	-11059
ON	-11060
iao	-11061
rah	-11062
▁Got	-11063
▁Haz	-11064
▁Bent	-11065
▁prev	-11066
▁Crime	-11067
▁sharp	-11068
agonist	-11069
ighting	-11070
▁Comics	-11071
▁Lebanon	-11072
▁receives	-11073
▁thinking	-11074
▁Beginning	-11075
▁approaches	-11076
▁attendance	-11077
▁psychology	-11078
▁celebration	-11079
▁examination	-11080
▁exhibitions	-11081
▁qualification	-11082
41	-11083
ds	-11084
uh	-11085
ña	-11086
8),	-11087
Mon	-11088
▁Dy	-11089
▁Jar	-11090
▁Kin	-11091
▁Sor	-11092
overy	-11093
▁Ferr	-11094
▁gear	-11095
▁gymn	-11096
▁lakes	-11097
▁plain	-11098
▁stead	-11099
▁spokes	-11100
▁Leonard	-11101
▁sitting	-11102
▁measured	-11103
▁accompany	-11104
▁intercept	-11105
▁relegated	-11106
▁imprisoned	-11107
▁volunteers	-11108
▁nominations	-11109
//	-11110
ska	-11111
▁Og	-11112
byter	-11113
cules	-11114
hetic	-11115
▁1908	-11116
orious	-11117
urated	-11118
▁Mills	-11119
▁Wells	-11120
▁spell	-11121
▁nomine	-11122
▁Musical	-11123
▁Junction	-11124
▁landmark	-11125
▁convinced	-11126
▁exhibited	-11127
▁touchdowns	-11128
▁characteristic	-11129
uis	-11130
▁Syl	-11131
ocket	-11132
▁Neil	-11133
▁Rams	-11134
▁drums	-11135
▁Kerala	-11136
▁accord	-11137
▁disturb	-11138
▁sharing	-11139
▁portions	-11140
▁attacking	-11141
▁resignation	-11142
▁restrictions	-11143
eto	-11144
oan	-11145
▁Ax	-11146
▁Wag	-11147
▁fib	-11148
▁Gand	-11149
▁Sask	-11150
▁mini	-11151
▁rifle	-11152
▁Venice	-11153
▁Watson	-11154
▁pitched	-11155
▁suspect	-11156
▁Phillips	-11157
▁Romanized	-11158
▁traveling	-11159
▁structural	-11160
▁supplement	-11161
▁Performance	-11162
ema	-11163
elin	-11164
iden	-11165
▁Gas	-11166
▁Gay	-11167
▁Mig	-11168
▁Put	-11169
aurus	-11170
▁1860	-11171
orient	-11172
▁coinc	-11173
▁forty	-11174
▁Dennis	-11175
▁concur	-11176
▁resear	-11177
▁tested	-11178
▁coached	-11179
▁criteria	-11180
▁disorder	-11181
▁hypothes	-11182
kar	-11183
asia	-11184
▁20.	-11185
▁Leo	-11186
▁Nat	-11187
▁Tow	-11188
▁Expl	-11189
▁quad	-11190
▁flank	-11191
▁Rhodes	-11192
▁Sierra	-11193
▁conven	-11194
▁unless	-11195
original	-11196
▁willing	-11197
▁colleges	-11198
▁theories	-11199
plications	-11200
▁procedure	-11201
▁situations	-11202
dal	-11203
ieu	-11204
uli	-11205
▁53	-11206
core	-11207
▁Daw	-11208
▁Cand	-11209
▁guid	-11210
▁1941,	-11211
▁Chair	-11212
▁Larry	-11213
▁Susan	-11214
▁Nature	-11215
▁enters	-11216
▁studios	-11217
▁dramatic	-11218
▁valuable	-11219
▁chemistry	-11220
▁comprises	-11221
▁predecessor	-11222
▁Architecture	-11223
▁undergraduate	-11224
abs	-11225
anta	-11226
iper	-11227
▁Bag	-11228
▁Pod	-11229
count	-11230
eties	-11231
▁1915	-11232
▁Flow	-11233
▁jail	-11234
▁Sudan	-11235
▁coron	-11236
▁Google	-11237
▁argues	-11238
▁Spencer	-11239
▁dollars	-11240
▁perceived	-11241
▁earthquake	-11242
bek	-11243
▁GT	-11244
▁LA	-11245
▁Mey	-11246
acked	-11247
entle	-11248
world	-11249
▁Beth	-11250
▁sung	-11251
▁tone	-11252
▁tram	-11253
▁Bened	-11254
▁Delta	-11255
▁annex	-11256
▁guide	-11257
▁Ambass	-11258
▁Arnold	-11259
▁Indies	-11260
▁Release	-11261
▁Workers	-11262
▁veteran	-11263
▁calendar	-11264
▁explicit	-11265
▁Nashville	-11266
▁Roosevelt	-11267
▁laboratory	-11268
▁regulation	-11269
▁instruction	-11270
LP	-11271
arv	-11272
▁68	-11273
▁Sox	-11274
▁liv	-11275
Black	-11276
▁Epis	-11277
▁Golf	-11278
itudes	-11279
▁1965,	-11280
▁1977.	-11281
tingham	-11282
unswick	-11283
▁explan	-11284
▁Playing	-11285
▁birthday	-11286
▁register	-11287
▁conscious	-11288
iw	-11289
ben	-11290
–16	-11291
▁EC	-11292
clos	-11293
lair	-11294
omed	-11295
page	-11296
▁(16	-11297
▁17.	-11298
racks	-11299
▁cogn	-11300
▁feud	-11301
▁Ahmed	-11302
▁Guild	-11303
▁Finals	-11304
▁Vermont	-11305
▁brigade	-11306
▁tourism	-11307
▁Aviation	-11308
▁displays	-11309
▁realized	-11310
▁broadcasts	-11311
▁entreprene	-11312
▁departments	-11313
▁Nevertheless	-11314
afe	-11315
asm	-11316
lax	-11317
omo	-11318
▁IT	-11319
▁Next	-11320
▁Site	-11321
▁1960,	-11322
▁Ralph	-11323
▁Tibet	-11324
▁bonus	-11325
▁drove	-11326
pressed	-11327
▁pioneer	-11328
▁nickname	-11329
▁Prefecture	-11330
▁understood	-11331
▁predominantly	-11332
▁56	-11333
▁85	-11334
▁mit	-11335
▁mor	-11336
iffer	-11337
▁milk	-11338
▁sick	-11339
rating	-11340
▁relay	-11341
▁remix	-11342
written	-11343
▁Ottawa	-11344
▁beaten	-11345
▁namely	-11346
▁variable	-11347
▁Byzantine	-11348
▁Stockholm	-11349
▁recruited	-11350
▁signature	-11351
mn	-11352
ün	-11353
▁Gy	-11354
itol	-11355
offs	-11356
rous	-11357
▁130	-11358
▁Buc	-11359
▁Rus	-11360
oting	-11361
▁Marx	-11362
▁Thai	-11363
▁clot	-11364
▁judg	-11365
▁1963,	-11366
▁Congo	-11367
▁Treas	-11368
▁assum	-11369
▁bench	-11370
▁overl	-11371
forming	-11372
▁Concer	-11373
▁Cabinet	-11374
▁organic	-11375
▁outdoor	-11376
▁Politics	-11377
▁Methodist	-11378
▁excellent	-11379
▁Yugoslavia	-11380
▁interesting	-11381
▁Intelligence	-11382
▁66	-11383
▁MD	-11384
alam	-11385
inae	-11386
▁Kas	-11387
cycle	-11388
ropod	-11389
▁Hous	-11390
▁unex	-11391
▁1967,	-11392
▁gathered	-11393
▁Expedition	-11394
▁Literature	-11395
▁Vietnamese	-11396
▁kilometers	-11397
▁accommodate	-11398
▁achievement	-11399
uj	-11400
log	-11401
wau	-11402
boat	-11403
took	-11404
▁Kay	-11405
▁Lot	-11406
lined	-11407
▁1905	-11408
▁1911	-11409
▁clim	-11410
▁mans	-11411
▁Spart	-11412
▁blind	-11413
▁flash	-11414
riculum	-11415
▁afford	-11416
▁fabric	-11417
▁bridges	-11418
▁Stanford	-11419
▁underwent	-11420
▁colleagues	-11421
▁statements	-11422
▁essentially	-11423
▁photographer	-11424
eor	-11425
gov	-11426
ilo	-11427
née	-11428
pit	-11429
atra	-11430
▁Ara	-11431
▁Bach	-11432
▁Giov	-11433
▁grid	-11434
▁1974.	-11435
▁Pearl	-11436
▁looks	-11437
▁Newton	-11438
▁unanim	-11439
▁worker	-11440
▁Private	-11441
▁therapy	-11442
▁thereby	-11443
▁colonies	-11444
▁extending	-11445
▁victories	-11446
▁succession	-11447
▁maintaining	-11448
▁technologies	-11449
://	-11450
Eng	-11451
▁aw	-11452
Love	-11453
okes	-11454
▁Inv	-11455
avian	-11456
speed	-11457
▁Hein	-11458
▁Kash	-11459
▁Stef	-11460
▁Prest	-11461
▁accum	-11462
▁sleep	-11463
▁worst	-11464
▁Nathan	-11465
▁extinct	-11466
▁Guardian	-11467
▁Overview	-11468
▁emphasis	-11469
▁hardware	-11470
▁abilities	-11471
▁discrimination	-11472
hn	-11473
9).	-11474
▁72	-11475
▁id	-11476
ibli	-11477
pled	-11478
▁Jak	-11479
▁gap	-11480
▁tum	-11481
acles	-11482
opsis	-11483
▁1906	-11484
▁Cant	-11485
▁rice	-11486
▁wars	-11487
▁Chron	-11488
▁Robin	-11489
▁width	-11490
▁Yellow	-11491
▁coffee	-11492
▁bombing	-11493
▁exactly	-11494
▁equation	-11495
▁sciences	-11496
▁addressed	-11497
▁objective	-11498
▁referring	-11499
▁documented	-11500
▁suspension	-11501
▁interaction	-11502
Do	-11503
mid	-11504
uly	-11505
000,	-11506
What	-11507
rien	-11508
essed	-11509
▁Prag	-11510
▁brew	-11511
▁1966,	-11512
▁1980.	-11513
▁Keith	-11514
▁choir	-11515
acional	-11516
▁Bosnia	-11517
▁Grammy	-11518
▁Higher	-11519
▁burial	-11520
▁elabor	-11521
▁phrase	-11522
▁Cameron	-11523
▁monthly	-11524
▁plastic	-11525
▁signals	-11526
▁Railways	-11527
▁Boulevard	-11528
▁Palestine	-11529
▁Venezuela	-11530
▁Indonesian	-11531
▁separation	-11532
▁immigration	-11533
▁Representative	-11534
his	-11535
arry	-11536
ndum	-11537
onds	-11538
quis	-11539
wald	-11540
zyme	-11541
▁Kun	-11542
▁voy	-11543
angle	-11544
▁Ages	-11545
▁LGBT	-11546
▁toll	-11547
akespe	-11548
▁Vegas	-11549
▁hills	-11550
writing	-11551
▁Arabia	-11552
▁Denver	-11553
▁fisher	-11554
▁amounts	-11555
▁pitcher	-11556
▁retreat	-11557
▁summary	-11558
▁updated	-11559
▁cultures	-11560
▁disaster	-11561
▁speakers	-11562
▁scientist	-11563
▁improvement	-11564
UC	-11565
ahl	-11566
imo	-11567
cker	-11568
liga	-11569
uced	-11570
yler	-11571
▁155	-11572
▁Jin	-11573
▁Sut	-11574
arity	-11575
emies	-11576
▁Mold	-11577
▁ages	-11578
▁clan	-11579
▁shed	-11580
fortun	-11581
▁Lucas	-11582
▁fifty	-11583
▁forth	-11584
▁inspe	-11585
▁Palmer	-11586
▁citing	-11587
▁targets	-11588
naissance	-11589
▁Location	-11590
▁concepts	-11591
▁consumer	-11592
▁fighters	-11593
▁casualties	-11594
cos	-11595
sub	-11596
inyl	-11597
issa	-11598
made	-11599
▁158	-11600
▁MTV	-11601
ilian	-11602
waukee	-11603
▁Terry	-11604
▁grave	-11605
▁orche	-11606
▁ports	-11607
▁asking	-11608
▁engage	-11609
▁Wilhelm	-11610
▁anthrop	-11611
▁banking	-11612
▁explain	-11613
▁gaining	-11614
▁controls	-11615
▁segments	-11616
▁Northwest	-11617
▁disbanded	-11618
▁sustained	-11619
▁Collection	-11620
▁collective	-11621
▁developments	-11622
▁(7	-11623
▁HD	-11624
Euro	-11625
turn	-11626
▁NAS	-11627
front	-11628
gence	-11629
▁Anim	-11630
▁Carn	-11631
▁Gang	-11632
▁Must	-11633
▁Wool	-11634
▁hole	-11635
▁Roche	-11636
▁fewer	-11637
▁legit	-11638
▁spots	-11639
▁stake	-11640
▁Gregory	-11641
▁demands	-11642
▁employee	-11643
▁followers	-11644
▁contribute	-11645
▁friendship	-11646
▁95	-11647
▁Va	-11648
▁bin	-11649
inery	-11650
▁Scar	-11651
▁reop	-11652
▁1979.	-11653
▁2,000	-11654
▁Iraqi	-11655
▁Joint	-11656
▁align	-11657
▁seeds	-11658
▁phosph	-11659
▁reward	-11660
families	-11661
▁Belarus	-11662
▁footage	-11663
▁shipping	-11664
▁Dominican	-11665
▁Competition	-11666
▁politicians	-11667
▁compositions	-11668
▁69	-11669
rish	-11670
▁Jur	-11671
▁ibn	-11672
▁Lear	-11673
▁Rank	-11674
▁Vent	-11675
▁bell	-11676
utical	-11677
wright	-11678
▁Franç	-11679
▁Tommy	-11680
▁crops	-11681
aughter	-11682
▁Warsaw	-11683
▁diesel	-11684
▁counsel	-11685
▁Starting	-11686
▁elevated	-11687
▁thirteen	-11688
▁Brunswick	-11689
▁Elementary	-11690
▁Statistics	-11691
43	-11692
fast	-11693
▁110	-11694
adian	-11695
▁Carr	-11696
▁Cruz	-11697
▁Dest	-11698
▁Midd	-11699
▁flee	-11700
▁orth	-11701
▁Eddie	-11702
▁prelim	-11703
▁seemed	-11704
▁diversity	-11705
▁requiring	-11706
▁procedures	-11707
▁neighboring	-11708
tr	-11709
oft	-11710
airo	-11711
▁Joan	-11712
▁evil	-11713
▁sure	-11714
▁Ahmad	-11715
▁flour	-11716
▁posts	-11717
▁Panama	-11718
▁shield	-11719
▁fantasy	-11720
▁speaker	-11721
▁aviation	-11722
▁vocalist	-11723
▁Artillery	-11724
▁editorial	-11725
▁exclusive	-11726
err	-11727
umi	-11728
upt	-11729
–12	-11730
abwe	-11731
boro	-11732
cott	-11733
▁25.	-11734
▁Hir	-11735
▁Imm	-11736
▁Log	-11737
▁Pul	-11738
▁ske	-11739
atics	-11740
▁1907	-11741
▁1909	-11742
▁Reed	-11743
▁cook	-11744
▁soph	-11745
igrant	-11746
▁Franz	-11747
▁error	-11748
central	-11749
▁passion	-11750
▁revised	-11751
▁fortress	-11752
▁solutions	-11753
▁artificial	-11754
▁atmosphere	-11755
▁transformed	-11756
▁Revolutionary	-11757
fa	-11758
isp	-11759
▁99	-11760
esty	-11761
ichi	-11762
onna	-11763
▁McM	-11764
▁Cred	-11765
▁Shin	-11766
▁Suff	-11767
▁nest	-11768
▁Oscar	-11769
▁redes	-11770
▁fairly	-11771
▁firing	-11772
▁Volunte	-11773
▁athletic	-11774
▁recovery	-11775
▁Economics	-11776
▁observation	-11777
pp	-11778
lee	-11779
bing	-11780
that	-11781
South	-11782
atern	-11783
▁Lion	-11784
▁Raid	-11785
▁files	-11786
anthrop	-11787
species	-11788
▁Fourth	-11789
▁apprec	-11790
▁permit	-11791
▁philos	-11792
▁praise	-11793
▁Ancient	-11794
▁Revival	-11795
▁renewed	-11796
akespeare	-11797
▁focusing	-11798
▁Pakistani	-11799
▁prevented	-11800
▁ambassador	-11801
HF	-11802
VA	-11803
si	-11804
kan	-11805
ser	-11806
ansk	-11807
post	-11808
▁pap	-11809
itary	-11810
ovsky	-11811
omorph	-11812
▁Perth	-11813
▁quiet	-11814
▁rever	-11815
icester	-11816
▁grants	-11817
▁rhythm	-11818
▁venues	-11819
▁Besides	-11820
▁shifted	-11821
▁travels	-11822
▁Computer	-11823
▁eventual	-11824
▁pregnant	-11825
▁residing	-11826
▁variants	-11827
▁challenged	-11828
▁consistent	-11829
Gu	-11830
cca	-11831
rys	-11832
▁6–	-11833
▁76	-11834
brev	-11835
ourg	-11836
▁Ful	-11837
▁HMS	-11838
▁Ted	-11839
aders	-11840
▁Isab	-11841
▁Mang	-11842
▁Sean	-11843
▁Zimb	-11844
▁logo	-11845
▁pian	-11846
▁buses	-11847
▁happy	-11848
artered	-11849
▁Edmund	-11850
▁Flight	-11851
▁portra	-11852
stitutes	-11853
▁Bennett	-11854
▁extends	-11855
▁grandson	-11856
▁Presbyter	-11857
▁reflected	-11858
▁corruption	-11859
▁associations	-11860
▁metropolitan	-11861
99	-11862
If	-11863
oku	-11864
rod	-11865
–17	-11866
lane	-11867
quer	-11868
▁abst	-11869
▁raid	-11870
▁tomb	-11871
▁1962,	-11872
▁1970.	-11873
▁1978.	-11874
▁empty	-11875
▁faces	-11876
▁Celtic	-11877
▁Fighter	-11878
▁universe	-11879
▁rebellion	-11880
LB	-11881
iu	-11882
uba	-11883
atha	-11884
base	-11885
ouch	-11886
team	-11887
▁Hat	-11888
▁cyl	-11889
quiry	-11890
ystem	-11891
▁Lamb	-11892
▁Ster	-11893
▁aims	-11894
▁Laura	-11895
▁Price	-11896
▁fraud	-11897
selling	-11898
▁Triple	-11899
▁analog	-11900
▁breaks	-11901
▁flower	-11902
▁Friends	-11903
▁Strateg	-11904
▁comments	-11905
▁reserves	-11906
▁commitment	-11907
55	-11908
auer	-11909
▁Fig	-11910
▁fung	-11911
▁hind	-11912
▁peer	-11913
ambers	-11914
ointed	-11915
▁Geoff	-11916
▁trick	-11917
▁accred	-11918
▁golden	-11919
▁stored	-11920
▁vulner	-11921
▁Maurice	-11922
▁closest	-11923
▁Exchange	-11924
▁Wildlife	-11925
▁compound	-11926
▁unemploy	-11927
▁afternoon	-11928
▁consultant	-11929
Big	-11930
oots	-11931
rium	-11932
▁10-	-11933
▁Bak	-11934
▁Has	-11935
▁1903	-11936
▁pist	-11937
▁abund	-11938
▁bears	-11939
▁craft	-11940
▁merely	-11941
▁ranges	-11942
▁Cardiff	-11943
▁dancing	-11944
▁intense	-11945
▁lawsuit	-11946
▁Election	-11947
▁bankrupt	-11948
▁reservoir	-11949
▁volunteer	-11950
"|	-11951
dra	-11952
ete	-11953
tor	-11954
five	-11955
rets	-11956
eling	-11957
entry	-11958
▁1904	-11959
▁NASA	-11960
▁Tong	-11961
ferred	-11962
ulture	-11963
▁Coach	-11964
▁Krist	-11965
▁arbit	-11966
▁basin	-11967
founded	-11968
▁Valent	-11969
iability	-11970
▁Jamaica	-11971
▁mineral	-11972
▁reverse	-11973
▁telling	-11974
▁accurate	-11975
▁surprise	-11976
▁allegedly	-11977
▁Renaissance	-11978
aji	-11979
ión	-11980
uta	-11981
anti	-11982
isha	-11983
▁Arc	-11984
▁bag	-11985
▁gif	-11986
▁coat	-11987
ateral	-11988
cripts	-11989
ctuary	-11990
rapped	-11991
ournals	-11992
▁Motors	-11993
▁detail	-11994
▁plates	-11995
▁varied	-11996
▁Oakland	-11997
▁beliefs	-11998
▁forcing	-11999
▁sixteen	-12000
▁Academic	-12001
▁Friedrich	-12002
CS	-12003
DE	-12004
atin	-12005
omes	-12006
ovan	-12007
unny	-12008
▁Cec	-12009
▁Reyn	-12010
▁Swan	-12011
▁tube	-12012
alysis	-12013
▁Rhode	-12014
▁doubt	-12015
▁drain	-12016
▁enact	-12017
▁proof	-12018
ctorate	-12019
▁Clarke	-12020
▁Hitler	-12021
▁Tasman	-12022
▁tissue	-12023
▁Cavalry	-12024
▁Gardens	-12025
▁confron	-12026
▁samples	-12027
▁Commerce	-12028
▁communist	-12029
▁ministers	-12030
▁variation	-12031
▁impossible	-12032
▁permanently	-12033
▁progressive	-12034
▁discontinued	-12035
cor	-12036
atta	-12037
iago	-12038
urse	-12039
▁Eld	-12040
▁Lac	-12041
adier	-12042
▁Data	-12043
▁fame	-12044
caster	-12045
hentic	-12046
▁Films	-12047
▁Where	-12048
▁relie	-12049
holders	-12050
▁indoor	-12051
▁Transit	-12052
▁centres	-12053
▁conspir	-12054
▁monarch	-12055
▁prepare	-12056
▁waiting	-12057
▁Sullivan	-12058
▁findings	-12059
▁relating	-12060
▁prestigious	-12061
hev	-12062
▁ft	-12063
arts	-12064
boys	-12065
▁Doc	-12066
▁ash	-12067
eting	-12068
▁boss	-12069
▁dism	-12070
▁gift	-12071
▁styl	-12072
▁symp	-12073
rowing	-12074
habilit	-12075
▁arrive	-12076
▁fallen	-12077
▁orange	-12078
▁triple	-12079
speaking	-12080
▁artwork	-12081
▁missile	-12082
▁decrease	-12083
▁numbered	-12084
▁renowned	-12085
▁Leicester	-12086
▁activists	-12087
▁functional	-12088
▁allegations	-12089
00.	-12090
:30	-12091
hal	-12092
grim	-12093
▁"",	-12094
▁12-	-12095
▁cad	-12096
named	-12097
▁Deep	-12098
▁View	-12099
▁dict	-12100
▁punk	-12101
▁rede	-12102
▁Magic	-12103
▁tasks	-12104
▁airline	-12105
▁arrives	-12106
▁onwards	-12107
▁threats	-12108
▁familiar	-12109
▁literacy	-12110
▁receiver	-12111
▁Shakespeare	-12112
▁concentrated	-12113
icit	-12114
phab	-12115
ucks	-12116
▁Sak	-12117
amine	-12118
brook	-12119
rates	-12120
▁aest	-12121
▁flex	-12122
▁1939,	-12123
▁1973.	-12124
▁André	-12125
▁Raymond	-12126
▁divorce	-12127
▁freight	-12128
▁manages	-12129
footballer	-12130
▁doctorate	-12131
▁goalkeeper	-12132
▁provisions	-12133
rh	-12134
sur	-12135
bank	-12136
lend	-12137
oshi	-12138
▁Less	-12139
ittees	-12140
▁Parks	-12141
▁morph	-12142
▁stops	-12143
▁verse	-12144
▁Campus	-12145
▁Direct	-12146
▁handle	-12147
▁cutting	-12148
▁denomin	-12149
▁payment	-12150
▁transit	-12151
▁drinking	-12152
▁guidance	-12153
▁Nottingham	-12154
▁referendum	-12155
▁Contemporary	-12156
USA	-12157
whel	-12158
▁21.	-12159
▁Kem	-12160
adows	-12161
duces	-12162
ocent	-12163
umbai	-12164
▁Cust	-12165
▁Ober	-12166
▁Phot	-12167
▁masc	-12168
enesis	-12169
reated	-12170
▁Aaron	-12171
▁ferry	-12172
Station	-12173
▁Prison	-12174
▁boards	-12175
▁shaped	-12176
▁athlete	-12177
▁priests	-12178
▁sending	-12179
▁rebounds	-12180
▁cricketer	-12181
▁nationwide	-12182
▁generations	-12183
▁preliminary	-12184
_2	-12185
amy	-12186
held	-12187
imer	-12188
▁BCE	-12189
▁Tat	-12190
built	-12191
lived	-12192
▁1901	-12193
▁Chan	-12194
▁Isle	-12195
▁Prop	-12196
▁Swim	-12197
▁bare	-12198
▁beam	-12199
▁tier	-12200
vanced	-12201
▁Citiz	-12202
▁Guang	-12203
▁Isaac	-12204
▁aster	-12205
▁revol	-12206
▁Annual	-12207
▁Ronald	-12208
▁matrix	-12209
▁Twitter	-12210
▁experts	-12211
▁scandal	-12212
▁Cardinal	-12213
▁Columbus	-12214
▁fourteen	-12215
▁upcoming	-12216
▁maintains	-12217
▁molecular	-12218
▁journalists	-12219
▁announcement	-12220
▁professionals	-12221
CD	-12222
Jan	-12223
abe	-12224
bot	-12225
omi	-12226
▁62	-12227
▁88	-12228
avia	-12229
etry	-12230
itus	-12231
oker	-12232
ollo	-12233
▁64,	-12234
▁Dim	-12235
▁Fun	-12236
▁Ing	-12237
▁Rif	-12238
▁hyp	-12239
▁sav	-12240
apest	-12241
▁Doub	-12242
▁Todd	-12243
▁Vale	-12244
ipping	-12245
▁Eagle	-12246
▁metab	-12247
ultural	-12248
▁Artist	-12249
▁Grande	-12250
building	-12251
▁singers	-12252
▁Zimbabwe	-12253
▁actively	-12254
▁handling	-12255
▁judicial	-12256
▁prisoner	-12257
▁biography	-12258
▁independently	-12259
-15	-12260
cap	-12261
▁4-	-12262
enic	-12263
▁Any	-12264
▁lux	-12265
March	-12266
▁Cypr	-12267
▁answ	-12268
▁cave	-12269
▁cuts	-12270
▁dors	-12271
esters	-12272
▁1956,	-12273
▁Legal	-12274
▁Loren	-12275
▁Ports	-12276
▁chest	-12277
▁memor	-12278
▁oblig	-12279
tymology	-12280
▁Gabriel	-12281
▁chronic	-12282
▁mixture	-12283
inguished	-12284
▁lifetime	-12285
▁animation	-12286
▁civilians	-12287
▁suspected	-12288
▁Ambassador	-12289
▁Population	-12290
▁illustrated	-12291
▁intervention	-12292
ahan	-12293
uros	-12294
▁23.	-12295
backs	-12296
insky	-12297
izard	-12298
onial	-12299
stock	-12300
▁Pand	-12301
▁bars	-12302
handed	-12303
istent	-12304
▁Paulo	-12305
ression	-12306
▁Amazon	-12307
▁Rodrig	-12308
▁Sussex	-12309
▁empire	-12310
▁faster	-12311
▁handed	-12312
▁hidden	-12313
▁indeed	-12314
▁lights	-12315
▁enabled	-12316
▁martial	-12317
▁Georgian	-12318
▁Moreover	-12319
▁enlisted	-12320
▁exterior	-12321
▁preserve	-12322
▁entertain	-12323
▁Scientific	-12324
▁repeatedly	-12325
▁Palestinian	-12326
▁requirement	-12327
”,	-12328
axy	-12329
▁Ng	-12330
atri	-12331
harm	-12332
iffs	-12333
rike	-12334
▁166	-12335
▁1–0	-12336
▁ERA	-12337
▁Eis	-12338
▁Mam	-12339
▁Hass	-12340
▁Shir	-12341
▁Wald	-12342
▁grav	-12343
▁1961,	-12344
▁1971.	-12345
▁Drama	-12346
▁Scout	-12347
▁Tunis	-12348
▁genes	-12349
▁ruler	-12350
▁Proper	-12351
▁Uganda	-12352
▁dubbed	-12353
▁layout	-12354
▁photos	-12355
▁emerging	-12356
▁Milwaukee	-12357
▁discovers	-12358
▁inhabited	-12359
▁seriously	-12360
▁theatrical	-12361
▁congregation	-12362
lia	-12363
▁5-	-12364
bery	-12365
▁Bil	-12366
▁Get	-12367
▁hem	-12368
▁tut	-12369
chief	-12370
ulous	-12371
▁Brah	-12372
▁Craw	-12373
▁Pain	-12374
ussion	-12375
▁Mario	-12376
▁queen	-12377
minster	-12378
▁enzyme	-12379
▁poison	-12380
▁thesis	-12381
▁deliber	-12382
▁diocese	-12383
▁doctors	-12384
▁enemies	-12385
▁honours	-12386
▁shorter	-12387
▁interact	-12388
▁freestyle	-12389
▁radiation	-12390
▁assessment	-12391
▁integration	-12392
Af	-12393
Co	-12394
DI	-12395
Hz	-12396
aus	-12397
azi	-12398
arms	-12399
cano	-12400
–198	-12401
▁Bod	-12402
oints	-12403
makers	-12404
▁Princ	-12405
▁elite	-12406
▁photo	-12407
enhagen	-12408
▁Twenty	-12409
▁symmet	-12410
quarters	-12411
▁Knights	-12412
▁binding	-12413
▁shelter	-12414
▁demanded	-12415
▁rainfall	-12416
▁dependent	-12417
▁variations	-12418
▁investigate	-12419
xi	-12420
izz	-12421
nut	-12422
elia	-12423
join	-12424
▁44,	-12425
▁Chi	-12426
oning	-12427
▁Kate	-12428
▁Nine	-12429
▁belt	-12430
lights	-12431
▁deals	-12432
▁threw	-12433
▁Somers	-12434
▁listen	-12435
▁dealing	-12436
▁fastest	-12437
▁runners	-12438
▁altitude	-12439
▁promised	-12440
▁prospect	-12441
▁striking	-12442
government	-12443
▁audiences	-12444
▁songwriter	-12445
▁encountered	-12446
▁potentially	-12447
AP	-12448
Red	-12449
ija	-12450
ims	-12451
ocy	-12452
ław	-12453
awks	-12454
empl	-12455
iman	-12456
rier	-12457
▁Amy	-12458
▁Ari	-12459
▁Cox	-12460
▁Pep	-12461
▁Pos	-12462
▁Vil	-12463
gebra	-12464
ipher	-12465
▁Bear	-12466
▁Walt	-12467
▁1975.	-12468
▁Forum	-12469
▁Lakes	-12470
▁manip	-12471
▁twent	-12472
▁Leader	-12473
▁cotton	-12474
▁backing	-12475
▁ordained	-12476
▁conflicts	-12477
▁infection	-12478
▁counterpart	-12479
ér	-12480
Sch	-12481
imm	-12482
sts	-12483
whe	-12484
▁CF	-12485
dire	-12486
phis	-12487
▁Lem	-12488
▁lad	-12489
ashes	-12490
▁ampl	-12491
▁loop	-12492
▁lung	-12493
▁moll	-12494
▁1976.	-12495
▁Harvey	-12496
▁Safety	-12497
▁panels	-12498
missions	-12499
▁Liberty	-12500
▁warning	-12501
▁presents	-12502
▁printing	-12503
▁improving	-12504
▁prototype	-12505
▁Agriculture	-12506
GM	-12507
usa	-12508
ishi	-12509
yers	-12510
▁Raf	-12511
▁ber	-12512
anger	-12513
first	-12514
wings	-12515
▁Belf	-12516
▁Days	-12517
▁Page	-12518
▁Room	-12519
iatric	-12520
ieties	-12521
▁Devon	-12522
▁Serie	-12523
▁Still	-12524
▁magic	-12525
▁skill	-12526
▁Ferdin	-12527
▁Foster	-12528
▁Manila	-12529
▁Marvel	-12530
▁naming	-12531
▁Article	-12532
▁Heights	-12533
▁Reading	-12534
▁Solomon	-12535
▁reinfor	-12536
▁suddenly	-12537
▁Personnel	-12538
▁reactions	-12539
▁travelling	-12540
John	-12541
rift	-12542
thal	-12543
▁ing	-12544
▁Agre	-12545
▁Otto	-12546
▁1952,	-12547
▁1967.	-12548
▁Burns	-12549
▁teeth	-12550
▁reveal	-12551
▁Newport	-12552
▁readers	-12553
▁secular	-12554
▁streams	-12555
▁acoustic	-12556
▁specimens	-12557
▁stationed	-12558
▁nationally	-12559
▁destination	-12560
▁registration	-12561
/1	-12562
ST	-12563
IDS	-12564
fol	-12565
iev	-12566
nai	-12567
irts	-12568
sted	-12569
zhou	-12570
▁soc	-12571
enson	-12572
uxili	-12573
▁exha	-12574
▁wish	-12575
▁arena	-12576
▁topic	-12577
angered	-12578
ignated	-12579
ometown	-12580
▁Monday	-12581
▁Prague	-12582
▁Morning	-12583
▁duration	-12584
▁ordinary	-12585
vironments	-12586
▁Engineers	-12587
▁democracy	-12588
▁similarly	-12589
▁telephone	-12590
▁conjunction	-12591
yd	-12592
-16	-12593
Sec	-12594
quot	-12595
▁24.	-12596
▁FBI	-12597
▁Fat	-12598
inite	-12599
ucker	-12600
▁bone	-12601
▁exit	-12602
irates	-12603
▁1964.	-12604
▁Kumar	-12605
▁Justin	-12606
▁Source	-12607
▁stones	-12608
▁honored	-12609
▁advertis	-12610
▁drawings	-12611
▁journals	-12612
▁reviewed	-12613
▁Outstanding	-12614
RP	-12615
Sw	-12616
Bar	-12617
awk	-12618
–14	-12619
eric	-12620
spec	-12621
▁125	-12622
▁Jen	-12623
▁Mik	-12624
▁Rut	-12625
music	-12626
senal	-12627
▁bord	-12628
onnell	-12629
▁1968.	-12630
▁canon	-12631
▁essay	-12632
▁exile	-12633
▁Flying	-12634
▁adjust	-12635
▁desert	-12636
▁weaken	-12637
▁faction	-12638
▁Vladimir	-12639
▁Hurricane	-12640
▁conductor	-12641
▁practiced	-12642
▁comprising	-12643
▁efficiency	-12644
▁manufacturers	-12645
aca	-12646
▁Kw	-12647
acco	-12648
apur	-12649
quet	-12650
▁167	-12651
▁22.	-12652
▁tel	-12653
▁tip	-12654
about	-12655
▁Link	-12656
▁Owen	-12657
▁Pent	-12658
▁Qing	-12659
▁flav	-12660
▁rook	-12661
monton	-12662
▁Apost	-12663
▁Urugu	-12664
▁fluid	-12665
▁ruins	-12666
legraph	-12667
▁silent	-12668
▁stolen	-12669
▁varies	-12670
National	-12671
atchewan	-12672
munition	-12673
▁clients	-12674
▁theorem	-12675
▁dialogue	-12676
▁lectures	-12677
▁upgraded	-12678
▁Worcester	-12679
▁commentary	-12680
cu	-12681
ár	-12682
▁BM	-12683
dess	-12684
dist	-12685
furt	-12686
▁159	-12687
▁cow	-12688
raser	-12689
▁Bros	-12690
▁nerv	-12691
ashire	-12692
▁1981.	-12693
▁noise	-12694
▁shots	-12695
▁Estate	-12696
▁Scotia	-12697
▁orient	-12698
▁cartoon	-12699
▁package	-12700
umberland	-12701
▁advocate	-12702
▁invented	-12703
▁consensus	-12704
▁impressed	-12705
▁universal	-12706
▁democratic	-12707
▁phenomenon	-12708
EL	-12709
NP	-12710
▁AI	-12711
isch	-12712
onso	-12713
▁1.5	-12714
▁Boe	-12715
▁CDP	-12716
▁Hus	-12717
▁Laz	-12718
▁Raw	-12719
▁VII	-12720
illes	-12721
ocity	-12722
ridor	-12723
▁Foot	-12724
▁Stre	-12725
▁Winn	-12726
▁trio	-12727
Christ	-12728
nesday	-12729
▁1946,	-12730
▁Cyprus	-12731
▁Durham	-12732
▁Holmes	-12733
▁Mechan	-12734
▁colours	-12735
▁convert	-12736
▁privile	-12737
▁prosper	-12738
osophical	-12739
▁Examples	-12740
▁graphics	-12741
▁messages	-12742
▁celebrate	-12743
▁encourage	-12744
▁governing	-12745
▁proceeded	-12746
▁conducting	-12747
▁curriculum	-12748
▁volleyball	-12749
erse	-12750
ooks	-12751
pher	-12752
▁Ecu	-12753
▁HIV	-12754
▁jew	-12755
ourag	-12756
umped	-12757
▁span	-12758
▁tape	-12759
ulsion	-12760
▁Aires	-12761
▁Voice	-12762
▁manga	-12763
▁trend	-12764
intendo	-12765
▁manual	-12766
▁patent	-12767
izations	-12768
▁slavery	-12769
▁expanding	-12770
dimensional	-12771
▁suggesting	-12772
▁congressional	-12773
▁headquartered	-12774
RL	-12775
CAR	-12776
▁140	-12777
ragon	-12778
rific	-12779
▁Left	-12780
unning	-12781
▁Krish	-12782
▁Teams	-12783
▁alien	-12784
▁sheep	-12785
▁waves	-12786
▁Mumbai	-12787
▁consec	-12788
▁seized	-12789
▁suspic	-12790
▁Quarter	-12791
▁quantum	-12792
▁syndrome	-12793
▁particles	-12794
▁intermediate	-12795
▁southeastern	-12796
"&	-12797
heng	-12798
rica	-12799
▁ESP	-12800
▁Kra	-12801
▁Rib	-12802
▁orb	-12803
▁Fish	-12804
▁Path	-12805
▁Pont	-12806
▁Roth	-12807
▁amph	-12808
▁dogs	-12809
astics	-12810
second	-12811
ussels	-12812
▁Zhang	-12813
▁ridge	-12814
▁Weekly	-12815
▁pilots	-12816
▁troubl	-12817
▁Evangel	-12818
▁Facebook	-12819
▁database	-12820
▁withdrawn	-12821
▁specialist	-12822
▁inscription	-12823
▁presentation	-12824
ivo	-12825
shi	-12826
mill	-12827
▁Kor	-12828
avier	-12829
chron	-12830
shore	-12831
▁1850	-12832
▁unve	-12833
herent	-12834
▁Thorn	-12835
▁anime	-12836
▁Circle	-12837
▁Legion	-12838
▁Miguel	-12839
▁Tennis	-12840
▁client	-12841
▁Albania	-12842
▁Morocco	-12843
▁Johannes	-12844
▁circular	-12845
▁hometown	-12846
▁moderate	-12847
▁overwhel	-12848
▁computers	-12849
▁relatives	-12850
▁releasing	-12851
▁corporation	-12852
▁Indianapolis	-12853
.&	-12854
Ge	-12855
She	-12856
cal	-12857
▁61	-12858
▁Dj	-12859
arin	-12860
beat	-12861
cock	-12862
ancer	-12863
eness	-12864
south	-12865
teneg	-12866
▁Dale	-12867
▁Flag	-12868
▁Sold	-12869
▁Tall	-12870
▁drag	-12871
▁epit	-12872
▁1962.	-12873
▁Apart	-12874
▁Stein	-12875
▁cinem	-12876
▁autobi	-12877
▁carved	-12878
▁export	-12879
▁biology	-12880
▁cleared	-12881
▁exchang	-12882
▁imposed	-12883
▁putting	-12884
▁algorithm	-12885
▁homosexual	-12886
▁journalism	-12887
▁performers	-12888
▁personally	-12889
▁renovation	-12890
▁southwestern	-12891
400	-12892
▁RA	-12893
icas	-12894
anyon	-12895
stage	-12896
▁Name	-12897
▁maid	-12898
▁push	-12899
▁Eight	-12900
▁Malta	-12901
▁upset	-12902
iblical	-12903
legiate	-12904
▁Canter	-12905
▁Gothic	-12906
▁noting	-12907
official	-12908
▁advisor	-12909
▁compact	-12910
▁pursued	-12911
▁tackles	-12912
▁Albanian	-12913
▁Napoleon	-12914
▁lecturer	-12915
▁opposing	-12916
▁workshops	-12917
▁authorized	-12918
▁PlayStation	-12919
▁citizenship	-12920
▁Saskatchewan	-12921
▁revolutionary	-12922
GO	-12923
TP	-12924
cot	-12925
eri	-12926
ardi	-12927
bian	-12928
onal	-12929
oque	-12930
▁Fly	-12931
▁Sof	-12932
▁lie	-12933
osing	-12934
▁clay	-12935
▁memb	-12936
August	-12937
League	-12938
rators	-12939
▁Notes	-12940
▁gauge	-12941
▁Buenos	-12942
▁Rovers	-12943
▁abbrev	-12944
▁posthum	-12945
▁premier	-12946
▁varying	-12947
▁welfare	-12948
▁deposits	-12949
▁targeted	-12950
▁survivors	-12951
▁circulation	-12952
▁considering	-12953
▁Presbyterian	-12954
▁administrator	-12955
▁configuration	-12956
Me	-12957
ān	-12958
gae	-12959
oko	-12960
▁67	-12961
▁Pi	-12962
...]	-12963
King	-12964
athi	-12965
enne	-12966
owed	-12967
than	-12968
▁Lak	-12969
▁Meh	-12970
▁Nas	-12971
ensen	-12972
▁Peak	-12973
▁Vern	-12974
▁cosm	-12975
▁obsc	-12976
▁Crist	-12977
▁Danny	-12978
▁Right	-12979
regular	-12980
▁Archae	-12981
▁Canton	-12982
▁danger	-12983
▁entity	-12984
▁farmer	-12985
▁rebels	-12986
▁Ecuador	-12987
▁recruit	-12988
▁Giovanni	-12989
▁chapters	-12990
▁governed	-12991
▁severely	-12992
▁Individual	-12993
▁Lancashire	-12994
▁northwestern	-12995
EN	-12996
300	-12997
lic	-12998
▁BA	-12999
July	-13000
list	-13001
▁McD	-13002
▁tru	-13003
etics	-13004
oslov	-13005
woman	-13006
▁Anat	-13007
▁Ming	-13008
▁Mull	-13009
▁buff	-13010
▁1918,	-13011
▁Amend	-13012
▁Recon	-13013
▁Shore	-13014
▁toler	-13015
ounters	-13016
▁Govern	-13017
▁Marcus	-13018
▁clergy	-13019
▁fossil	-13020
▁rivals	-13021
▁comprom	-13022
▁minimal	-13023
▁Bradford	-13024
▁complain	-13025
▁engineers	-13026
▁societies	-13027
▁Laboratory	-13028
▁arrangements	-13029
▁Parliamentary	-13030
HC	-13031
MO	-13032
bie	-13033
▁GP	-13034
ylum	-13035
▁162	-13036
olith	-13037
▁Lisa	-13038
▁bicy	-13039
▁hier	-13040
▁pink	-13041
▁(2010	-13042
▁Marri	-13043
founder	-13044
ivities	-13045
▁Events	-13046
▁Observ	-13047
▁easier	-13048
▁enable	-13049
sterious	-13050
▁Contest	-13051
▁estates	-13052
▁averaged	-13053
▁councill	-13054
▁Copenhagen	-13055
▁manufacture	-13056
▁statistical	-13057
▁acknowledged	-13058
▁identification	-13059
5).	-13060
aru	-13061
▁71	-13062
half	-13063
imen	-13064
inda	-13065
opol	-13066
▁2–0	-13067
▁Ess	-13068
▁McL	-13069
▁Own	-13070
▁fru	-13071
▁hub	-13072
▁pub	-13073
▁Kill	-13074
▁Kurd	-13075
common	-13076
uclear	-13077
▁1920,	-13078
▁Bryan	-13079
▁Using	-13080
▁femin	-13081
▁Luxemb	-13082
▁staged	-13083
▁vector	-13084
▁clothes	-13085
▁horizon	-13086
▁generate	-13087
▁decreased	-13088
umm	-13089
▁Gö	-13090
chel	-13091
essa	-13092
lies	-13093
role	-13094
▁Dob	-13095
▁Meg	-13096
▁Nak	-13097
▁cir	-13098
▁obl	-13099
plant	-13100
▁1898	-13101
▁Bran	-13102
▁Cort	-13103
▁Dame	-13104
▁Ruth	-13105
▁dece	-13106
▁dock	-13107
▁wore	-13108
lacier	-13109
▁Bears	-13110
▁Idaho	-13111
▁shrub	-13112
▁brings	-13113
oucester	-13114
▁surrend	-13115
▁Benedict	-13116
▁Edmonton	-13117
▁Stafford	-13118
▁customer	-13119
▁expelled	-13120
▁reserved	-13121
▁resource	-13122
▁Ferdinand	-13123
▁specified	-13124
▁Republicans	-13125
▁transported	-13126
▁northeastern	-13127
▁automatically	-13128
lez	-13129
▁1:	-13130
▁UA	-13131
East	-13132
alin	-13133
ango	-13134
borg	-13135
▁Aub	-13136
▁Gam	-13137
▁Jal	-13138
▁Pom	-13139
lando	-13140
paren	-13141
▁"...	-13142
▁bulk	-13143
▁forb	-13144
ellers	-13145
▁1958,	-13146
▁1972.	-13147
▁dying	-13148
▁Stakes	-13149
▁calcul	-13150
produced	-13151
▁publish	-13152
▁Nacional	-13153
▁Original	-13154
▁furniture	-13155
▁gathering	-13156
auc	-13157
–13	-13158
▁NC	-13159
died	-13160
uchy	-13161
▁27.	-13162
▁Tab	-13163
World	-13164
agger	-13165
anian	-13166
pring	-13167
▁bout	-13168
▁pace	-13169
▁wait	-13170
mented	-13171
▁1948,	-13172
▁Basil	-13173
▁firms	-13174
▁kings	-13175
▁ballot	-13176
▁floors	-13177
▁proven	-13178
▁topped	-13179
ordinary	-13180
oriented	-13181
▁Diamond	-13182
▁Located	-13183
▁enhance	-13184
imensions	-13185
▁magnetic	-13186
▁Armstrong	-13187
▁Resources	-13188
▁collapsed	-13189
▁investors	-13190
▁preparing	-13191
▁recognize	-13192
▁assignment	-13193
▁constantly	-13194
▁kilometres	-13195
Nov	-13196
dan	-13197
▁DS	-13198
ipur	-13199
odia	-13200
quin	-13201
unal	-13202
ymph	-13203
aning	-13204
iscal	-13205
itely	-13206
▁Chin	-13207
▁Cord	-13208
▁Gren	-13209
▁Inspe	-13210
▁deriv	-13211
▁Brooks	-13212
▁sacrif	-13213
etheless	-13214
▁Capitol	-13215
▁Popular	-13216
▁kitchen	-13217
▁Salvador	-13218
▁divorced	-13219
▁rotation	-13220
▁Agreement	-13221
▁Princeton	-13222
▁literally	-13223
▁privately	-13224
▁virtually	-13225
▁regardless	-13226
▁environments	-13227
,”	-13228
Per	-13229
adh	-13230
vas	-13231
▁coc	-13232
itory	-13233
▁1902	-13234
▁Spec	-13235
▁lift	-13236
rovers	-13237
▁Basin	-13238
▁Glass	-13239
▁Lodge	-13240
▁feels	-13241
▁hopes	-13242
▁lying	-13243
▁wreck	-13244
Ireland	-13245
▁Fraser	-13246
▁Herald	-13247
▁Julian	-13248
▁Jacques	-13249
▁Product	-13250
▁Warwick	-13251
▁creator	-13252
▁trouble	-13253
intendent	-13254
▁Advanced	-13255
▁Episcopal	-13256
▁Recording	-13257
▁Similarly	-13258
▁assembled	-13259
▁explosion	-13260
▁interface	-13261
▁operators	-13262
▁surrender	-13263
▁Publishing	-13264
▁interpreted	-13265
▁preservation	-13266
hall	-13267
mail	-13268
▁Aur	-13269
▁Hes	-13270
▁Lig	-13271
▁haz	-13272
▁sky	-13273
atoes	-13274
effic	-13275
ormal	-13276
plete	-13277
polit	-13278
▁1899	-13279
▁Gael	-13280
▁prey	-13281
▁soap	-13282
▁ware	-13283
phabet	-13284
▁1954,	-13285
▁1969.	-13286
▁liver	-13287
▁stick	-13288
▁Cinema	-13289
▁autumn	-13290
▁barrel	-13291
▁Baronet	-13292
▁Memphis	-13293
▁disagre	-13294
▁promise	-13295
▁Monteneg	-13296
▁Principal	-13297
▁Constantin	-13298
▁Czechoslov	-13299
▁inaugurated	-13300
▁consequences	-13301
bey	-13302
deen	-13303
erts	-13304
gary	-13305
ouns	-13306
▁26.	-13307
▁Dia	-13308
▁Fam	-13309
▁Lok	-13310
▁Tir	-13311
▁cla	-13312
There	-13313
arten	-13314
canic	-13315
chard	-13316
icism	-13317
techn	-13318
▁Made	-13319
▁Prof	-13320
▁Talk	-13321
▁Thor	-13322
▁oral	-13323
erness	-13324
▁Nancy	-13325
▁Woods	-13326
▁rally	-13327
▁Compan	-13328
▁memoir	-13329
▁Artists	-13330
▁Scholar	-13331
▁Without	-13332
▁confirm	-13333
▁creates	-13334
▁distant	-13335
▁electro	-13336
▁compounds	-13337
▁migration	-13338
▁Progressive	-13339
▁imprisonment	-13340
Mal	-13341
eme	-13342
uke	-13343
▁74	-13344
▁MC	-13345
Brit	-13346
ikes	-13347
▁Cut	-13348
illon	-13349
inned	-13350
isons	-13351
quest	-13352
arrior	-13353
omatic	-13354
▁1949,	-13355
▁1950,	-13356
▁1957,	-13357
▁Plate	-13358
▁Plaza	-13359
▁chore	-13360
▁immun	-13361
▁patri	-13362
▁Canyon	-13363
▁Louise	-13364
▁Powell	-13365
▁Complex	-13366
▁apprent	-13367
▁bearing	-13368
▁handled	-13369
▁militia	-13370
▁wickets	-13371
▁Belgrade	-13372
▁Nintendo	-13373
▁Santiago	-13374
▁hydrogen	-13375
▁theology	-13376
ologically	-13377
▁condemned	-13378
▁emigrated	-13379
▁Lithuanian	-13380
▁Presidential	-13381
zig	-13382
▁CR	-13383
inas	-13384
▁(0.	-13385
▁Lip	-13386
gends	-13387
▁Piet	-13388
▁Rice	-13389
▁1965.	-13390
▁Cuban	-13391
▁Tampa	-13392
▁optim	-13393
▁Dragon	-13394
▁cancel	-13395
▁deeply	-13396
▁pounds	-13397
▁runway	-13398
▁towers	-13399
▁Dynasty	-13400
▁Simpson	-13401
▁evident	-13402
▁temples	-13403
▁flooding	-13404
▁Wednesday	-13405
▁authentic	-13406
▁Canterbury	-13407
("	-13408
OT	-13409
vy	-13410
ukh	-13411
yon	-13412
▁fo	-13413
Hung	-13414
aire	-13415
isle	-13416
▁30.	-13417
▁50%	-13418
▁AFL	-13419
▁Cyr	-13420
▁Lay	-13421
▁Sou	-13422
▁Vid	-13423
chair	-13424
erals	-13425
▁Java	-13426
▁hect	-13427
▁Ellis	-13428
▁blues	-13429
▁lease	-13430
▁Kazakh	-13431
▁airing	-13432
▁destro	-13433
▁testim	-13434
▁Critics	-13435
▁acquire	-13436
▁anticip	-13437
▁arguing	-13438
▁revenge	-13439
▁revived	-13440
▁rushing	-13441
September	-13442
▁Airlines	-13443
▁Cardinals	-13444
▁Lithuania	-13445
▁Relations	-13446
▁favourite	-13447
▁Gloucester	-13448
▁exploration	-13449
88	-13450
osc	-13451
oye	-13452
▁ov	-13453
alli	-13454
▁0.0	-13455
▁Ach	-13456
▁Kad	-13457
erver	-13458
oding	-13459
stadt	-13460
▁Cauc	-13461
▁Mine	-13462
▁Sene	-13463
▁merc	-13464
erving	-13465
randed	-13466
▁1944.	-13467
▁hoped	-13468
▁reass	-13469
▁Eugene	-13470
▁absent	-13471
▁mature	-13472
▁prince	-13473
▁Chapter	-13474
▁explore	-13475
▁involve	-13476
▁restore	-13477
▁sequences	-13478
▁attraction	-13479
▁remembered	-13480
▁territorial	-13481
▁achievements	-13482
▁compensation	-13483
▁reconstruction	-13484
OL	-13485
▁19.	-13486
▁Lor	-13487
▁Sap	-13488
▁tom	-13489
icken	-13490
▁(188	-13491
▁Diet	-13492
▁Edge	-13493
▁garn	-13494
Family	-13495
▁1914,	-13496
▁1917,	-13497
▁Sabha	-13498
estrian	-13499
▁Burton	-13500
▁Duncan	-13501
▁aerial	-13502
▁inches	-13503
▁salary	-13504
December	-13505
▁Amateur	-13506
▁Chelsea	-13507
▁burning	-13508
▁marking	-13509
▁survival	-13510
▁ammunition	-13511
▁conferences	-13512
▁Distinguished	-13513
PP	-13514
edo	-13515
bern	-13516
ndez	-13517
uted	-13518
comes	-13519
ilion	-13520
▁Trin	-13521
▁cock	-13522
▁owns	-13523
Europe	-13524
▁Colin	-13525
▁clerk	-13526
▁lobby	-13527
▁sweet	-13528
iblings	-13529
▁Comedy	-13530
▁Number	-13531
▁muscle	-13532
▁reluct	-13533
▁altered	-13534
▁moments	-13535
▁boarding	-13536
▁disabled	-13537
▁doctrine	-13538
▁founders	-13539
▁Insurance	-13540
▁confidence	-13541
▁investigated	-13542
▁neighbourhood	-13543
EF	-13544
Car	-13545
Ste	-13546
ahu	-13547
airy	-13548
iens	-13549
rano	-13550
▁Por	-13551
store	-13552
▁Guide	-13553
▁Sched	-13554
▁kills	-13555
▁vinyl	-13556
▁Guards	-13557
▁bypass	-13558
aturally	-13559
▁acclaim	-13560
▁torpedo	-13561
▁Colonial	-13562
▁ensemble	-13563
▁mentions	-13564
▁flowering	-13565
▁collecting	-13566
▁missionary	-13567
Ab	-13568
IR	-13569
Pe	-13570
To	-13571
rs	-13572
]],	-13573
▁63	-13574
▁79	-13575
oves	-13576
▁Saw	-13577
▁Teh	-13578
▁Was	-13579
green	-13580
igion	-13581
oline	-13582
▁Crow	-13583
▁Schw	-13584
▁Soci	-13585
▁fron	-13586
luence	-13587
ressed	-13588
▁1955,	-13589
▁Bulld	-13590
▁Fifth	-13591
▁Hindi	-13592
▁treas	-13593
▁vital	-13594
▁Course	-13595
▁Lauren	-13596
▁anchor	-13597
▁mutual	-13598
▁blocked	-13599
▁desired	-13600
▁heading	-13601
▁airfield	-13602
▁inclusion	-13603
▁commanding	-13604
▁presidency	-13605
▁mathematical	-13606
UN	-13607
gra	-13608
icz	-13609
▁XI	-13610
▁ow	-13611
Time	-13612
esar	-13613
▁Gol	-13614
ettes	-13615
▁Ferg	-13616
▁cens	-13617
usters	-13618
▁Veter	-13619
▁manor	-13620
inished	-13621
▁Leslie	-13622
▁facade	-13623
▁learns	-13624
▁subdiv	-13625
▁Kenneth	-13626
▁Official	-13627
▁integral	-13628
▁lighting	-13629
▁surfaces	-13630
fortunately	-13631
▁punishment	-13632
OW	-13633
fr	-13634
apa	-13635
iza	-13636
▁af	-13637
ilda	-13638
▁173	-13639
omber	-13640
three	-13641
▁Dong	-13642
▁Harm	-13643
▁wake	-13644
▁1966.	-13645
▁Beaut	-13646
▁Bloom	-13647
▁Integ	-13648
▁[...]	-13649
▁verte	-13650
▁layers	-13651
▁unions	-13652
▁voyage	-13653
▁Calgary	-13654
▁Edition	-13655
▁Planning	-13656
▁criticised	-13657
▁unexpected	-13658
▁disappeared	-13659
▁conversation	-13660
▁interactions	-13661
Sat	-13662
had	-13663
upe	-13664
▁81	-13665
▁Ek	-13666
▁"".	-13667
▁174	-13668
▁Hod	-13669
▁Liv	-13670
▁Sul	-13671
▁htt	-13672
▁lig	-13673
▁lun	-13674
lette	-13675
ogram	-13676
olics	-13677
▁Jung	-13678
▁Tanz	-13679
acular	-13680
houses	-13681
▁Achie	-13682
▁argue	-13683
▁breed	-13684
▁farms	-13685
▁fault	-13686
▁ghost	-13687
▁Others	-13688
▁Arsenal	-13689
▁batting	-13690
▁referee	-13691
▁Brussels	-13692
▁vicinity	-13693
background	-13694
▁adventure	-13695
▁supporter	-13696
▁delegation	-13697
▁Westminster	-13698
▁psychological	-13699
▁transformation	-13700
IF	-13701
Oct	-13702
him	-13703
agle	-13704
atem	-13705
best	-13706
▁AFC	-13707
▁Kid	-13708
▁jet	-13709
▁lib	-13710
North	-13711
arded	-13712
▁Emil	-13713
▁Kurt	-13714
▁Male	-13715
▁Tree	-13716
▁pill	-13717
manuel	-13718
thouse	-13719
▁1919,	-13720
▁1961.	-13721
▁Emily	-13722
▁Watch	-13723
▁fatal	-13724
▁skull	-13725
▁Mobile	-13726
▁precip	-13727
▁Armenia	-13728
▁graphic	-13729
▁interim	-13730
▁Advisory	-13731
▁Kingston	-13732
▁measuring	-13733
▁storyline	-13734
▁developers	-13735
▁monitoring	-13736
▁relegation	-13737
▁Legislature	-13738
▁observations	-13739
gio	-13740
uin	-13741
Cent	-13742
June	-13743
uras	-13744
▁NSW	-13745
▁Decl	-13746
▁Karn	-13747
▁Reid	-13748
▁bapt	-13749
listed	-13750
rising	-13751
▁reads	-13752
▁backed	-13753
electric	-13754
uxiliary	-13755
▁Crystal	-13756
▁Regular	-13757
▁suburbs	-13758
▁warfare	-13759
aceutical	-13760
▁Fernando	-13761
▁Somerset	-13762
▁encourag	-13763
▁massacre	-13764
▁wildlife	-13765
▁workshop	-13766
▁impressive	-13767
▁competitors	-13768
▁consequence	-13769
600	-13770
Que	-13771
lif	-13772
sal	-13773
dorf	-13774
edge	-13775
ento	-13776
uchi	-13777
▁RBI	-13778
▁Raz	-13779
andro	-13780
ocene	-13781
▁blog	-13782
▁bore	-13783
▁nose	-13784
▁pump	-13785
▁1937,	-13786
▁1959,	-13787
▁Claud	-13788
▁Manit	-13789
▁creek	-13790
▁knows	-13791
▁postp	-13792
amation	-13793
atories	-13794
itative	-13795
▁Davies	-13796
▁rapper	-13797
▁solely	-13798
▁entries	-13799
▁lasting	-13800
▁Interior	-13801
▁confused	-13802
▁conquest	-13803
▁properly	-13804
▁shoulder	-13805
▁Aboriginal	-13806
▁helicopter	-13807
▁occasional	-13808
61	-13809
Par	-13810
elo	-13811
vor	-13812
–11	-13813
▁CB	-13814
▁OS	-13815
▁XV	-13816
ambo	-13817
bone	-13818
icia	-13819
kees	-13820
▁108	-13821
▁2.5	-13822
▁Ana	-13823
▁Duc	-13824
▁tea	-13825
antle	-13826
appro	-13827
▁Pete	-13828
▁larv	-13829
▁1939.	-13830
▁Lords	-13831
▁Natal	-13832
▁chlor	-13833
▁define	-13834
▁lineup	-13835
▁sailing	-13836
▁absolute	-13837
▁rational	-13838
▁hurricane	-13839
▁incidents	-13840
▁Liberation	-13841
▁questioned	-13842
esa	-13843
▁Bea	-13844
▁cub	-13845
▁unw	-13846
artet	-13847
▁1893	-13848
▁Hull	-13849
▁Lucy	-13850
▁Palm	-13851
▁Pink	-13852
▁fees	-13853
alions	-13854
untary	-13855
▁3,000	-13856
▁Glenn	-13857
▁altar	-13858
▁artif	-13859
▁traff	-13860
▁Gibson	-13861
▁Travel	-13862
▁intens	-13863
▁replic	-13864
▁hitting	-13865
▁shallow	-13866
▁McDonald	-13867
▁Reynolds	-13868
▁Warriors	-13869
▁habitats	-13870
▁Robertson	-13871
▁comprised	-13872
▁occurring	-13873
▁substance	-13874
▁certificate	-13875
▁probability	-13876
▁capabilities	-13877
72	-13878
GS	-13879
ño	-13880
How	-13881
bin	-13882
asis	-13883
both	-13884
horn	-13885
ondo	-13886
onne	-13887
unda	-13888
▁Dow	-13889
▁que	-13890
ethyl	-13891
thood	-13892
▁beer	-13893
aining	-13894
▁1956.	-13895
▁Heath	-13896
▁frust	-13897
▁uncon	-13898
▁reconc	-13899
▁advised	-13900
▁crucial	-13901
▁aftermath	-13902
▁stability	-13903
▁Portsmouth	-13904
▁withdrawal	-13905
▁entrepreneur	-13906
▁73	-13907
▁AF	-13908
▁Aw	-13909
▁WA	-13910
amba	-13911
arta	-13912
artz	-13913
asse	-13914
▁Ard	-13915
▁Dud	-13916
▁Eve	-13917
anche	-13918
enzie	-13919
zegov	-13920
▁Balk	-13921
▁Brid	-13922
▁Oslo	-13923
▁Rush	-13924
▁knee	-13925
▁scar	-13926
alties	-13927
earing	-13928
▁1958.	-13929
▁Chase	-13930
▁Param	-13931
▁botan	-13932
colspan	-13933
▁Heaven	-13934
▁defect	-13935
▁Against	-13936
▁dynamic	-13937
▁terrain	-13938
▁confront	-13939
▁tourists	-13940
▁introduce	-13941
▁Subsequently	-13942
""	-13943
▁Dw	-13944
▁Mé	-13945
▁Oz	-13946
▁Ya	-13947
oyle	-13948
▁Cly	-13949
▁oct	-13950
arium	-13951
▁1897	-13952
▁Clif	-13953
▁Core	-13954
▁Crus	-13955
▁Emmy	-13956
▁Kann	-13957
▁epid	-13958
▁mall	-13959
center	-13960
holder	-13961
▁1940.	-13962
▁1947,	-13963
▁1960.	-13964
▁Deuts	-13965
▁Study	-13966
▁codes	-13967
▁sword	-13968
▁toxic	-13969
powered	-13970
▁Desert	-13971
▁Gustav	-13972
▁Rachel	-13973
▁Actress	-13974
▁Orlando	-13975
▁mansion	-13976
▁Cornwall	-13977
▁eighteen	-13978
▁Electoral	-13979
▁consumers	-13980
▁sensitive	-13981
▁aggressive	-13982
DR	-13983
OP	-13984
WC	-13985
awi	-13986
jud	-13987
rut	-13988
Ital	-13989
Port	-13990
atsu	-13991
▁Bagh	-13992
▁Cert	-13993
▁hung	-13994
▁lord	-13995
▁sulf	-13996
aneous	-13997
histor	-13998
roscop	-13999
▁1953,	-14000
▁Bever	-14001
▁Blake	-14002
▁fires	-14003
ductive	-14004
▁Surrey	-14005
▁comics	-14006
▁harass	-14007
▁larvae	-14008
▁mosque	-14009
▁prayer	-14010
▁quoted	-14011
▁thread	-14012
idelines	-14013
▁Middles	-14014
▁beneath	-14015
▁rivalry	-14016
▁bacteria	-14017
▁manifest	-14018
▁confusion	-14019
▁nicknamed	-14020
▁synthesis	-14021
▁mysterious	-14022
▁discussions	-14023
▁interviewed	-14024
ku	-14025
cin	-14026
hin	-14027
hou	-14028
▁pm	-14029
iffe	-14030
ingo	-14031
shan	-14032
shaw	-14033
word	-14034
▁Ply	-14035
empor	-14036
onnie	-14037
▁Kang	-14038
itated	-14039
itting	-14040
school	-14041
▁bills	-14042
▁edges	-14043
▁moist	-14044
▁stair	-14045
January	-14046
ometime	-14047
▁notion	-14048
▁100,000	-14049
▁repairs	-14050
▁Americas	-14051
▁Tropical	-14052
▁ancestry	-14053
▁stronger	-14054
▁Macedonia	-14055
▁pollution	-14056
▁struggled	-14057
▁mechanisms	-14058
▁sculptures	-14059
▁undertaken	-14060
▁continental	-14061
▁necessarily	-14062
▁considerably	-14063
OM	-14064
UK	-14065
eu	-14066
800	-14067
eno	-14068
gue	-14069
non	-14070
▁2:	-14071
tage	-14072
▁Lex	-14073
▁Mis	-14074
imity	-14075
itzer	-14076
layer	-14077
▁1896	-14078
▁mail	-14079
abling	-14080
ennium	-14081
prises	-14082
▁Actor	-14083
▁Jesse	-14084
▁Train	-14085
▁adequ	-14086
▁badly	-14087
▁rebel	-14088
▁steal	-14089
▁Gerald	-14090
▁agrees	-14091
▁decree	-14092
▁hamlet	-14093
▁marble	-14094
▁stroke	-14095
▁Speaker	-14096
▁lessons	-14097
▁stepped	-14098
▁Aberdeen	-14099
▁Lutheran	-14100
▁Software	-14101
▁payments	-14102
▁siblings	-14103
▁Directors	-14104
▁copyright	-14105
▁facilitate	-14106
▁distinguish	-14107
▁Headquarters	-14108
▁accomplished	-14109
▁consideration	-14110
Ed	-14111
San	-14112
agi	-14113
dem	-14114
oya	-14115
▁6-	-14116
▁98	-14117
uson	-14118
▁700	-14119
ingen	-14120
itted	-14121
ochem	-14122
▁Dund	-14123
▁Nadu	-14124
▁rape	-14125
achers	-14126
cyclop	-14127
icular	-14128
▁Chess	-14129
▁Nikol	-14130
▁Reich	-14131
▁Table	-14132
▁anten	-14133
▁antib	-14134
▁dozen	-14135
▁paras	-14136
▁zones	-14137
Austral	-14138
▁Indoor	-14139
▁Wagner	-14140
▁rocket	-14141
▁Belfast	-14142
▁auction	-14143
▁consent	-14144
▁depends	-14145
▁pianist	-14146
▁suburban	-14147
▁Amendment	-14148
▁Henderson	-14149
▁advocated	-14150
▁developer	-14151
▁merchants	-14152
▁populated	-14153
▁preceding	-14154
▁varieties	-14155
▁conspiracy	-14156
▁proportion	-14157
är	-14158
rud	-14159
▁Fo	-14160
adal	-14161
ados	-14162
card	-14163
roat	-14164
April	-14165
rosse	-14166
▁Chad	-14167
▁ESPN	-14168
▁Folk	-14169
▁grain	-14170
▁logic	-14171
▁schem	-14172
▁Cancer	-14173
▁perpet	-14174
▁slopes	-14175
▁Present	-14176
▁bishops	-14177
▁currency	-14178
▁garrison	-14179
▁teammate	-14180
▁Antarctic	-14181
▁Coalition	-14182
▁acclaimed	-14183
▁rehabilit	-14184
▁twentieth	-14185
▁Chancellor	-14186
▁Exhibition	-14187
▁investigations	-14188
HP	-14189
WR	-14190
-21	-14191
eni	-14192
lis	-14193
oux	-14194
▁AN	-14195
▁IA	-14196
▁ic	-14197
▁Deb	-14198
▁Gem	-14199
▁Riv	-14200
▁Bark	-14201
▁Cave	-14202
▁trig	-14203
▁1948.	-14204
▁Banks	-14205
▁Pharm	-14206
▁Rabbi	-14207
▁swing	-14208
▁Adrian	-14209
▁Reserv	-14210
▁alumin	-14211
▁convoy	-14212
▁guards	-14213
▁happen	-14214
▁streak	-14215
▁Machine	-14216
▁fortune	-14217
▁hosting	-14218
▁nominee	-14219
▁adoption	-14220
▁libraries	-14221
▁magnitude	-14222
▁proposals	-14223
▁renovated	-14224
▁Additional	-14225
▁Fellowship	-14226
▁Luxembourg	-14227
▁Philosophy	-14228
▁dimensions	-14229
▁girlfriend	-14230
▁prohibited	-14231
▁instructions	-14232
ogo	-14233
▁AG	-14234
atum	-14235
good	-14236
▁$1.	-14237
▁Ced	-14238
▁Lil	-14239
▁Emma	-14240
▁fier	-14241
▁sits	-14242
atever	-14243
▁1933,	-14244
▁1942.	-14245
▁Recre	-14246
▁Store	-14247
▁Sweet	-14248
osystem	-14249
▁Geneva	-14250
▁Milton	-14251
▁drives	-14252
clesiast	-14253
▁Preston	-14254
▁Windsor	-14255
▁romance	-14256
▁absorbed	-14257
▁intensity	-14258
▁scattered	-14259
▁Institution	-14260
▁explanation	-14261
ém	-14262
Mad	-14263
cond	-14264
walk	-14265
▁Ost	-14266
▁Sex	-14267
▁Sie	-14268
▁nan	-14269
▁tun	-14270
ifier	-14271
▁Pere	-14272
▁fate	-14273
▁1946.	-14274
▁Pomer	-14275
▁curve	-14276
itorium	-14277
stanbul	-14278
▁Access	-14279
▁Bundes	-14280
▁devast	-14281
▁prosec	-14282
▁sacred	-14283
zegovina	-14284
▁algebra	-14285
▁rounded	-14286
▁Seminary	-14287
▁unveiled	-14288
▁activated	-14289
▁diagnosed	-14290
▁estimates	-14291
▁instructor	-14292
▁subspecies	-14293
▁protagonist	-14294
▁theoretical	-14295
/2	-14296
EM	-14297
uku	-14298
▁AB	-14299
addy	-14300
sole	-14301
▁Rey	-14302
▁fro	-14303
grand	-14304
onica	-14305
▁Bend	-14306
▁Herm	-14307
▁seal	-14308
ancers	-14309
headed	-14310
▁5,000	-14311
▁Feder	-14312
▁chess	-14313
▁tract	-14314
English	-14315
▁Gospel	-14316
▁Porter	-14317
▁tribal	-14318
▁Bradley	-14319
▁Prussia	-14320
▁tornado	-14321
▁watched	-14322
▁Filipino	-14323
▁descript	-14324
▁endorsed	-14325
▁estimate	-14326
▁settings	-14327
▁thorough	-14328
▁gastropod	-14329
▁peninsula	-14330
▁agreements	-14331
▁hypothesis	-14332
▁screenplay	-14333
▁vegetation	-14334
▁Continental	-14335
▁promotional	-14336
▁Administrative	-14337
Tr	-14338
mal	-14339
uto	-14340
▁Cu	-14341
▁Ig	-14342
..."	-14343
Fran	-14344
adio	-14345
assy	-14346
laus	-14347
them	-14348
wind	-14349
▁172	-14350
▁CIA	-14351
▁Seg	-14352
▁raw	-14353
Super	-14354
▁Berm	-14355
▁Doug	-14356
▁obst	-14357
▁Alpha	-14358
▁Clare	-14359
▁Level	-14360
▁heter	-14361
▁loved	-14362
▁alumni	-14363
▁genera	-14364
▁Estonia	-14365
▁Founded	-14366
▁Harbour	-14367
▁consort	-14368
▁talking	-14369
▁utility	-14370
▁indirect	-14371
▁allocated	-14372
▁proximity	-14373
▁architects	-14374
▁calculated	-14375
▁underlying	-14376
--	-14377
Los	-14378
ych	-14379
▁Et	-14380
▁ol	-14381
alid	-14382
este	-14383
icus	-14384
▁29.	-14385
▁Cit	-14386
▁ion	-14387
▁kin	-14388
▁pin	-14389
cepts	-14390
umble	-14391
stroke	-14392
uesday	-14393
▁1941.	-14394
▁1943.	-14395
▁1950.	-14396
▁dense	-14397
▁sheet	-14398
veloped	-14399
▁fertil	-14400
▁variab	-14401
▁discipl	-14402
▁jointly	-14403
▁legally	-14404
▁stretch	-14405
▁Brighton	-14406
▁Buddhism	-14407
▁deterior	-14408
▁spectrum	-14409
▁Elections	-14410
▁socialist	-14411
established	-14412
▁Indigenous	-14413
▁committees	-14414
▁nineteenth	-14415
▁semifinals	-14416
▁vulnerable	-14417
▁Springfield	-14418
_5	-14419
Cap	-14420
atz	-14421
how	-14422
ogg	-14423
▁mi	-14424
hart	-14425
▁101	-14426
▁Lic	-14427
▁Neg	-14428
▁Sle	-14429
▁syl	-14430
iking	-14431
isión	-14432
phant	-14433
▁Brom	-14434
▁Dipl	-14435
▁Dock	-14436
▁Heat	-14437
▁Lost	-14438
▁slot	-14439
arance	-14440
course	-14441
ending	-14442
▁1929,	-14443
▁1935,	-14444
▁Arist	-14445
▁Being	-14446
▁Carne	-14447
▁Movie	-14448
▁boost	-14449
▁bread	-14450
▁polar	-14451
▁spite	-14452
▁wound	-14453
▁Baltic	-14454
▁locals	-14455
▁rejoin	-14456
▁sponsor	-14457
ommission	-14458
▁Highland	-14459
▁Jennifer	-14460
▁centered	-14461
▁depicting	-14462
has	-14463
▁SM	-14464
anca	-14465
etti	-14466
▁Gur	-14467
iolet	-14468
▁Trip	-14469
▁dorm	-14470
hanced	-14471
▁1963.	-14472
▁Innov	-14473
▁Miles	-14474
▁Spect	-14475
▁Tiger	-14476
▁bombs	-14477
▁rises	-14478
▁Jeremy	-14479
▁armies	-14480
▁brands	-14481
▁hotels	-14482
▁submit	-14483
▁bassist	-14484
▁feeding	-14485
▁nursing	-14486
▁strikes	-14487
conscious	-14488
▁Literary	-14489
▁prompted	-14490
▁receptor	-14491
▁Etymology	-14492
▁conceived	-14493
▁Controvers	-14494
▁Depression	-14495
▁autonomous	-14496
▁invitation	-14497
▁successive	-14498
:#	-14499
aze	-14500
may	-14501
▁Uz	-14502
erek	-14503
hero	-14504
▁Ign	-14505
Brien	-14506
amped	-14507
ascar	-14508
encia	-14509
ewise	-14510
▁Berk	-14511
▁Lenn	-14512
▁Lynn	-14513
▁Wake	-14514
▁axis	-14515
▁gods	-14516
▁pret	-14517
alifax	-14518
screen	-14519
▁Birth	-14520
▁Julia	-14521
▁array	-14522
▁stint	-14523
▁Editor	-14524
▁Legend	-14525
▁finale	-14526
▁preval	-14527
▁Grammar	-14528
▁casting	-14529
▁healthy	-14530
▁basement	-14531
▁limestone	-14532
▁Richardson	-14533
▁directions	-14534
▁discipline	-14535
▁remarkable	-14536
▁rectangular	-14537
▁supervision	-14538
hl	-14539
hop	-14540
▁na	-14541
idan	-14542
inia	-14543
lave	-14544
▁anx	-14545
▁bio	-14546
▁gla	-14547
▁1892	-14548
▁Body	-14549
▁Moss	-14550
▁Pick	-14551
▁USSR	-14552
author	-14553
ischer	-14554
linary	-14555
▁1951,	-14556
▁Ghost	-14557
▁Tyler	-14558
▁joins	-14559
▁trips	-14560
instein	-14561
tlement	-14562
▁Kosovo	-14563
▁suffer	-14564
▁violin	-14565
▁Dorothy	-14566
▁cameras	-14567
▁harbour	-14568
▁servant	-14569
▁tactics	-14570
▁Morrison	-14571
▁maternal	-14572
▁memories	-14573
▁rendered	-14574
▁Catholics	-14575
▁physically	-14576
▁researcher	-14577
▁orientation	-14578
ég	-14579
hey	-14580
▁SH	-14581
▁WC	-14582
avor	-14583
otta	-14584
▁Dum	-14585
▁Baby	-14586
▁NATO	-14587
▁Viol	-14588
▁clar	-14589
▁pole	-14590
▁remn	-14591
ulates	-14592
▁1938,	-14593
▁Appro	-14594
▁Marin	-14595
▁smart	-14596
▁Single	-14597
▁chorus	-14598
▁nights	-14599
▁rulers	-14600
▁contend	-14601
▁equally	-14602
▁pursuit	-14603
▁carriage	-14604
▁performs	-14605
▁athletics	-14606
▁undertook	-14607
▁Herzegovina	-14608
▁Constitutional	-14609
05	-14610
bol	-14611
eps	-14612
isy	-14613
rea	-14614
When	-14615
etra	-14616
pert	-14617
rill	-14618
▁171	-14619
algam	-14620
▁1895	-14621
▁Bhar	-14622
▁Kids	-14623
▁Shop	-14624
▁navy	-14625
ayette	-14626
ficial	-14627
ursday	-14628
▁Notre	-14629
▁Pract	-14630
▁Rhine	-14631
▁Strat	-14632
▁Worth	-14633
▁cabin	-14634
October	-14635
▁Curtis	-14636
▁borrow	-14637
▁genres	-14638
▁poorly	-14639
▁thrown	-14640
▁voiced	-14641
▁Physics	-14642
▁insects	-14643
▁symbols	-14644
ighthouse	-14645
▁Swimming	-14646
▁examined	-14647
▁managers	-14648
▁prominence	-14649
▁surrendered	-14650
GP	-14651
ør	-14652
cio	-14653
pus	-14654
▁91	-14655
Rock	-14656
club	-14657
▁105	-14658
▁28.	-14659
plane	-14660
▁Darl	-14661
▁Sons	-14662
▁dish	-14663
▁hide	-14664
▁Faith	-14665
▁accus	-14666
▁aside	-14667
▁monks	-14668
▁navig	-14669
▁Ludwig	-14670
▁dancer	-14671
▁eating	-14672
▁warned	-14673
structed	-14674
▁Doubles	-14675
▁unclear	-14676
foundland	-14677
▁Aircraft	-14678
▁alphabet	-14679
▁organize	-14680
▁quarters	-14681
▁removing	-14682
songwriter	-14683
▁batteries	-14684
▁companion	-14685
▁composers	-14686
▁Eurovision	-14687
▁innovative	-14688
clesiastical	-14689
▁continuously	-14690
▁unsuccessfully	-14691
cs	-14692
Art	-14693
cats	-14694
this	-14695
▁Kom	-14696
▁Vin	-14697
asium	-14698
▁(189	-14699
▁Bord	-14700
▁Comb	-14701
▁Lyon	-14702
▁hull	-14703
▁mild	-14704
▁pref	-14705
arians	-14706
▁1930,	-14707
▁Brent	-14708
▁taste	-14709
▁Apollo	-14710
▁Naples	-14711
▁Screen	-14712
▁Shield	-14713
▁dinner	-14714
▁trophy	-14715
▁Bedford	-14716
▁customs	-14717
ographers	-14718
▁Mohammad	-14719
▁attitude	-14720
▁attribut	-14721
▁proceeds	-14722
▁disorders	-14723
▁responses	-14724
▁subfamily	-14725
▁separately	-14726
▁manuscripts	-14727
▁philosopher	-14728
▁2"	-14729
ishn	-14730
▁(12	-14731
▁Hil	-14732
▁Koh	-14733
▁Vij	-14734
▁pig	-14735
ducer	-14736
ioned	-14737
▁Knox	-14738
▁Resp	-14739
▁VIII	-14740
stable	-14741
▁Index	-14742
▁conve	-14743
▁holes	-14744
▁nurse	-14745
▁scout	-14746
▁Bailey	-14747
▁Recent	-14748
▁Santos	-14749
▁Sisters	-14750
▁Various	-14751
▁premises	-14752
▁sculptor	-14753
▁considers	-14754
▁irregular	-14755
▁naturally	-14756
▁predicted	-14757
▁Alexandria	-14758
▁proceedings	-14759
MT	-14760
gg	-14761
iox	-14762
six	-14763
▁77	-14764
agne	-14765
appa	-14766
kers	-14767
roup	-14768
–195	-14769
▁Dew	-14770
istle	-14771
ocate	-14772
▁1830	-14773
▁Hels	-14774
▁Hoff	-14775
▁Pine	-14776
ogical	-14777
▁María	-14778
▁Maxim	-14779
▁digit	-14780
▁marsh	-14781
▁raids	-14782
▁Anders	-14783
▁Summit	-14784
▁Halifax	-14785
▁Tourism	-14786
▁colspan	-14787
▁formats	-14788
▁mammals	-14789
criptions	-14790
▁exhibits	-14791
▁invested	-14792
▁velocity	-14793
▁introducing	-14794
UP	-14795
afa	-14796
iad	-14797
igi	-14798
iary	-14799
oche	-14800
path	-14801
▁Fra	-14802
▁IBM	-14803
▁egg	-14804
annon	-14805
ellar	-14806
enary	-14807
▁Bras	-14808
▁Gymn	-14809
▁Leop	-14810
▁Quin	-14811
▁Self	-14812
▁cant	-14813
▁pine	-14814
▁Allan	-14815
▁Moses	-14816
▁marri	-14817
▁minim	-14818
▁mount	-14819
clusive	-14820
innings	-14821
itively	-14822
ouncing	-14823
▁ingred	-14824
▁rookie	-14825
ublished	-14826
▁Victory	-14827
▁guarant	-14828
president	-14829
▁Bulldogs	-14830
▁Caroline	-14831
▁interven	-14832
▁volcanic	-14833
▁directing	-14834
▁mythology	-14835
▁82	-14836
Life	-14837
hire	-14838
mile	-14839
▁10%	-14840
▁Gan	-14841
▁Gul	-14842
▁Lap	-14843
▁(194	-14844
▁Gamb	-14845
enders	-14846
omical	-14847
ophone	-14848
rition	-14849
▁Bohem	-14850
▁Ellen	-14851
▁Mater	-14852
▁Quest	-14853
▁penet	-14854
▁telev	-14855
▁Browns	-14856
▁Contin	-14857
▁Clement	-14858
▁knocked	-14859
▁murders	-14860
▁authored	-14861
▁embarked	-14862
▁Sebastian	-14863
▁recurring	-14864
▁streaming	-14865
▁complaints	-14866
▁innovation	-14867
▁protesters	-14868
▁Paralympics	-14869
▁measurement	-14870
▁Newfoundland	-14871
▁assassination	-14872
TI	-14873
19,	-14874
kal	-14875
ithe	-14876
lach	-14877
send	-14878
umen	-14879
▁Vat	-14880
▁hol	-14881
▁1840	-14882
church	-14883
▁1934,	-14884
▁1947.	-14885
▁juven	-14886
▁opens	-14887
▁Angels	-14888
▁Marcel	-14889
▁parade	-14890
▁paying	-14891
▁speeds	-14892
▁Andrews	-14893
▁Stephan	-14894
▁Wyoming	-14895
▁Yankees	-14896
▁cluster	-14897
▁colonel	-14898
▁expense	-14899
ictionary	-14900
▁Estonian	-14901
▁Plymouth	-14902
▁sporting	-14903
▁Frankfurt	-14904
▁Lancaster	-14905
▁eliminate	-14906
▁legendary	-14907
▁automobile	-14908
▁presenting	-14909
ht	-14910
-11	-14911
sup	-14912
amas	-14913
azar	-14914
chez	-14915
hend	-14916
imon	-14917
oved	-14918
pres	-14919
stop	-14920
immer	-14921
▁Doll	-14922
▁Falk	-14923
▁bold	-14924
▁cere	-14925
▁fran	-14926
estock	-14927
▁Johns	-14928
▁Julie	-14929
▁Scots	-14930
▁arist	-14931
▁infer	-14932
illance	-14933
illiant	-14934
pending	-14935
▁Female	-14936
▁riders	-14937
▁united	-14938
▁Housing	-14939
▁outlets	-14940
▁rescued	-14941
▁Manufact	-14942
▁disputes	-14943
▁flagship	-14944
▁millions	-14945
production	-14946
▁Structure	-14947
▁terrorist	-14948
▁grandmother	-14949
▁nationalist	-14950
KA	-14951
imi	-14952
▁ID	-14953
▁Nu	-14954
arre	-14955
atty	-14956
avel	-14957
▁1–1	-14958
▁Num	-14959
alore	-14960
heric	-14961
ritic	-14962
▁1885	-14963
▁Hern	-14964
▁Lomb	-14965
▁Nurs	-14966
otypes	-14967
▁Aleks	-14968
▁Karen	-14969
▁Merit	-14970
▁Rever	-14971
▁arose	-14972
▁Bolton	-14973
▁Colony	-14974
▁Guatem	-14975
▁Julius	-14976
▁bullet	-14977
▁inland	-14978
▁retrie	-14979
▁speaks	-14980
▁wheels	-14981
▁Episode	-14982
▁dressed	-14983
▁Griffith	-14984
▁intellig	-14985
▁veterans	-14986
▁arguments	-14987
▁lifestyle	-14988
▁performer	-14989
▁healthcare	-14990
Men	-14991
Pac	-14992
Pal	-14993
abi	-14994
opy	-14995
▁('	-14996
Good	-14997
ints	-14998
left	-14999
▁fed	-15000
Japan	-15001
never	-15002
reens	-15003
▁entr	-15004
effect	-15005
orrect	-15006
raltar	-15007
▁crack	-15008
▁humor	-15009
imental	-15010
urities	-15011
▁Easter	-15012
▁Sicily	-15013
▁wishes	-15014
restrial	-15015
▁Charter	-15016
▁planted	-15017
▁portfol	-15018
▁Manitoba	-15019
▁drainage	-15020
▁novelist	-15021
▁achieving	-15022
▁donations	-15023
▁regiments	-15024
▁contracted	-15025
▁Statistical	-15026
▁sustainable	-15027
▁consistently	-15028
Let	-15029
Lit	-15030
ppe	-15031
▁CH	-15032
seat	-15033
ylan	-15034
▁ITV	-15035
▁McN	-15036
ended	-15037
▁Sard	-15038
▁Than	-15039
▁rent	-15040
puties	-15041
▁1927,	-15042
▁1951.	-15043
▁Champ	-15044
▁Cohen	-15045
▁Ferry	-15046
▁Lynch	-15047
▁humid	-15048
eastern	-15049
▁Batter	-15050
▁batted	-15051
▁divide	-15052
▁fights	-15053
▁fiscal	-15054
▁tables	-15055
▁Hopkins	-15056
▁depicts	-15057
▁lateral	-15058
▁refuses	-15059
amination	-15060
▁Constitu	-15061
▁Slovenia	-15062
▁accuracy	-15063
▁watching	-15064
▁wrestler	-15065
▁variables	-15066
▁Providence	-15067
▁neighborhoods	-15068
jin	-15069
▁96	-15070
▁Pé	-15071
▁ur	-15072
anan	-15073
colm	-15074
▁Ens	-15075
▁Lut	-15076
▁sin	-15077
ariat	-15078
group	-15079
hydro	-15080
▁bush	-15081
▁diff	-15082
▁moon	-15083
iating	-15084
ogenic	-15085
▁1912,	-15086
▁1936,	-15087
▁Edgar	-15088
▁Total	-15089
▁cryst	-15090
▁engra	-15091
▁Boeing	-15092
▁Double	-15093
▁Harper	-15094
▁boxing	-15095
ifferent	-15096
▁Similar	-15097
▁abandon	-15098
▁lengths	-15099
▁staying	-15100
▁Criminal	-15101
▁Richards	-15102
▁Universe	-15103
▁abstract	-15104
▁marketed	-15105
▁Billboard	-15106
▁Classical	-15107
▁Rochester	-15108
▁portraits	-15109
▁Charleston	-15110
▁Industries	-15111
▁enrollment	-15112
▁Publications	-15113
PD	-15114
etz	-15115
pay	-15116
tel	-15117
▁IN	-15118
▁Mā	-15119
-199	-15120
gard	-15121
▁Dut	-15122
▁Ish	-15123
▁Lah	-15124
▁Opt	-15125
▁Vit	-15126
Roman	-15127
onnes	-15128
▁Copa	-15129
▁Dart	-15130
▁laps	-15131
member	-15132
rafted	-15133
verage	-15134
▁stere	-15135
▁weigh	-15136
▁Andrea	-15137
▁Effect	-15138
▁counts	-15139
▁intend	-15140
▁luxury	-15141
▁subord	-15142
▁Carroll	-15143
[...]
