{
  "version": "1.0",
  "truncation": null,
  "padding": {
    "strategy": {
      "Fixed": 256
    },
    "direction": "Right",
    "pad_to_multiple_of": null,
    "pad_id": 3,
    "pad_type_id": 0,
    "pad_token": "[PAD]"
  },
  "added_tokens": [
    {
      "id": 0,
      "content": "[UNK]",
      "single_word": false,
      "lstrip": false,
      "rstrip": false,
      "normalized": false,
      "special": true
    },
    {
      "id": 1,
      "content": "[CLS]",
      "single_word": false,
      "lstrip": false,
      "rstrip": false,
      "normalized": false,
      "special": true
    },
    {
      "id": 2,
      "content": "[SEP]",
      "single_word": false,
      "lstrip": false,
      "rstrip": false,
      "normalized": false,
      "special": true
    },
    {
      "id": 3,
      "content": "[PAD]",
      "single_word": false,
      "lstrip": false,
      "rstrip": false,
      "normalized": false,
      "special": true
    },
    {
      "id": 4,
      "content": "[MASK]",
      "single_word": false,
      "lstrip": false,
      "rstrip": false,
      "normalized": false,
      "special": true
    },
    {
      "id": 5,
      "content": " ",
      "single_word": false,
      "lstrip": false,
      "rstrip": false,
      "normalized": false,
      "special": true
    }
  ],
  "normalizer": null,
  "pre_tokenizer": {
    "type": "Whitespace"
  },
  "post_processor": {
    "type": "TemplateProcessing",
    "single": [
      {
        "SpecialToken": {
          "id": "[CLS]",
          "type_id": 0
        }
      },
      {
        "Sequence": {
          "id": "A",
          "type_id": 0
        }
      },
      {
        "SpecialToken": {
          "id": "[SEP]",
          "type_id": 0
        }
      }
    ],
    "pair": [
      {
        "SpecialToken": {
          "id": "[CLS]",
          "type_id": 0
        }
      },
      {
        "Sequence": {
          "id": "A",
          "type_id": 0
        }
      },
      {
        "SpecialToken": {
          "id": "[SEP]",
          "type_id": 0
        }
      },
      {
        "Sequence": {
          "id": "B",
          "type_id": 0
        }
      },
      {
        "SpecialToken": {
          "id": "[SEP]",
          "type_id": 0
        }
      }
    ],
    "special_tokens": {
      "[CLS]": {
        "id": "[CLS]",
        "ids": [
          1
        ],
        "tokens": [
          "[CLS]"
        ]
      },
      "[SEP]": {
        "id": "[SEP]",
        "ids": [
          2
        ],
        "tokens": [
          "[SEP]"
        ]
      }
    }
  },
  "decoder": null,
  "model": {
    "type": "Unigram",
    "unk_id": 0,
    "vocab": [
      [
        "[UNK]",
        0.0
      ],
      [
        "[CLS]",
        0.0
      ],
      [
        "[SEP]",
        0.0
      ],
      [
        "[PAD]",
        0.0
      ],
      [
        "[MASK]",
        0.0
      ],
      [
        " ",
        0.0
      ],
      [
        "s",
        -3.094366051426766
      ],
      [
        "the",
        -3.152971698311209
      ],
      [
        ",",
        -3.2650539787903234
      ],
      [
        ".",
        -3.295535348887709
      ],
      [
        "of",
        -3.782358186695353
      ],
      [
        "a",
        -3.8550682604504143
      ],
      [
        "and",
        -3.9165666733202524
      ],
      [
        "in",
        -3.9260346216849484
      ],
      [
        "to",
        -4.2229809756784285
      ],
      [
        "\"",
        -4.224562041189042
      ],
      [
        "d",
        -4.2618142095757054
      ],
      [
        "ed",
        -4.276051865848892
      ],
      [
        "y",
        -4.577862884538511
      ],
      [
        "e",
        -4.665776583411908
      ],
      [
        "was",
        -4.772123811292984
      ],
      [
        "-",
        -4.839817857692996
      ],
      [
        "ing",
        -4.878311502559473
      ],
      [
        "is",
        -4.928399402376552
      ],
      [
        "on",
        -4.949929326905609
      ],
      [
        "The",
        -4.958980351864428
      ],
      [
        "'",
        -5.164199962420167
      ],
      [
        "for",
        -5.174668609193592
      ],
      [
        "(",
        -5.208342019352889
      ],
      [
        "t",
        -5.232663515877974
      ],
      [
        "o",
        -5.28555095494497
      ],
      [
        "with",
        -5.295120074241183
      ],
      [
        "ly",
        -5.318013949394386
      ],
      [
        "as",
        -5.3193560556601
      ],
      [
        "by",
        -5.347186045401077
      ],
      [
        "n",
        -5.371004039734393
      ],
      [
        "at",
        -5.483520000656366
      ],
      [
        "an",
        -5.535307284189843
      ],
      [
        "i",
        -5.554626691789698
      ],
      [
        "that",
        -5.585960501328795
      ],
      [
        ")",
        -5.67120709951662
      ],
      [
        "from",
        -5.681588450219083
      ],
      [
        "his",
        -5.805250935245759
      ],
      [
        "be",
        -5.835408059143793
      ],
      [
        "In",
        -5.835464370842736
      ],
      [
        "he",
        -5.865720026212147
      ],
      [
        "it",
        -5.964908214232333
      ],
      [
        "A",
        -6.013834107816514
      ],
      [
        "were",
        -6.107486391044356
      ],
      [
        "or",
        -6.179575095296501
      ],
      [
        "are",
        -6.184509711170877
      ],
      [
        "which",
        -6.213616783041424
      ],
      [
        "He",
        -6.217644866156711
      ],
      [
        "er",
        -6.24141135591247
      ],
      [
        "had",
        -6.394892614871237
      ],
      [
        "h",
        -6.398832447537165
      ],
      [
        "r",
        -6.415210329235331
      ],
      [
        "also",
        -6.4228188557773755
      ],
      [
        "l",
        -6.433982596772159
      ],
      [
        ":",
        -6.46783366790523
      ],
      [
        "S",
        -6.482936671719628
      ],
      [
        "has",
        -6.48414790005635
      ],
      [
        ";",
        -6.489575528214189
      ],
      [
        "–",
        -6.493972555415539
      ],
      [
        "1",
        -6.52386679022497
      ],
      [
        "first",
        -6.528733199164202
      ],
      [
        "It",
        -6.538159025343099
      ],
      [
        "ies",
        -6.589852955350576
      ],
      [
        "not",
        -6.612207220708719
      ],
      [
        "f",
        -6.6167125059896374
      ],
      [
        "who",
        -6.638442148784467
      ],
      [
        "her",
        -6.641483253562271
      ],
      [
        "one",
        -6.646424110570283
      ],
      [
        "their",
        -6.657866788583457
      ],
      [
        "2",
        -6.672292341932
      ],
      [
        "I",
        -6.687956102297797
      ],
      [
        "m",
        -6.7236898276804915
      ],
      [
        "but",
        -6.747983399721427
      ],
      [
        "its",
        -6.762654116918755
      ],
      [
        "w",
        -6.813970397126804
      ],
      [
        "have",
        -6.8312304267990935
      ],
      [
        "two",
        -6.84479900326339
      ],
      [
        "this",
        -6.8800233627852485
      ],
      [
        "been",
        -6.887746727260511
      ],
      [
        "),",
        -6.902059046901531
      ],
      [
        "g",
        -6.902986636716662
      ],
      [
        "b",
        -6.9275525693996585
      ],
      [
        "out",
        -6.928469684547293
      ],
      [
        "after",
        -6.982676686320991
      ],
      [
        "time",
        -6.984014022509863
      ],
      [
        "al",
        -7.0202576842599775
      ],
      [
        "other",
        -7.039510161954521
      ],
      [
        "re",
        -7.039754236783706
      ],
      [
        ").",
        -7.054557311922199
      ],
      [
        "c",
        -7.057801736602567
      ],
      [
        "5",
        -7.0749475206945345
      ],
      [
        "3",
        -7.081278992875024
      ],
      [
        "up",
        -7.08998595558543
      ],
      [
        "all",
        -7.092338562097533
      ],
      [
        "New",
        -7.135402348283952
      ],
      [
        "over",
        -7.157287727118527
      ],
      [
        "C",
        -7.171500029510039
      ],
      [
        "On",
        -7.172149570654126
      ],
      [
        "4",
        -7.172382735634576
      ],
      [
        "B",
        -7.175635619731928
      ],
      [
        "D",
        -7.19011733587795
      ],
      [
        "more",
        -7.216337887068221
      ],
      [
        "came",
        -7.2204981018923355
      ],
      [
        "him",
        -7.220507909727415
      ],
      [
        "T",
        -7.248316252660754
      ],
      [
        "u",
        -7.257024969035008
      ],
      [
        "play",
        -7.2663944047308355
      ],
      [
        "where",
        -7.2767627661663905
      ],
      [
        "season",
        -7.28667775377299
      ],
      [
        "p",
        -7.288051082891707
      ],
      [
        "would",
        -7.29307586868112
      ],
      [
        "when",
        -7.294837729011894
      ],
      [
        "she",
        -7.297420866157214
      ],
      [
        "year",
        -7.302418931282853
      ],
      [
        "under",
        -7.302985224718428
      ],
      [
        "new",
        -7.308325496221533
      ],
      [
        "can",
        -7.316473937612093
      ],
      [
        "again",
        -7.324926361388789
      ],
      [
        "M",
        -7.346899837205999
      ],
      [
        "during",
        -7.359199370402557
      ],
      [
        "This",
        -7.363265152969571
      ],
      [
        "years",
        -7.363723858037638
      ],
      [
        "%",
        -7.369822328248787
      ],
      [
        "includ",
        -7.3753502652787795
      ],
      [
        "part",
        -7.386018687009157
      ],
      [
        "k",
        -7.4152749724396365
      ],
      [
        "only",
        -7.415485473090792
      ],
      [
        "between",
        -7.4188604134491225
      ],
      [
        "/",
        -7.420028944977792
      ],
      [
        "6",
        -7.431300614718033
      ],
      [
        "made",
        -7.433508152726766
      ],
      [
        "team",
        -7.434285164427671
      ],
      [
        "three",
        -7.44442729715816
      ],
      [
        "She",
        -7.446157097810989
      ],
      [
        "American",
        -7.451083259938768
      ],
      [
        "through",
        -7.456739680000233
      ],
      [
        "later",
        -7.468841951522805
      ],
      [
        "U",
        -7.47248339200778
      ],
      [
        "most",
        -7.473164146986546
      ],
      [
        "E",
        -7.474765043012834
      ],
      [
        "United",
        -7.477487500099093
      ],
      [
        "well",
        -7.4822796515387555
      ],
      [
        "some",
        -7.48566067815028
      ],
      [
        "film",
        -7.489414133513664
      ],
      [
        "H",
        -7.4895761184867045
      ],
      [
        "&",
        -7.493164046119933
      ],
      [
        "used",
        -7.495089829760214
      ],
      [
        "such",
        -7.498748682615888
      ],
      [
        "about",
        -7.499105203154816
      ],
      [
        "known",
        -7.500719844494284
      ],
      [
        "man",
        -7.52798752243366
      ],
      [
        "born",
        -7.529027295435144
      ],
      [
        "release",
        -7.536638062286444
      ],
      [
        "un",
        -7.536713290221698
      ],
      [
        "P",
        -7.536720204010972
      ],
      [
        "University",
        -7.5373214942667115
      ],
      [
        "th",
        -7.540217681132077
      ],
      [
        "us",
        -7.548504154351052
      ],
      [
        "O",
        -7.552709836110598
      ],
      [
        "second",
        -7.562130498155673
      ],
      [
        "than",
        -7.563034247367188
      ],
      [
        "into",
        -7.570868878645765
      ],
      [
        "8",
        -7.589862758423054
      ],
      [
        "school",
        -7.5983031928681495
      ],
      [
        "found",
        -7.605331774921831
      ],
      [
        "state",
        -7.614097854572819
      ],
      [
        "there",
        -7.618138928410582
      ],
      [
        "work",
        -7.627933618528296
      ],
      [
        "7",
        -7.634149635873241
      ],
      [
        "9",
        -7.640936579762087
      ],
      [
        "G",
        -7.642453715335719
      ],
      [
        "include",
        -7.646694850148217
      ],
      [
        "place",
        -7.649934789666158
      ],
      [
        "number",
        -7.650044358379594
      ],
      [
        "being",
        -7.651485776166211
      ],
      [
        "while",
        -7.671034476131565
      ],
      [
        "name",
        -7.696499718137611
      ],
      [
        "album",
        -7.704662721436872
      ],
      [
        "After",
        -7.707370327977914
      ],
      [
        "before",
        -7.7125110890279025
      ],
      [
        "high",
        -7.721876683678591
      ],
      [
        "10",
        -7.723245803184261
      ],
      [
        "many",
        -7.725103859832128
      ],
      [
        "F",
        -7.7299225152315
      ],
      [
        "base",
        -7.730939772269545
      ],
      [
        "end",
        -7.7390729242492196
      ],
      [
        "World",
        -7.74411300551354
      ],
      [
        "K",
        -7.744948806042045
      ],
      [
        "R",
        -7.748451100186378
      ],
      [
        "people",
        -7.751455781518414
      ],
      [
        "until",
        -7.752412052307864
      ],
      [
        "family",
        -7.752620738588959
      ],
      [
        "L",
        -7.758542757437393
      ],
      [
        "both",
        -7.760971645491464
      ],
      [
        "National",
        -7.775944895181073
      ],
      [
        "May",
        -7.787485133814089
      ],
      [
        "J",
        -7.790198032377189
      ],
      [
        "record",
        -7.801115120255794
      ],
      [
        "life",
        -7.811543155287547
      ],
      [
        "form",
        -7.81168834185716
      ],
      [
        "V",
        -7.817830197119315
      ],
      [
        "States",
        -7.8199707648899395
      ],
      [
        "age",
        -7.825292219735976
      ],
      [
        "cause",
        -7.8271955259839405
      ],
      [
        "may",
        -7.844230123176924
      ],
      [
        "called",
        -7.845929067406216
      ],
      [
        "them",
        -7.8524424222926505
      ],
      [
        "early",
        -7.855803613820919
      ],
      [
        "19",
        -7.856421755751299
      ],
      [
        "start",
        -7.856669396428535
      ],
      [
        "series",
        -7.857344239798479
      ],
      [
        "side",
        -7.868686195684951
      ],
      [
        "War",
        -7.873557407370354
      ],
      [
        "four",
        -7.882159287487136
      ],
      [
        "000",
        -7.88321534302181
      ],
      [
        "won",
        -7.886284196825303
      ],
      [
        "School",
        -7.8885933623187885
      ],
      [
        "German",
        -7.894050737320846
      ],
      [
        "March",
        -7.895349895125372
      ],
      [
        "game",
        -7.898717513022673
      ],
      [
        "South",
        -7.90064782686342
      ],
      [
        "St",
        -7.915163000476486
      ],
      [
        "12",
        -7.918278663687115
      ],
      [
        "use",
        -7.918368326454681
      ],
      [
        "January",
        -7.92649817966962
      ],
      [
        "15",
        -7.929643017092301
      ],
      [
        "August",
        -7.930077034713236
      ],
      [
        "est",
        -7.930693233308263
      ],
      [
        "September",
        -7.9311184063224225
      ],
      [
        "area",
        -7.936578012638131
      ],
      [
        "former",
        -7.939451709193248
      ],
      [
        "career",
        -7.940536524577235
      ],
      [
        "final",
        -7.940701788843555
      ],
      [
        "same",
        -7.941354397899355
      ],
      [
        "June",
        -7.944796530843082
      ],
      [
        "As",
        -7.94585422467285
      ],
      [
        "line",
        -7.945956171390325
      ],
      [
        "return",
        -7.947000734888347
      ],
      [
        "October",
        -7.952402897660312
      ],
      [
        "W",
        -7.953002834537413
      ],
      [
        "city",
        -7.960130220060623
      ],
      [
        "several",
        -7.962061352571039
      ],
      [
        "men",
        -7.962433644564856
      ],
      [
        "John",
        -7.96688143948195
      ],
      [
        "July",
        -7.969902353960691
      ],
      [
        "system",
        -7.970525690715334
      ],
      [
        "group",
        -7.97117421234152
      ],
      [
        "show",
        -7.972813314628706
      ],
      [
        "0",
        -7.973504480525978
      ],
      [
        "service",
        -7.976566401864863
      ],
      [
        "like",
        -7.976640745156134
      ],
      [
        "Count",
        -7.978689448006847
      ],
      [
        "following",
        -7.9832558460537335
      ],
      [
        "will",
        -7.983693442454014
      ],
      [
        "self",
        -7.98941782674593
      ],
      [
        "land",
        -7.989520657161796
      ],
      [
        "building",
        -7.9908843531101805
      ],
      [
        "amp",
        -7.991238997271175
      ],
      [
        "z",
        -7.99369174960146
      ],
      [
        "April",
        -7.99450023108678
      ],
      [
        "back",
        -7.996238747992296
      ],
      [
        "18",
        -8.001175634798361
      ],
      [
        "day",
        -8.003625982151998
      ],
      [
        "located",
        -8.006916798867612
      ],
      [
        "long",
        -8.008149204599244
      ],
      [
        "able",
        -8.008763497924063
      ],
      [
        "20",
        -8.012835425315538
      ],
      [
        "November",
        -8.014193269457534
      ],
      [
        "since",
        -8.015670796040347
      ],
      [
        "co",
        -8.023020412619692
      ],
      [
        "December",
        -8.02430837167758
      ],
      [
        "town",
        -8.02571095665879
      ],
      [
        "ar",
        -8.030515557319504
      ],
      [
        "His",
        -8.033105015050914
      ],
      [
        "government",
        -8.037354597805214
      ],
      [
        "support",
        -8.042906639787677
      ],
      [
        "now",
        -8.047552048710157
      ],
      [
        "N",
        -8.051200999908882
      ],
      [
        "ever",
        -8.051324233316548
      ],
      [
        "station",
        -8.052717852571083
      ],
      [
        "single",
        -8.052839310860184
      ],
      [
        "held",
        -8.054060012599889
      ],
      [
        "population",
        -8.055537727517361
      ],
      [
        "named",
        -8.059147426808428
      ],
      [
        "these",
        -8.060915278868753
      ],
      [
        "each",
        -8.061941067533072
      ],
      [
        "16",
        -8.063790292237977
      ],
      [
        "original",
        -8.069749215132845
      ],
      [
        "election",
        -8.073811449544912
      ],
      [
        "member",
        -8.074708990770722
      ],
      [
        "how",
        -8.07900968920655
      ],
      [
        "took",
        -8.080112132161801
      ],
      [
        "home",
        -8.080606149817799
      ],
      [
        "York",
        -8.083376015777198
      ],
      [
        "along",
        -8.085950178956498
      ],
      [
        "main",
        -8.093953352681114
      ],
      [
        "point",
        -8.097872498751784
      ],
      [
        "British",
        -8.100872662109976
      ],
      [
        "14",
        -8.101055467027901
      ],
      [
        "State",
        -8.103320343568443
      ],
      [
        "large",
        -8.10498962547562
      ],
      [
        "There",
        -8.105313310824311
      ],
      [
        "song",
        -8.105952110913684
      ],
      [
        "result",
        -8.106617217484402
      ],
      [
        "City",
        -8.107756430387683
      ],
      [
        "local",
        -8.111603173981283
      ],
      [
        "$",
        -8.114753490446482
      ],
      [
        "11",
        -8.115565928598174
      ],
      [
        "North",
        -8.119447977175223
      ],
      [
        "ity",
        -8.11959708846701
      ],
      [
        "small",
        -8.124442554266055
      ],
      [
        "title",
        -8.125064765219303
      ],
      [
        "v",
        -8.125671074801092
      ],
      [
        "ic",
        -8.128171772812275
      ],
      [
        "2010",
        -8.132442276762792
      ],
      [
        "music",
        -8.13468034116749
      ],
      [
        "per",
        -8.141932057855184
      ],
      [
        "Dur",
        -8.14209528312324
      ],
      [
        "17",
        -8.146273174471164
      ],
      [
        "war",
        -8.148167459223906
      ],
      [
        "player",
        -8.149743849087754
      ],
      [
        "League",
        -8.150836187633272
      ],
      [
        "February",
        -8.151110723657336
      ],
      [
        "century",
        -8.15413801468988
      ],
      [
        "public",
        -8.158186353662673
      ],
      [
        "open",
        -8.161246375765906
      ],
      [
        "served",
        -8.16148797682245
      ],
      [
        "event",
        -8.16511257145573
      ],
      [
        "built",
        -8.165502527046844
      ],
      [
        "company",
        -8.166843494949081
      ],
      [
        "did",
        -8.168558597756794
      ],
      [
        "’",
        -8.171654162393935
      ],
      [
        "world",
        -8.177420892272437
      ],
      [
        "design",
        -8.180504053959453
      ],
      [
        "village",
        -8.18556925039249
      ],
      [
        "join",
        -8.193079035828841
      ],
      [
        "off",
        -8.193208922837123
      ],
      [
        "could",
        -8.1933463547806
      ],
      [
        "Howev",
        -8.196741031274124
      ],
      [
        "um",
        -8.198308207188171
      ],
      [
        "appear",
        -8.200426876127404
      ],
      [
        "2011",
        -8.209791641270414
      ],
      [
        "For",
        -8.212857717301846
      ],
      [
        "due",
        -8.21363366320598
      ],
      [
        "30",
        -8.213765085579428
      ],
      [
        "field",
        -8.217073614977771
      ],
      [
        "13",
        -8.217662965584987
      ],
      [
        "force",
        -8.23215219915014
      ],
      [
        "They",
        -8.24058535017136
      ],
      [
        "any",
        -8.240831778386717
      ],
      [
        "feature",
        -8.241823086473794
      ],
      [
        "own",
        -8.241871359852682
      ],
      [
        "way",
        -8.246335484958454
      ],
      [
        "around",
        -8.24680309949847
      ],
      [
        "200",
        -8.248920831325142
      ],
      [
        "house",
        -8.249577498614252
      ],
      [
        "band",
        -8.256449874136761
      ],
      [
        "head",
        -8.257270263218253
      ],
      [
        "West",
        -8.257591021239012
      ],
      [
        "receive",
        -8.260243106661981
      ],
      [
        "left",
        -8.261070356172445
      ],
      [
        "2012",
        -8.265682548625822
      ],
      [
        "pecies",
        -8.267334818873506
      ],
      [
        "2013",
        -8.267453055316608
      ],
      [
        "national",
        -8.269663591639025
      ],
      [
        "History",
        -8.273133143904937
      ],
      [
        "197",
        -8.275717429976966
      ],
      [
        "2014",
        -8.279136669202416
      ],
      [
        "list",
        -8.279332117336333
      ],
      [
        "club",
        -8.279388076930049
      ],
      [
        "five",
        -8.281974538610779
      ],
      [
        "last",
        -8.282580594351503
      ],
      [
        "establish",
        -8.286455819878306
      ],
      [
        "25",
        -8.28720899900982
      ],
      [
        "direct",
        -8.294591831288953
      ],
      [
        "died",
        -8.29461790276191
      ],
      [
        "le",
        -8.295844228892983
      ],
      [
        "2015",
        -8.29780832159778
      ],
      [
        "change",
        -8.298659266556754
      ],
      [
        "2016",
        -8.299827039155705
      ],
      [
        "2008",
        -8.302702020172886
      ],
      [
        "near",
        -8.304868727134396
      ],
      [
        "present",
        -8.306820971739231
      ],
      [
        "death",
        -8.310772599216515
      ],
      [
        "third",
        -8.311907238972294
      ],
      [
        "less",
        -8.312720326268726
      ],
      [
        "said",
        -8.31318702527868
      ],
      [
        "district",
        -8.316775420689828
      ],
      [
        "book",
        -8.327339587019525
      ],
      [
        "water",
        -8.330629515719256
      ],
      [
        "2018",
        -8.337592817189282
      ],
      [
        "led",
        -8.341883128544588
      ],
      [
        "2017",
        -8.347785133429756
      ],
      [
        "Japan",
        -8.347976941288291
      ],
      [
        "River",
        -8.349745969676595
      ],
      [
        "members",
        -8.350604844543398
      ],
      [
        "2009",
        -8.350775495354497
      ],
      [
        "award",
        -8.354125774709638
      ],
      [
        "provide",
        -8.362635167036622
      ],
      [
        "allow",
        -8.36421906195097
      ],
      [
        "term",
        -8.364540662382788
      ],
      [
        "down",
        -8.36815887330069
      ],
      [
        "French",
        -8.368828071426936
      ],
      [
        "late",
        -8.374050813041329
      ],
      [
        "College",
        -8.374822817007443
      ],
      [
        "move",
        -8.374950205810375
      ],
      [
        "bega",
        -8.375369970705526
      ],
      [
        "2007",
        -8.376778835212173
      ],
      [
        "2019",
        -8.383732785643405
      ],
      [
        "All",
        -8.3891601724921
      ],
      [
        "Award",
        -8.389780646358268
      ],
      [
        "current",
        -8.390144396626846
      ],
      [
        "old",
        -8.395113714797635
      ],
      [
        "football",
        -8.396704902711859
      ],
      [
        "communit",
        -8.400772054157056
      ],
      [
        "children",
        -8.403231827951172
      ],
      [
        "2006",
        -8.403783731616597
      ],
      [
        "develop",
        -8.404689103016873
      ],
      [
        "2020",
        -8.405504765154156
      ],
      [
        "La",
        -8.406932659380844
      ],
      [
        "level",
        -8.408278633072634
      ],
      [
        "million",
        -8.413567313259028
      ],
      [
        "still",
        -8.414812676364848
      ],
      [
        "major",
        -8.418128416388331
      ],
      [
        "very",
        -8.421453024035934
      ],
      [
        "help",
        -8.422969785228812
      ],
      [
        "English",
        -8.42322926921728
      ],
      [
        "complete",
        -8.42353798836076
      ],
      [
        "US",
        -8.424266477502648
      ],
      [
        "become",
        -8.425589494119395
      ],
      [
        "case",
        -8.427140356968655
      ],
      [
        "power",
        -8.427239241319427
      ],
      [
        "histor",
        -8.427287443532919
      ],
      [
        "International",
        -8.432587145701218
      ],
      [
        "position",
        -8.432994533566443
      ],
      [
        "ion",
        -8.433729178401798
      ],
      [
        "24",
        -8.435696960076799
      ],
      [
        "those",
        -8.436420410346233
      ],
      [
        "No",
        -8.436716890211716
      ],
      [
        "Championship",
        -8.43673107096434
      ],
      [
        "22",
        -8.438514556728412
      ],
      [
        "program",
        -8.442460502512553
      ],
      [
        "District",
        -8.444378328538782
      ],
      [
        "top",
        -8.445913130204916
      ],
      [
        "law",
        -8.447269002902141
      ],
      [
        "north",
        -8.450667986188503
      ],
      [
        "II",
        -8.4506790597207
      ],
      [
        "month",
        -8.45531564861761
      ],
      [
        "another",
        -8.457423573223851
      ],
      [
        "wide",
        -8.459379040689173
      ],
      [
        "what",
        -8.46028709556852
      ],
      [
        "women",
        -8.46433844635295
      ],
      [
        "short",
        -8.473291135730083
      ],
      [
        "issue",
        -8.475808930077699
      ],
      [
        "—",
        -8.478858542948903
      ],
      [
        "make",
        -8.479661814448564
      ],
      [
        "went",
        -8.480785501824847
      ],
      [
        "21",
        -8.4817780770609
      ],
      [
        "order",
        -8.484283579689196
      ],
      [
        "great",
        -8.484301975030963
      ],
      [
        "role",
        -8.485168300488294
      ],
      [
        "different",
        -8.4870923400872
      ],
      [
        "period",
        -8.488200055863555
      ],
      [
        "San",
        -8.491032255923761
      ],
      [
        "London",
        -8.494228860848512
      ],
      [
        "father",
        -8.494437363241028
      ],
      [
        "consider",
        -8.499967792187213
      ],
      [
        "perform",
        -8.502383075439164
      ],
      [
        "produce",
        -8.504437140114652
      ],
      [
        "An",
        -8.507275380881802
      ],
      [
        "When",
        -8.508464367323677
      ],
      [
        "among",
        -8.508930391017206
      ],
      [
        "House",
        -8.50948247244939
      ],
      [
        "air",
        -8.511105527881547
      ],
      [
        "describe",
        -8.512323355206854
      ],
      [
        "project",
        -8.516310832800595
      ],
      [
        "ten",
        -8.520373720665
      ],
      [
        "signed",
        -8.521300838054211
      ],
      [
        "south",
        -8.52141998652982
      ],
      [
        "Cup",
        -8.521822344513726
      ],
      [
        "best",
        -8.524321315076566
      ],
      [
        "often",
        -8.525220988647382
      ],
      [
        "100",
        -8.528938999573596
      ],
      [
        "region",
        -8.535573641927883
      ],
      [
        "create",
        -8.536112555115544
      ],
      [
        "country",
        -8.53932517086422
      ],
      [
        "character",
        -8.541449171896485
      ],
      [
        "ation",
        -8.542214784317787
      ],
      [
        "ch",
        -8.547698826112967
      ],
      [
        "version",
        -8.548045855053523
      ],
      [
        "previous",
        -8.549151438858734
      ],
      [
        "language",
        -8.549763907053977
      ],
      [
        "Park",
        -8.552118410964217
      ],
      [
        "Al",
        -8.5547472172619
      ],
      [
        "business",
        -8.554906485874566
      ],
      [
        "full",
        -8.56117459050191
      ],
      [
        "One",
        -8.561731682179003
      ],
      [
        "total",
        -8.562362013238758
      ],
      [
        "church",
        -8.56604630299241
      ],
      [
        "six",
        -8.56604955081514
      ],
      [
        "x",
        -8.569091100006954
      ],
      [
        "even",
        -8.569322886185233
      ],
      [
        "round",
        -8.571162200221064
      ],
      [
        "represent",
        -8.582728354479487
      ],
      [
        "score",
        -8.582745051205736
      ],
      [
        "just",
        -8.583073158131226
      ],
      [
        "East",
        -8.584600902153614
      ],
      [
        "2000",
        -8.585298098722806
      ],
      [
        "attack",
        -8.585578463432164
      ],
      [
        "take",
        -8.587321395466903
      ],
      [
        "common",
        -8.588235576962623
      ],
      [
        "development",
        -8.5888834058211
      ],
      [
        "marrie",
        -8.59128070828335
      ],
      [
        "production",
        -8.600633863233558
      ],
      [
        "announce",
        -8.604626230644959
      ],
      [
        "ism",
        -8.606423731879403
      ],
      [
        "run",
        -8.608539340254193
      ],
      [
        "young",
        -8.612288281091962
      ],
      [
        "art",
        -8.612954378296287
      ],
      [
        "much",
        -8.616980988809146
      ],
      [
        "remain",
        -8.617324308759995
      ],
      [
        "\")",
        -8.618784943005771
      ],
      [
        "games",
        -8.62123115644975
      ],
      [
        "rote",
        -8.622161254701613
      ],
      [
        "ness",
        -8.62669030165178
      ],
      [
        "general",
        -8.630787958794999
      ],
      [
        "right",
        -8.633731335686225
      ],
      [
        "debut",
        -8.636071983288627
      ],
      [
        "half",
        -8.63611919625642
      ],
      [
        "ritten",
        -8.637537434055224
      ],
      [
        "having",
        -8.638679984526943
      ],
      [
        "Re",
        -8.639663973001891
      ],
      [
        "worked",
        -8.641105466786252
      ],
      [
        "William",
        -8.641183270238468
      ],
      [
        "European",
        -8.643806415744653
      ],
      [
        "given",
        -8.64474120515816
      ],
      [
        "General",
        -8.645334267615201
      ],
      [
        "England",
        -8.646415362489686
      ],
      [
        "To",
        -8.646786542463591
      ],
      [
        "contain",
        -8.647373749561142
      ],
      [
        "official",
        -8.64874724797558
      ],
      [
        "next",
        -8.650023709677669
      ],
      [
        "From",
        -8.651073155593314
      ],
      [
        "2021",
        -8.651571828121007
      ],
      [
        "car",
        -8.655780684391408
      ],
      [
        "23",
        -8.656692893477793
      ],
      [
        "elected",
        -8.661061381718946
      ],
      [
        "am",
        -8.661664134034725
      ],
      [
        "various",
        -8.66254378734323
      ],
      [
        "De",
        -8.663066793608417
      ],
      [
        "office",
        -8.664454688555525
      ],
      [
        "(\"",
        -8.666495203383796
      ],
      [
        "using",
        -8.667479620410177
      ],
      [
        "By",
        -8.667874342080625
      ],
      [
        "France",
        -8.66858370805598
      ],
      [
        "High",
        -8.669326441625119
      ],
      [
        "political",
        -8.670107738587932
      ],
      [
        "claim",
        -8.670289960500554
      ],
      [
        "26",
        -8.672403841387332
      ],
      [
        "28",
        -8.674007979501924
      ],
      [
        "Street",
        -8.68126780708245
      ],
      [
        "2004",
        -8.68232226239016
      ],
      [
        "These",
        -8.684393244936842
      ],
      [
        "Council",
        -8.685003980224295
      ],
      [
        "win",
        -8.685485890600399
      ],
      [
        "Church",
        -8.686120063607941
      ],
      [
        "27",
        -8.691222052456853
      ],
      [
        "Australia",
        -8.693557140755775
      ],
      [
        "King",
        -8.693654102672614
      ],
      [
        "President",
        -8.69641252532112
      ],
      [
        "X",
        -8.696970108857306
      ],
      [
        "east",
        -8.69813688575818
      ],
      [
        "popular",
        -8.699960156545865
      ],
      [
        "low",
        -8.703377842643981
      ],
      [
        "site",
        -8.704300805070577
      ],
      [
        "president",
        -8.705995529509337
      ],
      [
        "professional",
        -8.708661615500311
      ],
      [
        "Party",
        -8.708847887369137
      ],
      [
        "follow",
        -8.709752826070405
      ],
      [
        "international",
        -8.71337076495208
      ],
      [
        "lead",
        -8.714031972433151
      ],
      [
        "Division",
        -8.715294434769628
      ],
      [
        "every",
        -8.71536819768358
      ],
      [
        "Army",
        -8.721332749856174
      ],
      [
        "match",
        -8.721880178386652
      ],
      [
        "India",
        -8.722483114300932
      ],
      [
        "west",
        -8.72390055705521
      ],
      [
        "increase",
        -8.725522908878533
      ],
      [
        "studie",
        -8.727169415603372
      ],
      [
        "James",
        -8.728069136794694
      ],
      [
        "According",
        -8.73017702800311
      ],
      [
        "29",
        -8.732867369300562
      ],
      [
        "ally",
        -8.733762913318229
      ],
      [
        "post",
        -8.73554051573727
      ],
      [
        "continued",
        -8.735560377529834
      ],
      [
        "militar",
        -8.73640803724241
      ],
      [
        "With",
        -8.738614940890779
      ],
      [
        "artist",
        -8.740068596599409
      ],
      [
        "George",
        -8.74170679067278
      ],
      [
        "Her",
        -8.75469355058942
      ],
      [
        "style",
        -8.756336559860673
      ],
      [
        "live",
        -8.75682193509166
      ],
      [
        "few",
        -8.76009661979025
      ],
      [
        "research",
        -8.76407760602991
      ],
      [
        "performance",
        -8.766440442940711
      ],
      [
        "TV",
        -8.767208472499508
      ],
      [
        "lost",
        -8.767611667625745
      ],
      [
        "ship",
        -8.770809048409626
      ],
      [
        "example",
        -8.774675421587073
      ],
      [
        "1990",
        -8.776676878190163
      ],
      [
        "publish",
        -8.776805284212863
      ],
      [
        "episode",
        -8.777241009282305
      ],
      [
        "ha",
        -8.779054191960297
      ],
      [
        "average",
        -8.7801237012434
      ],
      [
        "50",
        -8.784006102369268
      ],
      [
        "America",
        -8.784225433501245
      ],
      [
        "director",
        -8.787626153195294
      ],
      [
        "video",
        -8.790173599285861
      ],
      [
        "students",
        -8.79101106380159
      ],
      [
        "class",
        -8.793196592551093
      ],
      [
        "body",
        -8.797228139580147
      ],
      [
        "control",
        -8.80056856470956
      ],
      [
        "making",
        -8.803175728620868
      ],
      [
        "together",
        -8.804081520804507
      ],
      [
        "coach",
        -8.805213373328353
      ],
      [
        "close",
        -8.805772614807829
      ],
      [
        "Z",
        -8.807808013679153
      ],
      [
        "stage",
        -8.809088092484123
      ],
      [
        "individual",
        -8.812015593274436
      ],
      [
        "story",
        -8.812332996940981
      ],
      [
        "California",
        -8.813080398043901
      ],
      [
        "attempt",
        -8.813880260633049
      ],
      [
        "daughter",
        -8.814115284088052
      ],
      [
        "kill",
        -8.817522464993601
      ],
      [
        "refer",
        -8.817560077080415
      ],
      [
        "enter",
        -8.818084140673172
      ],
      [
        "within",
        -8.818371436934576
      ],
      [
        "television",
        -8.821912351505162
      ],
      [
        "education",
        -8.825076072342284
      ],
      [
        "coming",
        -8.825902918717853
      ],
      [
        "female",
        -8.829222745143177
      ],
      [
        "party",
        -8.830209817636254
      ],
      [
        "human",
        -8.8339925493823
      ],
      [
        "light",
        -8.840924585330695
      ],
      [
        "similar",
        -8.841732037502513
      ],
      [
        "Indian",
        -8.84219173716144
      ],
      [
        "Canada",
        -8.843649071240662
      ],
      [
        "turn",
        -8.844239089039664
      ],
      [
        "track",
        -8.844909409375136
      ],
      [
        "league",
        -8.845250203059939
      ],
      [
        "operation",
        -8.845423416668666
      ],
      [
        "publishe",
        -8.845909353157285
      ],
      [
        "race",
        -8.846313809385256
      ],
      [
        "ance",
        -8.846681601014811
      ],
      [
        "wife",
        -8.849568549538455
      ],
      [
        "further",
        -8.84999381526024
      ],
      [
        "market",
        -8.850591465093434
      ],
      [
        "Air",
        -8.852109714754233
      ],
      [
        "consist",
        -8.852504131021552
      ],
      [
        "mov",
        -8.854408567373527
      ],
      [
        "particular",
        -8.856659505324766
      ],
      [
        "works",
        -8.858078599909158
      ],
      [
        "important",
        -8.858867039974164
      ],
      [
        "Club",
        -8.861269754202622
      ],
      [
        "Association",
        -8.863890338810657
      ],
      [
        "Royal",
        -8.864139032779226
      ],
      [
        "model",
        -8.865992462020083
      ],
      [
        "addition",
        -8.866623610443868
      ],
      [
        "process",
        -8.867368565918472
      ],
      [
        "2003",
        -8.867741704770625
      ],
      [
        "working",
        -8.870211095156405
      ],
      [
        "plant",
        -8.871091366681716
      ],
      [
        "cover",
        -8.872305488760963
      ],
      [
        "Road",
        -8.874145191869728
      ],
      [
        "free",
        -8.874754900389753
      ],
      [
        "center",
        -8.879484436935588
      ],
      [
        "2002",
        -8.88050650567421
      ],
      [
        "Australian",
        -8.881039008723626
      ],
      [
        "Union",
        -8.881938598782696
      ],
      [
        "good",
        -8.881996445489095
      ],
      [
        "social",
        -8.882852714769141
      ],
      [
        "ma",
        -8.883449536616624
      ],
      [
        "1980",
        -8.884455597907811
      ],
      [
        "40",
        -8.885526920361185
      ],
      [
        "interest",
        -8.893199859944366
      ],
      [
        "While",
        -8.896359454419034
      ],
      [
        "2001",
        -8.89657603226859
      ],
      [
        "Man",
        -8.898987936130835
      ],
      [
        "days",
        -8.900486350156564
      ],
      [
        "31",
        -8.902334363026148
      ],
      [
        "Early",
        -8.903590860811837
      ],
      [
        "though",
        -8.90627241193311
      ],
      [
        "Some",
        -8.907653005395828
      ],
      [
        "Co",
        -8.907664120560879
      ],
      [
        "appearance",
        -8.908199826940558
      ],
      [
        "“",
        -8.909176609713258
      ],
      [
        "study",
        -8.913362686454246
      ],
      [
        "reported",
        -8.913627971469174
      ],
      [
        "seat",
        -8.914614241264607
      ],
      [
        "reach",
        -8.916917342710983
      ],
      [
        "193",
        -8.91885907623865
      ],
      [
        "playing",
        -8.919008147835028
      ],
      [
        "thing",
        -8.919424322925508
      ],
      [
        "Robert",
        -8.920166383374452
      ],
      [
        "ground",
        -8.921205302206191
      ],
      [
        "ley",
        -8.923493220124993
      ],
      [
        "Le",
        -8.926193861700925
      ],
      [
        "board",
        -8.928431642568746
      ],
      [
        "road",
        -8.928885689949109
      ],
      [
        "act",
        -8.931270969078508
      ],
      [
        "finish",
        -8.932273410431524
      ],
      [
        "organization",
        -8.933339564897834
      ],
      [
        "action",
        -8.935666577638163
      ],
      [
        "1970",
        -8.936232869366512
      ],
      [
        "Y",
        -8.946712299035779
      ],
      [
        "operate",
        -8.948128264522497
      ],
      [
        "Great",
        -8.950857200450148
      ],
      [
        "mid",
        -8.95105691939808
      ],
      [
        "degree",
        -8.953235853801853
      ],
      [
        "away",
        -8.954296543217607
      ],
      [
        "structure",
        -8.955078243847582
      ],
      [
        "mother",
        -8.955419302076885
      ],
      [
        "me",
        -8.956962096371376
      ],
      [
        "space",
        -8.95734125534492
      ],
      [
        "Paul",
        -8.959284379741003
      ],
      [
        "First",
        -8.959395372593708
      ],
      [
        "Court",
        -8.959421620137428
      ],
      [
        "ville",
        -8.960341426603
      ],
      [
        "white",
        -8.961246652099751
      ],
      [
        "Group",
        -8.96132237635051
      ],
      [
        "living",
        -8.961626031869239
      ],
      [
        "Company",
        -8.962499076024477
      ],
      [
        "David",
        -8.965588894689901
      ],
      [
        "across",
        -8.965955546680856
      ],
      [
        "Hall",
        -8.967795518671732
      ],
      [
        "ran",
        -8.968698809119042
      ],
      [
        "person",
        -8.968940259543654
      ],
      [
        "activit",
        -8.974301990312071
      ],
      [
        "report",
        -8.975075832808567
      ],
      [
        "never",
        -8.976009041135235
      ],
      [
        "section",
        -8.977894684221502
      ],
      [
        "saw",
        -8.978728245604257
      ],
      [
        "campaign",
        -8.98025565238716
      ],
      [
        "China",
        -8.983335102641197
      ],
      [
        "lthough",
        -8.983854763275588
      ],
      [
        "Act",
        -8.984942782420502
      ],
      [
        "espite",
        -8.987644079772622
      ],
      [
        "wood",
        -8.989308724059049
      ],
      [
        "successful",
        -8.9905850807286
      ],
      [
        "Central",
        -8.991017102271522
      ],
      [
        "initial",
        -8.99205114641785
      ],
      [
        "Music",
        -8.992514134964356
      ],
      [
        "appointe",
        -8.993931729997277
      ],
      [
        "km",
        -8.995642900232626
      ],
      [
        "review",
        -8.99740734160853
      ],
      [
        "special",
        -8.999087539137111
      ],
      [
        "available",
        -8.999276394250836
      ],
      [
        "contract",
        -9.000530413088299
      ],
      [
        "gave",
        -9.000731536980043
      ],
      [
        "Europe",
        -9.00722015612259
      ],
      [
        "need",
        -9.00776599294425
      ],
      [
        "Thomas",
        -9.00839321826924
      ],
      [
        "stead",
        -9.009348516092569
      ],
      [
        "Other",
        -9.009656444031302
      ],
      [
        "taken",
        -9.012350206408605
      ],
      [
        "hi",
        -9.013206952987101
      ],
      [
        "court",
        -9.013748173646869
      ],
      [
        "Russian",
        -9.013959928491209
      ],
      [
        "fire",
        -9.01474795570921
      ],
      [
        "limit",
        -9.014935880853063
      ],
      [
        "real",
        -9.017545221427225
      ],
      [
        "modern",
        -9.017560068641078
      ],
      [
        "pre",
        -9.017829023826767
      ],
      [
        "]",
        -9.018849395180354
      ],
      [
        "1999",
        -9.0199252190214
      ],
      [
        "UK",
        -9.021464012481278
      ],
      [
        "put",
        -9.022789064108487
      ],
      [
        "visit",
        -9.02377335968855
      ],
      [
        "Center",
        -9.02408219270056
      ],
      [
        "Department",
        -9.027968275477964
      ],
      [
        "should",
        -9.02865378042416
      ],
      [
        "front",
        -9.028748055593478
      ],
      [
        "week",
        -9.029874690770086
      ],
      [
        "Charles",
        -9.031746439376064
      ],
      [
        "get",
        -9.032224605435655
      ],
      [
        "either",
        -9.03391390119171
      ],
      [
        "novel",
        -9.036148260890986
      ],
      [
        "division",
        -9.037142411128327
      ],
      [
        "El",
        -9.040265893796061
      ],
      [
        "Black",
        -9.040524940684163
      ],
      [
        "effect",
        -9.042156313655564
      ],
      [
        "regular",
        -9.042262846285523
      ],
      [
        "Island",
        -9.043877674825723
      ],
      [
        "ham",
        -9.044520396954846
      ],
      [
        "significant",
        -9.04578040309471
      ],
      [
        "ur",
        -9.046102549859505
      ],
      [
        "black",
        -9.046406186449529
      ],
      [
        "Western",
        -9.046466390948776
      ],
      [
        "range",
        -9.046864056827808
      ],
      [
        "shire",
        -9.047605128464614
      ],
      [
        "Roman",
        -9.049705133200291
      ],
      [
        "once",
        -9.050735229013137
      ],
      [
        "brother",
        -9.051397785190208
      ],
      [
        "route",
        -9.051843264429344
      ],
      [
        "night",
        -9.052344195469873
      ],
      [
        "active",
        -9.05268142971034
      ],
      [
        "hour",
        -9.052998417582728
      ],
      [
        "construction",
        -9.053163683764158
      ],
      [
        "é",
        -9.053277137021599
      ],
      [
        "Institute",
        -9.054939271290305
      ],
      [
        "launch",
        -9.058554416549661
      ],
      [
        "Lake",
        -9.058770718307056
      ],
      [
        "sold",
        -9.058978631403534
      ],
      [
        "propert",
        -9.059216560063287
      ],
      [
        "college",
        -9.059839421970409
      ],
      [
        "private",
        -9.060607317125577
      ],
      [
        "Minister",
        -9.063277296495457
      ],
      [
        "eight",
        -9.064739804348605
      ],
      [
        "Canadian",
        -9.064965732655958
      ],
      [
        "leading",
        -9.065956511997523
      ],
      [
        "size",
        -9.066688079323335
      ],
      [
        "()",
        -9.066954560127314
      ],
      [
        "offer",
        -9.067215781643796
      ],
      [
        "ability",
        -9.069389869475732
      ],
      [
        "receiv",
        -9.069540045393362
      ],
      [
        "host",
        -9.07055628965568
      ],
      [
        "=",
        -9.07346047074998
      ],
      [
        "course",
        -9.075854707227336
      ],
      [
        "does",
        -9.07616582701204
      ],
      [
        "mean",
        -9.077364143044365
      ],
      [
        "Art",
        -9.078579842108201
      ],
      [
        "strong",
        -9.080747527028919
      ],
      [
        "African",
        -9.08297634644828
      ],
      [
        "attend",
        -9.083017967948564
      ],
      [
        "give",
        -9.084404601944307
      ],
      [
        "Ma",
        -9.086036718450202
      ],
      [
        "try",
        -9.087786927950091
      ],
      [
        "usual",
        -9.088781190915658
      ],
      [
        "sent",
        -9.088950151100532
      ],
      [
        "Washington",
        -9.090649547351372
      ],
      [
        "times",
        -9.091463242415845
      ],
      [
        "park",
        -9.09173290735762
      ],
      [
        "Although",
        -9.091862651631107
      ],
      [
        "1996",
        -9.09221845094812
      ],
      [
        "Force",
        -9.09263815608844
      ],
      [
        "require",
        -9.094839048550414
      ],
      [
        "remained",
        -9.094941956203492
      ],
      [
        "practice",
        -9.09542671279586
      ],
      [
        "White",
        -9.095752167100779
      ],
      [
        "ial",
        -9.096076657899365
      ],
      [
        "location",
        -9.09637791620163
      ],
      [
        "seven",
        -9.097400361425372
      ],
      [
        "Since",
        -9.097707713678272
      ],
      [
        "radio",
        -9.099307662222948
      ],
      [
        "writer",
        -9.100764736770937
      ],
      [
        "ous",
        -9.102061374076222
      ],
      [
        "ary",
        -9.102500894863528
      ],
      [
        "Chinese",
        -9.103033645503487
      ],
      [
        "influence",
        -9.104593413742524
      ],
      [
        "ive",
        -9.104937629382064
      ],
      [
        "movement",
        -9.10575239667971
      ],
      [
        "gan",
        -9.106587500448944
      ],
      [
        "[",
        -9.10682473708517
      ],
      [
        "!",
        -9.1082061442782
      ],
      [
        "Me",
        -9.10860456548875
      ],
      [
        "material",
        -9.108958435783187
      ],
      [
        "discover",
        -9.109140035310574
      ],
      [
        "seen",
        -9.113260762311402
      ],
      [
        "subsequent",
        -9.115204604852032
      ],
      [
        "anti",
        -9.117372356178535
      ],
      [
        "tour",
        -9.117472527783468
      ],
      [
        "minute",
        -9.119537697559583
      ],
      [
        "j",
        -9.119865782002666
      ],
      [
        "training",
        -9.120552157597583
      ],
      [
        "1960",
        -9.123219101650172
      ],
      [
        "Italian",
        -9.123757219896163
      ],
      [
        "writing",
        -9.123841327407117
      ],
      [
        "areas",
        -9.124435669063004
      ],
      [
        "im",
        -9.126151035857994
      ],
      [
        "entire",
        -9.128010476176357
      ],
      [
        "du",
        -9.12874257533511
      ],
      [
        "central",
        -9.135000639695795
      ],
      [
        "1997",
        -9.135002379220843
      ],
      [
        "eventually",
        -9.135114917824687
      ],
      [
        "Red",
        -9.135810872901047
      ],
      [
        "experience",
        -9.13786894115966
      ],
      [
        "recent",
        -9.138253739382954
      ],
      [
        "ka",
        -9.138348794760038
      ],
      [
        "We",
        -9.138573252725443
      ],
      [
        "network",
        -9.138922395038168
      ],
      [
        "Dr",
        -9.139031570217076
      ],
      [
        "you",
        -9.139357466670933
      ],
      [
        "Bay",
        -9.139617105398017
      ],
      [
        "teams",
        -9.139739928701202
      ],
      [
        "want",
        -9.14046029478937
      ],
      [
        "cut",
        -9.141177259149757
      ],
      [
        "health",
        -9.141945905353763
      ],
      [
        "met",
        -9.14230920329782
      ],
      [
        "share",
        -9.142639099793996
      ],
      [
        "media",
        -9.14282226061766
      ],
      [
        "type",
        -9.143111020645877
      ],
      [
        "competition",
        -9.146797414103943
      ],
      [
        "List",
        -9.146855293735385
      ],
      [
        "countr",
        -9.147688288460948
      ],
      [
        "Academy",
        -9.148143513860125
      ],
      [
        "Michael",
        -9.148913696997633
      ],
      [
        "leave",
        -9.14942951240882
      ],
      [
        "test",
        -9.151548968046631
      ],
      [
        "ca",
        -9.151667481431799
      ],
      [
        "island",
        -9.151705679477521
      ],
      [
        "author",
        -9.156779916357532
      ],
      [
        "Catholic",
        -9.15789738974925
      ],
      [
        "Saint",
        -9.158272163933674
      ],
      [
        "via",
        -9.15842789241836
      ],
      [
        "Society",
        -9.159109060713881
      ],
      [
        "standard",
        -9.163536374228237
      ],
      [
        "problem",
        -9.1635440317477
      ],
      [
        "information",
        -9.16374569282967
      ],
      [
        "engine",
        -9.164975110105903
      ],
      [
        "familie",
        -9.170682920500434
      ],
      [
        "railway",
        -9.172241222366182
      ],
      [
        "date",
        -9.175007997781222
      ],
      [
        "believe",
        -9.175557920014022
      ],
      [
        "rock",
        -9.176063952881318
      ],
      [
        "must",
        -9.176991378133865
      ],
      [
        "1995",
        -9.178232086984334
      ],
      [
        "fourth",
        -9.178845082902846
      ],
      [
        "tournament",
        -9.181871155406139
      ],
      [
        "added",
        -9.18208030442035
      ],
      [
        "police",
        -9.182140999111642
      ],
      [
        "Green",
        -9.184469679883051
      ],
      [
        "ready",
        -9.18518645291507
      ],
      [
        "winning",
        -9.185366090956311
      ],
      [
        "Film",
        -9.185869497751378
      ],
      [
        "larges",
        -9.188365867138128
      ],
      [
        "Christian",
        -9.188603882041056
      ],
      [
        "1992",
        -9.189379139106892
      ],
      [
        "Science",
        -9.189607069655233
      ],
      [
        "product",
        -9.190953681526665
      ],
      [
        "Record",
        -9.191093480466584
      ],
      [
        "aircraft",
        -9.191661304975186
      ],
      [
        "separate",
        -9.193506808830067
      ],
      [
        "cost",
        -9.193972109861154
      ],
      [
        "Africa",
        -9.194644378735902
      ],
      [
        "goal",
        -9.194656215835083
      ],
      [
        "far",
        -9.194733473655225
      ],
      [
        "river",
        -9.195475247678807
      ],
      [
        "associate",
        -9.197703830368518
      ],
      [
        "gain",
        -9.198610524779962
      ],
      [
        "songs",
        -9.19961086076745
      ],
      [
        "specific",
        -9.20271575891731
      ],
      [
        "hit",
        -9.203364301572163
      ],
      [
        "lower",
        -9.204050942194065
      ],
      [
        "Republic",
        -9.204076671226304
      ],
      [
        "Best",
        -9.2059922847672
      ],
      [
        "related",
        -9.20605965294084
      ],
      [
        "198",
        -9.207711813965517
      ],
      [
        "rank",
        -9.20799071154507
      ],
      [
        "ment",
        -9.209162846181695
      ],
      [
        "household",
        -9.209876602276848
      ],
      [
        "Peter",
        -9.210182574413787
      ],
      [
        "condition",
        -9.2106564537398
      ],
      [
        "collection",
        -9.213231046655443
      ],
      [
        "sub",
        -9.214069306510568
      ],
      [
        "function",
        -9.215032009755523
      ],
      [
        "above",
        -9.215945974631481
      ],
      [
        "ve",
        -9.219383497485719
      ],
      [
        "Grand",
        -9.219628956815248
      ],
      [
        "accept",
        -9.221929884457808
      ],
      [
        "Los",
        -9.22231101739833
      ],
      [
        "Women",
        -9.222755758743792
      ],
      [
        "Star",
        -9.224008613989708
      ],
      [
        "decided",
        -9.228338341077178
      ],
      [
        "creat",
        -9.228749023655727
      ],
      [
        "centre",
        -9.229490153211888
      ],
      [
        "census",
        -9.2312262197086
      ],
      [
        "traditional",
        -9.2328368268022
      ],
      [
        "defeated",
        -9.232878493962072
      ],
      [
        "magazine",
        -9.233235386910199
      ],
      [
        "pass",
        -9.235036959835718
      ],
      [
        "regard",
        -9.236009461756359
      ],
      [
        "hold",
        -9.236143598243821
      ],
      [
        "continue",
        -9.23649703705108
      ],
      [
        "value",
        -9.238151911474109
      ],
      [
        "Football",
        -9.238935420674117
      ],
      [
        "upon",
        -9.24021488315246
      ],
      [
        "1994",
        -9.240321005035863
      ],
      [
        "rather",
        -9.242420672222469
      ],
      [
        "effort",
        -9.244252476698701
      ],
      [
        "1st",
        -9.246400495233353
      ],
      [
        "western",
        -9.247019262546413
      ],
      [
        "ask",
        -9.248162042571833
      ],
      [
        "culture",
        -9.248316344682824
      ],
      [
        "ought",
        -9.248737521525706
      ],
      [
        "our",
        -9.249846631564857
      ],
      [
        "focus",
        -9.250273296983535
      ],
      [
        "1993",
        -9.25098451856378
      ],
      [
        "suggest",
        -9.252643525843656
      ],
      [
        "owned",
        -9.252732119178143
      ],
      [
        "replace",
        -9.253035259621115
      ],
      [
        "Education",
        -9.25309495024649
      ],
      [
        "trade",
        -9.255033046955266
      ],
      [
        "least",
        -9.256007803836294
      ],
      [
        "ory",
        -9.256325094868561
      ],
      [
        "Spanis",
        -9.256635450307735
      ],
      [
        "Career",
        -9.256702116289258
      ],
      [
        "Museum",
        -9.257041291347726
      ],
      [
        "love",
        -9.25750783482454
      ],
      [
        "subject",
        -9.258593408317335
      ],
      [
        "annual",
        -9.259697308670713
      ],
      [
        "Smith",
        -9.259999415578303
      ],
      [
        "success",
        -9.261314812586932
      ],
      [
        "Kingdom",
        -9.263282356181927
      ],
      [
        "studio",
        -9.264440673860468
      ],
      [
        "data",
        -9.264895081564799
      ],
      [
        "60",
        -9.265743083427218
      ],
      [
        "Henry",
        -9.26662842593144
      ],
      [
        "998",
        -9.266684908463585
      ],
      [
        "view",
        -9.272113850278965
      ],
      [
        "1991",
        -9.272724513535259
      ],
      [
        "groups",
        -9.273261113498178
      ],
      [
        "come",
        -9.274008695021589
      ],
      [
        "Q",
        -9.274378439791604
      ],
      [
        "Follow",
        -9.276774062699443
      ],
      [
        "Committee",
        -9.278009690260383
      ],
      [
        "Mary",
        -9.278059482884034
      ],
      [
        "Ireland",
        -9.278441046815772
      ],
      [
        "decision",
        -9.278858241301524
      ],
      [
        "facilit",
        -9.278990014722849
      ],
      [
        "approximate",
        -9.2792824976324
      ],
      [
        "universit",
        -9.279796574911462
      ],
      [
        "stone",
        -9.281451636710111
      ],
      [
        "broadcast",
        -9.281800551208605
      ],
      [
        "length",
        -9.28248346223987
      ],
      [
        "Hill",
        -9.284689989495892
      ],
      [
        "involve",
        -9.285885435171583
      ],
      [
        "travel",
        -9.286633890433693
      ],
      [
        "Richard",
        -9.287417540391337
      ],
      [
        "Texa",
        -9.287474314687472
      ],
      [
        "conduct",
        -9.288286507498126
      ],
      [
        "Soviet",
        -9.289523727463578
      ],
      [
        "35",
        -9.289964097590037
      ],
      [
        "bar",
        -9.290203993308308
      ],
      [
        "championship",
        -9.290622035626575
      ],
      [
        "capital",
        -9.291291430190219
      ],
      [
        "border",
        -9.291876641053367
      ],
      [
        "Later",
        -9.29542638362874
      ],
      [
        "Super",
        -9.295756263840186
      ],
      [
        "northern",
        -9.296431091083003
      ],
      [
        "economic",
        -9.296703510757716
      ],
      [
        "Government",
        -9.297301013985027
      ],
      [
        "rights",
        -9.298088274050265
      ],
      [
        "commercial",
        -9.298585279306895
      ],
      [
        "command",
        -9.298593822581616
      ],
      [
        "compete",
        -9.298781436733341
      ],
      [
        "Paris",
        -9.299476395470318
      ],
      [
        "behind",
        -9.299886145016643
      ],
      [
        "pent",
        -9.300369636386662
      ],
      [
        "ge",
        -9.300985639117444
      ],
      [
        "port",
        -9.301721983981514
      ],
      [
        "unit",
        -9.303957893159915
      ],
      [
        "Life",
        -9.30455916727459
      ],
      [
        "singer",
        -9.306486382062904
      ],
      [
        "independent",
        -9.307009643275958
      ],
      [
        "southern",
        -9.30903623963187
      ],
      [
        "beginning",
        -9.311232483131537
      ],
      [
        "ter",
        -9.311683181774386
      ],
      [
        "summer",
        -9.312127811288626
      ],
      [
        "Men",
        -9.313485061132392
      ],
      [
        "Summer",
        -9.314282605455126
      ],
      [
        "figure",
        -9.316524826697417
      ],
      [
        "municipalit",
        -9.321208736860841
      ],
      [
        "child",
        -9.321217492917375
      ],
      [
        "parent",
        -9.321226545632497
      ],
      [
        "introduce",
        -9.321717128459845
      ],
      [
        "rest",
        -9.322270986405364
      ],
      [
        "industr",
        -9.323808873911034
      ],
      [
        "natural",
        -9.324482010221061
      ],
      [
        "500",
        -9.3273475982236
      ],
      [
        "deal",
        -9.328357157837988
      ],
      [
        "taking",
        -9.3285602836143
      ],
      [
        "relationship",
        -9.329444207531548
      ],
      [
        "others",
        -9.329600084186213
      ],
      [
        "personal",
        -9.33166834169744
      ],
      [
        "rule",
        -9.332356401913556
      ],
      [
        "brought",
        -9.334751216112554
      ],
      [
        "room",
        -9.33507298347756
      ],
      [
        "almost",
        -9.335681321593736
      ],
      [
        "ves",
        -9.337561853775131
      ],
      [
        "Two",
        -9.338430062300075
      ],
      [
        "candidate",
        -9.338754207440587
      ],
      [
        "Zealand",
        -9.338759747024529
      ],
      [
        "gun",
        -9.339899737073807
      ],
      [
        "friend",
        -9.342061066461481
      ],
      [
        "leader",
        -9.34258342616447
      ],
      [
        "Go",
        -9.34307415827389
      ],
      [
        "lived",
        -9.343105041449732
      ],
      [
        "bridge",
        -9.343128050426245
      ],
      [
        "Day",
        -9.34354129708219
      ],
      [
        "grow",
        -9.343600470588001
      ],
      [
        "Most",
        -9.344217342922542
      ],
      [
        "ki",
        -9.349967530706675
      ],
      [
        "sister",
        -9.350512057557276
      ],
      [
        "meeting",
        -9.351527254034183
      ],
      [
        "Festival",
        -9.354190892013477
      ],
      [
        "possible",
        -9.354402532891186
      ],
      [
        "victor",
        -9.354633357625683
      ],
      [
        "method",
        -9.355144128568051
      ],
      [
        "defeat",
        -9.356897728519062
      ],
      [
        "fall",
        -9.360078486406692
      ],
      [
        "You",
        -9.360969460855998
      ],
      [
        "promote",
        -9.361522214648504
      ],
      [
        "resident",
        -9.363400054514662
      ],
      [
        "according",
        -9.363848000513403
      ],
      [
        "Virginia",
        -9.364798319534106
      ],
      [
        "soon",
        -9.366550177362512
      ],
      [
        "maintain",
        -9.367093411242243
      ],
      [
        "running",
        -9.367166917141327
      ],
      [
        "Rock",
        -9.36830321674288
      ],
      [
        "grant",
        -9.368520019803846
      ],
      [
        "woman",
        -9.369341688855478
      ],
      [
        "legal",
        -9.3695212388612
      ],
      [
        "Sea",
        -9.369928473531091
      ],
      [
        "cast",
        -9.370266173010336
      ],
      [
        "primary",
        -9.371273676408942
      ],
      [
        "access",
        -9.374755661998067
      ],
      [
        "sometime",
        -9.37484534321128
      ],
      [
        "color",
        -9.376116851210433
      ],
      [
        "ke",
        -9.37656246677547
      ],
      [
        "Battle",
        -9.37736097761406
      ],
      [
        "chief",
        -9.380402120425886
      ],
      [
        "thus",
        -9.386213572583424
      ],
      [
        "senior",
        -9.386744510364073
      ],
      [
        "Chicago",
        -9.386746427366923
      ],
      [
        "coast",
        -9.38680220238334
      ],
      [
        "1988",
        -9.387076979208583
      ],
      [
        "Louis",
        -9.387200462675196
      ],
      [
        "outside",
        -9.388172235215944
      ],
      [
        "especial",
        -9.3887581224059
      ],
      [
        "king",
        -9.389174753662871
      ],
      [
        "Sir",
        -9.389265223575098
      ],
      [
        "cross",
        -9.389508341561964
      ],
      [
        "fish",
        -9.389906533244016
      ],
      [
        "nation",
        -9.390952452377324
      ],
      [
        "rate",
        -9.392149420928586
      ],
      [
        "medal",
        -9.393153528942783
      ],
      [
        "Olympics",
        -9.393320004417504
      ],
      [
        "little",
        -9.394336848131923
      ],
      [
        "ice",
        -9.395284312567561
      ],
      [
        "Second",
        -9.39664007830908
      ],
      [
        "Be",
        -9.39665064967117
      ],
      [
        "ex",
        -9.39679416325565
      ],
      [
        "county",
        -9.397163097856447
      ],
      [
        "engineer",
        -9.399713540506038
      ],
      [
        "Bar",
        -9.399928190726506
      ],
      [
        "actor",
        -9.400407165208886
      ],
      [
        "producer",
        -9.400714900068184
      ],
      [
        "past",
        -9.400955757994856
      ],
      [
        "plan",
        -9.4016644351057
      ],
      [
        "find",
        -9.402264049016967
      ],
      [
        "surface",
        -9.40309618587185
      ],
      [
        "whom",
        -9.403987387999681
      ],
      [
        "science",
        -9.40518973818277
      ],
      [
        "65",
        -9.406204172582287
      ],
      [
        "got",
        -9.40681231930331
      ],
      [
        "manager",
        -9.407127351259284
      ],
      [
        "face",
        -9.4072888242836
      ],
      [
        "Mexic",
        -9.407686244068135
      ],
      [
        "higher",
        -9.40817424920624
      ],
      [
        "disambiguat",
        -9.408245387961516
      ],
      [
        "element",
        -9.408357714581474
      ],
      [
        "Car",
        -9.408860157739696
      ],
      [
        "piece",
        -9.40913952022327
      ],
      [
        "units",
        -9.40986465201949
      ],
      [
        "shows",
        -9.410915968593544
      ],
      [
        "lack",
        -9.411695616120797
      ],
      [
        "Martin",
        -9.412191796837893
      ],
      [
        "idae",
        -9.412558868690713
      ],
      [
        "clear",
        -9.4132547649691
      ],
      [
        "fail",
        -9.413795216198006
      ],
      [
        "staff",
        -9.415043846499655
      ],
      [
        "future",
        -9.41648994700817
      ],
      [
        "charge",
        -9.41776700321078
      ],
      [
        "ended",
        -9.418141352594148
      ],
      [
        "produc",
        -9.41865682388666
      ],
      [
        "runs",
        -9.419048975974114
      ],
      [
        "Angele",
        -9.420631668192712
      ],
      [
        "towards",
        -9.421087389324484
      ],
      [
        "loss",
        -9.421573982826207
      ],
      [
        "recording",
        -9.422258044169023
      ],
      [
        "Navy",
        -9.422524089182499
      ],
      [
        "department",
        -9.423614125260038
      ],
      [
        "food",
        -9.423630741296577
      ],
      [
        "Greek",
        -9.423822356444255
      ],
      [
        "books",
        -9.425275528947031
      ],
      [
        "generally",
        -9.42587272563134
      ],
      [
        "states",
        -9.427212438729793
      ],
      [
        "gen",
        -9.43009501061628
      ],
      [
        "1984",
        -9.431137821451504
      ],
      [
        "army",
        -9.431347683783383
      ],
      [
        "80",
        -9.431970257951868
      ],
      [
        "concern",
        -9.433185570519722
      ],
      [
        "damage",
        -9.433815757627427
      ],
      [
        "gold",
        -9.434407285896008
      ],
      [
        "money",
        -9.434729299228977
      ],
      [
        "typical",
        -9.436830307560605
      ],
      [
        "shot",
        -9.437020796782232
      ],
      [
        "authorit",
        -9.439067347159863
      ],
      [
        "Joseph",
        -9.439166309355219
      ],
      [
        "Arts",
        -9.439569732396567
      ],
      [
        "45",
        -9.44025007081196
      ],
      [
        "below",
        -9.441775623846802
      ],
      [
        "ja",
        -9.443100545376321
      ],
      [
        "ling",
        -9.443267353930935
      ],
      [
        "eastern",
        -9.443655578275038
      ],
      [
        "Northern",
        -9.443673035442133
      ],
      [
        "reason",
        -9.443866083532926
      ],
      [
        "1987",
        -9.443910091358811
      ],
      [
        "tell",
        -9.444990980992454
      ],
      [
        "Russia",
        -9.445509487635753
      ],
      [
        "wa",
        -9.446088384582417
      ],
      [
        "ler",
        -9.446489661131846
      ],
      [
        "winner",
        -9.44651059656379
      ],
      [
        "referr",
        -9.448070794817866
      ],
      [
        "Station",
        -9.448091975896013
      ],
      [
        "word",
        -9.44830812977698
      ],
      [
        "mention",
        -9.448681536986653
      ],
      [
        "closed",
        -9.448819945062539
      ],
      [
        "Brown",
        -9.448858299578538
      ],
      [
        "fact",
        -9.449489565661555
      ],
      [
        "90",
        -9.451016088696818
      ],
      [
        "account",
        -9.453119876207225
      ],
      [
        "construct",
        -9.453677409711489
      ],
      [
        "2nd",
        -9.454531660646847
      ],
      [
        "key",
        -9.455480909268644
      ],
      [
        "Many",
        -9.455490480817073
      ],
      [
        "older",
        -9.455766748932742
      ],
      [
        "channel",
        -9.456127402152525
      ],
      [
        "opening",
        -9.457607170684945
      ],
      [
        "thought",
        -9.458043058041216
      ],
      [
        "province",
        -9.458255807850856
      ],
      [
        "spread",
        -9.458472754259272
      ],
      [
        "mission",
        -9.45953610760954
      ],
      [
        "star",
        -9.459581601577483
      ],
      [
        "hard",
        -9.459592958646681
      ],
      [
        "van",
        -9.460119339265944
      ],
      [
        "going",
        -9.460914319856585
      ],
      [
        "carrie",
        -9.461209995037226
      ],
      [
        "care",
        -9.461835825085242
      ],
      [
        "transport",
        -9.461847767355106
      ],
      [
        "student",
        -9.462726376016
      ],
      [
        "certain",
        -9.46332941400268
      ],
      [
        "purchase",
        -9.46357911846846
      ],
      [
        "Games",
        -9.463604996356036
      ],
      [
        "Railway",
        -9.463946274798147
      ],
      [
        "36",
        -9.464828030418474
      ],
      [
        "serving",
        -9.465034129815663
      ],
      [
        "graduate",
        -9.465153650029688
      ],
      [
        "historical",
        -9.467606039263849
      ],
      [
        "1986",
        -9.46790398503717
      ],
      [
        "Law",
        -9.469690330479331
      ],
      [
        "response",
        -9.470002623407662
      ],
      [
        "movie",
        -9.471027867975918
      ],
      [
        "edition",
        -9.472203674921607
      ],
      [
        "genus",
        -9.473065297134553
      ],
      [
        "fund",
        -9.473545017974352
      ],
      [
        "battle",
        -9.474622858778936
      ],
      [
        "matche",
        -9.475519000929726
      ],
      [
        "nine",
        -9.475690247746291
      ],
      [
        "couple",
        -9.475952906888198
      ],
      [
        "ard",
        -9.476155059002004
      ],
      [
        "bank",
        -9.479390915988649
      ],
      [
        "han",
        -9.47977904984815
      ],
      [
        "Board",
        -9.479880082809967
      ],
      [
        "companies",
        -9.48083168253185
      ],
      [
        "newspaper",
        -9.4814325002986
      ],
      [
        "mix",
        -9.481828579387294
      ],
      [
        "exist",
        -9.482004584104656
      ],
      [
        "income",
        -9.482418437861742
      ],
      [
        "1985",
        -9.483218816714913
      ],
      [
        "Li",
        -9.485507776415316
      ],
      [
        "expand",
        -9.487117124893992
      ],
      [
        "32",
        -9.488457838715497
      ],
      [
        "My",
        -9.491163126749658
      ],
      [
        "Line",
        -9.493005151453096
      ],
      [
        "Service",
        -9.493368714363264
      ],
      [
        "Valley",
        -9.493830614854005
      ],
      [
        "”",
        -9.494084674655447
      ],
      [
        "commission",
        -9.494243685133917
      ],
      [
        "text",
        -9.49587564112605
      ],
      [
        "destroy",
        -9.496178581836771
      ],
      [
        "evidence",
        -9.49655290533764
      ],
      [
        "injur",
        -9.498429890398217
      ],
      [
        "purpose",
        -9.499206528053339
      ],
      [
        "girl",
        -9.499250970320908
      ],
      [
        "stay",
        -9.499906636785798
      ],
      [
        "70",
        -9.501323869232326
      ],
      [
        "Mark",
        -9.501411644450409
      ],
      [
        "Pacific",
        -9.50242669742557
      ],
      [
        "peak",
        -9.503451929491256
      ],
      [
        "numerous",
        -9.505358967612267
      ],
      [
        "additional",
        -9.506765278372017
      ],
      [
        "paper",
        -9.506830986492577
      ],
      [
        "arlier",
        -9.509819540549163
      ],
      [
        "Province",
        -9.509829743804657
      ],
      [
        "musical",
        -9.51012688809995
      ],
      [
        "Pro",
        -9.510465989094103
      ],
      [
        "Wales",
        -9.511048831036035
      ],
      [
        "mm",
        -9.511701445096385
      ],
      [
        "obtain",
        -9.513042736985659
      ],
      [
        "pay",
        -9.513283897331123
      ],
      [
        "credit",
        -9.513328172317468
      ],
      [
        "Old",
        -9.513614217343388
      ],
      [
        "painting",
        -9.514034106066303
      ],
      [
        "participate",
        -9.514139219957709
      ],
      [
        "1983",
        -9.514998835814055
      ],
      [
        "agree",
        -9.515160736694689
      ],
      [
        "fight",
        -9.516817131924999
      ],
      [
        "God",
        -9.517709723368213
      ],
      [
        "Irish",
        -9.518058524977146
      ],
      [
        "label",
        -9.519450119485626
      ],
      [
        "chart",
        -9.519556201346923
      ],
      [
        "relative",
        -9.520013689946682
      ],
      [
        "Bank",
        -9.520746912720508
      ],
      [
        "management",
        -9.521223054670953
      ],
      [
        "Research",
        -9.521441035689412
      ],
      [
        "better",
        -9.521769348400031
      ],
      [
        "famous",
        -9.522744044560982
      ],
      [
        "Mc",
        -9.523109141782655
      ],
      [
        "pro",
        -9.523521132495798
      ],
      [
        "actual",
        -9.524113194809072
      ],
      [
        "keep",
        -9.526610062757015
      ],
      [
        "difficult",
        -9.52708549824646
      ],
      [
        "Assembly",
        -9.527234073231352
      ],
      [
        "native",
        -9.527284609930298
      ],
      [
        "question",
        -9.527656294385984
      ],
      [
        "Town",
        -9.528264322432987
      ],
      [
        "religious",
        -9.529817631685718
      ],
      [
        "marriage",
        -9.529927133049434
      ],
      [
        "Southern",
        -9.530400921183196
      ],
      [
        "Public",
        -9.530856666874993
      ],
      [
        "husband",
        -9.532565825521342
      ],
      [
        "But",
        -9.533230720739219
      ],
      [
        "amount",
        -9.533981989001427
      ],
      [
        "Year",
        -9.534251865008624
      ],
      [
        "effective",
        -9.5366716210415
      ],
      [
        "Congress",
        -9.53692423710001
      ],
      [
        "Chief",
        -9.53806392220552
      ],
      [
        "politician",
        -9.540129811541455
      ],
      [
        "variet",
        -9.541783155714779
      ],
      [
        "Open",
        -9.542304605326237
      ],
      [
        "worker",
        -9.542942376287417
      ],
      [
        "Florida",
        -9.543022634792525
      ],
      [
        "Commission",
        -9.543243855571866
      ],
      [
        "chose",
        -9.545122211900804
      ],
      [
        "Big",
        -9.545443682311575
      ],
      [
        "featur",
        -9.54621788063089
      ],
      [
        "look",
        -9.547295027199317
      ],
      [
        "status",
        -9.547779888963529
      ],
      [
        "tended",
        -9.54923678947962
      ],
      [
        "officer",
        -9.549287475799884
      ],
      [
        "train",
        -9.55021943027765
      ],
      [
        "Parliament",
        -9.550242053168333
      ],
      [
        "That",
        -9.550418388284289
      ],
      [
        "Love",
        -9.552161481635663
      ],
      [
        "Radio",
        -9.552330830505197
      ],
      [
        "firm",
        -9.552434461639095
      ],
      [
        "Route",
        -9.552619896674582
      ],
      [
        "source",
        -9.553744692694007
      ],
      [
        "financial",
        -9.554099263291178
      ],
      [
        "reduce",
        -9.554574665475513
      ],
      [
        "medical",
        -9.554593238617075
      ],
      [
        "protect",
        -9.556016301427476
      ],
      [
        "Jewish",
        -9.55689953222167
      ],
      [
        "approach",
        -9.557397654671533
      ],
      [
        "eaving",
        -9.557775147286614
      ],
      [
        "shape",
        -9.558505686353495
      ],
      [
        "latter",
        -9.56094387340659
      ],
      [
        "1945",
        -9.561301056118175
      ],
      [
        "let",
        -9.561966581421206
      ],
      [
        "complex",
        -9.562062873899382
      ],
      [
        "platform",
        -9.563250773674852
      ],
      [
        "Ar",
        -9.56342503539349
      ],
      [
        "33",
        -9.564204071101745
      ],
      [
        "ul",
        -9.564223640463705
      ],
      [
        "speed",
        -9.564331039440127
      ],
      [
        "boy",
        -9.565924487990026
      ],
      [
        "male",
        -9.566416334160989
      ],
      [
        "honor",
        -9.566657629769093
      ],
      [
        "capture",
        -9.568074695283205
      ],
      [
        "settlement",
        -9.56939363619375
      ],
      [
        "trial",
        -9.56951796579688
      ],
      [
        "arrest",
        -9.57164992454768
      ],
      [
        "raised",
        -9.572567119076151
      ],
      [
        "starr",
        -9.572634100780924
      ],
      [
        "39",
        -9.573671717179028
      ],
      [
        "ski",
        -9.573719674219063
      ],
      [
        "sound",
        -9.574987789366123
      ],
      [
        "Lee",
        -9.576193756118716
      ],
      [
        "manage",
        -9.576638762894815
      ],
      [
        "oil",
        -9.576990057912003
      ],
      [
        "professor",
        -9.57700399586496
      ],
      [
        "call",
        -9.57758670980602
      ],
      [
        "Mac",
        -9.57807081020163
      ],
      [
        "1979",
        -9.579295827136402
      ],
      [
        "respective",
        -9.579634434537272
      ],
      [
        "Under",
        -9.57986049089774
      ],
      [
        "Democratic",
        -9.580281800048205
      ],
      [
        "poor",
        -9.583589131887639
      ],
      [
        "interview",
        -9.584050985229727
      ],
      [
        "energ",
        -9.584282369816618
      ],
      [
        "1940",
        -9.585996864741507
      ],
      [
        "Republican",
        -9.58605209148486
      ],
      [
        "wing",
        -9.587398177961862
      ],
      [
        "Queen",
        -9.58783440533617
      ],
      [
        "estimate",
        -9.58810726673893
      ],
      [
        "Edward",
        -9.58834601568416
      ],
      [
        "Lord",
        -9.589812666034751
      ],
      [
        "Don",
        -9.590497082364859
      ],
      [
        "meet",
        -9.590539172336769
      ],
      [
        "People",
        -9.591678440800635
      ],
      [
        "prevent",
        -9.592437283858878
      ],
      [
        "display",
        -9.59249815779876
      ],
      [
        "cultural",
        -9.592761742272677
      ],
      [
        "1981",
        -9.592766793481934
      ],
      [
        "sports",
        -9.595113889714062
      ],
      [
        "federal",
        -9.596332682322469
      ],
      [
        "immediate",
        -9.59633992406975
      ],
      [
        "Their",
        -9.59833091934096
      ],
      [
        "earned",
        -9.59874122666239
      ],
      [
        "square",
        -9.598815704158824
      ],
      [
        "ut",
        -9.600527694257497
      ],
      [
        "red",
        -9.601810913930269
      ],
      [
        "box",
        -9.601979594652374
      ],
      [
        "meaning",
        -9.602174674015664
      ],
      [
        "FC",
        -9.60284263567392
      ],
      [
        "adopt",
        -9.6043502789612
      ],
      [
        "del",
        -9.604649940202602
      ],
      [
        "selected",
        -9.604791929147448
      ],
      [
        "majorit",
        -9.607792464410153
      ],
      [
        "flight",
        -9.609153414897719
      ],
      [
        "footballer",
        -9.609905244398881
      ],
      [
        "detail",
        -9.609908844220417
      ],
      [
        "Personal",
        -9.609935135153659
      ],
      [
        "vote",
        -9.610005088551905
      ],
      [
        "territor",
        -9.610303667855089
      ],
      [
        "1968",
        -9.611940251366246
      ],
      [
        "council",
        -9.612562652260689
      ],
      [
        "basketball",
        -9.613714969087425
      ],
      [
        "films",
        -9.61399184429975
      ],
      [
        "Fort",
        -9.616246120418868
      ],
      [
        "voice",
        -9.616365607270211
      ],
      [
        "soldier",
        -9.617056551702998
      ],
      [
        "Su",
        -9.618426290182427
      ],
      [
        "measure",
        -9.619197022555596
      ],
      [
        "lines",
        -9.620856473671049
      ],
      [
        "policy",
        -9.620863602908917
      ],
      [
        "Scott",
        -9.623678210692304
      ],
      [
        "+",
        -9.623927851841458
      ],
      [
        "mostly",
        -9.624458824157493
      ],
      [
        "1930",
        -9.62486111786357
      ],
      [
        "ized",
        -9.626591270590147
      ],
      [
        "larger",
        -9.62664067334868
      ],
      [
        "longer",
        -9.626973128210988
      ],
      [
        "alway",
        -9.627081374039932
      ],
      [
        "involv",
        -9.628460535943734
      ],
      [
        "positive",
        -9.628518294359118
      ],
      [
        "block",
        -9.628522641035396
      ],
      [
        "Spain",
        -9.628665316080433
      ],
      [
        "19th",
        -9.628940657562534
      ],
      [
        "publication",
        -9.629237139426166
      ],
      [
        "animal",
        -9.630230790582388
      ],
      [
        "gas",
        -9.630302884354432
      ],
      [
        "1976",
        -9.630398129124027
      ],
      [
        "occur",
        -9.63152573394721
      ],
      [
        "goals",
        -9.631925602285875
      ],
      [
        "com",
        -9.632179199182106
      ],
      [
        "1920",
        -9.633785337907891
      ],
      [
        "parts",
        -9.633871748689579
      ],
      [
        "Eastern",
        -9.634296873320492
      ],
      [
        "Un",
        -9.634409239823704
      ],
      [
        "Ka",
        -9.63515629482447
      ],
      [
        "prior",
        -9.635880942454133
      ],
      [
        "multiple",
        -9.635989198676926
      ],
      [
        "Middle",
        -9.636325226751985
      ],
      [
        "middle",
        -9.636771773846963
      ],
      [
        "treat",
        -9.636850666255976
      ],
      [
        "III",
        -9.637877237262284
      ],
      [
        "arrive",
        -9.637897487255092
      ],
      [
        "regional",
        -9.639747081417209
      ],
      [
        "master",
        -9.640238791106082
      ],
      [
        "Empire",
        -9.641645411432421
      ],
      [
        "Series",
        -9.644124905298224
      ],
      [
        "Mar",
        -9.64424777580815
      ],
      [
        "CD",
        -9.644485877011121
      ],
      [
        "Ital",
        -9.644715260916588
      ],
      [
        "overall",
        -9.646857800254244
      ],
      [
        "Both",
        -9.647290513891381
      ],
      [
        "Bill",
        -9.64807115464868
      ],
      [
        "Long",
        -9.648405996174876
      ],
      [
        "Young",
        -9.649100235089925
      ],
      [
        "1973",
        -9.649644962772392
      ],
      [
        "demand",
        -9.650253365405666
      ],
      [
        "civil",
        -9.650276179517139
      ],
      [
        "forest",
        -9.650977200695502
      ],
      [
        "ov",
        -9.651751131724872
      ],
      [
        "murder",
        -9.651961334764724
      ],
      [
        "ez",
        -9.652314891948357
      ],
      [
        "ball",
        -9.652724136766135
      ],
      [
        "crew",
        -9.652828851713407
      ],
      [
        "Frank",
        -9.65441030512723
      ],
      [
        "Team",
        -9.65448322900487
      ],
      [
        "Dutch",
        -9.654555756377636
      ],
      [
        "#",
        -9.654888714773477
      ],
      [
        "1967",
        -9.654889191838347
      ],
      [
        "1977",
        -9.654933610821095
      ],
      [
        "double",
        -9.656761785141246
      ],
      [
        "factor",
        -9.65727767579823
      ],
      [
        "bus",
        -9.658540463318943
      ],
      [
        "hospital",
        -9.660351499749634
      ],
      [
        "1975",
        -9.660962244184603
      ],
      [
        "Conference",
        -9.662600275329314
      ],
      [
        "heart",
        -9.663978885360208
      ],
      [
        "founder",
        -9.664913489643684
      ],
      [
        "4th",
        -9.665146175086342
      ],
      [
        "passe",
        -9.66577392431439
      ],
      [
        "sign",
        -9.666008644119882
      ],
      [
        "3rd",
        -9.667586567358853
      ],
      [
        "Sun",
        -9.668647760328945
      ],
      [
        "1969",
        -9.669217497178915
      ],
      [
        "foreign",
        -9.669409031800992
      ],
      [
        "transferr",
        -9.670344497166262
      ],
      [
        "Health",
        -9.670746210493594
      ],
      [
        "proposed",
        -9.671176958352634
      ],
      [
        "target",
        -9.67203681025189
      ],
      [
        "20th",
        -9.672442189902414
      ],
      [
        "provid",
        -9.673004350815615
      ],
      [
        "acquire",
        -9.673899262563062
      ],
      [
        "Blue",
        -9.674453154394529
      ],
      [
        "application",
        -9.674505174620418
      ],
      [
        "Times",
        -9.6746635256801
      ],
      [
        "fifth",
        -9.675766663722529
      ],
      [
        "primari",
        -9.675851944230985
      ],
      [
        "aid",
        -9.676231052109097
      ],
      [
        "computer",
        -9.678215739145546
      ],
      [
        "serve",
        -9.678260219186306
      ],
      [
        "might",
        -9.67842277700026
      ],
      [
        "Tour",
        -9.678501364767554
      ],
      [
        "frequent",
        -9.680194189308832
      ],
      [
        "potential",
        -9.680205379029596
      ],
      [
        "idea",
        -9.681165112251682
      ],
      [
        "que",
        -9.681543836659106
      ],
      [
        "physical",
        -9.68158256807406
      ],
      [
        "technolog",
        -9.682237021011453
      ],
      [
        "Biograph",
        -9.682685272133956
      ],
      [
        "today",
        -9.682735118883427
      ],
      [
        "link",
        -9.683228127824037
      ],
      [
        "ization",
        -9.685212481764474
      ],
      [
        "Development",
        -9.685308558743781
      ],
      [
        "Another",
        -9.68708854547199
      ],
      [
        "themsel",
        -9.68747726630746
      ],
      [
        "38",
        -9.688435733012984
      ],
      [
        "Creek",
        -9.688470675503446
      ],
      [
        "Final",
        -9.6894351234318
      ],
      [
        "34",
        -9.689977673061131
      ],
      [
        "concert",
        -9.691088306288602
      ],
      [
        "Port",
        -9.691323801420781
      ],
      [
        "succeed",
        -9.691670247259687
      ],
      [
        "conference",
        -9.691801890065907
      ],
      [
        "Ben",
        -9.692054082414906
      ],
      [
        "executive",
        -9.693614600024311
      ],
      [
        "Foundation",
        -9.696865928648545
      ],
      [
        "Latin",
        -9.698744578393875
      ],
      [
        "Carolina",
        -9.698841570662939
      ],
      [
        "confirm",
        -9.699261108402176
      ],
      [
        "grade",
        -9.699480184841654
      ],
      [
        "weeks",
        -9.699908496507195
      ],
      [
        "rich",
        -9.700145406412787
      ],
      [
        "society",
        -9.700215822635556
      ],
      [
        "pur",
        -9.700723000361283
      ],
      [
        "object",
        -9.700911708373221
      ],
      [
        "suffer",
        -9.70093311614359
      ],
      [
        "takes",
        -9.701670676596125
      ],
      [
        "nough",
        -9.701873038904756
      ],
      [
        "lot",
        -9.702903046349617
      ],
      [
        "£",
        -9.703928464795926
      ],
      [
        "ng",
        -9.704081643589447
      ],
      [
        "decade",
        -9.704575791934566
      ],
      [
        "stream",
        -9.706810803282563
      ],
      [
        "prominent",
        -9.70717944533598
      ],
      [
        "deep",
        -9.707591660277696
      ],
      [
        "institution",
        -9.708901613636812
      ],
      [
        "administrative",
        -9.709135116190094
      ],
      [
        "Director",
        -9.709249877513848
      ],
      [
        "Theatre",
        -9.709570295497038
      ],
      [
        "troops",
        -9.709878181189232
      ],
      [
        "replac",
        -9.710113165548815
      ],
      [
        "birth",
        -9.710159257847259
      ],
      [
        "Post",
        -9.710710010013848
      ],
      [
        "drive",
        -9.710755835064464
      ],
      [
        "berg",
        -9.711051592142177
      ],
      [
        "Prince",
        -9.7114955634106
      ],
      [
        "assist",
        -9.711659899445038
      ],
      [
        "citie",
        -9.711816088566225
      ],
      [
        "|",
        -9.713655133195811
      ],
      [
        "Bo",
        -9.713854446947227
      ],
      [
        "told",
        -9.714259683963224
      ],
      [
        "editor",
        -9.715155032823978
      ],
      [
        "Brita",
        -9.715278288476238
      ],
      [
        "qualit",
        -9.716249869111671
      ],
      [
        "Ra",
        -9.71648245835815
      ],
      [
        "weight",
        -9.716793540825568
      ],
      [
        "distance",
        -9.716954983021136
      ],
      [
        "schedule",
        -9.717426353070072
      ],
      [
        "broad",
        -9.720265098666351
      ],
      [
        "Major",
        -9.720718856527675
      ],
      [
        "Order",
        -9.721209738387556
      ],
      [
        "foot",
        -9.722101909153888
      ],
      [
        "ring",
        -9.7223751273838
      ],
      [
        "inter",
        -9.722686434306986
      ],
      [
        "lies",
        -9.722736513162864
      ],
      [
        "Poland",
        -9.723905832526931
      ],
      [
        "multi",
        -9.724556454998243
      ],
      [
        "tradition",
        -9.72475062508931
      ],
      [
        "carry",
        -9.724973634166677
      ],
      [
        "Out",
        -9.725569812645896
      ],
      [
        "Pennsylvania",
        -9.728240049795438
      ],
      [
        "explain",
        -9.72830397990183
      ],
      [
        "union",
        -9.728519015090962
      ],
      [
        "break",
        -9.729457456966676
      ],
      [
        "ill",
        -9.730233230681566
      ],
      [
        "disease",
        -9.730256662415162
      ],
      [
        "Governor",
        -9.730465699469171
      ],
      [
        "concept",
        -9.730650631858323
      ],
      [
        "Senate",
        -9.730917917417228
      ],
      [
        "44",
        -9.730940131822122
      ],
      [
        "1964",
        -9.731510872747528
      ],
      [
        "metre",
        -9.732495707043308
      ],
      [
        "museum",
        -9.734247128166714
      ],
      [
        "BC",
        -9.734568898447584
      ],
      [
        "increasing",
        -9.734913155359987
      ],
      [
        "ji",
        -9.73501371420156
      ],
      [
        "responsibl",
        -9.735582936632985
      ],
      [
        "draft",
        -9.736789432011982
      ],
      [
        "tax",
        -9.73733109959888
      ],
      [
        "era",
        -9.737719493558647
      ],
      [
        "refore",
        -9.738056679973912
      ],
      [
        "Mo",
        -9.739093027168984
      ],
      [
        "Tom",
        -9.739611961093054
      ],
      [
        "Bridge",
        -9.739622882370156
      ],
      [
        "Top",
        -9.740436391146131
      ],
      [
        "Con",
        -9.741522081596484
      ],
      [
        "rural",
        -9.741808497909268
      ],
      [
        "floor",
        -9.743731250471473
      ],
      [
        "standing",
        -9.744393321323994
      ],
      [
        "farm",
        -9.744632766880056
      ],
      [
        "scale",
        -9.745434048142869
      ],
      [
        "Over",
        -9.74683279530666
      ],
      [
        "code",
        -9.747172571987184
      ],
      [
        "forward",
        -9.748733474042108
      ],
      [
        "drama",
        -9.748746245294523
      ],
      [
        "patient",
        -9.74907911801725
      ],
      [
        "Asian",
        -9.749527667892778
      ],
      [
        "mer",
        -9.74972369158177
      ],
      [
        "Scotland",
        -9.74977020856712
      ],
      [
        "1966",
        -9.750219778042258
      ],
      [
        "nature",
        -9.750431651916863
      ],
      [
        "Civil",
        -9.752397337065299
      ],
      [
        "seem",
        -9.75266224844076
      ],
      [
        "passenger",
        -9.753161709685495
      ],
      [
        "1965",
        -9.753971338440989
      ],
      [
        "recognize",
        -9.754180377562792
      ],
      [
        "write",
        -9.754240661922886
      ],
      [
        "Game",
        -9.754299797955447
      ],
      [
        "Van",
        -9.755362122202586
      ],
      [
        "minor",
        -9.755674013502706
      ],
      [
        "brief",
        -9.755930906163279
      ],
      [
        "store",
        -9.757053125004337
      ],
      [
        "Sam",
        -9.759433623862062
      ],
      [
        "reference",
        -9.760358318335921
      ],
      [
        "semi",
        -9.76161087406641
      ],
      [
        "fast",
        -9.761693897557793
      ],
      [
        "And",
        -9.7631981102491
      ],
      [
        "count",
        -9.764385791328198
      ],
      [
        "camp",
        -9.764426610153084
      ],
      [
        "Johnson",
        -9.7647104965558
      ],
      [
        "upper",
        -9.765881723819774
      ],
      [
        "hall",
        -9.765903035227137
      ],
      [
        "achieve",
        -9.766174926239884
      ],
      [
        "saying",
        -9.766816648995219
      ],
      [
        "stock",
        -9.767002481158158
      ],
      [
        "whole",
        -9.768716610857025
      ],
      [
        "critical",
        -9.77023673448036
      ],
      [
        "agreement",
        -9.770376405370076
      ],
      [
        "nearby",
        -9.771655194013265
      ],
      [
        "MP",
        -9.772023545118742
      ],
      [
        "Home",
        -9.772233608122804
      ],
      [
        "academic",
        -9.77246965220271
      ],
      [
        "Centre",
        -9.772498326821289
      ],
      [
        "Di",
        -9.772577656752208
      ],
      [
        "pressure",
        -9.773865193400914
      ],
      [
        "Michiga",
        -9.774038232390499
      ],
      [
        "wall",
        -9.775327418873141
      ],
      [
        "extended",
        -9.775450190225843
      ],
      [
        "treatment",
        -9.775567850397096
      ],
      [
        "letter",
        -9.776131468290657
      ],
      [
        "Hospital",
        -9.776614331606513
      ],
      [
        "Alexander",
        -9.777331133413458
      ],
      [
        "table",
        -9.777413565582073
      ],
      [
        "festival",
        -9.77803495380866
      ],
      [
        "remove",
        -9.779948100205136
      ],
      [
        "More",
        -9.780639686912089
      ],
      [
        "Jones",
        -9.780823698559637
      ],
      [
        "62",
        -9.780892156631651
      ],
      [
        "format",
        -9.780966967938333
      ],
      [
        "Highway",
        -9.782431933048528
      ],
      [
        "capacit",
        -9.783198662242885
      ],
      [
        "pick",
        -9.78422830632042
      ],
      [
        "Avenue",
        -9.784343524339384
      ],
      [
        "hether",
        -9.78581359330856
      ],
      [
        "Secretary",
        -9.786035483370377
      ],
      [
        "uses",
        -9.787222129368955
      ],
      [
        "System",
        -9.787858580059225
      ],
      [
        "speak",
        -9.788686559091236
      ],
      [
        "64",
        -9.788908728825735
      ],
      [
        "Of",
        -9.788934853143317
      ],
      [
        "00",
        -9.789103516238352
      ],
      [
        "improve",
        -9.791400343872983
      ],
      [
        "Ca",
        -9.79140236328708
      ],
      [
        "Polish",
        -9.794231102633756
      ],
      [
        "divide",
        -9.794831649806586
      ],
      [
        "ecurity",
        -9.795873352740234
      ],
      [
        "Francisco",
        -9.796933979743423
      ],
      [
        "stop",
        -9.79933087102092
      ],
      [
        "cell",
        -9.799471871292177
      ],
      [
        "assistant",
        -9.799944174903628
      ],
      [
        "sex",
        -9.800385663789044
      ],
      [
        "castle",
        -9.800637016374317
      ],
      [
        "giving",
        -9.800763979210371
      ],
      [
        "heavy",
        -9.80129298533247
      ],
      [
        "1944",
        -9.801805798976808
      ],
      [
        "Office",
        -9.80331874877302
      ],
      [
        "Boston",
        -9.803550740808259
      ],
      [
        "Asia",
        -9.80355161430677
      ],
      [
        "á",
        -9.803969115264172
      ],
      [
        "conflict",
        -9.804216932137907
      ],
      [
        "generation",
        -9.805063455840571
      ],
      [
        "direction",
        -9.805834461284666
      ],
      [
        "ships",
        -9.805885202508973
      ],
      [
        "Or",
        -9.80614012907661
      ],
      [
        "scene",
        -9.806744379975264
      ],
      [
        "Place",
        -9.806956545407436
      ],
      [
        "Jean",
        -9.807725223296355
      ],
      [
        "challenge",
        -9.809048300939768
      ],
      [
        "BBC",
        -9.809169969862388
      ],
      [
        "Ohio",
        -9.809980607656314
      ],
      [
        "Jack",
        -9.810013294853407
      ],
      [
        "Columbia",
        -9.81143465553798
      ],
      [
        "administration",
        -9.812142061359596
      ],
      [
        "request",
        -9.813033313583325
      ],
      [
        "volume",
        -9.81359360590784
      ],
      [
        "75",
        -9.81362008856302
      ],
      [
        "ak",
        -9.814908826063288
      ],
      [
        "occurr",
        -9.81493613470791
      ],
      [
        "ik",
        -9.815113974356866
      ],
      [
        "ordered",
        -9.815174579251924
      ],
      [
        "crime",
        -9.815478254168887
      ],
      [
        "Also",
        -9.818548191037465
      ],
      [
        "Mount",
        -9.818995646324616
      ],
      [
        "Lo",
        -9.819305243011158
      ],
      [
        "kind",
        -9.820098772143439
      ],
      [
        "Du",
        -9.821196143840417
      ],
      [
        "dance",
        -9.821237789656903
      ],
      [
        "headquarter",
        -9.822570903059878
      ],
      [
        "Am",
        -9.823404422212889
      ],
      [
        "Cross",
        -9.823448472780765
      ],
      [
        "Play",
        -9.824034176220387
      ],
      [
        "Muslim",
        -9.825251102349023
      ],
      [
        "houses",
        -9.825268245625747
      ],
      [
        "Historic",
        -9.82587364783463
      ],
      [
        "build",
        -9.825893846598607
      ],
      [
        "Little",
        -9.826011731401866
      ],
      [
        "Ne",
        -9.826599642966919
      ],
      [
        "words",
        -9.827370028796466
      ],
      [
        "promotion",
        -9.827637862849619
      ],
      [
        "flower",
        -9.82797499803171
      ],
      [
        "website",
        -9.82834252858007
      ],
      [
        "folk",
        -9.828914157305027
      ],
      [
        "Berlin",
        -9.829276570943271
      ],
      [
        "association",
        -9.82967131581458
      ],
      [
        "committee",
        -9.830319678609708
      ],
      [
        "draw",
        -9.830605803426273
      ],
      [
        "technique",
        -9.831127670208012
      ],
      [
        "Earth",
        -9.831181632299792
      ],
      [
        "median",
        -9.831276814856906
      ],
      [
        "formal",
        -9.831405401883607
      ],
      [
        "Israel",
        -9.831431039225588
      ],
      [
        "tower",
        -9.83293835446268
      ],
      [
        "\").",
        -9.833163984561118
      ],
      [
        "Mi",
        -9.833230430039158
      ],
      [
        "growth",
        -9.833482818770202
      ],
      [
        "notable",
        -9.833492100332537
      ],
      [
        "electric",
        -9.834105903210151
      ],
      [
        "employ",
        -9.834376546454433
      ],
      [
        "burn",
        -9.834660817503996
      ],
      [
        "planne",
        -9.834914360274423
      ],
      [
        "yard",
        -9.83491688788885
      ],
      [
        "branch",
        -9.83531370427395
      ],
      [
        "origin",
        -9.835534431880024
      ],
      [
        "Sydney",
        -9.83556099912373
      ],
      [
        "89",
        -9.835653085692934
      ],
      [
        "impact",
        -9.835782900204563
      ],
      [
        "import",
        -9.836297624319837
      ],
      [
        "risk",
        -9.837086469774471
      ],
      [
        "youth",
        -9.838402549783012
      ],
      [
        "Philippine",
        -9.839295766283751
      ],
      [
        "Coast",
        -9.839341167742054
      ],
      [
        "Per",
        -9.839481462140755
      ],
      [
        "plays",
        -9.840549385018479
      ],
      [
        "dark",
        -9.840765301311478
      ],
      [
        "chi",
        -9.841483513264007
      ],
      [
        "connect",
        -9.84257970050858
      ],
      [
        "mountain",
        -9.844368927462128
      ],
      [
        "fellow",
        -9.844775156385255
      ],
      [
        "matter",
        -9.845557291422978
      ],
      [
        "Three",
        -9.84598810500504
      ],
      [
        "Bishop",
        -9.846408207660117
      ],
      [
        "ium",
        -9.846545831961299
      ],
      [
        "extensive",
        -9.846729746106288
      ],
      [
        "48",
        -9.847397438703881
      ],
      [
        "parish",
        -9.848687576638898
      ],
      [
        "estate",
        -9.848694674262685
      ],
      [
        "know",
        -9.849763930615609
      ],
      [
        "Federal",
        -9.851296218423432
      ],
      [
        "owner",
        -9.85140571666108
      ],
      [
        "attention",
        -9.85156654478397
      ],
      [
        "partner",
        -9.851604962877651
      ],
      [
        "machine",
        -9.851719598477318
      ],
      [
        "contact",
        -9.851987791023243
      ],
      [
        "va",
        -9.852349863119883
      ],
      [
        "representative",
        -9.852807140044698
      ],
      [
        "basis",
        -9.852847964893094
      ],
      [
        "Show",
        -9.85427292241448
      ],
      [
        "aim",
        -9.85510601347242
      ],
      [
        "Georgia",
        -9.8567862008247
      ],
      [
        "FM",
        -9.857461892286821
      ],
      [
        "ou",
        -9.857751579807886
      ],
      [
        "1963",
        -9.857802333855773
      ],
      [
        "ending",
        -9.859562983094749
      ],
      [
        "ago",
        -9.859735374118483
      ],
      [
        "1961",
        -9.860461909948508
      ],
      [
        "recover",
        -9.860949681557571
      ],
      [
        "stars",
        -9.861134953690872
      ],
      [
        "prove",
        -9.861719978415568
      ],
      [
        "housing",
        -9.861915468810814
      ],
      [
        "mouth",
        -9.86329625834832
      ],
      [
        "urban",
        -9.863441550832313
      ],
      [
        "1948",
        -9.864522854197885
      ],
      [
        "brand",
        -9.864630154884718
      ],
      [
        "hir",
        -9.864800642852853
      ],
      [
        "adult",
        -9.865261408799924
      ],
      [
        "pop",
        -9.865400693025132
      ],
      [
        "minister",
        -9.865922749177484
      ],
      [
        "Corps",
        -9.865924153137561
      ],
      [
        "Time",
        -9.866451216148707
      ],
      [
        "1946",
        -9.868306389320288
      ],
      [
        "mass",
        -9.868482095814997
      ],
      [
        "Ko",
        -9.86867479874364
      ],
      [
        "retain",
        -9.868750317483848
      ],
      [
        "fill",
        -9.869034138053292
      ],
      [
        "bring",
        -9.86916553193474
      ],
      [
        "ver",
        -9.869863420118243
      ],
      [
        "guest",
        -9.86993142983123
      ],
      [
        "37",
        -9.871359796832953
      ],
      [
        "portion",
        -9.872099662085624
      ],
      [
        "blood",
        -9.872537725759116
      ],
      [
        "stations",
        -9.873218028174442
      ],
      [
        "mann",
        -9.874033034868129
      ],
      [
        "storie",
        -9.87474331904874
      ],
      [
        "tracks",
        -9.874946910439753
      ],
      [
        "express",
        -9.87507803910453
      ],
      [
        "street",
        -9.875163268095832
      ],
      [
        "%)",
        -9.875330427185052
      ],
      [
        "Athletic",
        -9.875596161884056
      ],
      [
        "revealed",
        -9.875747090089328
      ],
      [
        "Gold",
        -9.87615078062506
      ],
      [
        "Ministr",
        -9.876527161801164
      ],
      [
        "temperature",
        -9.877141774581105
      ],
      [
        "press",
        -9.877314890844545
      ],
      [
        "quarter",
        -9.877498549209802
      ],
      [
        "device",
        -9.878816322811666
      ],
      [
        "identifie",
        -9.878864593237472
      ],
      [
        "captain",
        -9.879458382623092
      ],
      [
        "green",
        -9.879476188000371
      ],
      [
        "1950",
        -9.881339176487629
      ],
      [
        "define",
        -9.88231437475958
      ],
      [
        "Jackson",
        -9.882490948868071
      ],
      [
        "ancient",
        -9.882710236655916
      ],
      [
        "Family",
        -9.883335294054405
      ],
      [
        "Ro",
        -9.884452830374432
      ],
      [
        "convert",
        -9.884568987934436
      ],
      [
        "distribution",
        -9.885727195545282
      ],
      [
        "je",
        -9.886008723871079
      ],
      [
        "campus",
        -9.886091240062411
      ],
      [
        "tree",
        -9.886138125352494
      ],
      [
        "percent",
        -9.887412725923506
      ],
      [
        "walk",
        -9.888155020363186
      ],
      [
        "1941",
        -9.888490962795093
      ],
      [
        "probabl",
        -9.888744076982087
      ],
      [
        "Illinois",
        -9.888785020506617
      ],
      [
        "1942",
        -9.889242094731138
      ],
      [
        "friends",
        -9.889835888945871
      ],
      [
        "retire",
        -9.889911109751147
      ],
      [
        "plans",
        -9.890639518946816
      ],
      [
        "situation",
        -9.891142111219862
      ],
      [
        "300",
        -9.891212305643084
      ],
      [
        "officers",
        -9.891846610335978
      ],
      [
        "prison",
        -9.892314687090948
      ],
      [
        "metal",
        -9.892854825419285
      ],
      [
        "sport",
        -9.893985536458027
      ],
      [
        "51",
        -9.894654437745817
      ],
      [
        "Nor",
        -9.894773654665912
      ],
      [
        "register",
        -9.895054431265631
      ],
      [
        "escape",
        -9.895501918398805
      ],
      [
        "ier",
        -9.895572800210097
      ],
      [
        "librar",
        -9.896612416101068
      ],
      [
        "audience",
        -9.896625092934176
      ],
      [
        "historic",
        -9.896839069828301
      ],
      [
        "connection",
        -9.897427009703723
      ],
      [
        "Jo",
        -9.89765076809952
      ],
      [
        "Production",
        -9.898258564879441
      ],
      [
        "Airport",
        -9.898476074906007
      ],
      [
        "agenc",
        -9.899205569097909
      ],
      [
        "tri",
        -9.900681554328512
      ],
      [
        "job",
        -9.900845434379754
      ],
      [
        "hill",
        -9.900952969623052
      ],
      [
        "weapon",
        -9.901358734648007
      ],
      [
        "fell",
        -9.902382664578758
      ],
      [
        "49",
        -9.902462672170921
      ],
      [
        "paid",
        -9.902842662756765
      ],
      [
        "defend",
        -9.903359194758448
      ],
      [
        "worth",
        -9.903563277575731
      ],
      [
        "Engineer",
        -9.905617999273586
      ],
      [
        "Pan",
        -9.905982011833672
      ],
      [
        "joint",
        -9.906511633696688
      ],
      [
        "temple",
        -9.906940566929338
      ],
      [
        "environment",
        -9.907373936158404
      ],
      [
        "lake",
        -9.907520213418739
      ],
      [
        "Olympic",
        -9.907812688274642
      ],
      [
        "content",
        -9.908145080976233
      ],
      [
        "protein",
        -9.908271282379406
      ],
      [
        "forms",
        -9.908594222025581
      ],
      [
        "Media",
        -9.910361963758081
      ],
      [
        "difference",
        -9.910905831688911
      ],
      [
        "]]",
        -9.911190263474928
      ],
      [
        "Hong",
        -9.913409162396828
      ],
      [
        "Santa",
        -9.913568174082458
      ],
      [
        "Kong",
        -9.913960128320642
      ],
      [
        "Ali",
        -9.914355035798035
      ],
      [
        "Prime",
        -9.914601095439412
      ],
      [
        "edge",
        -9.914836893359983
      ],
      [
        "Book",
        -9.915366822507544
      ],
      [
        "[[",
        -9.916055499437345
      ],
      [
        "row",
        -9.91636972496558
      ],
      [
        "exhibition",
        -9.91671052450878
      ],
      [
        "indicate",
        -9.916774705067823
      ],
      [
        "Williams",
        -9.91695998291462
      ],
      [
        "Duke",
        -9.91742679295228
      ],
      [
        "designate",
        -9.917527983382996
      ],
      [
        "sky",
        -9.919235173660674
      ],
      [
        "article",
        -9.919757625779694
      ],
      [
        "pilot",
        -9.919811477540485
      ],
      [
        "bill",
        -9.920522509094477
      ],
      [
        "perating",
        -9.921258254712038
      ],
      [
        "relations",
        -9.921743173395619
      ],
      [
        "98",
        -9.922177738070541
      ],
      [
        ");",
        -9.922701682680628
      ],
      [
        "Professor",
        -9.923750693146351
      ],
      [
        "spring",
        -9.924427895049693
      ],
      [
        "programme",
        -9.924490593859295
      ],
      [
        "compose",
        -9.924919398294795
      ],
      [
        "Sports",
        -9.924922234083045
      ],
      [
        "1943",
        -9.924976870332356
      ],
      [
        "bound",
        -9.92654436435683
      ],
      [
        "1947",
        -9.926578067648094
      ],
      [
        "commander",
        -9.926607521037717
      ],
      [
        "permanent",
        -9.92699101593433
      ],
      [
        "Corporation",
        -9.927015821917365
      ],
      [
        "Jersey",
        -9.927803493285698
      ],
      [
        "formation",
        -9.928624853882809
      ],
      [
        "Korea",
        -9.929374358937345
      ],
      [
        "Up",
        -9.929422760265622
      ],
      [
        "protest",
        -9.929563520786193
      ],
      [
        "teaching",
        -9.929691477604454
      ],
      [
        "Like",
        -9.929730202909404
      ],
      [
        "Wood",
        -9.929816723611092
      ],
      [
        "ldest",
        -9.929904526096514
      ],
      [
        "votes",
        -9.931670041055831
      ],
      [
        "bad",
        -9.932351852402196
      ],
      [
        "page",
        -9.932561306391182
      ],
      [
        "blue",
        -9.933009526578749
      ],
      [
        "leaders",
        -9.933703847703514
      ],
      [
        "Justice",
        -9.934364231814804
      ],
      [
        "champion",
        -9.93523093069162
      ],
      [
        "applie",
        -9.935288780594682
      ],
      [
        "read",
        -9.936287743333857
      ],
      [
        "rating",
        -9.93720682952951
      ],
      [
        "opportunit",
        -9.93841490388565
      ],
      [
        "presence",
        -9.938507886290182
      ],
      [
        "organize",
        -9.939962493692496
      ],
      [
        "incorporate",
        -9.94025701194434
      ],
      [
        "silver",
        -9.941705910960899
      ],
      [
        "deliver",
        -9.94216362163368
      ],
      [
        "teacher",
        -9.942367437757598
      ],
      [
        "55",
        -9.94275429095838
      ],
      [
        "phase",
        -9.942837372365958
      ],
      [
        "1956",
        -9.94409911331779
      ],
      [
        "sexual",
        -9.944347854179217
      ],
      [
        "transfer",
        -9.94478507027957
      ],
      [
        "1958",
        -9.944845278154844
      ],
      [
        "Pakistan",
        -9.945026135280191
      ],
      [
        "scoring",
        -9.945201743929806
      ],
      [
        "ties",
        -9.945288677753677
      ],
      [
        "rew",
        -9.946554882953006
      ],
      [
        "rough",
        -9.949148450969506
      ],
      [
        "screen",
        -9.949720930889738
      ],
      [
        "Librar",
        -9.950788570805788
      ],
      [
        "leadership",
        -9.951121278436357
      ],
      [
        "1949",
        -9.951238630222745
      ],
      [
        "1957",
        -9.951514635475483
      ],
      [
        "dead",
        -9.951542559308406
      ],
      [
        "1959",
        -9.951550774420122
      ],
      [
        "creation",
        -9.95188998834901
      ],
      [
        "equal",
        -9.952113899874925
      ],
      [
        "See",
        -9.95296388116956
      ],
      [
        "Born",
        -9.953261289504095
      ],
      [
        "Daniel",
        -9.953418446717452
      ],
      [
        "guitar",
        -9.954092817994535
      ],
      [
        "Premier",
        -9.954777181607543
      ],
      [
        "1955",
        -9.955142302925152
      ],
      [
        "rare",
        -9.955509085678136
      ],
      [
        "rail",
        -9.956936558350854
      ],
      [
        "poet",
        -9.957380046786483
      ],
      [
        "print",
        -9.957420480262105
      ],
      [
        "resource",
        -9.957500675218606
      ],
      [
        "hundred",
        -9.958308187002672
      ],
      [
        "Water",
        -9.958384439651336
      ],
      [
        "dedicate",
        -9.958876156910604
      ],
      [
        "42",
        -9.959036515464089
      ],
      [
        "Pre",
        -9.959395667586069
      ],
      [
        "solo",
        -9.959769511479882
      ],
      [
        "Four",
        -9.959860465679924
      ],
      [
        "search",
        -9.960122314015972
      ],
      [
        "Each",
        -9.961734253917284
      ],
      [
        "alone",
        -9.962730114903852
      ],
      [
        "analysi",
        -9.963286761001502
      ],
      [
        "pen",
        -9.963466935083748
      ],
      [
        "con",
        -9.963820668760773
      ],
      [
        "avoid",
        -9.96486099786421
      ],
      [
        "ban",
        -9.965296779901436
      ],
      [
        "equipment",
        -9.966720076613193
      ],
      [
        "combine",
        -9.967051623562789
      ],
      [
        "47",
        -9.967648536913678
      ],
      [
        "Joe",
        -9.968202665871111
      ],
      [
        "Elizabeth",
        -9.968406243451726
      ],
      [
        "comment",
        -9.968856442362984
      ],
      [
        "Na",
        -9.969256349036513
      ],
      [
        "taught",
        -9.969257772186321
      ],
      [
        "background",
        -9.969824749327262
      ],
      [
        "46",
        -9.970200562361871
      ],
      [
        "400",
        -9.970700363424328
      ],
      [
        "zone",
        -9.97076235054469
      ],
      [
        "Land",
        -9.970775095316883
      ],
      [
        "contemporar",
        -9.970980143305287
      ],
      [
        "contribution",
        -9.971100161906818
      ],
      [
        "q",
        -9.971169238747411
      ],
      [
        "retir",
        -9.97150007966361
      ],
      [
        "EP",
        -9.971558634675851
      ],
      [
        "hear",
        -9.971634578305203
      ],
      [
        "Among",
        -9.972871750453637
      ],
      [
        "imply",
        -9.97332291171545
      ],
      [
        "flow",
        -9.973396239167483
      ],
      [
        "Supreme",
        -9.973491595053328
      ],
      [
        "felt",
        -9.973637254153777
      ],
      [
        "Gar",
        -9.973697502337055
      ],
      [
        "wise",
        -9.973878306799575
      ],
      [
        "except",
        -9.974106943896775
      ],
      [
        "Massachusetts",
        -9.974341902256242
      ],
      [
        "surname",
        -9.974649980377588
      ],
      [
        "session",
        -9.975216725651265
      ],
      [
        "core",
        -9.975461673600522
      ],
      [
        "refuse",
        -9.97579151995336
      ],
      [
        "Geograph",
        -9.97598153071873
      ],
      [
        "Victoria",
        -9.9765651150059
      ],
      [
        "ultimate",
        -9.9769055984566
      ],
      [
        "online",
        -9.978169894725845
      ],
      [
        "Korean",
        -9.978414877819247
      ],
      [
        "address",
        -9.979202739048205
      ],
      [
        "here",
        -9.979364818885092
      ],
      [
        "digital",
        -9.979424701570672
      ],
      [
        "ang",
        -9.979425545837861
      ],
      [
        "losing",
        -9.980269085528871
      ],
      [
        "Field",
        -9.98150429330282
      ],
      [
        "gre",
        -9.981552942017878
      ],
      [
        "Journal",
        -9.982746267243403
      ],
      [
        "2022",
        -9.98368079131265
      ],
      [
        "Jan",
        -9.983861092867762
      ],
      [
        "marked",
        -9.98433341115399
      ],
      [
        "governor",
        -9.985097062300124
      ],
      [
        "Master",
        -9.985376781477402
      ],
      [
        "lives",
        -9.98589500599258
      ],
      [
        "Atlantic",
        -9.986546330517886
      ],
      [
        "Before",
        -9.987289553768845
      ],
      [
        "watch",
        -9.987309804276094
      ],
      [
        "Scotti",
        -9.987311160785941
      ],
      [
        "Power",
        -9.988015410708604
      ],
      [
        "memor",
        -9.988819658646861
      ],
      [
        "rug",
        -9.988904362721815
      ],
      [
        "engage",
        -9.988912487258037
      ],
      [
        "boat",
        -9.989406952453844
      ],
      [
        "ze",
        -9.990137158629778
      ],
      [
        "Iran",
        -9.990277794771778
      ],
      [
        "yards",
        -9.990361107890909
      ],
      [
        "paint",
        -9.990632522444916
      ],
      [
        "Har",
        -9.990838475437993
      ],
      [
        "comed",
        -9.990858600339422
      ],
      [
        "Ten",
        -9.991189802840495
      ],
      [
        "journalist",
        -9.992097927507032
      ],
      [
        "horse",
        -9.992128396617705
      ],
      [
        "par",
        -9.992488177213858
      ],
      [
        "poem",
        -9.99289896280925
      ],
      [
        "Oxford",
        -9.993292864396285
      ],
      [
        "chairman",
        -9.993389252348855
      ],
      [
        "solution",
        -9.993643849784059
      ],
      [
        "inside",
        -9.994932406770555
      ],
      [
        "extreme",
        -9.994970052561602
      ],
      [
        "1953",
        -9.995125945940064
      ],
      [
        "kept",
        -9.995184051152073
      ],
      [
        "comes",
        -9.995260339226192
      ],
      [
        "Free",
        -9.996767831533637
      ],
      [
        "vessel",
        -9.997657318041231
      ],
      [
        "tic",
        -9.997810157460549
      ],
      [
        "burie",
        -9.997883097685502
      ],
      [
        "winter",
        -9.99862080274632
      ],
      [
        "surrounding",
        -9.998627649086124
      ],
      [
        "Ontari",
        -9.998720911911509
      ],
      [
        "5th",
        -9.999005204302897
      ],
      [
        "ius",
        -9.999328421538305
      ],
      [
        "Transport",
        -10.000260220908723
      ],
      [
        "reform",
        -10.000915999130559
      ],
      [
        "miles",
        -10.00145477577566
      ],
      [
        "densit",
        -10.002598195851665
      ],
      [
        "sector",
        -10.003222967044616
      ],
      [
        "mile",
        -10.003251999377397
      ],
      [
        "save",
        -10.003585444906602
      ],
      [
        "benefit",
        -10.003696109420869
      ],
      [
        "abandon",
        -10.003878676118152
      ],
      [
        "compet",
        -10.004576794456927
      ],
      [
        "principal",
        -10.005214155942245
      ],
      [
        "ong",
        -10.00556492126427
      ],
      [
        "makes",
        -10.005898460267186
      ],
      [
        "types",
        -10.005925328455133
      ],
      [
        "finishe",
        -10.006144883601333
      ],
      [
        "Nations",
        -10.006264753052939
      ],
      [
        "Inc",
        -10.006332651806844
      ],
      [
        "Stadium",
        -10.007202751469936
      ],
      [
        "Business",
        -10.007211171071525
      ],
      [
        "pattern",
        -10.008082724417488
      ],
      [
        "ung",
        -10.009031156973196
      ],
      [
        "ell",
        -10.01034305825181
      ],
      [
        "Vietnam",
        -10.010497967884554
      ],
      [
        "split",
        -10.011188263019092
      ],
      [
        "pair",
        -10.011219831811436
      ],
      [
        "Head",
        -10.011617278641388
      ],
      [
        "mar",
        -10.012204595206356
      ],
      [
        "highway",
        -10.012896699798407
      ],
      [
        "serves",
        -10.014663280932844
      ],
      [
        "zi",
        -10.015060085949766
      ],
      [
        "Representative",
        -10.016032715740367
      ],
      [
        "serious",
        -10.01695774716845
      ],
      [
        "unique",
        -10.017033409809308
      ],
      [
        "names",
        -10.017537556822951
      ],
      [
        "von",
        -10.017913472718032
      ],
      [
        "derive",
        -10.018279784465465
      ],
      [
        "spot",
        -10.018395497298389
      ],
      [
        "exchange",
        -10.019241516144948
      ],
      [
        "politic",
        -10.01964841808292
      ],
      [
        "traffic",
        -10.020343164984853
      ],
      [
        "43",
        -10.021129825801864
      ],
      [
        "big",
        -10.02121530528948
      ],
      [
        "Castle",
        -10.02148850735534
      ],
      [
        "Toronto",
        -10.022340537338968
      ],
      [
        "describ",
        -10.022613675170655
      ],
      [
        "existing",
        -10.022870020439932
      ],
      [
        "Regiment",
        -10.023154875714347
      ],
      [
        "Fox",
        -10.024158733009786
      ],
      [
        "loan",
        -10.024298325794994
      ],
      [
        "true",
        -10.024333220576754
      ],
      [
        "sources",
        -10.025155897120744
      ],
      [
        "Township",
        -10.025271361533495
      ],
      [
        "Good",
        -10.025327553613486
      ],
      [
        "Militar",
        -10.025857259596929
      ],
      [
        "Brazil",
        -10.02673263640478
      ],
      [
        "Inter",
        -10.026753466922637
      ],
      [
        "twice",
        -10.027252299461075
      ],
      [
        "Technolog",
        -10.027880938177201
      ],
      [
        "approve",
        -10.028655243378594
      ],
      [
        "Special",
        -10.028926524173126
      ],
      [
        "thousand",
        -10.029454811967554
      ],
      [
        "bit",
        -10.030038374554639
      ],
      [
        "setting",
        -10.030329552186103
      ],
      [
        "Area",
        -10.030427734597371
      ],
      [
        "!\"",
        -10.030823806878832
      ],
      [
        "inspired",
        -10.031767207093502
      ],
      [
        "follows",
        -10.031960056451759
      ],
      [
        "doctor",
        -10.032077654865523
      ],
      [
        "reflect",
        -10.032670208703188
      ],
      [
        "theatre",
        -10.032785420996177
      ],
      [
        "Forest",
        -10.032815488894924
      ],
      [
        "SR",
        -10.033302953705942
      ],
      [
        "constituenc",
        -10.033930264524116
      ],
      [
        "squad",
        -10.034563712475101
      ],
      [
        "theme",
        -10.035279804236257
      ],
      [
        "expected",
        -10.0357562787561
      ],
      [
        "Song",
        -10.0359769440082
      ],
      [
        "driver",
        -10.036310536570772
      ],
      [
        "global",
        -10.03755415383922
      ],
      [
        "airport",
        -10.037668956392837
      ],
      [
        "literature",
        -10.038455174818328
      ],
      [
        "1952",
        -10.038883490573248
      ],
      [
        "shift",
        -10.039413512158582
      ],
      [
        "races",
        -10.039473802502563
      ],
      [
        "nominate",
        -10.039770544757815
      ],
      [
        "Night",
        -10.040305831269055
      ],
      [
        "Background",
        -10.040361844535834
      ],
      [
        "graduat",
        -10.040512539013008
      ],
      [
        "situate",
        -10.040553599629964
      ],
      [
        "occupied",
        -10.041060861729672
      ],
      [
        "feet",
        -10.041194019306783
      ],
      [
        "composer",
        -10.041435951466944
      ],
      [
        "Network",
        -10.041803947118245
      ],
      [
        "Bel",
        -10.042620661454098
      ],
      [
        "extend",
        -10.04298236929792
      ],
      [
        "sentence",
        -10.043500840748901
      ],
      [
        "historian",
        -10.044005731884535
      ],
      [
        "ru",
        -10.04454250547733
      ],
      [
        "simple",
        -10.04486125253294
      ],
      [
        "billion",
        -10.04508701108464
      ],
      [
        "USA",
        -10.045891959888568
      ],
      [
        "die",
        -10.046475152971155
      ],
      [
        "ington",
        -10.046978662516956
      ],
      [
        "ette",
        -10.047349043561391
      ],
      [
        "Maria",
        -10.048537650461778
      ],
      [
        "Through",
        -10.04943503343527
      ],
      [
        "sets",
        -10.049459156128824
      ],
      [
        "Han",
        -10.049498196425656
      ],
      [
        "Par",
        -10.049908890231377
      ],
      [
        "Due",
        -10.050598974349304
      ],
      [
        "document",
        -10.05065677656852
      ],
      [
        "Francis",
        -10.050696108351524
      ],
      [
        "Police",
        -10.050799506249813
      ],
      [
        "gate",
        -10.050906228250467
      ],
      [
        "za",
        -10.0516605998083
      ],
      [
        "sell",
        -10.0520852430991
      ],
      [
        "Social",
        -10.054617027159246
      ],
      [
        "climate",
        -10.054910947299527
      ],
      [
        "done",
        -10.055585430084436
      ],
      [
        "defense",
        -10.05583900229221
      ],
      [
        "Press",
        -10.055915514337329
      ],
      [
        "employee",
        -10.055949302389045
      ],
      [
        "Christ",
        -10.056270983299374
      ],
      [
        "rapid",
        -10.056798639474383
      ],
      [
        "exhibit",
        -10.057442347085486
      ],
      [
        "controll",
        -10.057525114836427
      ],
      [
        "agent",
        -10.057535492489649
      ],
      [
        "Death",
        -10.057763765151215
      ],
      [
        "composition",
        -10.057887141674136
      ],
      [
        "task",
        -10.058379016110758
      ],
      [
        "Lady",
        -10.058484006814812
      ],
      [
        "script",
        -10.058516067666234
      ],
      [
        "trains",
        -10.059406099318387
      ],
      [
        "connected",
        -10.059549340753739
      ],
      [
        "Captain",
        -10.059576076073856
      ],
      [
        "Studio",
        -10.060468230657452
      ],
      [
        "1918",
        -10.060768572846971
      ],
      [
        "Andrew",
        -10.06120682187952
      ],
      [
        "investigation",
        -10.061479485480193
      ],
      [
        "sales",
        -10.061561098546488
      ],
      [
        "Because",
        -10.06224185715222
      ],
      [
        "scientific",
        -10.063249833470593
      ],
      [
        "989",
        -10.06326060324465
      ],
      [
        "Swedi",
        -10.063503663601065
      ],
      [
        "decline",
        -10.063894038322138
      ],
      [
        "Project",
        -10.064194189100943
      ],
      [
        "foundation",
        -10.064618010050143
      ],
      [
        "burg",
        -10.066551423107299
      ],
      [
        "Lu",
        -10.066685974366534
      ],
      [
        "architect",
        -10.068809205514526
      ],
      [
        "declare",
        -10.069378263487952
      ],
      [
        "leg",
        -10.069504528228753
      ],
      [
        "fuel",
        -10.069649075227485
      ],
      [
        "Philadelphia",
        -10.069779689135558
      ],
      [
        "Taylor",
        -10.069780286408111
      ],
      [
        "says",
        -10.069991489406902
      ],
      [
        "card",
        -10.070586879159848
      ],
      [
        "supply",
        -10.070719159245165
      ],
      [
        "Bob",
        -10.071058072974125
      ],
      [
        "1954",
        -10.071657067488033
      ],
      [
        "judge",
        -10.072248142683094
      ],
      [
        "chair",
        -10.072470225183402
      ],
      [
        "Netherland",
        -10.072592216044132
      ],
      [
        "borough",
        -10.072841655211933
      ],
      [
        "tank",
        -10.073166874915247
      ],
      [
        "image",
        -10.074575201184832
      ],
      [
        "Community",
        -10.074641806442315
      ],
      [
        "1938",
        -10.074942505670915
      ],
      [
        "Islands",
        -10.075363350166736
      ],
      [
        "entry",
        -10.076481748186294
      ],
      [
        "cars",
        -10.076759049056811
      ],
      [
        "goes",
        -10.078325259072312
      ],
      [
        "knowledge",
        -10.079229271594421
      ],
      [
        "industrial",
        -10.079393882819218
      ],
      [
        "Light",
        -10.079786584487216
      ],
      [
        "reache",
        -10.079815394497317
      ],
      [
        "belong",
        -10.080479370049888
      ],
      [
        "66",
        -10.080602719140442
      ],
      [
        "ology",
        -10.080636493302233
      ],
      [
        "Golden",
        -10.080908190684678
      ],
      [
        "ram",
        -10.081192134991893
      ],
      [
        "Mike",
        -10.081507114951268
      ],
      [
        "Indiana",
        -10.082553616065539
      ],
      [
        "reserve",
        -10.082929004756231
      ],
      [
        "Rome",
        -10.083589811811233
      ],
      [
        "Hot",
        -10.083777600402895
      ],
      [
        "Point",
        -10.084400646858537
      ],
      [
        "cells",
        -10.084737692111457
      ],
      [
        "Wilson",
        -10.085985082863377
      ],
      [
        "Sweden",
        -10.08612663546673
      ],
      [
        "offers",
        -10.08671536073905
      ],
      [
        "Bell",
        -10.086908002215907
      ],
      [
        "file",
        -10.087171817667477
      ],
      [
        "Khan",
        -10.087428266437893
      ],
      [
        "Arthur",
        -10.087677275316988
      ],
      [
        "econom",
        -10.087766117639577
      ],
      [
        "alternative",
        -10.087769513381147
      ],
      [
        "che",
        -10.088462476969188
      ],
      [
        "84",
        -10.088589271825764
      ],
      [
        "critics",
        -10.088713102289736
      ],
      [
        "twenty",
        -10.088948616299064
      ],
      [
        "sixth",
        -10.089255114435787
      ],
      [
        "Ba",
        -10.089527007788206
      ],
      [
        "opposition",
        -10.089647616831703
      ],
      [
        "license",
        -10.089874957812535
      ],
      [
        "í",
        -10.08991811932329
      ],
      [
        "‘",
        -10.090584220458094
      ],
      [
        "component",
        -10.090584239257055
      ],
      [
        "Federation",
        -10.090603956903458
      ],
      [
        "protection",
        -10.09100103289234
      ],
      [
        "think",
        -10.091238106227255
      ],
      [
        "praise",
        -10.091443744990446
      ],
      [
        "41",
        -10.092289657765864
      ],
      [
        "Col",
        -10.092453793423973
      ],
      [
        "incident",
        -10.094010224856465
      ],
      [
        "respect",
        -10.094308999237002
      ],
      [
        "Between",
        -10.094413820394962
      ],
      [
        "Register",
        -10.094416382410781
      ],
      [
        "actress",
        -10.09443165459857
      ],
      [
        "rules",
        -10.094665231855263
      ],
      [
        "instrument",
        -10.094927455014272
      ],
      [
        "yellow",
        -10.096345085492068
      ],
      [
        "map",
        -10.096785615692253
      ],
      [
        "Billboard",
        -10.09846678944643
      ],
      [
        "Chris",
        -10.098582915079911
      ],
      [
        "classe",
        -10.099560496771439
      ],
      [
        "Week",
        -10.099687991424819
      ],
      [
        "copie",
        -10.100095055174286
      ],
      [
        "1937",
        -10.1006117391372
      ],
      [
        "Hu",
        -10.101869935279783
      ],
      [
        "Pa",
        -10.10226130027712
      ],
      [
        "Stone",
        -10.103773715487282
      ],
      [
        "Chi",
        -10.104289397032236
      ],
      [
        "Cape",
        -10.104342792590604
      ],
      [
        "jo",
        -10.105700772764926
      ],
      [
        "fighting",
        -10.105823678046853
      ],
      [
        "Jim",
        -10.106450971930244
      ],
      [
        "Can",
        -10.10745538175191
      ],
      [
        "baseball",
        -10.107667149844772
      ],
      [
        "victim",
        -10.109881611557284
      ],
      [
        "Bal",
        -10.110608795751592
      ],
      [
        "vision",
        -10.111370916601297
      ],
      [
        "ker",
        -10.112220644774736
      ],
      [
        "150",
        -10.112339043373936
      ],
      [
        "Ver",
        -10.112348927006671
      ],
      [
        "ceremon",
        -10.113664011034402
      ],
      [
        "affiliate",
        -10.113784872756026
      ],
      [
        "enjoy",
        -10.113794220045856
      ],
      [
        "Bi",
        -10.114158295394848
      ],
      [
        "lock",
        -10.114684812074975
      ],
      [
        "wound",
        -10.11476940062122
      ],
      [
        "sense",
        -10.115109545809677
      ],
      [
        "threaten",
        -10.115932860696615
      ],
      [
        "Ke",
        -10.116614280372271
      ],
      [
        "iron",
        -10.11690490675305
      ],
      [
        "Player",
        -10.117086843718546
      ],
      [
        "depict",
        -10.117479084116592
      ],
      [
        "software",
        -10.117705216257253
      ],
      [
        "newly",
        -10.11790997732422
      ],
      [
        "Live",
        -10.118201750067158
      ],
      [
        "99",
        -10.11832193776898
      ],
      [
        "Short",
        -10.118764701394182
      ],
      [
        "architecture",
        -10.11970193708397
      ],
      [
        "severe",
        -10.119787583121308
      ],
      [
        "happen",
        -10.120950399394363
      ],
      [
        "tra",
        -10.121406233792463
      ],
      [
        "hotel",
        -10.12167391381546
      ],
      [
        "Ch",
        -10.122306391205147
      ],
      [
        "advanced",
        -10.12285062066621
      ],
      [
        "fans",
        -10.123255499151686
      ],
      [
        "Mountain",
        -10.123343204566531
      ],
      [
        "mine",
        -10.123643204754366
      ],
      [
        "Beach",
        -10.123836371987686
      ],
      [
        "secret",
        -10.12415158006565
      ],
      [
        "occasion",
        -10.124204325119152
      ],
      [
        "heavi",
        -10.124452275072063
      ],
      [
        "96",
        -10.124645350456067
      ],
      [
        "roles",
        -10.12473107990215
      ],
      [
        "mount",
        -10.125044400504612
      ],
      [
        "85",
        -10.125674357262913
      ],
      [
        "fair",
        -10.125793471697841
      ],
      [
        "afety",
        -10.127044137079634
      ],
      [
        "52",
        -10.127663112627335
      ],
      [
        "narrow",
        -10.127900290116278
      ],
      [
        "attract",
        -10.128142383499707
      ],
      [
        "roof",
        -10.128505433049003
      ],
      [
        "tail",
        -10.129449564856472
      ],
      [
        "path",
        -10.12955705102305
      ],
      [
        "lyric",
        -10.129972307522346
      ],
      [
        "59",
        -10.130015624158265
      ],
      [
        "Far",
        -10.130311446259467
      ],
      [
        "jury",
        -10.130512198734536
      ],
      [
        "Junior",
        -10.130553997907636
      ],
      [
        "Earl",
        -10.130831996022408
      ],
      [
        "males",
        -10.131467813333568
      ],
      [
        "flat",
        -10.13166587952442
      ],
      [
        "Davis",
        -10.131904623316215
      ],
      [
        "brown",
        -10.132035948359755
      ],
      [
        "premiere",
        -10.133474193562279
      ],
      [
        "ent",
        -10.134191681951183
      ],
      [
        "opera",
        -10.134557447546594
      ],
      [
        "vice",
        -10.134680529049424
      ],
      [
        "col",
        -10.134759095217856
      ],
      [
        "tried",
        -10.135118809397927
      ],
      [
        "Miss",
        -10.135590355777792
      ],
      [
        "Dan",
        -10.13591393100593
      ],
      [
        "garden",
        -10.136339479184292
      ],
      [
        "chang",
        -10.137195068846827
      ],
      [
        "speech",
        -10.137541052223325
      ],
      [
        "sequence",
        -10.138137133056603
      ],
      [
        "Ni",
        -10.138245382238411
      ],
      [
        "morning",
        -10.138554914864887
      ],
      [
        "57",
        -10.138704830837396
      ],
      [
        "Mexican",
        -10.138919576261213
      ],
      [
        "Today",
        -10.139072312308866
      ],
      [
        "Region",
        -10.139086640550111
      ],
      [
        "comic",
        -10.139832177415352
      ],
      [
        "pitch",
        -10.13998316866681
      ],
      [
        "1919",
        -10.140189183502873
      ],
      [
        "secure",
        -10.140775924509581
      ],
      [
        "plot",
        -10.14115744278175
      ],
      [
        "slow",
        -10.141161520281088
      ],
      [
        "Additional",
        -10.142463467218079
      ],
      [
        "rise",
        -10.143153690101709
      ],
      [
        "arm",
        -10.143794601987782
      ],
      [
        "electronic",
        -10.14470597509915
      ],
      [
        "58",
        -10.144761667629862
      ],
      [
        "racing",
        -10.146432396454028
      ],
      [
        "Prize",
        -10.146619401896798
      ],
      [
        "ropped",
        -10.147075610699972
      ],
      [
        "reject",
        -10.147624665834964
      ],
      [
        "ger",
        -10.148658735542998
      ],
      [
        "Carl",
        -10.149682893577406
      ],
      [
        "basic",
        -10.150445685180706
      ],
      [
        "1935",
        -10.152458886104021
      ],
      [
        "depend",
        -10.152504975509524
      ],
      [
        "identit",
        -10.152656573674566
      ],
      [
        "determined",
        -10.152732774872607
      ],
      [
        "domestic",
        -10.152883544936433
      ],
      [
        "Sunday",
        -10.153352718995523
      ],
      [
        "nomination",
        -10.154206572026936
      ],
      [
        "95",
        -10.154375480461786
      ],
      [
        "Ray",
        -10.154982883743697
      ],
      [
        "establishment",
        -10.155368227778654
      ],
      [
        "1914",
        -10.155928499485587
      ],
      [
        "7th",
        -10.156625572876491
      ],
      [
        "begin",
        -10.157205066528244
      ],
      [
        "adapt",
        -10.157465920111559
      ],
      [
        "Several",
        -10.157788216055486
      ],
      [
        "fine",
        -10.158383139858287
      ],
      [
        "uk",
        -10.158529303780114
      ],
      [
        "spend",
        -10.159563250794854
      ],
      [
        "talk",
        -10.160650964815638
      ],
      [
        "aged",
        -10.162307696813063
      ],
      [
        "profit",
        -10.163644885042043
      ],
      [
        "Design",
        -10.163871819160182
      ],
      [
        "=\"",
        -10.164242690701455
      ],
      [
        "cancer",
        -10.16498660080088
      ],
      [
        "Emperor",
        -10.16598006054074
      ],
      [
        "Down",
        -10.16623231764544
      ],
      [
        "technical",
        -10.16637170343136
      ],
      [
        "AD",
        -10.166966431552355
      ],
      [
        "neighborhood",
        -10.167022932867205
      ],
      [
        "?",
        -10.167628017803555
      ],
      [
        "mayor",
        -10.167972141244999
      ],
      [
        "stood",
        -10.167985283178524
      ],
      [
        "Affair",
        -10.16804571044051
      ],
      [
        "Channel",
        -10.16804647411336
      ],
      [
        "Winter",
        -10.168854163551934
      ],
      [
        "1917",
        -10.16989716242627
      ],
      [
        "Sri",
        -10.172130504499073
      ],
      [
        "begins",
        -10.172182354118403
      ],
      [
        "cycle",
        -10.172429188337336
      ],
      [
        "option",
        -10.173155138352891
      ],
      [
        "arms",
        -10.173174836137743
      ],
      [
        "drew",
        -10.173232499526247
      ],
      [
        "án",
        -10.173280298111418
      ],
      [
        "Stephen",
        -10.17356276455649
      ],
      [
        "journal",
        -10.173999268664637
      ],
      [
        "Wall",
        -10.174059808934345
      ],
      [
        "Missouri",
        -10.174257218109027
      ],
      [
        "acid",
        -10.174303347295934
      ],
      [
        "broke",
        -10.17434800484472
      ],
      [
        "characteristic",
        -10.174384129618883
      ],
      [
        "vi",
        -10.175111112996312
      ],
      [
        "Country",
        -10.17544807667554
      ],
      [
        "Pe",
        -10.175665432475853
      ],
      [
        "6th",
        -10.17576259107156
      ],
      [
        "Max",
        -10.176101862559502
      ],
      [
        "ster",
        -10.176285844057656
      ],
      [
        "Class",
        -10.176289727264965
      ],
      [
        "height",
        -10.176322557571236
      ],
      [
        "plane",
        -10.178165015015246
      ],
      [
        "Minnesota",
        -10.178421194782887
      ],
      [
        "hockey",
        -10.179479866555265
      ],
      [
        "NCAA",
        -10.179502687969553
      ],
      [
        "retirement",
        -10.179620861954685
      ],
      [
        "drawn",
        -10.17965337672236
      ],
      [
        "notes",
        -10.179922696036058
      ],
      [
        "een",
        -10.180253379430376
      ],
      [
        "lay",
        -10.18053497799658
      ],
      [
        "strike",
        -10.180822193890148
      ],
      [
        "reveal",
        -10.18240247226689
      ],
      [
        "Rose",
        -10.182770449318497
      ],
      [
        "boundar",
        -10.18316577280821
      ],
      [
        "caus",
        -10.183241660974835
      ],
      [
        "quickl",
        -10.18335604174402
      ],
      [
        "criminal",
        -10.183630950391125
      ],
      [
        "runner",
        -10.18397138413169
      ],
      [
        "Camp",
        -10.184182778614877
      ],
      [
        "storm",
        -10.184217302468955
      ],
      [
        "Tu",
        -10.184499360907221
      ],
      [
        "Medical",
        -10.184892580667292
      ],
      [
        "slight",
        -10.1854366610509
      ],
      [
        "18th",
        -10.186157830710712
      ],
      [
        "Reception",
        -10.186802961511363
      ],
      [
        "DC",
        -10.187042614908535
      ],
      [
        "ll",
        -10.18721590658992
      ],
      [
        "IV",
        -10.187289620157141
      ],
      [
        "Turkey",
        -10.187934523409947
      ],
      [
        "straight",
        -10.188853571190842
      ],
      [
        "peace",
        -10.18915126967714
      ],
      [
        "rear",
        -10.189397259651738
      ],
      [
        "Memorial",
        -10.189970119933674
      ],
      [
        "aily",
        -10.190113867294988
      ],
      [
        "secondar",
        -10.191502000083336
      ],
      [
        "contribute",
        -10.19174989760116
      ],
      [
        "flood",
        -10.192022741074645
      ],
      [
        "Fire",
        -10.192640815115094
      ],
      [
        "compare",
        -10.19269566650835
      ],
      [
        "ó",
        -10.193258087613124
      ],
      [
        "holding",
        -10.193465985039328
      ],
      [
        "laid",
        -10.193746047914296
      ],
      [
        "signal",
        -10.193868540472566
      ],
      [
        "Building",
        -10.194500798981153
      ],
      [
        "1929",
        -10.19593843444521
      ],
      [
        "Albert",
        -10.196075948107524
      ],
      [
        "etc",
        -10.19631942042193
      ],
      [
        "survey",
        -10.196350428449318
      ],
      [
        "clubs",
        -10.196915139624643
      ],
      [
        "rose",
        -10.196972311949288
      ],
      [
        "entitle",
        -10.197157101604262
      ],
      [
        "Further",
        -10.197410899338823
      ],
      [
        "threat",
        -10.198291131389716
      ],
      [
        "77",
        -10.198628486243813
      ],
      [
        "bra",
        -10.198990611245094
      ],
      [
        "Main",
        -10.199317766481808
      ],
      [
        "affair",
        -10.199538607295544
      ],
      [
        "Cambridge",
        -10.19955104763757
      ],
      [
        "Temple",
        -10.199630223722075
      ],
      [
        "Medal",
        -10.199784068735955
      ],
      [
        "Plot",
        -10.199866517849859
      ],
      [
        "negative",
        -10.200578990741874
      ],
      [
        "powerful",
        -10.200817386516865
      ],
      [
        "Bowl",
        -10.201121159607878
      ],
      [
        "distinguish",
        -10.201641231108436
      ],
      [
        "extension",
        -10.20168146981688
      ],
      [
        "apparent",
        -10.201760881597636
      ],
      [
        "1900",
        -10.201944032899537
      ],
      [
        "ical",
        -10.20195139336769
      ],
      [
        "Cor",
        -10.202074181738062
      ],
      [
        "Ph",
        -10.202353919297227
      ],
      [
        "price",
        -10.203274402883107
      ],
      [
        "arts",
        -10.20403160663951
      ],
      [
        "counter",
        -10.2045358197419
      ],
      [
        "educational",
        -10.205150163442692
      ],
      [
        "combat",
        -10.20526820598955
      ],
      [
        "bronze",
        -10.205921763752364
      ],
      [
        "honour",
        -10.20596984462183
      ],
      [
        "(;",
        -10.20610685295642
      ],
      [
        "valley",
        -10.206113387339762
      ],
      [
        "mill",
        -10.206221702082466
      ],
      [
        "expansion",
        -10.20634805771283
      ],
      [
        "Lewis",
        -10.20724550325188
      ],
      [
        "°",
        -10.208068676184592
      ],
      [
        "maximum",
        -10.20808889115959
      ],
      [
        "advance",
        -10.20864300946085
      ],
      [
        "Sh",
        -10.208652268771147
      ],
      [
        "1934",
        -10.209363866051245
      ],
      [
        "drug",
        -10.21074101884638
      ],
      [
        "survive",
        -10.210985798043179
      ],
      [
        "dry",
        -10.211430324398535
      ],
      [
        "qualifie",
        -10.211707842825119
      ],
      [
        "normal",
        -10.211838434654172
      ],
      [
        "unknown",
        -10.213979151593382
      ],
      [
        "super",
        -10.214471856260289
      ],
      [
        "reaction",
        -10.214529585267918
      ],
      [
        "cha",
        -10.214893089061968
      ],
      [
        "1928",
        -10.215370195033511
      ],
      [
        "Vi",
        -10.21538570143746
      ],
      [
        "internal",
        -10.215580182397709
      ],
      [
        "Economic",
        -10.215908018432764
      ],
      [
        "fleet",
        -10.21704603213129
      ],
      [
        "End",
        -10.217775443862251
      ],
      [
        "principle",
        -10.217804284792079
      ],
      [
        "mark",
        -10.217969582321807
      ],
      [
        "assume",
        -10.218228098420127
      ],
      [
        "door",
        -10.218868254748365
      ],
      [
        "Human",
        -10.219105129053101
      ],
      [
        "sites",
        -10.219263892531204
      ],
      [
        "1950s",
        -10.21940431818828
      ],
      [
        "consecutive",
        -10.221048846353591
      ],
      [
        "priest",
        -10.221110653596057
      ],
      [
        "Mu",
        -10.221934802522695
      ],
      [
        "regiment",
        -10.2221594512222
      ],
      [
        "78",
        -10.222162004230434
      ],
      [
        "entrance",
        -10.222191917826958
      ],
      [
        "faced",
        -10.223201271283166
      ],
      [
        "touchdown",
        -10.22336044073392
      ],
      [
        "contrast",
        -10.22432233284191
      ],
      [
        "implement",
        -10.225216524201674
      ],
      [
        "frame",
        -10.225309855486469
      ],
      [
        "Queensland",
        -10.225569273676811
      ],
      [
        "necessar",
        -10.226424984850201
      ],
      [
        "trained",
        -10.226751816184674
      ],
      [
        "dale",
        -10.227590876943966
      ],
      [
        "Labour",
        -10.22764531917311
      ],
      [
        "expert",
        -10.228702807768368
      ],
      [
        "aspect",
        -10.231661231143125
      ],
      [
        "Manchester",
        -10.232039415785657
      ],
      [
        "tropical",
        -10.23246811314446
      ],
      [
        "sponsor",
        -10.232629047079058
      ],
      [
        "founding",
        -10.232990075750893
      ],
      [
        "Description",
        -10.2330972361739
      ],
      [
        "segment",
        -10.233105302426935
      ],
      [
        "royal",
        -10.234021181484003
      ],
      [
        "Arab",
        -10.23422363292017
      ],
      [
        "failure",
        -10.23426841571884
      ],
      [
        "Steve",
        -10.234578090433391
      ],
      [
        "hands",
        -10.234963885461255
      ],
      [
        "surviv",
        -10.235024927567018
      ],
      [
        "Moscow",
        -10.235306854373885
      ],
      [
        "chemical",
        -10.235312143115618
      ],
      [
        "67",
        -10.235611949034142
      ],
      [
        "guard",
        -10.236593550145212
      ],
      [
        "Prior",
        -10.237687726697214
      ],
      [
        "rang",
        -10.237862467975214
      ],
      [
        "dispute",
        -10.238211625147969
      ],
      [
        "56",
        -10.23862604643952
      ],
      [
        "lawyer",
        -10.238742670147868
      ],
      [
        "vehicle",
        -10.23878502667295
      ],
      [
        "Kansas",
        -10.238797250379285
      ],
      [
        "Ram",
        -10.23928848256978
      ],
      [
        "recognition",
        -10.240926527768153
      ],
      [
        "extra",
        -10.241488146167015
      ],
      [
        "brothers",
        -10.241830652156693
      ],
      [
        "habitat",
        -10.241969480438723
      ],
      [
        "Television",
        -10.241981485062151
      ],
      [
        "Command",
        -10.242009319660792
      ],
      [
        "portray",
        -10.242260237524938
      ],
      [
        "load",
        -10.242362408855547
      ],
      [
        "Pope",
        -10.24304526825977
      ],
      [
        "appeal",
        -10.243187325842669
      ],
      [
        "bigge",
        -10.24448092372203
      ],
      [
        "Norwegian",
        -10.246408526993813
      ],
      [
        "97",
        -10.246876051959827
      ],
      [
        "kin",
        -10.247214908274493
      ],
      [
        "ingham",
        -10.247705655101502
      ],
      [
        "item",
        -10.247763045533079
      ],
      [
        "What",
        -10.24784786733313
      ],
      [
        "69",
        -10.24966101791847
      ],
      [
        "officials",
        -10.249991252335413
      ],
      [
        "len",
        -10.250877877596885
      ],
      [
        "collaboration",
        -10.250941554748032
      ],
      [
        "Notable",
        -10.251081325811269
      ],
      [
        "responsibilit",
        -10.252007645118145
      ],
      [
        "motion",
        -10.25208534312888
      ],
      [
        "strateg",
        -10.252752195540545
      ],
      [
        "Wisconsin",
        -10.253131245573572
      ],
      [
        "wear",
        -10.25355592072782
      ],
      [
        "shore",
        -10.253742470010572
      ],
      [
        "religion",
        -10.254062537758927
      ],
      [
        "1910",
        -10.254418062985783
      ],
      [
        "elling",
        -10.254975128745405
      ],
      [
        "Holy",
        -10.255158830323907
      ],
      [
        "ranking",
        -10.255473687158137
      ],
      [
        "alleged",
        -10.255836134899145
      ],
      [
        "arriv",
        -10.256095338630592
      ],
      [
        "uclear",
        -10.256148838051585
      ],
      [
        "rival",
        -10.2567866047384
      ],
      [
        "bass",
        -10.257270063183128
      ],
      [
        "funding",
        -10.257489122637967
      ],
      [
        "column",
        -10.257600794336682
      ],
      [
        "fiction",
        -10.25773750346603
      ],
      [
        "hair",
        -10.258618698816857
      ],
      [
        "ide",
        -10.259219547122923
      ],
      [
        "etting",
        -10.25969027928734
      ],
      [
        "citizens",
        -10.260199563698663
      ],
      [
        "Melbourn",
        -10.260484194498002
      ],
      [
        "municipal",
        -10.261354235093222
      ],
      [
        "Space",
        -10.261704217961078
      ],
      [
        "AM",
        -10.261829613431166
      ],
      [
        "Christmas",
        -10.262186369649672
      ],
      [
        "athlete",
        -10.26286808474805
      ],
      [
        "invite",
        -10.263264708823854
      ],
      [
        "Garden",
        -10.263677688651448
      ],
      [
        "wave",
        -10.263797571064341
      ],
      [
        "Jews",
        -10.26404011518224
      ],
      [
        "Tournament",
        -10.264437222780558
      ],
      [
        "environmental",
        -10.264863009243125
      ],
      [
        "74",
        -10.265066394739174
      ],
      [
        "classical",
        -10.265534688303681
      ],
      [
        "decide",
        -10.268321632646895
      ],
      [
        "manag",
        -10.2687092916932
      ],
      [
        "push",
        -10.269108151099143
      ],
      [
        "1912",
        -10.26965487185992
      ],
      [
        "existence",
        -10.270220518041423
      ],
      [
        "govern",
        -10.270331211067791
      ],
      [
        "ettled",
        -10.270931735463478
      ],
      [
        "trees",
        -10.271306516322005
      ],
      [
        "prize",
        -10.272452248666339
      ],
      [
        "plate",
        -10.272610305936915
      ],
      [
        "Turkis",
        -10.27263894689791
      ],
      [
        "lam",
        -10.273178489018996
      ],
      [
        "enemy",
        -10.2732450843624
      ],
      [
        "partial",
        -10.273496764788959
      ],
      [
        "Reference",
        -10.27358653289262
      ],
      [
        "Wild",
        -10.274338363737376
      ],
      [
        "step",
        -10.274438230415726
      ],
      [
        "Walter",
        -10.27452218802591
      ],
      [
        "Liberal",
        -10.275980007354537
      ],
      [
        "1924",
        -10.276213570458808
      ],
      [
        "UN",
        -10.276910178123257
      ],
      [
        "news",
        -10.277049057590524
      ],
      [
        "87",
        -10.27706966905517
      ],
      [
        "learning",
        -10.277086950298678
      ],
      [
        "NFL",
        -10.277133630000325
      ],
      [
        "lie",
        -10.277729636527598
      ],
      [
        "Euro",
        -10.278619092646384
      ],
      [
        "fighter",
        -10.278738094034713
      ],
      [
        "53",
        -10.278808393664855
      ],
      [
        "favor",
        -10.279391430129575
      ],
      [
        "visual",
        -10.279565876249098
      ],
      [
        "moth",
        -10.27962434884646
      ],
      [
        "educate",
        -10.279848901352723
      ],
      [
        "kar",
        -10.279982133970815
      ],
      [
        "layer",
        -10.280212686495076
      ],
      [
        "ella",
        -10.280473548109555
      ],
      [
        "planning",
        -10.280569131018838
      ],
      [
        "opponent",
        -10.281639498446985
      ],
      [
        "repair",
        -10.281678414962835
      ],
      [
        "passing",
        -10.281775638507051
      ],
      [
        "residence",
        -10.282065725969403
      ],
      [
        "Ku",
        -10.282218171648347
      ],
      [
        "gene",
        -10.282775390270412
      ],
      [
        "Studies",
        -10.28306126786959
      ],
      [
        "experiment",
        -10.283244778053001
      ],
      [
        "Simon",
        -10.284182620502154
      ],
      [
        "theater",
        -10.284996904836898
      ],
      [
        "conclude",
        -10.285939877167039
      ],
      [
        "finding",
        -10.28625380129461
      ],
      [
        "ocumentary",
        -10.28631532545311
      ],
      [
        "feel",
        -10.286785290842683
      ],
      [
        "wind",
        -10.287156602762332
      ],
      [
        "reception",
        -10.28743995308336
      ],
      [
        "message",
        -10.288090898316625
      ],
      [
        "72",
        -10.288165596097489
      ],
      [
        "switch",
        -10.288286602016278
      ],
      [
        "Dar",
        -10.289135812533774
      ],
      [
        "Regional",
        -10.289371457355681
      ],
      [
        "Will",
        -10.289435774602525
      ],
      [
        "1931",
        -10.28960158767769
      ],
      [
        "centuri",
        -10.290105036884103
      ],
      [
        "killing",
        -10.290448278230242
      ],
      [
        "recruit",
        -10.290936521272352
      ],
      [
        "invasion",
        -10.290937895314668
      ],
      [
        "Fair",
        -10.291856384558578
      ],
      [
        "68",
        -10.291911275051476
      ],
      [
        "vehicles",
        -10.29193278438255
      ],
      [
        "span",
        -10.291994838905126
      ],
      [
        "behavior",
        -10.29210467222983
      ],
      [
        "Portuguese",
        -10.292289061307038
      ],
      [
        "Program",
        -10.292532224776563
      ],
      [
        "Swiss",
        -10.293421605006458
      ],
      [
        "shell",
        -10.293811250990242
      ],
      [
        "bishop",
        -10.294156186001718
      ],
      [
        "glass",
        -10.2944043032782
      ],
      [
        "contest",
        -10.29483332353907
      ],
      [
        "54",
        -10.295254543543631
      ],
      [
        "Clark",
        -10.295701409690825
      ],
      [
        "Adam",
        -10.296673865571162
      ],
      [
        "advantage",
        -10.296684690948865
      ],
      [
        "Arizona",
        -10.296791440394642
      ],
      [
        "Switzer",
        -10.296791870456117
      ],
      [
        "birds",
        -10.297233921484525
      ],
      [
        "participat",
        -10.29767984967614
      ],
      [
        "Village",
        -10.298288774492262
      ],
      [
        "northeast",
        -10.298699208449111
      ],
      [
        "suit",
        -10.29895369506577
      ],
      [
        "Egypt",
        -10.29912721334683
      ],
      [
        "Original",
        -10.299564431372868
      ],
      [
        "micro",
        -10.300704037396802
      ],
      [
        "Anna",
        -10.300808856394355
      ],
      [
        "ura",
        -10.300933649598962
      ],
      [
        "ways",
        -10.300974428906997
      ],
      [
        "junior",
        -10.301501348841724
      ],
      [
        "Foreign",
        -10.301502775615951
      ],
      [
        "Colorado",
        -10.302681103911667
      ],
      [
        "Senior",
        -10.302685633954809
      ],
      [
        "Austria",
        -10.302754160430162
      ],
      [
        "beat",
        -10.302998818559281
      ],
      [
        "Professional",
        -10.303896503161745
      ],
      [
        "1916",
        -10.303921581015405
      ],
      [
        "Upon",
        -10.304843217260345
      ],
      [
        "independence",
        -10.304875491306568
      ],
      [
        "1923",
        -10.304886221262116
      ],
      [
        "hat",
        -10.3052190792551
      ],
      [
        "stating",
        -10.305837640473754
      ],
      [
        "Honor",
        -10.306036710072558
      ],
      [
        "Communist",
        -10.306254811331957
      ],
      [
        "Norwa",
        -10.307029362349159
      ],
      [
        "Tennesse",
        -10.307419408471432
      ],
      [
        "meant",
        -10.307882214638756
      ],
      [
        "literar",
        -10.307971232203581
      ],
      [
        "wealth",
        -10.308717251664687
      ],
      [
        "Sha",
        -10.308850052928257
      ],
      [
        "lift",
        -10.309423954938865
      ],
      [
        "lap",
        -10.310107583157077
      ],
      [
        "1921",
        -10.310169835362597
      ],
      [
        "SC",
        -10.310248974732584
      ],
      [
        "Mad",
        -10.310357293173974
      ],
      [
        "9th",
        -10.310390533405482
      ],
      [
        "Member",
        -10.31057212490968
      ],
      [
        "sale",
        -10.310617293106294
      ],
      [
        "88",
        -10.310782850169115
      ],
      [
        "Kim",
        -10.31139743014216
      ],
      [
        "1927",
        -10.311828750933778
      ],
      [
        "Brigade",
        -10.312178073281487
      ],
      [
        "constant",
        -10.313370299918873
      ],
      [
        "Oregon",
        -10.313377422343118
      ],
      [
        "requirement",
        -10.313724335103242
      ],
      [
        "eyond",
        -10.313934515840206
      ],
      [
        "safe",
        -10.313952732398008
      ],
      [
        "Management",
        -10.314565652474947
      ],
      [
        "violence",
        -10.314594733518486
      ],
      [
        "PC",
        -10.31512058312628
      ],
      [
        "tier",
        -10.315138355385676
      ],
      [
        "resigned",
        -10.315382436518249
      ],
      [
        "discuss",
        -10.315666570244797
      ],
      [
        "ck",
        -10.315785170398769
      ],
      [
        "Native",
        -10.31718058738717
      ],
      [
        "195",
        -10.317387647607358
      ],
      [
        "progress",
        -10.31778972529736
      ],
      [
        "releas",
        -10.317993168206185
      ],
      [
        "lands",
        -10.318038534477994
      ],
      [
        "Infantry",
        -10.318159203675656
      ],
      [
        "budget",
        -10.318159663977355
      ],
      [
        "combination",
        -10.31827997244215
      ],
      [
        "Revolution",
        -10.3183346131642
      ],
      [
        "OS",
        -10.318562277961592
      ],
      [
        "respond",
        -10.318726469919767
      ],
      [
        "Ki",
        -10.319159384891734
      ],
      [
        "dam",
        -10.319597643816584
      ],
      [
        "ful",
        -10.319886006870977
      ],
      [
        "About",
        -10.320216423117405
      ],
      [
        "Entertainment",
        -10.320559441525218
      ],
      [
        "COVID",
        -10.320559458468074
      ],
      [
        "Square",
        -10.320634889802575
      ],
      [
        "sample",
        -10.321222640017286
      ],
      [
        "proposal",
        -10.321875096490958
      ],
      [
        "1915",
        -10.32199076089926
      ],
      [
        "venue",
        -10.322321046275837
      ],
      [
        "prisoner",
        -10.322359744815198
      ],
      [
        "category",
        -10.322967631446826
      ],
      [
        "deput",
        -10.32301677114745
      ],
      [
        "Ottoman",
        -10.323222494773098
      ],
      [
        "76",
        -10.323681269331342
      ],
      [
        "Howard",
        -10.324247728469583
      ],
      [
        "ethnic",
        -10.32496714602497
      ],
      [
        "inhabitants",
        -10.32557758786707
      ],
      [
        "Naval",
        -10.325812032751143
      ],
      [
        "partnership",
        -10.32594442484655
      ],
      [
        "05",
        -10.326281594274615
      ],
      [
        "bodies",
        -10.326331271751584
      ],
      [
        "steel",
        -10.326599190061682
      ],
      [
        "Mal",
        -10.32678758074848
      ],
      [
        "Miller",
        -10.327439805829322
      ],
      [
        "Com",
        -10.328345920826553
      ],
      [
        "Sky",
        -10.328673701815077
      ],
      [
        "translation",
        -10.329073718098773
      ],
      [
        "playoff",
        -10.329516193626453
      ],
      [
        "desire",
        -10.329773975258126
      ],
      [
        "choice",
        -10.329802999609493
      ],
      [
        "delay",
        -10.32998912504628
      ],
      [
        "Sub",
        -10.330121822643104
      ],
      [
        "Lincoln",
        -10.330227321328637
      ],
      [
        "PA",
        -10.330608090607534
      ],
      [
        "musician",
        -10.331167763059206
      ],
      [
        "chain",
        -10.331765605727345
      ],
      [
        "hunt",
        -10.332397742821856
      ],
      [
        "Tri",
        -10.332449490305262
      ],
      [
        "Part",
        -10.332518344651344
      ],
      [
        "corner",
        -10.332990462427999
      ],
      [
        "Harry",
        -10.333572808064874
      ],
      [
        "Note",
        -10.333622545218276
      ],
      [
        "Ken",
        -10.33366145658609
      ],
      [
        "doing",
        -10.33392781310003
      ],
      [
        "rename",
        -10.334234737802861
      ],
      [
        "ensure",
        -10.33433689587432
      ],
      [
        "Operation",
        -10.334340674248502
      ],
      [
        "someone",
        -10.334363217710921
      ],
      [
        "armed",
        -10.334537508314725
      ],
      [
        "toward",
        -10.334651480006158
      ],
      [
        "mind",
        -10.335156039557118
      ],
      [
        "voted",
        -10.33563487815897
      ],
      [
        "critic",
        -10.3358580053394
      ],
      [
        "earlie",
        -10.336238556781549
      ],
      [
        "promot",
        -10.336610076913473
      ],
      [
        "celebrate",
        -10.336613726411278
      ],
      [
        "strength",
        -10.337374844559108
      ],
      [
        "panel",
        -10.337508433826532
      ],
      [
        "preserve",
        -10.33760508683933
      ],
      [
        "pp",
        -10.337944587171178
      ],
      [
        "drawing",
        -10.338296271972947
      ],
      [
        "exclusive",
        -10.338970822033636
      ],
      [
        "1925",
        -10.339564087036337
      ],
      [
        "Ocean",
        -10.339603389251636
      ],
      [
        "laws",
        -10.33985949269924
      ],
      [
        "Security",
        -10.340097466601252
      ],
      [
        "collected",
        -10.340197129549761
      ],
      [
        "Islamic",
        -10.340210398585857
      ],
      [
        "Cal",
        -10.34028988118319
      ],
      [
        "Carlo",
        -10.341286409845434
      ],
      [
        "reign",
        -10.342036410740429
      ],
      [
        "Democrat",
        -10.342143147842421
      ],
      [
        "learn",
        -10.34242123904022
      ],
      [
        "essential",
        -10.342445201623123
      ],
      [
        "Modern",
        -10.34245139947661
      ],
      [
        "debate",
        -10.342473374395272
      ],
      [
        "programming",
        -10.342506155694778
      ],
      [
        "regulation",
        -10.342529354312726
      ],
      [
        "82",
        -10.342775993356955
      ],
      [
        "Anne",
        -10.343811699420613
      ],
      [
        "Del",
        -10.343885468131816
      ],
      [
        "Mill",
        -10.344186406314943
      ],
      [
        "investment",
        -10.344240455967848
      ],
      [
        "Allen",
        -10.344292712939364
      ],
      [
        "trip",
        -10.344491918891842
      ],
      [
        "ā",
        -10.344820537059793
      ],
      [
        "fruit",
        -10.344888557575736
      ],
      [
        "scheme",
        -10.345137698574874
      ],
      [
        "Vice",
        -10.345307990009289
      ],
      [
        "1911",
        -10.346034889822539
      ],
      [
        "Hungarian",
        -10.346152888107072
      ],
      [
        "symbol",
        -10.34651605373142
      ],
      [
        "occasional",
        -10.346634793940447
      ],
      [
        "appoint",
        -10.346719402398934
      ],
      [
        "FA",
        -10.347011757881617
      ],
      [
        "your",
        -10.34718321268113
      ],
      [
        "roll",
        -10.347225642651397
      ],
      [
        "79",
        -10.348122255148713
      ],
      [
        "SS",
        -10.348465028252587
      ],
      [
        "Sound",
        -10.348753258268859
      ],
      [
        "ble",
        -10.349132165698261
      ],
      [
        "iv",
        -10.349732530094151
      ],
      [
        "introduction",
        -10.349860252816201
      ],
      [
        "variant",
        -10.34986792337466
      ],
      [
        "determine",
        -10.350445327829377
      ],
      [
        "Dieg",
        -10.350676248918019
      ],
      [
        "Not",
        -10.350677359396022
      ],
      [
        "manufactur",
        -10.350831090661998
      ],
      [
        "craft",
        -10.351316231966571
      ],
      [
        "Israeli",
        -10.351333821639649
      ],
      [
        "proper",
        -10.351377690246165
      ],
      [
        "Deput",
        -10.351428908276418
      ],
      [
        "Hotel",
        -10.351931292442991
      ],
      [
        "flag",
        -10.351979937058395
      ],
      [
        "Greece",
        -10.352327613944006
      ],
      [
        "Kentuck",
        -10.352341103101484
      ],
      [
        "Arm",
        -10.352379539821179
      ],
      [
        "seek",
        -10.352543451270412
      ],
      [
        "brick",
        -10.353280488761518
      ],
      [
        "les",
        -10.3536302161787
      ],
      [
        "pan",
        -10.35387714221908
      ],
      [
        "sistance",
        -10.35468416439356
      ],
      [
        "philosoph",
        -10.355308338462898
      ],
      [
        "scientist",
        -10.356059546426232
      ],
      [
        "slave",
        -10.356428485721537
      ],
      [
        "accident",
        -10.356941198137651
      ],
      [
        "63",
        -10.357035359283445
      ],
      [
        "finishing",
        -10.35736422935644
      ],
      [
        "affected",
        -10.357940634273042
      ],
      [
        "94",
        -10.358365003791695
      ],
      [
        "Victor",
        -10.358489590299918
      ],
      [
        "arch",
        -10.358721656299526
      ],
      [
        "17th",
        -10.358743439480772
      ],
      [
        "pull",
        -10.359171534315337
      ],
      [
        "reading",
        -10.359283041426
      ],
      [
        "har",
        -10.359523624426231
      ],
      [
        "bu",
        -10.360095933960725
      ],
      [
        "Now",
        -10.36041184223204
      ],
      [
        "8th",
        -10.360524802191756
      ],
      [
        "Census",
        -10.361081989257144
      ],
      [
        "gar",
        -10.36127911692737
      ],
      [
        "Pat",
        -10.362042781367705
      ],
      [
        "moment",
        -10.362055845342844
      ],
      [
        "quite",
        -10.362136949675175
      ],
      [
        "interior",
        -10.36232457291181
      ],
      [
        "expression",
        -10.362697927528533
      ],
      [
        "chance",
        -10.362997218421231
      ],
      [
        "ich",
        -10.36447213694229
      ],
      [
        "Philip",
        -10.364697255571691
      ],
      [
        "bid",
        -10.36537929494412
      ],
      [
        "dog",
        -10.367477778105108
      ],
      [
        "statement",
        -10.36765092939068
      ],
      [
        "articles",
        -10.36812160075112
      ],
      [
        "camera",
        -10.36845172615169
      ],
      [
        "sole",
        -10.369259858901147
      ],
      [
        "emergenc",
        -10.369416816929316
      ],
      [
        "stadium",
        -10.369880841675856
      ],
      [
        "Doctor",
        -10.369918737781898
      ],
      [
        "fear",
        -10.36993510086177
      ],
      [
        "description",
        -10.37112512322018
      ],
      [
        "broken",
        -10.371754043722238
      ],
      [
        "chapter",
        -10.3723991376453
      ],
      [
        "Tony",
        -10.373055074543082
      ],
      [
        "Patrick",
        -10.373744471742393
      ],
      [
        "Band",
        -10.374594306397816
      ],
      [
        "Maryland",
        -10.374808400265508
      ],
      [
        "painter",
        -10.375351491811442
      ],
      [
        "phone",
        -10.375640992231798
      ],
      [
        "twelve",
        -10.376198125935211
      ],
      [
        "Douglas",
        -10.377504336175324
      ],
      [
        "Imperial",
        -10.377640608640803
      ],
      [
        "cricket",
        -10.378062913191634
      ],
      [
        "1926",
        -10.378451658737749
      ],
      [
        "gender",
        -10.378622954808225
      ],
      [
        "600",
        -10.378630042453661
      ],
      [
        "uty",
        -10.379491822169793
      ],
      [
        "Review",
        -10.37969396792733
      ],
      [
        "und",
        -10.380206982836336
      ],
      [
        "ken",
        -10.381012365985153
      ],
      [
        "Marine",
        -10.381114174847061
      ],
      [
        "Bureau",
        -10.38134060476336
      ],
      [
        "Political",
        -10.381382960315502
      ],
      [
        "stands",
        -10.381654163161247
      ],
      [
        "genre",
        -10.38220694755451
      ],
      [
        "activist",
        -10.38257559503598
      ],
      [
        "Squadron",
        -10.382578249658847
      ],
      [
        "91",
        -10.383363896101994
      ],
      [
        "Min",
        -10.383478643207887
      ],
      [
        "Nazi",
        -10.384197723461561
      ],
      [
        "northwest",
        -10.384245972192259
      ],
      [
        "Er",
        -10.384551963655994
      ],
      [
        "parallel",
        -10.385138713186883
      ],
      [
        "grand",
        -10.386140584736218
      ],
      [
        "Executive",
        -10.386421742843478
      ],
      [
        "opinion",
        -10.386422587848141
      ],
      [
        "Pop",
        -10.38648265372698
      ],
      [
        "Th",
        -10.386936695147456
      ],
      [
        "miss",
        -10.387136464081085
      ],
      [
        "Prix",
        -10.387835535961205
      ],
      [
        "Hal",
        -10.388009314164108
      ],
      [
        "Legislativ",
        -10.38820225509277
      ],
      [
        "oppose",
        -10.388291747658332
      ],
      [
        "61",
        -10.38894469212385
      ],
      [
        "bottom",
        -10.389001458595924
      ],
      [
        "secretary",
        -10.389143358520064
      ],
      [
        "weather",
        -10.390285397453653
      ],
      [
        "Works",
        -10.3908829061773
      ],
      [
        "ach",
        -10.39110023939626
      ],
      [
        "Matt",
        -10.391148165761395
      ],
      [
        "transition",
        -10.391679419940466
      ],
      [
        "hop",
        -10.391922498242689
      ],
      [
        "Hamilton",
        -10.39284928461603
      ],
      [
        "agricultural",
        -10.392865478378805
      ],
      [
        "Ge",
        -10.3929359045051
      ],
      [
        "Senator",
        -10.393869419077081
      ],
      [
        "gu",
        -10.393969172532795
      ],
      [
        "Though",
        -10.39399969110385
      ],
      [
        "colonial",
        -10.394264388208784
      ],
      [
        "rescue",
        -10.39498626503459
      ],
      [
        "calls",
        -10.39547245615617
      ],
      [
        "Val",
        -10.396142184123557
      ],
      [
        "marine",
        -10.396613611966295
      ],
      [
        "factory",
        -10.397096556092837
      ],
      [
        "buy",
        -10.397251803393463
      ],
      [
        "Bad",
        -10.397469832998938
      ],
      [
        "translate",
        -10.398690302660093
      ],
      [
        "restore",
        -10.398935866603491
      ],
      [
        "Season",
        -10.399146339922428
      ],
      [
        "Samuel",
        -10.399371017764373
      ],
      [
        "Cha",
        -10.399511918778412
      ],
      [
        "partie",
        -10.39998339479951
      ],
      [
        "recommend",
        -10.400595940633796
      ],
      [
        "Juan",
        -10.400621348983837
      ],
      [
        "Current",
        -10.400664386642571
      ],
      [
        "ju",
        -10.400915944271855
      ],
      [
        "guns",
        -10.400979190872336
      ],
      [
        "piano",
        -10.401088730556186
      ],
      [
        "reaching",
        -10.40182903606155
      ],
      [
        "Third",
        -10.401945784392403
      ],
      [
        "Children",
        -10.401958510538108
      ],
      [
        "franchise",
        -10.401987672104497
      ],
      [
        "contribut",
        -10.402489401339214
      ],
      [
        "Ross",
        -10.40254534547007
      ],
      [
        "Reserve",
        -10.402690915538921
      ],
      [
        "Mid",
        -10.402916888968605
      ],
      [
        "inning",
        -10.403048188792322
      ],
      [
        "user",
        -10.40332848486959
      ],
      [
        "dress",
        -10.403555273330138
      ],
      [
        "distinct",
        -10.404212392956042
      ],
      [
        "Administration",
        -10.40456870695822
      ],
      [
        "argued",
        -10.404809619134483
      ],
      [
        "1908",
        -10.405171754858884
      ],
      [
        "exact",
        -10.405873791282508
      ],
      [
        "Quebec",
        -10.405878555274258
      ],
      [
        "Czech",
        -10.405880589135947
      ],
      [
        "instance",
        -10.406457147934802
      ],
      [
        "ula",
        -10.406492414351359
      ],
      [
        "complet",
        -10.407335520185502
      ],
      [
        "Grant",
        -10.409440666602434
      ],
      [
        "1913",
        -10.409728252962221
      ],
      [
        "successor",
        -10.411122833237611
      ],
      [
        "raid",
        -10.411210919694348
      ],
      [
        "Youth",
        -10.411267747314163
      ],
      [
        "mental",
        -10.411638884946488
      ],
      [
        "justice",
        -10.411662924149052
      ],
      [
        "fashion",
        -10.412173288159632
      ],
      [
        "supporter",
        -10.41225684574545
      ],
      [
        "personnel",
        -10.412448227475078
      ],
      [
        "Frederick",
        -10.412540780184656
      ],
      [
        "observe",
        -10.413009078022139
      ],
      [
        "belief",
        -10.415092700629032
      ],
      [
        "Hockey",
        -10.415096004899581
      ],
      [
        "Sc",
        -10.416268244573121
      ],
      [
        "possibly",
        -10.416274437571769
      ],
      [
        "Magazine",
        -10.41641103992809
      ],
      [
        "DVD",
        -10.416418784437099
      ],
      [
        "Mayor",
        -10.416467480070988
      ],
      [
        "Rugby",
        -10.416986930167656
      ],
      [
        "nam",
        -10.417452713183472
      ],
      [
        "Conservative",
        -10.417737001437308
      ],
      [
        "Hollywood",
        -10.41787347092812
      ],
      [
        "Test",
        -10.419092405467627
      ],
      [
        "sail",
        -10.41926555656945
      ],
      [
        "encourage",
        -10.420029209144326
      ],
      [
        "prime",
        -10.420276666294487
      ],
      [
        "Houston",
        -10.420439728226144
      ],
      [
        "encounter",
        -10.42044836438046
      ],
      [
        "verse",
        -10.420630154199525
      ],
      [
        "Ford",
        -10.420665510515093
      ],
      [
        "customer",
        -10.421336385893015
      ],
      [
        "letters",
        -10.42135596271956
      ],
      [
        "ray",
        -10.421660430455166
      ],
      [
        "commune",
        -10.421720458641413
      ],
      [
        "jump",
        -10.422430915502208
      ],
      [
        "classic",
        -10.422742157151799
      ],
      [
        "Bu",
        -10.422902950505149
      ],
      [
        "Local",
        -10.423371239252912
      ],
      [
        "southwest",
        -10.424029342555796
      ],
      [
        "crowd",
        -10.424225112433724
      ],
      [
        "assault",
        -10.42445316580229
      ],
      [
        "Album",
        -10.425793091906598
      ],
      [
        "Ex",
        -10.425832206016176
      ],
      [
        "photograph",
        -10.426549509733096
      ],
      [
        "soil",
        -10.426599618776816
      ],
      [
        "rum",
        -10.426796544379622
      ],
      [
        "Chart",
        -10.42684799945865
      ],
      [
[...]
