<unk>	0
<s>	0
</s>	0
▁	0
he	-0
in	-1
an	-2
the	-3
er	-4
on	-5
re	-6
at	-7
ed	-8
or	-9
al	-10
en	-11
is	-12
as	-13
ar	-14
of	-15
it	-16
and	-17
es	-18
ing	-19
to	-20
ic	-21
ion	-22
ou	-23
st	-24
le	-25
th	-26
ro	-27
il	-28
ent	-29
am	-30
ac	-31
se	-32
ad	-33
om	-34
ol	-35
el	-36
for	-37
was	-38
ch	-39
The	-40
ur	-41
iv	-42
ter	-43
ation	-44
ly	-45
be	-46
id	-47
ir	-48
ig	-49
un	-50
19	-51
im	-52
ow	-53
ct	-54
ay	-55
em	-56
ag	-57
ith	-58
20	-59
us	-60
con	-61
with	-62
ce	-63
by	-64
tr	-65
ers	-66
de	-67
ul	-68
ot	-69
et	-70
ap	-71
ver	-72
In	-73
ut	-74
wh	-75
are	-76
op	-77
oun	-78
res	-79
his	-80
com	-81
rom	-82
ab	-83
um	-84
pl	-85
ain	-86
all	-87
that	-88
av	-89
est	-90
pro	-91
art	-92
oc	-93
ist	-94
from	-95
ne	-96
ies	-97
pe	-98
te	-99
ther	-100
os	-101
cl	-102
su	-103
ity	-104
ate	-105
ber	-106
mo	-107
if	-108
ill	-109
sh	-110
ian	-111
ip	-112
ia	-113
ard	-114
ak	-115
ex	-116
ich	-117
ts	-118
ated	-119
ud	-120
igh	-121
qu	-122
als	-123
gr	-124
od	-125
man	-126
ere	-127
ess	-128
ear	-129
per	-130
ment	-131
ld	-132
201	-133
our	-134
ive	-135
ary	-136
Ch	-137
ge	-138
pr	-139
ie	-140
ong	-141
end	-142
were	-143
ial	-144
He	-145
ame	-146
St	-147
der	-148
gh	-149
du	-150
ant	-151
por	-152
af	-153
200	-154
one	-155
str	-156
over	-157
which	-158
tw	-159
her	-160
ine	-161
ound	-162
ass	-163
ell	-164
ast	-165
act	-166
ub	-167
red	-168
wor	-169
ish	-170
out	-171
form	-172
age	-173
ack	-174
ib	-175
ical	-176
18	-177
ction	-178
comp	-179
ov	-180
own	-181
had	-182
has	-183
up	-184
fir	-185
its	-186
aw	-187
also	-188
ser	-189
part	-190
ore	-191
ough	-192
Un	-193
It	-194
not	-195
au	-196
iz	-197
ous	-198
ran	-199
whe	-200
ition	-201
land	-202
first	-203
amp	-204
ign	-205
ave	-206
og	-207
dis	-208
ted	-209
cor	-210
ire	-211
bo	-212
mer	-213
ure	-214
fe	-215
ok	-216
but	-217
ide	-218
ev	-219
rit	-220
ep	-221
who	-222
ember	-223
ight	-224
ice	-225
br	-226
ater	-227
year	-228
ach	-229
ren	-230
",	-231
ory	-232
play	-233
their	-234
ied	-235
other	-236
co	-237
Al	-238
ree	-239
ue	-240
ans	-241
ome	-242
tim	-243
fer	-244
po	-245
hed	-246
work	-247
ational	-248
pres	-249
ke	-250
ty	-251
ang	-252
Ar	-253
An	-254
),	-255
ence	-256
low	-257
cr	-258
incl	-259
".	-260
att	-261
Ne	-262
ace	-263
ations	-264
me	-265
ould	-266
tern	-267
old	-268
cre	-269
ally	-270
ail	-271
199	-272
ust	-273
ens	-274
).	-275
two	-276
cont	-277
cho	-278
have	-279
arr	-280
fin	-281
sp	-282
lo	-283
uring	-284
port	-285
ark	-286
00	-287
serv	-288
this	-289
ite	-290
cent	-291
ict	-292
ade	-293
ates	-294
ile	-295
comm	-296
been	-297
off	-298
ubl	-299
ele	-300
ild	-301
loc	-302
able	-303
des	-304
ased	-305
ph	-306
ited	-307
min	-308
after	-309
ult	-310
ced	-311
pos	-312
pre	-313
ents	-314
Le	-315
io	-316
spe	-317
we	-318
Mar	-319
Re	-320
ann	-321
urn	-322
ve	-323
ions	-324
ces	-325
ug	-326
As	-327
chool	-328
any	-329
int	-330
ath	-331
li	-332
col	-333
De	-334
cord	-335
reg	-336
fr	-337
ican	-338
new	-339
ason	-340
she	-341
ind	-342
ely	-343
air	-344
time	-345
dr	-346
ship	-347
ick	-348
cted	-349
New	-350
son	-351
includ	-352
bor	-353
way	-354
ob	-355
198	-356
che	-357
ors	-358
bec	-359
Com	-360
bu	-361
les	-362
they	-363
ivers	-364
gan	-365
On	-366
ton	-367
can	-368
into	-369
ra	-370
iss	-371
ase	-372
ings	-373
cond	-374
gen	-375
ance	-376
cess	-377
ever	-378
sy	-379
kn	-380
outh	-381
under	-382
fil	-383
coun	-384
fore	-385
main	-386
ics	-387
used	-388
vel	-389
med	-390
En	-391
sc	-392
him	-393
Amer	-394
pol	-395
Jo	-396
more	-397
ck	-398
most	-399
Th	-400
inter	-401
ret	-402
ood	-403
197	-404
ved	-405
mon	-406
where	-407
ished	-408
ake	-409
ily	-410
led	-411
ious	-412
only	-413
team	-414
1,	-415
ah	-416
Con	-417
season	-418
ten	-419
ball	-420
day	-421
publ	-422
produ	-423
oy	-424
een	-425
when	-426
years	-427
ollow	-428
ince	-429
Sh	-430
would	-431
rough	-432
ife	-433
rel	-434
wn	-435
cur	-436
uary	-437
sel	-438
This	-439
stud	-440
17	-441
pt	-442
vis	-443
Pr	-444
ix	-445
ward	-446
during	-447
oup	-448
10	-449
ident	-450
again	-451
then	-452
She	-453
fl	-454
fam	-455
sub	-456
196	-457
ort	-458
ular	-459
Nor	-460
nor	-461
cons	-462
ating	-463
ters	-464
Col	-465
iversity	-466
use	-467
ma	-468
rele	-469
film	-470
je	-471
spec	-472
ative	-473
ins	-474
inn	-475
tween	-476
between	-477
cer	-478
arg	-479
ouse	-480
iel	-481
found	-482
tain	-483
so	-484
eng	-485
Br	-486
known	-487
three	-488
Se	-489
do	-490
ities	-491
well	-492
Coun	-493
through	-494
made	-495
some	-496
istr	-497
olog	-498
later	-499
eral	-500
there	-501
them	-502
num	-503
follow	-504
az	-505
ful	-506
many	-507
pop	-508
Gr	-509
16	-510
no	-511
2,	-512
Wor	-513
sing	-514
nam	-515
than	-516
unt	-517
United	-518
15	-519
."	-520
such	-521
Af	-522
ual	-523
about	-524
iver	-525
ement	-526
hy	-527
second	-528
ived	-529
ost	-530
oot	-531
American	-532
oci	-533
4,	-534
ific	-535
Cl	-536
set	-537
became	-538
194	-539
Tr	-540
For	-541
cy	-542
ose	-543
ik	-544
call	-545
University	-546
ale	-547
school	-548
prov	-549
195	-550
inv	-551
born	-552
ier	-553
Pro	-554
3,	-555
cap	-556
add	-557
bum	-558
four	-559
go	-560
oper	-561
ond	-562
including	-563
ks	-564
trans	-565
ional	-566
present	-567
sup	-568
stru	-569
reat	-570
ople	-571
par	-572
Joh	-573
being	-574
At	-575
lin	-576
bro	-577
ctor	-578
record	-579
my	-580
ury	-581
usic	-582
5,	-583
uc	-584
writ	-585
appe	-586
ress	-587
let	-588
1.	-589
ior	-590
overn	-591
ry	-592
Be	-593
ames	-594
lead	-595
Eng	-596
back	-597
while	-598
Ind	-599
grap	-600
une	-601
ley	-602
ros	-603
ef	-604
sur	-605
Au	-606
album	-607
care	-608
dire	-609
After	-610
ash	-611
mat	-612
vie	-613
arch	-614
try	-615
Is	-616
sign	-617
2.	-618
0,	-619
6,	-620
leg	-621
May	-622
ars	-623
8,	-624
ague	-625
though	-626
stem	-627
John	-628
Fran	-629
rece	-630
against	-631
ai	-632
ject	-633
ield	-634
7,	-635
Sc	-636
group	-637
before	-638
stit	-639
owever	-640
erson	-641
urch	-642
igin	-643
ina	-644
ures	-645
may	-646
Jan	-647
ists	-648
devel	-649
aid	-650
town	-651
World	-652
until	-653
high	-654
hist	-655
hen	-656
ven	-657
family	-658
Ro	-659
develop	-660
played	-661
song	-662
Ger	-663
ept	-664
name	-665
193	-666
und	-667
ise	-668
both	-669
National	-670
row	-671
overnment	-672
show	-673
ural	-674
ica	-675
line	-676
number	-677
States	-678
bl	-679
people	-680
top	-681
life	-682
ution	-683
build	-684
dif	-685
0.	-686
ized	-687
head	-688
Ju	-689
enn	-690
ism	-691
Pl	-692
emb	-693
ese	-694
released	-695
ended	-696
band	-697
sk	-698
char	-699
sever	-700
won	-701
feat	-702
hel	-703
state	-704
ons	-705
view	-706
3.	-707
bel	-708
Ge	-709
organ	-710
12	-711
Car	-712
War	-713
gram	-714
long	-715
open	-716
rol	-717
called	-718
start	-719
Wh	-720
Or	-721
jo	-722
series	-723
var	-724
area	-725
origin	-726
offic	-727
run	-728
Ad	-729
design	-730
ulation	-731
now	-732
ootball	-733
ives	-734
uro	-735
Brit	-736
ather	-737
Nov	-738
School	-739
ternational	-740
Ac	-741
ered	-742
Sp	-743
4.	-744
ister	-745
Aug	-746
suc	-747
ped	-748
South	-749
vers	-750
Can	-751
men	-752
Ph	-753
Comm	-754
9,	-755
ampion	-756
contin	-757
ys	-758
former	-759
come	-760
ird	-761
000	-762
Austr	-763
Bo	-764
gu	-765
ually	-766
dep	-767
ared	-768
Fe	-769
August	-770
Oc	-771
ired	-772
cial	-773
jor	-774
ork	-775
ank	-776
ude	-777
will	-778
public	-779
His	-780
ause	-781
early	-782
March	-783
system	-784
cover	-785
ting	-786
Bl	-787
ient	-788
distr	-789
Co	-790
June	-791
ision	-792
ium	-793
sm	-794
mark	-795
career	-796
ord	-797
January	-798
plac	-799
several	-800
del	-801
Sept	-802
ax	-803
return	-804
music	-805
place	-806
following	-807
city	-808
polit	-809
house	-810
September	-811
5.	-812
game	-813
ital	-814
same	-815
ission	-816
peri	-817
ling	-818
field	-819
omen	-820
Hist	-821
cour	-822
Pe	-823
July	-824
ute	-825
uch	-826
Dec	-827
prof	-828
tober	-829
October	-830
ms	-831
They	-832
self	-833
ont	-834
dec	-835
Cent	-836
based	-837
aking	-838
war	-839
book	-840
Euro	-841
icip	-842
la	-843
child	-844
14	-845
Par	-846
13	-847
7.	-848
uss	-849
thern	-850
these	-851
began	-852
iet	-853
rent	-854
Apr	-855
down	-856
tit	-857
York	-858
Man	-859
6.	-860
pass	-861
located	-862
requ	-863
April	-864
All	-865
side	-866
lege	-867
near	-868
8.	-869
since	-870
class	-871
ower	-872
government	-873
ible	-874
rest	-875
iving	-876
ste	-877
November	-878
contr	-879
County	-880
lish	-881
stand	-882
II	-883
ility	-884
There	-885
Pol	-886
commun	-887
ided	-888
ilt	-889
December	-890
North	-891
remain	-892
ross	-893
192	-894
US	-895
Chr	-896
iam	-897
ask	-898
served	-899
member	-900
station	-901
ner	-902
ae	-903
ime	-904
prom	-905
compet	-906
named	-907
held	-908
ments	-909
ology	-910
along	-911
ined	-912
bur	-913
ext	-914
xt	-915
vill	-916
ices	-917
club	-918
ages	-919
Ser	-920
ured	-921
list	-922
vent	-923
each	-924
Austral	-925
success	-926
ock	-927
read	-928
formed	-929
took	-930
mp	-931
poin	-932
ff	-933
program	-934
road	-935
Gu	-936
ft	-937
City	-938
bus	-939
ek	-940
did	-941
fect	-942
met	-943
ales	-944
embers	-945
ically	-946
home	-947
sim	-948
State	-949
ctions	-950
Europe	-951
ants	-952
ampionship	-953
law	-954
like	-955
ief	-956
British	-957
ple	-958
aim	-959
comple	-960
estab	-961
aving	-962
Will	-963
company	-964
tal	-965
small	-966
population	-967
ble	-968
differ	-969
ham	-970
local	-971
Febr	-972
lar	-973
major	-974
League	-975
February	-976
car	-977
El	-978
augh	-979
Her	-980
century	-981
cut	-982
ator	-983
built	-984
fact	-985
position	-986
val	-987
cept	-988
mill	-989
less	-990
football	-991
tle	-992
oman	-993
ove	-994
ised	-995
press	-996
Ex	-997
world	-998
event	-999
9.	-1000
could	-1001
continu	-1002
However	-1003
ric	-1004
received	-1005
ament	-1006
person	-1007
ival	-1008
ca	-1009
round	-1010
members	-1011
ster	-1012
Gen	-1013
marr	-1014
ral	-1015
ets	-1016
chn	-1017
West	-1018
orn	-1019
fac	-1020
order	-1021
around	-1022
ize	-1023
moved	-1024
mil	-1025
descr	-1026
Me	-1027
ron	-1028
cast	-1029
ali	-1030
ards	-1031
Te	-1032
refer	-1033
very	-1034
due	-1035
bre	-1036
Min	-1037
ches	-1038
train	-1039
national	-1040
resp	-1041
cle	-1042
Bar	-1043
chan	-1044
cas	-1045
King	-1046
last	-1047
Ed	-1048
charac	-1049
ately	-1050
ground	-1051
include	-1052
ians	-1053
bert	-1054
dom	-1055
Sy	-1056
appro	-1057
hold	-1058
species	-1059
gy	-1060
Am	-1061
single	-1062
ves	-1063
soci	-1064
ences	-1065
six	-1066
("	-1067
allow	-1068
Dr	-1069
cording	-1070
left	-1071
cil	-1072
wards	-1073
app	-1074
Geor	-1075
Canad	-1076
ony	-1077
ality	-1078
inc	-1079
div	-1080
190	-1081
Distr	-1082
grad	-1083
History	-1084
water	-1085
final	-1086
building	-1087
north	-1088
profess	-1089
level	-1090
sem	-1091
alth	-1092
During	-1093
iness	-1094
oung	-1095
west	-1096
died	-1097
thor	-1098
11	-1099
camp	-1100
que	-1101
Ste	-1102
ford	-1103
lab	-1104
hip	-1105
lit	-1106
ula	-1107
larg	-1108
arm	-1109
ported	-1110
ison	-1111
van	-1112
said	-1113
just	-1114
published	-1115
death	-1116
ung	-1117
vision	-1118
oss	-1119
represent	-1120
Ear	-1121
five	-1122
ane	-1123
within	-1124
High	-1125
apan	-1126
German	-1127
issu	-1128
sol	-1129
ides	-1130
ats	-1131
30	-1132
aged	-1133
aff	-1134
ety	-1135
south	-1136
We	-1137
ights	-1138
pat	-1139
Ber	-1140
large	-1141
because	-1142
hal	-1143
depend	-1144
ref	-1145
educ	-1146
sl	-1147
ified	-1148
ines	-1149
Sw	-1150
included	-1151
consid	-1152
def	-1153
rop	-1154
amb	-1155
even	-1156
Mc	-1157
village	-1158
Reg	-1159
25	-1160
Japan	-1161
Rep	-1162
gre	-1163
lect	-1164
rench	-1165
ially	-1166
third	-1167
ney	-1168
ature	-1169
estern	-1170
els	-1171
king	-1172
Char	-1173
test	-1174
hand	-1175
current	-1176
ler	-1177
dem	-1178
Christ	-1179
ization	-1180
William	-1181
post	-1182
lim	-1183
iven	-1184
constru	-1185
ene	-1186
track	-1187
angu	-1188
College	-1189
sequ	-1190
Part	-1191
ports	-1192
trad	-1193
Air	-1194
ively	-1195
key	-1196
French	-1197
aster	-1198
ri	-1199
vol	-1200
District	-1201
Afr	-1202
using	-1203
den	-1204
English	-1205
2019	-1206
appear	-1207
Cor	-1208
aft	-1209
father	-1210
Ma	-1211
Pres	-1212
idge	-1213
189	-1214
Park	-1215
get	-1216
rad	-1217
still	-1218
sto	-1219
aren	-1220
different	-1221
ning	-1222
power	-1223
ille	-1224
incre	-1225
children	-1226
point	-1227
addition	-1228
hum	-1229
election	-1230
Fl	-1231
Res	-1232
support	-1233
ama	-1234
gener	-1235
those	-1236
San	-1237
announ	-1238
inning	-1239
By	-1240
mid	-1241
Su	-1242
indu	-1243
period	-1244
describ	-1245
mar	-1246
And	-1247
went	-1248
crit	-1249
equ	-1250
million	-1251
claim	-1252
itary	-1253
International	-1254
reet	-1255
ery	-1256
ocial	-1257
graphy	-1258
ban	-1259
ought	-1260
aul	-1261
put	-1262
site	-1263
vious	-1264
River	-1265
ones	-1266
history	-1267
non	-1268
month	-1269
ott	-1270
atic	-1271
another	-1272
Championship	-1273
late	-1274
sit	-1275
Bro	-1276
pect	-1277
dist	-1278
win	-1279
Med	-1280
placed	-1281
ata	-1282
Lond	-1283
chang	-1284
adem	-1285
what	-1286
flu	-1287
right	-1288
women	-1289
London	-1290
ana	-1291
often	-1292
di	-1293
21	-1294
akes	-1295
ained	-1296
district	-1297
ington	-1298
ody	-1299
lished	-1300
make	-1301
hes	-1302
conom	-1303
Je	-1304
service	-1305
No	-1306
poss	-1307
country	-1308
best	-1309
")	-1310
attle	-1311
yn	-1312
anc	-1313
House	-1314
50	-1315
Mon	-1316
Des	-1317
short	-1318
tele	-1319
Dav	-1320
One	-1321
sen	-1322
aver	-1323
established	-1324
exp	-1325
wood	-1326
2020	-1327
ibut	-1328
among	-1329
Cr	-1330
When	-1331
activ	-1332
control	-1333
formation	-1334
itions	-1335
original	-1336
pur	-1337
ience	-1338
Ital	-1339
vir	-1340
lands	-1341
Ang	-1342
Comp	-1343
turn	-1344
100	-1345
role	-1346
ummer	-1347
works	-1348
Mo	-1349
langu	-1350
tem	-1351
graph	-1352
beg	-1353
ara	-1354
Li	-1355
vot	-1356
attack	-1357
ministr	-1358
ently	-1359
project	-1360
ched	-1361
Phil	-1362
stat	-1363
kill	-1364
BC	-1365
started	-1366
came	-1367
ublic	-1368
uk	-1369
mov	-1370
ness	-1371
Cup	-1372
games	-1373
sold	-1374
188	-1375
ument	-1376
cult	-1377
mag	-1378
title	-1379
mit	-1380
ploy	-1381
osp	-1382
Ab	-1383
ays	-1384
na	-1385
author	-1386
search	-1387
character	-1388
Div	-1389
Russ	-1390
rec	-1391
award	-1392
Per	-1393
net	-1394
expl	-1395
ailway	-1396
yle	-1397
result	-1398
fri	-1399
announced	-1400
business	-1401
imes	-1402
cell	-1403
Indian	-1404
action	-1405
previous	-1406
every	-1407
worked	-1408
real	-1409
joined	-1410
fun	-1411
see	-1412
effect	-1413
fur	-1414
init	-1415
techn	-1416
import	-1417
much	-1418
general	-1419
young	-1420
Har	-1421
ues	-1422
rac	-1423
invol	-1424
histor	-1425
total	-1426
uck	-1427
sent	-1428
TV	-1429
ilar	-1430
ged	-1431
produced	-1432
process	-1433
ze	-1434
married	-1435
East	-1436
board	-1437
24	-1438
emp	-1439
partment	-1440
Gre	-1441
rote	-1442
player	-1443
given	-1444
friend	-1445
having	-1446
With	-1447
General	-1448
cture	-1449
various	-1450
become	-1451
development	-1452
forman	-1453
carr	-1454
omin	-1455
These	-1456
elect	-1457
nia	-1458
host	-1459
debut	-1460
tra	-1461
ipt	-1462
next	-1463
pain	-1464
vi	-1465
posed	-1466
oto	-1467
clos	-1468
186	-1469
La	-1470
half	-1471
rem	-1472
wrote	-1473
Mich	-1474
England	-1475
Bel	-1476
ency	-1477
prim	-1478
ying	-1479
community	-1480
few	-1481
prote	-1482
ls	-1483
created	-1484
Church	-1485
bas	-1486
Mal	-1487
manag	-1488
187	-1489
described	-1490
fem	-1491
version	-1492
Roy	-1493
days	-1494
ains	-1495
popular	-1496
political	-1497
continued	-1498
thing	-1499
aud	-1500
From	-1501
astern	-1502
production	-1503
gl	-1504
students	-1505
ox	-1506
take	-1507
ering	-1508
acc	-1509
special	-1510
Associ	-1511
ending	-1512
Dem	-1513
term	-1514
match	-1515
sw	-1516
quar	-1517
pointed	-1518
promot	-1519
European	-1520
Sch	-1521
compos	-1522
returned	-1523
avy	-1524
hig	-1525
Roman	-1526
gradu	-1527
elected	-1528
story	-1529
ivil	-1530
ivid	-1531
ached	-1532
church	-1533
nal	-1534
east	-1535
ories	-1536
however	-1537
international	-1538
According	-1539
Australia	-1540
written	-1541
Art	-1542
ger	-1543
squ	-1544
rodu	-1545
President	-1546
ander	-1547
Hol	-1548
great	-1549
Val	-1550
change	-1551
To	-1552
George	-1553
Cap	-1554
president	-1555
pen	-1556
Cour	-1557
2010	-1558
India	-1559
opened	-1560
France	-1561
gether	-1562
nov	-1563
ico	-1564
founded	-1565
ha	-1566
outhern	-1567
ago	-1568
partic	-1569
vide	-1570
xim	-1571
tee	-1572
Council	-1573
ogn	-1574
ds	-1575
Em	-1576
hon	-1577
uses	-1578
Party	-1579
region	-1580
Qu	-1581
har	-1582
James	-1583
unicip	-1584
colle	-1585
associ	-1586
Street	-1587
particip	-1588
need	-1589
Fr	-1590
interest	-1591
performan	-1592
epis	-1593
ned	-1594
fort	-1595
oute	-1596
23	-1597
aken	-1598
gg	-1599
comb	-1600
full	-1601
Thom	-1602
making	-1603
ink	-1604
itor	-1605
moder	-1606
pract	-1607
introdu	-1608
ps	-1609
iment	-1610
stitute	-1611
conne	-1612
Act	-1613
hib	-1614
cret	-1615
Que	-1616
ample	-1617
ville	-1618
daugh	-1619
similar	-1620
Army	-1621
invest	-1622
direct	-1623
ability	-1624
brother	-1625
signed	-1626
Cali	-1627
ull	-1628
ode	-1629
uel	-1630
party	-1631
ising	-1632
lex	-1633
Oly	-1634
model	-1635
broad	-1636
without	-1637
Division	-1638
Pal	-1639
industr	-1640
appeared	-1641
Califor	-1642
ta	-1643
ances	-1644
light	-1645
cop	-1646
inal	-1647
appointed	-1648
22	-1649
military	-1650
lear	-1651
Mor	-1652
formula	-1653
uation	-1654
times	-1655
lost	-1656
successful	-1657
ials	-1658
umb	-1659
vice	-1660
proper	-1661
ountain	-1662
omb	-1663
aj	-1664
vo	-1665
useum	-1666
ush	-1667
covered	-1668
California	-1669
econom	-1670
roy	-1671
Gl	-1672
Olymp	-1673
acy	-1674
face	-1675
education	-1676
plic	-1677
Rich	-1678
room	-1679
recorded	-1680
professional	-1681
rock	-1682
television	-1683
week	-1684
research	-1685
social	-1686
America	-1687
bal	-1688
disc	-1689
individ	-1690
draw	-1691
case	-1692
influ	-1693
Sm	-1694
atter	-1695
ots	-1696
coming	-1697
ops	-1698
engine	-1699
considered	-1700
beh	-1701
working	-1702
hol	-1703
yl	-1704
Sen	-1705
good	-1706
CA	-1707
ino	-1708
reek	-1709
ius	-1710
40	-1711
ges	-1712
thod	-1713
ellow	-1714
seven	-1715
grow	-1716
language	-1717
wife	-1718
employ	-1719
ership	-1720
together	-1721
important	-1722
rew	-1723
fall	-1724
Don	-1725
tom	-1726
dle	-1727
26	-1728
tour	-1729
ways	-1730
..	-1731
concer	-1732
Mil	-1733
Association	-1734
priv	-1735
body	-1736
Paul	-1737
Canada	-1738
ours	-1739
Dan	-1740
aign	-1741
Union	-1742
free	-1743
cts	-1744
wide	-1745
further	-1746
ination	-1747
tradition	-1748
ream	-1749
trav	-1750
developed	-1751
Lou	-1752
Port	-1753
aper	-1754
ming	-1755
fire	-1756
2011	-1757
bi	-1758
bar	-1759
era	-1760
Fir	-1761
Fil	-1762
tries	-1763
style	-1764
outs	-1765
review	-1766
Early	-1767
areas	-1768
typ	-1769
particular	-1770
ably	-1771
mother	-1772
race	-1773
ipp	-1774
director	-1775
dest	-1776
cher	-1777
ference	-1778
offer	-1779
hous	-1780
Sal	-1781
away	-1782
burg	-1783
cup	-1784
exist	-1785
Wal	-1786
playing	-1787
Red	-1788
ensus	-1789
ibr	-1790
27	-1791
strong	-1792
Road	-1793
range	-1794
acqu	-1795
Royal	-1796
miss	-1797
video	-1798
reported	-1799
ournal	-1800
coach	-1801
night	-1802
ittee	-1803
Music	-1804
gt	-1805
mult	-1806
help	-1807
sex	-1808
Lu	-1809
points	-1810
28	-1811
modern	-1812
2012	-1813
common	-1814
construction	-1815
Tw	-1816
Black	-1817
Club	-1818
pecial	-1819
Hen	-1820
David	-1821
While	-1822
never	-1823
office	-1824
dam	-1825
lt	-1826
teams	-1827
assist	-1828
Mary	-1829
release	-1830
hab	-1831
stead	-1832
craft	-1833
fund	-1834
close	-1835
average	-1836
,"	-1837
meet	-1838
front	-1839
example	-1840
Mid	-1841
fail	-1842
himself	-1843
ification	-1844
termin	-1845
qual	-1846
lock	-1847
Australian	-1848
although	-1849
ll	-1850
Not	-1851
agre	-1852
Po	-1853
duc	-1854
ological	-1855
Some	-1856
itive	-1857
ense	-1858
base	-1859
liament	-1860
occur	-1861
inst	-1862
services	-1863
Bu	-1864
NA	-1865
cir	-1866
cript	-1867
mater	-1868
Award	-1869
idence	-1870
others	-1871
recogn	-1872
2006	-1873
aint	-1874
First	-1875
ael	-1876
ators	-1877
should	-1878
laun	-1879
daughter	-1880
ades	-1881
administr	-1882
across	-1883
Germany	-1884
ocr	-1885
active	-1886
independ	-1887
ither	-1888
avail	-1889
Off	-1890
how	-1891
gar	-1892
live	-1893
Pat	-1894
events	-1895
Bal	-1896
shire	-1897
iding	-1898
mot	-1899
Sam	-1900
Vir	-1901
flow	-1902
km	-1903
Town	-1904
league	-1905
Che	-1906
black	-1907
2013	-1908
belie	-1909
Court	-1910
human	-1911
Rev	-1912
regular	-1913
mission	-1914
forms	-1915
nd	-1916
decl	-1917
Tur	-1918
Str	-1919
fed	-1920
Stud	-1921
pite	-1922
estival	-1923
ateg	-1924
cost	-1925
aves	-1926
enc	-1927
Hall	-1928
Mart	-1929
foc	-1930
Central	-1931
China	-1932
taken	-1933
ya	-1934
stitut	-1935
voc	-1936
2014	-1937
iers	-1938
Academ	-1939
Island	-1940
aut	-1941
han	-1942
2008	-1943
market	-1944
gin	-1945
anted	-1946
Mag	-1947
finished	-1948
nat	-1949
anim	-1950
Group	-1951
ope	-1952
Sun	-1953
2009	-1954
29	-1955
bet	-1956
Dev	-1957
Company	-1958
hor	-1959
campaign	-1960
section	-1961
185	-1962
iting	-1963
Jer	-1964
()	-1965
semb	-1966
performed	-1967
Wash	-1968
defe	-1969
ceed	-1970
cis	-1971
Thomas	-1972
rul	-1973
ults	-1974
Other	-1975
official	-1976
Soci	-1977
living	-1978
Law	-1979
Chin	-1980
does	-1981
leading	-1982
Mac	-1983
flo	-1984
completed	-1985
got	-1986
ensive	-1987
fic	-1988
compan	-1989
Ap	-1990
My	-1991
odes	-1992
teen	-1993
municip	-1994
count	-1995
plan	-1996
star	-1997
rain	-1998
ij	-1999
Hill	-2000
Sing	-2001
separ	-2002
labor	-2003
2016	-2004
ples	-2005
Robert	-2006
ris	-2007
months	-2008
designed	-2009
white	-2010
followed	-2011
eight	-2012
UK	-2013
ru	-2014
cus	-2015
cutive	-2016
2015	-2017
court	-2018
Care	-2019
Mex	-2020
ape	-2021
Wil	-2022
super	-2023
Go	-2024
ificant	-2025
corpor	-2026
experi	-2027
doc	-2028
don	-2029
Western	-2030
available	-2031
fig	-2032
ements	-2033
sour	-2034
ey	-2035
ishing	-2036
Washington	-2037
Bay	-2038
Ter	-2039
remained	-2040
largest	-2041
ount	-2042
phys	-2043
bridge	-2044
isl	-2045
famil	-2046
Japanese	-2047
stage	-2048
contract	-2049
Alex	-2050
sch	-2051
Center	-2052
ilities	-2053
iate	-2054
olic	-2055
inj	-2056
...	-2057
Tran	-2058
songs	-2059
Mad	-2060
groups	-2061
Cong	-2062
once	-2063
Mer	-2064
Jack	-2065
Charles	-2066
2000	-2067
western	-2068
gave	-2069
icle	-2070
oney	-2071
gun	-2072
2007	-2073
look	-2074
sco	-2075
viron	-2076
ends	-2077
hard	-2078
far	-2079
Department	-2080
ida	-2081
health	-2082
condu	-2083
significant	-2084
Ben	-2085
iction	-2086
seen	-2087
type	-2088
ospital	-2089
Jew	-2090
wid	-2091
Up	-2092
Sim	-2093
omet	-2094
liter	-2095
park	-2096
gress	-2097
central	-2098
Christian	-2099
Fre	-2100
zer	-2101
1980	-2102
Cath	-2103
relig	-2104
hit	-2105
Institute	-2106
cal	-2107
Commun	-2108
Bill	-2109
1990	-2110
2018	-2111
anal	-2112
includes	-2113
originally	-2114
Super	-2115
aker	-2116
ential	-2117
find	-2118
Ze	-2119
performance	-2120
gree	-2121
ike	-2122
access	-2123
Although	-2124
Since	-2125
Bur	-2126
artist	-2127
listed	-2128
cu	-2129
iple	-2130
Mark	-2131
ships	-2132
forces	-2133
consist	-2134
mal	-2135
here	-2136
African	-2137
training	-2138
ique	-2139
overnor	-2140
command	-2141
currently	-2142
Cam	-2143
sele	-2144
berg	-2145
dou	-2146
features	-2147
azine	-2148
Leg	-2149
owned	-2150
subsequ	-2151
goal	-2152
Society	-2153
schools	-2154
ked	-2155
Chinese	-2156
Prov	-2157
players	-2158
usually	-2159
Miss	-2160
Rad	-2161
throughout	-2162
Er	-2163
relation	-2164
Met	-2165
know	-2166
Angel	-2167
Ir	-2168
wind	-2169
Grand	-2170
aying	-2171
Republic	-2172
text	-2173
Cal	-2174
mus	-2175
.,	-2176
But	-2177
Its	-2178
60	-2179
Sk	-2180
ns	-2181
Ham	-2182
ston	-2183
ply	-2184
must	-2185
igned	-2186
ranch	-2187
directed	-2188
List	-2189
tar	-2190
Fed	-2191
tre	-2192
enced	-2193
writer	-2194
tourn	-2195
exe	-2196
via	-2197
study	-2198
hood	-2199
eventually	-2200
Lat	-2201
Fer	-2202
ben	-2203
Educ	-2204
paren	-2205
White	-2206
bour	-2207
degree	-2208
stated	-2209
sound	-2210
proble	-2211
Do	-2212
Louis	-2213
Russian	-2214
awarded	-2215
capt	-2216
itar	-2217
Jose	-2218
cand	-2219
recent	-2220
tail	-2221
break	-2222
radio	-2223
hi	-2224
cross	-2225
added	-2226
Minister	-2227
ari	-2228
Span	-2229
ga	-2230
entire	-2231
Bra	-2232
force	-2233
Canadian	-2234
information	-2235
2017	-2236
atch	-2237
Du	-2238
ggest	-2239
hom	-2240
featured	-2241
countries	-2242
suggest	-2243
Fin	-2244
Tour	-2245
Sl	-2246
railway	-2247
fight	-2248
acher	-2249
ti	-2250
Vict	-2251
defin	-2252
novel	-2253
erous	-2254
respons	-2255
icy	-2256
airs	-2257
Virgin	-2258
Green	-2259
SA	-2260
184	-2261
states	-2262
photo	-2263
saw	-2264
you	-2265
pan	-2266
Great	-2267
Scott	-2268
redu	-2269
pot	-2270
episode	-2271
involved	-2272
Arch	-2273
Kar	-2274
archite	-2275
Record	-2276
vict	-2277
Peter	-2278
plant	-2279
atives	-2280
tro	-2281
ergy	-2282
prison	-2283
atory	-2284
comes	-2285
earli	-2286
aching	-2287
Italian	-2288
You	-2289
space	-2290
Tex	-2291
loss	-2292
fan	-2293
aining	-2294
bill	-2295
Academy	-2296
ids	-2297
tell	-2298
private	-2299
provided	-2300
vironment	-2301
aur	-2302
above	-2303
related	-2304
winning	-2305
transfer	-2306
Democr	-2307
asket	-2308
bed	-2309
rap	-2310
ishop	-2311
Ver	-2312
fourth	-2313
jud	-2314
deal	-2315
anti	-2316
ump	-2317
sey	-2318
police	-2319
killed	-2320
competition	-2321
Del	-2322
civil	-2323
ician	-2324
commer	-2325
upon	-2326
occup	-2327
Lake	-2328
Tor	-2329
FC	-2330
parts	-2331
quest	-2332
ength	-2333
center	-2334
ka	-2335
Second	-2336
wall	-2337
spir	-2338
emor	-2339
Michael	-2340
Francis	-2341
ho	-2342
respect	-2343
writing	-2344
families	-2345
attr	-2346
changed	-2347
surv	-2348
mean	-2349
Best	-2350
Im	-2351
Inter	-2352
istan	-2353
replaced	-2354
tic	-2355
aries	-2356
possible	-2357
1970	-2358
thus	-2359
stop	-2360
olution	-2361
sil	-2362
Gold	-2363
either	-2364
Africa	-2365
Spanish	-2366
Mus	-2367
date	-2368
rights	-2369
stone	-2370
college	-2371
plays	-2372
attended	-2373
atre	-2374
ready	-2375
wa	-2376
decided	-2377
fav	-2378
asing	-2379
bound	-2380
size	-2381
introduced	-2382
FA	-2383
itch	-2384
Dis	-2385
empt	-2386
ded	-2387
cause	-2388
Richard	-2389
aval	-2390
Henry	-2391
oviet	-2392
bank	-2393
media	-2394
least	-2395
inner	-2396
achie	-2397
meas	-2398
Frank	-2399
lower	-2400
uture	-2401
Prof	-2402
approxim	-2403
cul	-2404
sembly	-2405
Mill	-2406
rown	-2407
too	-2408
contribut	-2409
sea	-2410
Ire	-2411
iff	-2412
lines	-2413
icated	-2414
fre	-2415
Mel	-2416
Women	-2417
idae	-2418
mass	-2419
river	-2420
critic	-2421
treat	-2422
candid	-2423
Tom	-2424
ald	-2425
join	-2426
annel	-2427
Football	-2428
viol	-2429
Lab	-2430
aps	-2431
Pan	-2432
ring	-2433
books	-2434
capital	-2435
2004	-2436
Lit	-2437
scored	-2438
fif	-2439
overs	-2440
standing	-2441
arily	-2442
Mont	-2443
Education	-2444
division	-2445
pring	-2446
past	-2447
closed	-2448
ention	-2449
purch	-2450
stra	-2451
aircraft	-2452
Camp	-2453
Victor	-2454
ases	-2455
Soviet	-2456
gir	-2457
ender	-2458
length	-2459
Penn	-2460
gold	-2461
reached	-2462
move	-2463
ibution	-2464
2005	-2465
exper	-2466
Catholic	-2467
subject	-2468
ties	-2469
Career	-2470
mix	-2471
Texas	-2472
course	-2473
igr	-2474
ona	-2475
nomin	-2476
films	-2477
Harr	-2478
pay	-2479
claimed	-2480
buildings	-2481
gian	-2482
tournament	-2483
80	-2484
Saint	-2485
cit	-2486
imm	-2487
Dire	-2488
certain	-2489
Kore	-2490
aland	-2491
RA	-2492
Follow	-2493
,000	-2494
Paris	-2495
Smith	-2496
sure	-2497
grand	-2498
CO	-2499
tax	-2500
Museum	-2501
pie	-2502
legal	-2503
idents	-2504
brought	-2505
rael	-2506
Ireland	-2507
hest	-2508
wing	-2509
enter	-2510
rather	-2511
reve	-2512
asketball	-2513
31	-2514
shows	-2515
regard	-2516
Day	-2517
cred	-2518
box	-2519
Cast	-2520
Flor	-2521
method	-2522
stitution	-2523
ena	-2524
sal	-2525
express	-2526
CD	-2527
Los	-2528
iography	-2529
behind	-2530
scre	-2531
500	-2532
Ke	-2533
iation	-2534
represented	-2535
frequ	-2536
census	-2537
sum	-2538
function	-2539
Later	-2540
provide	-2541
hu	-2542
holds	-2543
organization	-2544
neigh	-2545
Israel	-2546
female	-2547
studio	-2548
Swed	-2549
Commission	-2550
bit	-2551
ufact	-2552
ambig	-2553
Kingdom	-2554
defeated	-2555
Pac	-2556
lik	-2557
Following	-2558
Awards	-2559
onto	-2560
venue	-2561
stant	-2562
acts	-2563
lived	-2564
tru	-2565
ume	-2566
Life	-2567
commission	-2568
Fore	-2569
eration	-2570
northern	-2571
Il	-2572
ibrary	-2573
reason	-2574
bon	-2575
island	-2576
perform	-2577
Government	-2578
prem	-2579
oul	-2580
instead	-2581
Cur	-2582
ams	-2583
yr	-2584
plann	-2585
icles	-2586
Rock	-2587
establish	-2588
tained	-2589
God	-2590
So	-2591
Sup	-2592
ota	-2593
exhib	-2594
olk	-2595
Oper	-2596
ffer	-2597
previously	-2598
Two	-2599
sett	-2600
vert	-2601
runs	-2602
southern	-2603
amed	-2604
taking	-2605
dy	-2606
studies	-2607
–0	-2608
lic	-2609
whose	-2610
imp	-2611
ois	-2612
Most	-2613
data	-2614
iage	-2615
ception	-2616
Committee	-2617
primary	-2618
championship	-2619
units	-2620
especial	-2621
word	-2622
Carol	-2623
1960	-2624
plat	-2625
web	-2626
sat	-2627
Histor	-2628
outside	-2629
Di	-2630
hus	-2631
35	-2632
especially	-2633
BA	-2634
summer	-2635
Summer	-2636
ands	-2637
chart	-2638
icket	-2639
natural	-2640
somet	-2641
nel	-2642
olf	-2643
Year	-2644
cing	-2645
Film	-2646
almost	-2647
ened	-2648
approximately	-2649
2010,	-2650
structure	-2651
journal	-2652
Play	-2653
soon	-2654
Mat	-2655
apt	-2656
za	-2657
cretary	-2658
investig	-2659
commercial	-2660
Sto	-2661
princ	-2662
Olympics	-2663
chief	-2664
Zealand	-2665
unk	-2666
issue	-2667
Championships	-2668
ems	-2669
uty	-2670
allowed	-2671
movement	-2672
vic	-2673
Person	-2674
curity	-2675
respond	-2676
industry	-2677
log	-2678
Just	-2679
ado	-2680
sus	-2681
Chic	-2682
Spe	-2683
porary	-2684
personal	-2685
"),	-2686
ancial	-2687
woman	-2688
Virginia	-2689
wal	-2690
istry	-2691
Sir	-2692
Over	-2693
Profess	-2694
irth	-2695
Congress	-2696
Atl	-2697
mas	-2698
issues	-2699
edy	-2700
ini	-2701
rid	-2702
ving	-2703
ging	-2704
igan	-2705
21,	-2706
istic	-2707
Mur	-2708
Men	-2709
Under	-2710
coast	-2711
ios	-2712
Old	-2713
towards	-2714
operation	-2715
ny	-2716
uals	-2717
2015,	-2718
Arts	-2719
oll	-2720
serving	-2721
document	-2722
according	-2723
traditional	-2724
Sur	-2725
clear	-2726
Star	-2727
ambiguation	-2728
FL	-2729
ored	-2730
itself	-2731
ita	-2732
disambiguation	-2733
systems	-2734
Kr	-2735
route	-2736
sport	-2737
rd	-2738
cel	-2739
Festival	-2740
45	-2741
adium	-2742
county	-2743
Public	-2744
III	-2745
aled	-2746
higher	-2747
los	-2748
actions	-2749
2)	-2750
syl	-2751
2011,	-2752
habit	-2753
theast	-2754
army	-2755
emer	-2756
Records	-2757
lying	-2758
Ele	-2759
seat	-2760
spent	-2761
standard	-2762
ani	-2763
hot	-2764
sec	-2765
tor	-2766
independent	-2767
leader	-2768
complet	-2769
quarter	-2770
cep	-2771
location	-2772
ror	-2773
highest	-2774
2016,	-2775
Joseph	-2776
2012,	-2777
oth	-2778
agon	-2779
ada	-2780
travel	-2781
keep	-2782
report	-2783
ises	-2784
below	-2785
manufact	-2786
Mr	-2787
iety	-2788
little	-2789
complex	-2790
beginning	-2791
2014,	-2792
Parliament	-2793
2013,	-2794
Railway	-2795
Battle	-2796
future	-2797
worth	-2798
territ	-2799
operations	-2800
65	-2801
forced	-2802
ift	-2803
Ot	-2804
2018,	-2805
opt	-2806
stream	-2807
appearance	-2808
ola	-2809
uter	-2810
staff	-2811
whom	-2812
going	-2813
food	-2814
stor	-2815
network	-2816
generally	-2817
mur	-2818
magazine	-2819
90	-2820
running	-2821
required	-2822
anta	-2823
launched	-2824
studied	-2825
individual	-2826
Sil	-2827
mic	-2828
Arab	-2829
gent	-2830
ternal	-2831
ker	-2832
ien	-2833
cele	-2834
entered	-2835
opening	-2836
ension	-2837
broadcast	-2838
sometimes	-2839
70	-2840
Italy	-2841
Bul	-2842
property	-2843
farm	-2844
aught	-2845
rup	-2846
collection	-2847
dig	-2848
Northern	-2849
ba	-2850
Chicago	-2851
acted	-2852
atal	-2853
Found	-2854
oph	-2855
da	-2856
chair	-2857
estim	-2858
eth	-2859
Squ	-2860
Rob	-2861
jun	-2862
Brown	-2863
senior	-2864
Force	-2865
Many	-2866
settle	-2867
inary	-2868
Board	-2869
ograph	-2870
lack	-2871
Mass	-2872
183	-2873
transl	-2874
2017,	-2875
noted	-2876
object	-2877
bell	-2878
thes	-2879
saf	-2880
passed	-2881
lor	-2882
2003	-2883
exam	-2884
IS	-2885
2019,	-2886
gas	-2887
pected	-2888
PA	-2889
plied	-2890
bot	-2891
lie	-2892
anded	-2893
Mod	-2894
ibility	-2895
reser	-2896
scient	-2897
Sub	-2898
ato	-2899
ett	-2900
drop	-2901
rate	-2902
utes	-2903
ski	-2904
clim	-2905
Ev	-2906
aces	-2907
complete	-2908
Hu	-2909
olar	-2910
ID	-2911
2009,	-2912
operated	-2913
student	-2914
suffer	-2915
Pre	-2916
Scot	-2917
ady	-2918
money	-2919
changes	-2920
counter	-2921
wer	-2922
pose	-2923
Mexico	-2924
numerous	-2925
pet	-2926
environment	-2927
Lord	-2928
economic	-2929
MA	-2930
newsp	-2931
majority	-2932
Navy	-2933
ctive	-2934
destroy	-2935
aring	-2936
genus	-2937
speed	-2938
Games	-2939
ura	-2940
cases	-2941
forest	-2942
victory	-2943
trade	-2944
income	-2945
Angeles	-2946
limited	-2947
practice	-2948
surround	-2949
means	-2950
singer	-2951
syn	-2952
pers	-2953
squad	-2954
attemp	-2955
utch	-2956
big	-2957
fle	-2958
rich	-2959
science	-2960
Lo	-2961
ano	-2962
companies	-2963
2001	-2964
famous	-2965
If	-2966
inte	-2967
Ty	-2968
unit	-2969
sylvan	-2970
already	-2971
earlier	-2972
associated	-2973
Braz	-2974
Florida	-2975
results	-2976
teacher	-2977
prior	-2978
prob	-2979
mach	-2980
Class	-2981
actor	-2982
manager	-2983
Station	-2984
culture	-2985
Jun	-2986
Techn	-2987
older	-2988
share	-2989
diffic	-2990
Chief	-2991
struct	-2992
").	-2993
vey	-2994
incorpor	-2995
husband	-2996
competed	-2997
Hot	-2998
fel	-2999
minor	-3000
battle	-3001
Mu	-3002
usion	-3003
increased	-3004
onse	-3005
wee	-3006
earch	-3007
applic	-3008
attempt	-3009
Den	-3010
university	-3011
Mos	-3012
Bet	-3013
Wood	-3014
Greek	-3015
Irish	-3016
matches	-3017
immed	-3018
lay	-3019
2008,	-3020
goals	-3021
inent	-3022
sylvania	-3023
CE	-3024
lam	-3025
Hy	-3026
ayed	-3027
shot	-3028
rail	-3029
activities	-3030
ify	-3031
antic	-3032
Pacific	-3033
mod	-3034
ole	-3035
firm	-3036
ires	-3037
ows	-3038
Line	-3039
thought	-3040
material	-3041
threat	-3042
uments	-3043
Big	-3044
nine	-3045
Hum	-3046
auto	-3047
academ	-3048
centre	-3049
Bus	-3050
icts	-3051
abe	-3052
master	-3053
Ru	-3054
supported	-3055
caused	-3056
create	-3057
selected	-3058
characters	-3059
score	-3060
mir	-3061
Bank	-3062
Fort	-3063
sych	-3064
2002	-3065
equip	-3066
Dou	-3067
istics	-3068
eter	-3069
arian	-3070
celebr	-3071
becoming	-3072
Back	-3073
Bud	-3074
Vol	-3075
job	-3076
weight	-3077
percent	-3078
arrest	-3079
love	-3080
terms	-3081
Valley	-3082
colon	-3083
decision	-3084
Land	-3085
mostly	-3086
remains	-3087
contains	-3088
charg	-3089
annual	-3090
mountain	-3091
Route	-3092
contest	-3093
Pak	-3094
Ag	-3095
step	-3096
Brazil	-3097
eastern	-3098
Assembly	-3099
kin	-3100
quick	-3101
religious	-3102
birth	-3103
Emp	-3104
Mic	-3105
ockey	-3106
Province	-3107
12,	-3108
Southern	-3109
Ol	-3110
Wales	-3111
Hon	-3112
Georg	-3113
hours	-3114
Martin	-3115
itation	-3116
oma	-3117
opp	-3118
That	-3119
2020,	-3120
status	-3121
border	-3122
ption	-3123
initially	-3124
Haw	-3125
programs	-3126
Jud	-3127
sports	-3128
Ros	-3129
better	-3130
additional	-3131
veh	-3132
Gar	-3133
urb	-3134
phil	-3135
Open	-3136
izing	-3137
Pennsylvania	-3138
collabor	-3139
adv	-3140
concl	-3141
municipality	-3142
foot	-3143
vention	-3144
medal	-3145
Bor	-3146
editor	-3147
bey	-3148
aches	-3149
impro	-3150
Russia	-3151
Mah	-3152
officer	-3153
particularly	-3154
Bas	-3155
Out	-3156
itz	-3157
Post	-3158
Service	-3159
Bre	-3160
happ	-3161
sister	-3162
ients	-3163
nation	-3164
Sat	-3165
conf	-3166
Sar	-3167
phen	-3168
Ba	-3169
ón	-3170
yan	-3171
iest	-3172
subsequently	-3173
specific	-3174
management	-3175
eas	-3176
isher	-3177
Prince	-3178
mitted	-3179
artists	-3180
iated	-3181
financial	-3182
Research	-3183
nes	-3184
edition	-3185
mention	-3186
relationship	-3187
names	-3188
medical	-3189
selves	-3190
aired	-3191
fa	-3192
elections	-3193
Democratic	-3194
parents	-3195
increase	-3196
How	-3197
1999	-3198
serve	-3199
burn	-3200
asked	-3201
bers	-3202
bird	-3203
occas	-3204
plement	-3205
ala	-3206
leaving	-3207
Iran	-3208
houses	-3209
musical	-3210
Science	-3211
Liber	-3212
today	-3213
inated	-3214
2007,	-3215
feature	-3216
Book	-3217
retired	-3218
ips	-3219
ella	-3220
1)	-3221
18,	-3222
Lin	-3223
policy	-3224
lood	-3225
reme	-3226
indic	-3227
Ann	-3228
fill	-3229
fully	-3230
federal	-3231
180	-3232
minister	-3233
give	-3234
suit	-3235
Their	-3236
referred	-3237
dro	-3238
sof	-3239
pred	-3240
Produ	-3241
yard	-3242
pow	-3243
ert	-3244
1950	-3245
Oh	-3246
Queen	-3247
sym	-3248
Spain	-3249
oil	-3250
vin	-3251
urban	-3252
interview	-3253
3)	-3254
Net	-3255
Ken	-3256
deb	-3257
onom	-3258
elop	-3259
square	-3260
Times	-3261
larger	-3262
Jewish	-3263
Fam	-3264
instr	-3265
Governor	-3266
illa	-3267
raised	-3268
basketball	-3269
Loc	-3270
load	-3271
Hel	-3272
meaning	-3273
vote	-3274
Hor	-3275
Boy	-3276
isation	-3277
mob	-3278
likely	-3279
bring	-3280
belong	-3281
believed	-3282
ki	-3283
shown	-3284
weeks	-3285
Ha	-3286
guitar	-3287
helped	-3288
Long	-3289
Main	-3290
Both	-3291
Empire	-3292
earned	-3293
foreign	-3294
lobal	-3295
screen	-3296
news	-3297
10,	-3298
chall	-3299
Mountain	-3300
1920	-3301
iance	-3302
surface	-3303
Young	-3304
middle	-3305
ultural	-3306
response	-3307
lot	-3308
stitu	-3309
commit	-3310
altern	-3311
mainly	-3312
themselves	-3313
bury	-3314
People	-3315
politician	-3316
mes	-3317
presented	-3318
failed	-3319
stations	-3320
theory	-3321
turned	-3322
energy	-3323
More	-3324
iana	-3325
legisl	-3326
ugg	-3327
ography	-3328
azz	-3329
carried	-3330
ky	-3331
path	-3332
regional	-3333
cities	-3334
Eastern	-3335
minutes	-3336
acquired	-3337
Broad	-3338
meeting	-3339
evidence	-3340
va	-3341
sche	-3342
pil	-3343
Tele	-3344
uz	-3345
fast	-3346
council	-3347
Ur	-3348
Ram	-3349
constructed	-3350
ulture	-3351
Health	-3352
wealth	-3353
Es	-3354
1998	-3355
bomb	-3356
arts	-3357
sets	-3358
Radio	-3359
deliver	-3360
2–	-3361
IA	-3362
quarters	-3363
anda	-3364
acting	-3365
composed	-3366
rat	-3367
Love	-3368
sky	-3369
pair	-3370
oke	-3371
longer	-3372
36	-3373
crew	-3374
Edward	-3375
Lee	-3376
0,000	-3377
offered	-3378
Ca	-3379
lives	-3380
integr	-3381
takes	-3382
tracks	-3383
starting	-3384
department	-3385
Os	-3386
seasons	-3387
MS	-3388
consists	-3389
5%	-3390
Chris	-3391
oo	-3392
arran	-3393
ites	-3394
Sol	-3395
4)	-3396
bad	-3397
marriage	-3398
uan	-3399
11,	-3400
pit	-3401
iences	-3402
Hung	-3403
Social	-3404
ko	-3405
yer	-3406
avo	-3407
despite	-3408
Ath	-3409
society	-3410
install	-3411
Personal	-3412
uated	-3413
latter	-3414
appears	-3415
Dutch	-3416
gency	-3417
appearances	-3418
fifth	-3419
15,	-3420
wan	-3421
proposed	-3422
bol	-3423
Bow	-3424
citiz	-3425
communic	-3426
graduated	-3427
capac	-3428
Common	-3429
Carolina	-3430
aging	-3431
issued	-3432
Despite	-3433
Develop	-3434
managed	-3435
Civil	-3436
color	-3437
News	-3438
native	-3439
visit	-3440
always	-3441
1997	-3442
2006,	-3443
arden	-3444
cription	-3445
block	-3446
label	-3447
finally	-3448
poor	-3449
remaining	-3450
cru	-3451
Team	-3452
Middle	-3453
]]	-3454
umn	-3455
iger	-3456
33	-3457
peak	-3458
ously	-3459
source	-3460
oon	-3461
ugby	-3462
Latin	-3463
demon	-3464
[[	-3465
mouth	-3466
detail	-3467
transport	-3468
Jim	-3469
rot	-3470
Director	-3471
ken	-3472
discovered	-3473
overall	-3474
14,	-3475
Bob	-3476
mis	-3477
spl	-3478
creation	-3479
recording	-3480
troops	-3481
variety	-3482
footballer	-3483
Four	-3484
sell	-3485
professor	-3486
enough	-3487
awa	-3488
temper	-3489
technology	-3490
Rh	-3491
words	-3492
Series	-3493
Of	-3494
Dun	-3495
ange	-3496
necess	-3497
influence	-3498
inet	-3499
door	-3500
Poland	-3501
nearly	-3502
scor	-3503
lif	-3504
honor	-3505
zy	-3506
1996	-3507
individuals	-3508
letter	-3509
records	-3510
iy	-3511
boy	-3512
conditions	-3513
moving	-3514
Jul	-3515
Def	-3516
Dep	-3517
require	-3518
Pakistan	-3519
ić	-3520
Prem	-3521
targ	-3522
mem	-3523
ounder	-3524
Republ	-3525
Far	-3526
told	-3527
difficult	-3528
card	-3529
done	-3530
ustr	-3531
might	-3532
experience	-3533
dise	-3534
17,	-3535
cycl	-3536
divided	-3537
BS	-3538
promoted	-3539
crim	-3540
distin	-3541
succeed	-3542
Vo	-3543
mond	-3544
Biography	-3545
AC	-3546
ider	-3547
neighbor	-3548
Cy	-3549
fish	-3550
compl	-3551
Portug	-3552
bul	-3553
batt	-3554
green	-3555
fellow	-3556
Tim	-3557
neg	-3558
multiple	-3559
mm	-3560
categ	-3561
partn	-3562
discuss	-3563
cultural	-3564
Creek	-3565
heavy	-3566
Are	-3567
quality	-3568
abs	-3569
Theatre	-3570
mad	-3571
restr	-3572
coup	-3573
male	-3574
pick	-3575
atively	-3576
3–	-3577
hall	-3578
Jones	-3579
movie	-3580
aya	-3581
consider	-3582
pool	-3583
iately	-3584
Top	-3585
izes	-3586
advan	-3587
Columb	-3588
Philipp	-3589
separate	-3590
uries	-3591
MP	-3592
producer	-3593
print	-3594
wanted	-3595
problems	-3596
mor	-3597
Conference	-3598
alleg	-3599
brief	-3600
fit	-3601
ulated	-3602
channel	-3603
hospital	-3604
provides	-3605
idea	-3606
aters	-3607
vices	-3608
Michigan	-3609
determin	-3610
primarily	-3611
Asian	-3612
nic	-3613
grade	-3614
Another	-3615
Mas	-3616
residents	-3617
Hal	-3618
ysis	-3619
benef	-3620
ibe	-3621
titled	-3622
Sea	-3623
except	-3624
Song	-3625
peror	-3626
isto	-3627
Major	-3628
passeng	-3629
Ho	-3630
union	-3631
double	-3632
aily	-3633
aven	-3634
arrived	-3635
Development	-3636
chap	-3637
architect	-3638
iro	-3639
anth	-3640
hill	-3641
forts	-3642
alongside	-3643
responsible	-3644
ote	-3645
Britain	-3646
LA	-3647
Asia	-3648
province	-3649
ophy	-3650
historical	-3651
murder	-3652
organized	-3653
participated	-3654
nearby	-3655
ador	-3656
Republican	-3657
increasing	-3658
andon	-3659
Gal	-3660
ati	-3661
prop	-3662
accep	-3663
ledge	-3664
store	-3665
IV	-3666
Senate	-3667
Foundation	-3668
iang	-3669
ession	-3670
5)	-3671
thr	-3672
plans	-3673
Uk	-3674
din	-3675
friends	-3676
products	-3677
Order	-3678
Conserv	-3679
mechan	-3680
37	-3681
Jes	-3682
pra	-3683
extended	-3684
contem	-3685
isions	-3686
Van	-3687
aka	-3688
lies	-3689
heart	-3690
Johnson	-3691
Ko	-3692
19,	-3693
burgh	-3694
13,	-3695
Blue	-3696
scr	-3697
TA	-3698
16,	-3699
1–	-3700
spect	-3701
Bol	-3702
Islam	-3703
nature	-3704
directly	-3705
179	-3706
System	-3707
historic	-3708
án	-3709
ils	-3710
Lim	-3711
nar	-3712
leave	-3713
value	-3714
places	-3715
38	-3716
Kh	-3717
ulty	-3718
Metro	-3719
2-	-3720
Cont	-3721
elled	-3722
levels	-3723
ingu	-3724
rank	-3725
youth	-3726
officially	-3727
Tod	-3728
museum	-3729
expected	-3730
6–	-3731
saying	-3732
Dar	-3733
pal	-3734
adop	-3735
format	-3736
Williams	-3737
numbers	-3738
rule	-3739
Engine	-3740
conver	-3741
ja	-3742
Cro	-3743
ses	-3744
comment	-3745
Scotland	-3746
Bost	-3747
escap	-3748
whether	-3749
candidate	-3750
cean	-3751
emorial	-3752
prevent	-3753
SR	-3754
iano	-3755
organiz	-3756
Corpor	-3757
ources	-3758
mel	-3759
Georgia	-3760
parish	-3761
ensity	-3762
positive	-3763
reach	-3764
ifying	-3765
workers	-3766
Water	-3767
ordered	-3768
ansas	-3769
ultim	-3770
renamed	-3771
Ox	-3772
rural	-3773
whole	-3774
Rel	-3775
34	-3776
beat	-3777
quickly	-3778
Sa	-3779
Coast	-3780
concept	-3781
dead	-3782
Gir	-3783
bow	-3784
Stan	-3785
mann	-3786
Eliz	-3787
Gall	-3788
resent	-3789
vation	-3790
demonstr	-3791
giving	-3792
charge	-3793
electric	-3794
Centre	-3795
Little	-3796
Office	-3797
Sand	-3798
activity	-3799
conducted	-3800
Tam	-3801
sons	-3802
paper	-3803
twent	-3804
types	-3805
9)	-3806
Albert	-3807
Secretary	-3808
transferred	-3809
Por	-3810
Francisco	-3811
psych	-3812
spread	-3813
intended	-3814
maintain	-3815
Federal	-3816
Wind	-3817
graduate	-3818
administrative	-3819
Egy	-3820
Head	-3821
Game	-3822
omer	-3823
produce	-3824
capacity	-3825
elements	-3826
growth	-3827
eds	-3828
Ohio	-3829
Wall	-3830
excl	-3831
ding	-3832
progress	-3833
account	-3834
Hospital	-3835
newspaper	-3836
EP	-3837
ES	-3838
Pop	-3839
makes	-3840
females	-3841
Scottish	-3842
Pen	-3843
amount	-3844
Boston	-3845
projects	-3846
2%	-3847
table	-3848
stars	-3849
Columbia	-3850
1%	-3851
48	-3852
Jean	-3853
confl	-3854
forward	-3855
Inc	-3856
iga	-3857
ipal	-3858
icted	-3859
Ukrain	-3860
assigned	-3861
request	-3862
FM	-3863
cting	-3864
Alexander	-3865
Viet	-3866
kind	-3867
abeth	-3868
24,	-3869
Ak	-3870
ila	-3871
confir	-3872
Syd	-3873
Tal	-3874
grew	-3875
institut	-3876
USA	-3877
Kent	-3878
ancient	-3879
Tem	-3880
chem	-3881
umed	-3882
prominent	-3883
phy	-3884
fell	-3885
ables	-3886
revol	-3887
soldiers	-3888
25,	-3889
security	-3890
adel	-3891
highly	-3892
ye	-3893
rev	-3894
castle	-3895
sn	-3896
yet	-3897
itage	-3898
officers	-3899
bes	-3900
2010.	-3901
fantry	-3902
Three	-3903
owner	-3904
Econom	-3905
Mot	-3906
Egypt	-3907
agement	-3908
removed	-3909
assistant	-3910
wis	-3911
circ	-3912
feel	-3913
Illin	-3914
floor	-3915
Max	-3916
Bang	-3917
2005,	-3918
depart	-3919
preser	-3920
ern	-3921
emic	-3922
Ly	-3923
Highway	-3924
portion	-3925
product	-3926
administration	-3927
Cross	-3928
defeat	-3929
Also	-3930
ux	-3931
iles	-3932
bs	-3933
coll	-3934
bass	-3935
dark	-3936
portun	-3937
75	-3938
executive	-3939
4–	-3940
initial	-3941
Good	-3942
continue	-3943
deep	-3944
constitu	-3945
BBC	-3946
drug	-3947
Earth	-3948
Ash	-3949
uten	-3950
Avenue	-3951
purchased	-3952
Pet	-3953
notable	-3954
street	-3955
ferences	-3956
Ass	-3957
ques	-3958
upper	-3959
estimated	-3960
Ul	-3961
Jos	-3962
Brook	-3963
CC	-3964
Dor	-3965
rupt	-3966
Polish	-3967
6%	-3968
races	-3969
Card	-3970
ava	-3971
smaller	-3972
Polit	-3973
touch	-3974
Illinois	-3975
commonly	-3976
Brig	-3977
Athlet	-3978
undred	-3979
conference	-3980
Jr	-3981
marked	-3982
Ep	-3983
agreed	-3984
Die	-3985
Sydney	-3986
largely	-3987
ias	-3988
stories	-3989
bishop	-3990
UN	-3991
Home	-3992
immediately	-3993
ees	-3994
1930	-3995
ctic	-3996
mand	-3997
basis	-3998
favor	-3999
cin	-4000
identified	-4001
Child	-4002
vest	-4003
Sports	-4004
dedicated	-4005
zo	-4006
Der	-4007
behav	-4008
revealed	-4009
chos	-4010
contro	-4011
effects	-4012
sites	-4013
efforts	-4014
yards	-4015
collect	-4016
Historic	-4017
formerly	-4018
isters	-4019
fix	-4020
folk	-4021
ampions	-4022
Family	-4023
philos	-4024
planned	-4025
implement	-4026
traff	-4027
controvers	-4028
facilities	-4029
trib	-4030
serves	-4031
spring	-4032
chester	-4033
ued	-4034
scene	-4035
ua	-4036
ira	-4037
distance	-4038
apers	-4039
20,	-4040
greg	-4041
tware	-4042
featuring	-4043
iew	-4044
joy	-4045
Jersey	-4046
jected	-4047
relations	-4048
resist	-4049
direction	-4050
3%	-4051
ogy	-4052
code	-4053
Vietnam	-4054
founder	-4055
Ob	-4056
question	-4057
ais	-4058
solo	-4059
needed	-4060
2012.	-4061
opportun	-4062
stein	-4063
accepted	-4064
clubs	-4065
households	-4066
incorporated	-4067
hosted	-4068
tainment	-4069
potential	-4070
von	-4071
apart	-4072
sail	-4073
median	-4074
reng	-4075
Mount	-4076
leaders	-4077
pack	-4078
2014.	-4079
agric	-4080
Daniel	-4081
ropical	-4082
cars	-4083
ulted	-4084
Represent	-4085
conse	-4086
ibuted	-4087
prin	-4088
guest	-4089
marine	-4090
positions	-4091
1988	-4092
affil	-4093
stock	-4094
branch	-4095
Vill	-4096
phas	-4097
6)	-4098
2011.	-4099
flight	-4100
address	-4101
territory	-4102
Bishop	-4103
Victoria	-4104
49	-4105
semi	-4106
Andrew	-4107
Airport	-4108
website	-4109
treatment	-4110
pul	-4111
orning	-4112
respectively	-4113
rick	-4114
captured	-4115
hop	-4116
Bell	-4117
ji	-4118
Wel	-4119
focus	-4120
spired	-4121
aug	-4122
rect	-4123
akers	-4124
shoot	-4125
Jackson	-4126
follows	-4127
approach	-4128
mentioned	-4129
settlement	-4130
edom	-4131
Anton	-4132
cos	-4133
2013.	-4134
oud	-4135
awards	-4136
physical	-4137
4%	-4138
industrial	-4139
Ve	-4140
parliament	-4141
Journal	-4142
hur	-4143
Each	-4144
agreement	-4145
emy	-4146
Corps	-4147
7)	-4148
1995	-4149
inside	-4150
municipal	-4151
kee	-4152
fair	-4153
Base	-4154
Show	-4155
rout	-4156
drama	-4157
winner	-4158
housing	-4159
Queens	-4160
probably	-4161
protest	-4162
ulations	-4163
typically	-4164
10.	-4165
bac	-4166
cat	-4167
wel	-4168
Turk	-4169
Bridge	-4170
nuc	-4171
rig	-4172
Americ	-4173
article	-4174
SS	-4175
Vi	-4176
ube	-4177
Argent	-4178
paid	-4179
rare	-4180
trial	-4181
Independ	-4182
destroyed	-4183
cert	-4184
Ven	-4185
2015.	-4186
perman	-4187
Ministry	-4188
sou	-4189
split	-4190
affe	-4191
weap	-4192
Well	-4193
voted	-4194
sources	-4195
Tenn	-4196
miles	-4197
suffered	-4198
occurred	-4199
Ray	-4200
online	-4201
champion	-4202
uded	-4203
Field	-4204
confirmed	-4205
wise	-4206
39	-4207
itt	-4208
arry	-4209
flag	-4210
advis	-4211
cam	-4212
Berlin	-4213
Muslim	-4214
adopted	-4215
EC	-4216
Raj	-4217
elim	-4218
Enter	-4219
Born	-4220
emeter	-4221
7%	-4222
operating	-4223
300	-4224
scen	-4225
susp	-4226
astic	-4227
ctors	-4228
languages	-4229
Before	-4230
platform	-4231
ech	-4232
cement	-4233
abandon	-4234
Hong	-4235
wear	-4236
resh	-4237
widely	-4238
distribution	-4239
Luc	-4240
ione	-4241
Elect	-4242
offers	-4243
pattern	-4244
mixed	-4245
encies	-4246
attention	-4247
lov	-4248
girl	-4249
2009.	-4250
cerem	-4251
Stadium	-4252
votes	-4253
reviews	-4254
target	-4255
Library	-4256
Cas	-4257
designated	-4258
gained	-4259
""	-4260
Les	-4261
roll	-4262
Corporation	-4263
aly	-4264
onic	-4265
borough	-4266
Professor	-4267
committee	-4268
Ban	-4269
dim	-4270
coal	-4271
ping	-4272
ronic	-4273
plants	-4274
streng	-4275
thur	-4276
Prime	-4277
compared	-4278
recently	-4279
Rod	-4280
Time	-4281
estate	-4282
retire	-4283
Olympic	-4284
Elizabeth	-4285
replac	-4286
therefore	-4287
Tay	-4288
centr	-4289
verse	-4290
interpre	-4291
ette	-4292
condition	-4293
leadership	-4294
ulpt	-4295
Offic	-4296
ranked	-4297
reduced	-4298
ram	-4299
Rail	-4300
finals	-4301
connected	-4302
repe	-4303
iring	-4304
icine	-4305
iber	-4306
lan	-4307
loy	-4308
Kong	-4309
ders	-4310
piece	-4311
Rome	-4312
chen	-4313
wick	-4314
Guard	-4315
silver	-4316
Kir	-4317
2016.	-4318
peace	-4319
equipment	-4320
cow	-4321
leaves	-4322
ctoral	-4323
computer	-4324
sens	-4325
content	-4326
-19	-4327
uset	-4328
thous	-4329
captain	-4330
ao	-4331
presence	-4332
background	-4333
FI	-4334
400	-4335
len	-4336
Bern	-4337
declared	-4338
Fur	-4339
singles	-4340
pressure	-4341
PS	-4342
die	-4343
rey	-4344
kins	-4345
loan	-4346
scholar	-4347
Chap	-4348
arms	-4349
joint	-4350
skill	-4351
fields	-4352
serious	-4353
utenant	-4354
register	-4355
Rog	-4356
Pu	-4357
1994	-4358
blue	-4359
purpose	-4360
academic	-4361
combined	-4362
Cir	-4363
conserv	-4364
Jef	-4365
2017.	-4366
Islands	-4367
Han	-4368
Mun	-4369
brand	-4370
Program	-4371
commissioned	-4372
Special	-4373
scoring	-4374
Mir	-4375
shap	-4376
alone	-4377
roles	-4378
critical	-4379
32	-4380
Sever	-4381
growing	-4382
analysis	-4383
1940	-4384
Bi	-4385
ela	-4386
Bad	-4387
unte	-4388
Ok	-4389
Det	-4390
dance	-4391
metal	-4392
inspired	-4393
Death	-4394
taught	-4395
8%	-4396
mut	-4397
allows	-4398
blood	-4399
achuset	-4400
true	-4401
Korea	-4402
scale	-4403
lav	-4404
ibly	-4405
aling	-4406
contemporary	-4407
2004,	-4408
vard	-4409
resident	-4410
Kn	-4411
core	-4412
Massachuset	-4413
bat	-4414
boat	-4415
teaching	-4416
Ut	-4417
Tro	-4418
Way	-4419
Add	-4420
Organ	-4421
communities	-4422
onents	-4423
themat	-4424
Swedish	-4425
Administr	-4426
Massachusetts	-4427
-1	-4428
Wis	-4429
Supreme	-4430
onia	-4431
2018.	-4432
Human	-4433
arring	-4434
resulted	-4435
episodes	-4436
titles	-4437
motor	-4438
Bon	-4439
Mov	-4440
ighter	-4441
buried	-4442
elling	-4443
alty	-4444
suff	-4445
frame	-4446
males	-4447
perial	-4448
performances	-4449
ray	-4450
Serb	-4451
disease	-4452
Otto	-4453
adelph	-4454
nominated	-4455
Township	-4456
recognized	-4457
sid	-4458
surn	-4459
bourne	-4460
ening	-4461
image	-4462
Revolution	-4463
fare	-4464
iced	-4465
slow	-4466
urer	-4467
CS	-4468
Lev	-4469
mont	-4470
Justice	-4471
rules	-4472
minute	-4473
billion	-4474
Bir	-4475
prec	-4476
entry	-4477
albums	-4478
figure	-4479
hundred	-4480
campus	-4481
covery	-4482
emetery	-4483
yo	-4484
enge	-4485
multi	-4486
sales	-4487
Jon	-4488
AT	-4489
OS	-4490
bud	-4491
expanded	-4492
tree	-4493
Sab	-4494
encour	-4495
winter	-4496
Like	-4497
Duke	-4498
Fair	-4499
versions	-4500
knowledge	-4501
secondary	-4502
ulf	-4503
2000,	-4504
hedul	-4505
oe	-4506
Final	-4507
Night	-4508
accept	-4509
granted	-4510
adelphia	-4511
alle	-4512
kept	-4513
instrument	-4514
utr	-4515
Free	-4516
ager	-4517
tells	-4518
Dam	-4519
1992	-4520
spot	-4521
maxim	-4522
pun	-4523
mess	-4524
density	-4525
Geography	-4526
feet	-4527
vement	-4528
continues	-4529
Among	-4530
recomm	-4531
showed	-4532
becomes	-4533
resulting	-4534
22,	-4535
2021	-4536
effort	-4537
digital	-4538
iled	-4539
prep	-4540
Nether	-4541
attend	-4542
Military	-4543
governor	-4544
tun	-4545
onze	-4546
Police	-4547
problem	-4548
hang	-4549
ansion	-4550
gives	-4551
Philadelphia	-4552
headquarters	-4553
23,	-4554
Minn	-4555
sexual	-4556
vessel	-4557
Lie	-4558
1991	-4559
newly	-4560
orders	-4561
defined	-4562
";	-4563
Naz	-4564
horse	-4565
Band	-4566
consum	-4567
Kal	-4568
sides	-4569
models	-4570
literature	-4571
Master	-4572
chairman	-4573
Community	-4574
correspond	-4575
(,	-4576
doub	-4577
mile	-4578
2019.	-4579
twice	-4580
fly	-4581
ancy	-4582
Premier	-4583
Sus	-4584
normal	-4585
Stephen	-4586
IT	-4587
26,	-4588
Stat	-4589
stre	-4590
amber	-4591
Castle	-4592
experiment	-4593
successfully	-4594
Crit	-4595
igen	-4596
ni	-4597
21.	-4598
Fle	-4599
lyr	-4600
san	-4601
igence	-4602
receive	-4603
ora	-4604
estic	-4605
Arthur	-4606
spirit	-4607
appoint	-4608
Regiment	-4609
AD	-4610
30,	-4611
Cre	-4612
hour	-4613
iron	-4614
greater	-4615
surrounding	-4616
Lady	-4617
shop	-4618
Toronto	-4619
Down	-4620
onent	-4621
organizations	-4622
iary	-4623
poly	-4624
ounds	-4625
slight	-4626
5–	-4627
Ah	-4628
178	-4629
2008.	-4630
Colon	-4631
attacks	-4632
Billboard	-4633
lake	-4634
faced	-4635
fighting	-4636
3-	-4637
Sem	-4638
voice	-4639
Oxford	-4640
Indu	-4641
dete	-4642
felt	-4643
Origin	-4644
generation	-4645
heav	-4646
says	-4647
injury	-4648
Nations	-4649
existing	-4650
Week	-4651
seek	-4652
couple	-4653
Background	-4654
8)	-4655
PC	-4656
painting	-4657
claims	-4658
gro	-4659
twenty	-4660
surname	-4661
parties	-4662
situated	-4663
odies	-4664
comedy	-4665
Captain	-4666
arrested	-4667
politics	-4668
iter	-4669
Korean	-4670
provin	-4671
villages	-4672
jan	-4673
Form	-4674
rane	-4675
2007.	-4676
succeeded	-4677
Vis	-4678
ols	-4679
Santa	-4680
ivity	-4681
applied	-4682
figures	-4683
uit	-4684
sculpt	-4685
rance	-4686
rence	-4687
formal	-4688
festival	-4689
Media	-4690
anger	-4691
ureau	-4692
univers	-4693
Fire	-4694
illy	-4695
oldest	-4696
47	-4697
28,	-4698
Tre	-4699
tes	-4700
ogue	-4701
paint	-4702
secret	-4703
supply	-4704
Spring	-4705
Wilson	-4706
Nat	-4707
span	-4708
alion	-4709
occer	-4710
govern	-4711
Kel	-4712
actress	-4713
Business	-4714
Due	-4715
Ira	-4716
akh	-4717
struction	-4718
Sweden	-4719
="	-4720
say	-4721
unique	-4722
hero	-4723
Project	-4724
ero	-4725
Sher	-4726
feed	-4727
rooms	-4728
Register	-4729
roof	-4730
4-	-4731
things	-4732
Joe	-4733
classes	-4734
Av	-4735
minim	-4736
Industr	-4737
officials	-4738
conv	-4739
portr	-4740
strugg	-4741
Because	-4742
allowing	-4743
broke	-4744
phone	-4745
iverse	-4746
Emperor	-4747
regions	-4748
9%	-4749
27,	-4750
ternet	-4751
library	-4752
schedul	-4753
Atlantic	-4754
districts	-4755
.)	-4756
AR	-4757
damage	-4758
settled	-4759
facility	-4760
advant	-4761
forming	-4762
etry	-4763
gest	-4764
oration	-4765
ika	-4766
mom	-4767
1989	-4768
dial	-4769
thir	-4770
Power	-4771
nament	-4772
profit	-4773
occupied	-4774
providing	-4775
asc	-4776
Press	-4777
simply	-4778
measure	-4779
Pass	-4780
atures	-4781
improv	-4782
laws	-4783
trains	-4784
element	-4785
partner	-4786
traffic	-4787
hr	-4788
software	-4789
Wild	-4790
compr	-4791
glass	-4792
seats	-4793
necessary	-4794
Netherlands	-4795
authorities	-4796
Build	-4797
impact	-4798
actually	-4799
Ten	-4800
ware	-4801
Through	-4802
Transport	-4803
',	-4804
sixth	-4805
materials	-4806
Rus	-4807
edge	-4808
ynast	-4809
losing	-4810
obtained	-4811
uni	-4812
Fall	-4813
auth	-4814
risk	-4815
opposed	-4816
wit	-4817
aret	-4818
ween	-4819
athlet	-4820
suggested	-4821
NCA	-4822
pict	-4823
oppos	-4824
scientific	-4825
association	-4826
7–	-4827
una	-4828
Chair	-4829
mayor	-4830
Sel	-4831
Carl	-4832
Gree	-4833
Greg	-4834
enjoy	-4835
rob	-4836
brothers	-4837
Az	-4838
Cub	-4839
Rac	-4840
ipe	-4841
1993	-4842
Maria	-4843
advert	-4844
Cle	-4845
Work	-4846
enna	-4847
wart	-4848
cells	-4849
meant	-4850
29,	-4851
Freder	-4852
NS	-4853
Tai	-4854
bra	-4855
liber	-4856
Donald	-4857
proceed	-4858
subsequent	-4859
Gi	-4860
lyn	-4861
iant	-4862
Ra	-4863
atr	-4864
Corn	-4865
render	-4866
illustr	-4867
IC	-4868
itude	-4869
rapid	-4870
qualified	-4871
situation	-4872
kil	-4873
Region	-4874
Hay	-4875
drive	-4876
propos	-4877
critics	-4878
premier	-4879
conflict	-4880
employed	-4881
returning	-4882
46	-4883
Fox	-4884
Gil	-4885
something	-4886
asy	-4887
gate	-4888
tric	-4889
roads	-4890
Technology	-4891
begins	-4892
launch	-4893
Univers	-4894
oft	-4895
want	-4896
tried	-4897
defense	-4898
Light	-4899
setting	-4900
baseball	-4901
concentr	-4902
);	-4903
12.	-4904
page	-4905
theme	-4906
principal	-4907
AS	-4908
Budd	-4909
challeng	-4910
goes	-4911
iday	-4912
Color	-4913
Ontar	-4914
dated	-4915
resto	-4916
tower	-4917
Junior	-4918
narrow	-4919
focused	-4920
AM	-4921
Op	-4922
Legisl	-4923
global	-4924
cannot	-4925
concert	-4926
frequently	-4927
hydro	-4928
Pier	-4929
lers	-4930
lets	-4931
ova	-4932
Mike	-4933
Plot	-4934
sear	-4935
thin	-4936
itors	-4937
grapher	-4938
politan	-4939
sty	-4940
boys	-4941
decor	-4942
guard	-4943
thedr	-4944
completely	-4945
tos	-4946
Batt	-4947
notes	-4948
Ontario	-4949
achieved	-4950
och	-4951
Taylor	-4952
Between	-4953
restaur	-4954
inde	-4955
jour	-4956
Davis	-4957
Rom	-4958
Area	-4959
Reser	-4960
bought	-4961
metres	-4962
girls	-4963
straight	-4964
itled	-4965
Forest	-4966
ashion	-4967
younger	-4968
ema	-4969
icks	-4970
drew	-4971
rise	-4972
ucky	-4973
pursu	-4974
finish	-4975
wild	-4976
chestra	-4977
55	-4978
priest	-4979
commander	-4980
Kim	-4981
Test	-4982
etic	-4983
earth	-4984
presents	-4985
publication	-4986
Ron	-4987
Tok	-4988
nest	-4989
temple	-4990
refused	-4991
visited	-4992
selling	-4993
Prize	-4994
Cze	-4995
cab	-4996
Khan	-4997
aran	-4998
attempted	-4999
smo	-5000
Leon	-5001
Mexican	-5002
authority	-5003
neighborhood	-5004
HL	-5005
Iraq	-5006
cycle	-5007
Indones	-5008
Municip	-5009
performing	-5010
Sum	-5011
amin	-5012
2021,	-5013
Network	-5014
climate	-5015
desc	-5016
agent	-5017
Pit	-5018
ocese	-5019
household	-5020
drawn	-5021
custom	-5022
observ	-5023
safety	-5024
derived	-5025
founding	-5026
protection	-5027
dog	-5028
umber	-5029
thesis	-5030
advanced	-5031
pression	-5032
Today	-5033
Americans	-5034
ée	-5035
yst	-5036
eman	-5037
Marsh	-5038
Country	-5039
gam	-5040
Baron	-5041
mn	-5042
Pur	-5043
Beach	-5044
adapt	-5045
inity	-5046
creating	-5047
(197	-5048
vari	-5049
approved	-5050
2006.	-5051
Minnes	-5052
chosen	-5053
inners	-5054
joining	-5055
Jac	-5056
Kur	-5057
NFL	-5058
promotion	-5059
hem	-5060
avel	-5061
itzer	-5062
trail	-5063
receiving	-5064
merged	-5065
gn	-5066
cou	-5067
gor	-5068
ighth	-5069
royal	-5070
covers	-5071
(;	-5072
Ball	-5073
occasion	-5074
Cape	-5075
Stand	-5076
towns	-5077
cancer	-5078
mobile	-5079
ii	-5080
oren	-5081
begin	-5082
unable	-5083
accident	-5084
Minnesota	-5085
ault	-5086
Winter	-5087
copies	-5088
methods	-5089
retirement	-5090
Bah	-5091
Anth	-5092
ria	-5093
Ocean	-5094
birds	-5095
Design	-5096
simple	-5097
sequence	-5098
DV	-5099
heim	-5100
brown	-5101
Addition	-5102
rum	-5103
sand	-5104
effective	-5105
structures	-5106
Prim	-5107
adesh	-5108
beaut	-5109
ordin	-5110
aspect	-5111
illery	-5112
2003,	-5113
advoc	-5114
chers	-5115
animals	-5116
reports	-5117
aki	-5118
ares	-5119
tend	-5120
micro	-5121
holding	-5122
articles	-5123
Mit	-5124
Sou	-5125
starring	-5126
virt	-5127
Squad	-5128
effic	-5129
ilton	-5130
fans	-5131
arent	-5132
victim	-5133
contain	-5134
expansion	-5135
1987	-5136
Bat	-5137
Hur	-5138
abad	-5139
cuit	-5140
extensive	-5141
Phy	-5142
theatre	-5143
tropical	-5144
Several	-5145
thedral	-5146
phe	-5147
aints	-5148
constituency	-5149
Cer	-5150
gal	-5151
extra	-5152
Now	-5153
elve	-5154
ynasty	-5155
constitut	-5156
passing	-5157
1-	-5158
IP	-5159
ami	-5160
mph	-5161
shared	-5162
attacked	-5163
lad	-5164
Rose	-5165
flood	-5166
unknown	-5167
Gro	-5168
aux	-5169
guns	-5170
Reception	-5171
Ku	-5172
sole	-5173
phase	-5174
Medical	-5175
fiction	-5176
wed	-5177
ouri	-5178
Golden	-5179
fought	-5180
symbol	-5181
relatively	-5182
ultimately	-5183
economy	-5184
presidential	-5185
seem	-5186
acks	-5187
missed	-5188
citizens	-5189
comot	-5190
converted	-5191
representing	-5192
44	-5193
Fal	-5194
volume	-5195
ifically	-5196
vocal	-5197
aga	-5198
oven	-5199
highway	-5200
attempts	-5201
etc	-5202
uge	-5203
Command	-5204
resources	-5205
Holy	-5206
matic	-5207
mi	-5208
negot	-5209
abandoned	-5210
Ker	-5211
Brad	-5212
Point	-5213
wrest	-5214
machine	-5215
opposition	-5216
Gh	-5217
Kenn	-5218
Lewis	-5219
Prior	-5220
Short	-5221
headed	-5222
igration	-5223
reference	-5224
Bos	-5225
Son	-5226
sense	-5227
counts	-5228
funding	-5229
application	-5230
aved	-5231
fuel	-5232
ologist	-5233
tall	-5234
yellow	-5235
entitled	-5236
temporary	-5237
Upon	-5238
'.	-5239
ML	-5240
shel	-5241
Hou	-5242
think	-5243
intell	-5244
memory	-5245
scheduled	-5246
amm	-5247
Melbourne	-5248
Cab	-5249
write	-5250
deploy	-5251
rossing	-5252
DC	-5253
Bac	-5254
ipl	-5255
decre	-5256
Tan	-5257
athan	-5258
icient	-5259
educational	-5260
End	-5261
clo	-5262
Labor	-5263
inson	-5264
architecture	-5265
Jews	-5266
inhabit	-5267
bid	-5268
2020.	-5269
powerful	-5270
cles	-5271
height	-5272
writers	-5273
Federation	-5274
Bh	-5275
lyrics	-5276
contributed	-5277
Ant	-5278
NCAA	-5279
Turkey	-5280
maximum	-5281
permanent	-5282
controlled	-5283
consin	-5284
dropped	-5285
consisted	-5286
Six	-5287
gall	-5288
seg	-5289
vac	-5290
Trust	-5291
Indiana	-5292
Wisconsin	-5293
IN	-5294
ee	-5295
1986	-5296
Sunday	-5297
Further	-5298
Sciences	-5299
views	-5300
agan	-5301
containing	-5302
jur	-5303
inth	-5304
avoid	-5305
bronze	-5306
1900	-5307
dipl	-5308
2002,	-5309
Lt	-5310
daily	-5311
airport	-5312
Philippines	-5313
dates	-5314
Brother	-5315
invited	-5316
identity	-5317
Queensland	-5318
Tun	-5319
abol	-5320
chor	-5321
Steve	-5322
ateur	-5323
corner	-5324
looking	-5325
ER	-5326
Oak	-5327
Burn	-5328
Nich	-5329
Writ	-5330
stay	-5331
hands	-5332
contact	-5333
sed	-5334
distingu	-5335
determined	-5336
consecutive	-5337
Wat	-5338
adj	-5339
owa	-5340
ishes	-5341
uties	-5342
Memorial	-5343
slightly	-5344
Ret	-5345
your	-5346
Stock	-5347
wound	-5348
Tit	-5349
Jeff	-5350
morning	-5351
audience	-5352
pedition	-5353
shaped	-5354
Norwe	-5355
armed	-5356
Var	-5357
Pers	-5358
emphas	-5359
Channel	-5360
contained	-5361
References	-5362
doing	-5363
rants	-5364
Kansas	-5365
urches	-5366
Christmas	-5367
hotel	-5368
merch	-5369
polic	-5370
trees	-5371
factory	-5372
inger	-5373
exchange	-5374
Nic	-5375
Call	-5376
Nick	-5377
apped	-5378
pieces	-5379
learning	-5380
centuries	-5381
engineering	-5382
AA	-5383
onym	-5384
anning	-5385
apparent	-5386
Live	-5387
Stone	-5388
aware	-5389
Native	-5390
beyond	-5391
functions	-5392
influenced	-5393
TC	-5394
tt	-5395
Run	-5396
Hard	-5397
price	-5398
usual	-5399
stan	-5400
helor	-5401
pilot	-5402
Norway	-5403
vehicles	-5404
UC	-5405
crow	-5406
demand	-5407
iments	-5408
descript	-5409
Trans	-5410
hockey	-5411
shortly	-5412
touchdown	-5413
Fac	-5414
Lead	-5415
Shar	-5416
anna	-5417
iors	-5418
ivals	-5419
Nap	-5420
Sri	-5421
sust	-5422
documentary	-5423
institutions	-5424
177	-5425
Lau	-5426
2001,	-5427
asion	-5428
fee	-5429
god	-5430
owners	-5431
Turkish	-5432
clin	-5433
spok	-5434
quant	-5435
vised	-5436
Missouri	-5437
regarding	-5438
PR	-5439
Plan	-5440
domin	-5441
combat	-5442
racing	-5443
Description	-5444
Dur	-5445
mine	-5446
stro	-5447
recognition	-5448
Clark	-5449
calls	-5450
equal	-5451
charged	-5452
Tel	-5453
sac	-5454
nick	-5455
poet	-5456
apore	-5457
Maryland	-5458
domestic	-5459
expressed	-5460
trust	-5461
Temple	-5462
educated	-5463
sor	-5464
ented	-5465
sector	-5466
venture	-5467
planning	-5468
Sound	-5469
prepar	-5470
Alf	-5471
Philip	-5472
Ali	-5473
dry	-5474
Moscow	-5475
cricket	-5476
Norwegian	-5477
connection	-5478
Let	-5479
fleet	-5480
toward	-5481
reasons	-5482
producing	-5483
Pa	-5484
nis	-5485
infr	-5486
Holly	-5487
properties	-5488
basic	-5489
plies	-5490
worldwide	-5491
Television	-5492
aska	-5493
ancing	-5494
Gra	-5495
uce	-5496
funds	-5497
quite	-5498
recru	-5499
steam	-5500
5-	-5501
astr	-5502
2005.	-5503
Labour	-5504
Services	-5505
narr	-5506
toms	-5507
crime	-5508
Lincol	-5509
Walter	-5510
exhibition	-5511
til	-5512
Hart	-5513
brid	-5514
ampton	-5515
compar	-5516
execut	-5517
Studies	-5518
existence	-5519
locations	-5520
ibl	-5521
Turn	-5522
enemy	-5523
needs	-5524
Though	-5525
Building	-5526
Sav	-5527
nob	-5528
1968	-5529
Carr	-5530
rugby	-5531
incident	-5532
Management	-5533
64	-5534
rog	-5535
1984	-5536
Rober	-5537
walls	-5538
Malays	-5539
orient	-5540
letters	-5541
Colorado	-5542
category	-5543
abilities	-5544
See	-5545
osis	-5546
Singapore	-5547
candidates	-5548
shr	-5549
sun	-5550
Exe	-5551
Roc	-5552
onso	-5553
throw	-5554
Lincoln	-5555
heavily	-5556
literary	-5557
supporting	-5558
ulate	-5559
alternative	-5560
partnership	-5561
moth	-5562
About	-5563
watch	-5564
Bulgar	-5565
Portugu	-5566
trained	-5567
affected	-5568
Representatives	-5569
31,	-5570
pha	-5571
Chen	-5572
pson	-5573
umes	-5574
developing	-5575
zh	-5576
agn	-5577
gers	-5578
zone	-5579
actors	-5580
choice	-5581
establishment	-5582
sa	-5583
zen	-5584
ethnic	-5585
matter	-5586
survey	-5587
patients	-5588
Then	-5589
ogen	-5590
plot	-5591
Cambridge	-5592
Manchester	-5593
Production	-5594
Dig	-5595
tur	-5596
Ford	-5597
acid	-5598
opin	-5599
composer	-5600
Portuguese	-5601
independence	-5602
Even	-5603
rose	-5604
Tennes	-5605
extrem	-5606
entrance	-5607
Lyn	-5608
reign	-5609
Greece	-5610
vehicle	-5611
maintained	-5612
registered	-5613
ju	-5614
Harry	-5615
covering	-5616
Hun	-5617
rif	-5618
Lind	-5619
valley	-5620
Ale	-5621
Aust	-5622
rear	-5623
Conne	-5624
operate	-5625
constant	-5626
Ce	-5627
ão	-5628
iva	-5629
inaug	-5630
shape	-5631
Census	-5632
favour	-5633
Tennessee	-5634
68	-5635
9–	-5636
herself	-5637
finishing	-5638
Medal	-5639
decades	-5640
tex	-5641
1983	-5642
wheel	-5643
Senior	-5644
speech	-5645
Foreign	-5646
Ottoman	-5647
negative	-5648
isis	-5649
note	-5650
fairs	-5651
Bureau	-5652
Bou	-5653
Earl	-5654
ners	-5655
option	-5656
resear	-5657
offices	-5658
iversary	-5659
1918	-5660
heard	-5661
scape	-5662
sought	-5663
agh	-5664
exc	-5665
1985	-5666
mind	-5667
Domin	-5668
Forces	-5669
porter	-5670
Notable	-5671
locomot	-5672
Init	-5673
holder	-5674
Brigade	-5675
reflect	-5676
composition	-5677
environmental	-5678
ng	-5679
Adam	-5680
Ariz	-5681
Swiss	-5682
Member	-5683
improve	-5684
Infantry	-5685
engaged	-5686
Ren	-5687
gene	-5688
proved	-5689
religion	-5690
journalist	-5691
oured	-5692
Tournament	-5693
14.	-5694
alo	-5695
temperature	-5696
DA	-5697
lon	-5698
regon	-5699
powers	-5700
stating	-5701
ceremony	-5702
Professional	-5703
fal	-5704
Niger	-5705
fresh	-5706
judge	-5707
prise	-5708
lat	-5709
sle	-5710
olars	-5711
fashion	-5712
stadium	-5713
contrast	-5714
58	-5715
Rol	-5716
else	-5717
tank	-5718
passes	-5719
promote	-5720
reaching	-5721
strength	-5722
technical	-5723
las	-5724
investigation	-5725
ér	-5726
Est	-5727
drum	-5728
Space	-5729
shore	-5730
storm	-5731
volunte	-5732
":	-5733
SC	-5734
doctor	-5735
refers	-5736
programme	-5737
Marg	-5738
Once	-5739
Oregon	-5740
alleged	-5741
convent	-5742
57	-5743
Eth	-5744
cot	-5745
Gord	-5746
What	-5747
dule	-5748
sale	-5749
acent	-5750
adult	-5751
iques	-5752
weather	-5753
11.	-5754
ores	-5755
quot	-5756
starts	-5757
6-	-5758
iar	-5759
Front	-5760
finds	-5761
trait	-5762
Arizona	-5763
uration	-5764
Ross	-5765
accused	-5766
consult	-5767
grounds	-5768
Operation	-5769
nuclear	-5770
solution	-5771
script	-5772
compete	-5773
equival	-5774
Pas	-5775
iny	-5776
Jane	-5777
laid	-5778
Satur	-5779
agues	-5780
poses	-5781
speak	-5782
Places	-5783
franch	-5784
occurs	-5785
scenes	-5786
150	-5787
DVD	-5788
Kam	-5789
barr	-5790
ears	-5791
iful	-5792
ieval	-5793
rival	-5794
Regional	-5795
Engineering	-5796
Arm	-5797
atom	-5798
abr	-5799
Finn	-5800
marg	-5801
wins	-5802
argued	-5803
starred	-5804
internal	-5805
possibly	-5806
specifically	-5807
Dom	-5808
Pope	-5809
user	-5810
poetry	-5811
waters	-5812
failure	-5813
revolution	-5814
Ta	-5815
Beng	-5816
kick	-5817
Brian	-5818
Works	-5819
ining	-5820
Current	-5821
chi	-5822
pup	-5823
ental	-5824
Miller	-5825
reserve	-5826
importance	-5827
Croat	-5828
strik	-5829
junior	-5830
strike	-5831
15.	-5832
plane	-5833
violence	-5834
agu	-5835
ori	-5836
Gram	-5837
Thus	-5838
Youth	-5839
trying	-5840
selection	-5841
NY	-5842
Abd	-5843
Aud	-5844
Album	-5845
anton	-5846
exclus	-5847
closely	-5848
Security	-5849
resigned	-5850
eye	-5851
Wars	-5852
Whit	-5853
theless	-5854
foundation	-5855
Cop	-5856
Web	-5857
nur	-5858
osa	-5859
grass	-5860
witness	-5861
divisions	-5862
Anne	-5863
Real	-5864
display	-5865
playoff	-5866
pressed	-5867
bands	-5868
Fellow	-5869
wr	-5870
angel	-5871
Confed	-5872
accompan	-5873
personnel	-5874
consisting	-5875
inhabitants	-5876
extr	-5877
link	-5878
Armen	-5879
Howard	-5880
believe	-5881
calling	-5882
causing	-5883
northeast	-5884
combination	-5885
BM	-5886
Only	-5887
opera	-5888
Mississ	-5889
inf	-5890
heat	-5891
moun	-5892
igation	-5893
Vice	-5894
trip	-5895
map	-5896
thew	-5897
plate	-5898
licens	-5899
courses	-5900
reading	-5901
concluded	-5902
northwest	-5903
DS	-5904
orm	-5905
olas	-5906
carry	-5907
ruled	-5908
steel	-5909
budget	-5910
42	-5911
hired	-5912
gender	-5913
theastern	-5914
Administration	-5915
Jay	-5916
Lis	-5917
rep	-5918
Dol	-5919
Alab	-5920
mate	-5921
tack	-5922
check	-5923
painted	-5924
!"	-5925
Id	-5926
proto	-5927
ublin	-5928
Modern	-5929
protein	-5930
Hamilton	-5931
classical	-5932
resistance	-5933
Miam	-5934
isol	-5935
homes	-5936
solid	-5937
assess	-5938
stands	-5939
twelve	-5940
Austria	-5941
secretary	-5942
adap	-5943
aded	-5944
Simon	-5945
Author	-5946
driver	-5947
entirely	-5948
oes	-5949
missions	-5950
observed	-5951
sections	-5952
99	-5953
nan	-5954
porters	-5955
Entertainment	-5956
representative	-5957
1982	-5958
aria	-5959
credited	-5960
Frederick	-5961
Mand	-5962
symp	-5963
Square	-5964
praised	-5965
protect	-5966
regarded	-5967
BI	-5968
anks	-5969
isms	-5970
Miami	-5971
Affairs	-5972
Gib	-5973
Fame	-5974
exer	-5975
escape	-5976
Cel	-5977
aza	-5978
resc	-5979
seed	-5980
historian	-5981
pa	-5982
1979	-5983
Liberal	-5984
casting	-5985
Executive	-5986
advantage	-5987
installed	-5988
13.	-5989
oles	-5990
inals	-5991
weapons	-5992
aer	-5993
crown	-5994
capture	-5995
greatest	-5996
Fred	-5997
icide	-5998
Political	-5999
interests	-6000
swim	-6001
tered	-6002
ía	-6003
Tar	-6004
Wol	-6005
zon	-6006
belief	-6007
someone	-6008
mathemat	-6009
Dal	-6010
Nik	-6011
anne	-6012
ghan	-6013
ippi	-6014
defend	-6015
profession	-6016
lah	-6017
hair	-6018
Mayor	-6019
Marine	-6020
hammad	-6021
Fri	-6022
Pap	-6023
pus	-6024
tel	-6025
preced	-6026
paralle	-6027
16.	-6028
Low	-6029
usal	-6030
Doctor	-6031
strate	-6032
66	-6033
Ay	-6034
Ky	-6035
accur	-6036
Hockey	-6037
animal	-6038
strateg	-6039
fine	-6040
draft	-6041
Switzer	-6042
behavior	-6043
purchase	-6044
employees	-6045
applications	-6046
Hand	-6047
Prix	-6048
olis	-6049
limit	-6050
dan	-6051
iser	-6052
seas	-6053
chose	-6054
Samuel	-6055
interior	-6056
(18	-6057
1972	-6058
faith	-6059
causes	-6060
correct	-6061
passenger	-6062
Mi	-6063
Si	-6064
Tony	-6065
Jacob	-6066
bodies	-6067
photograph	-6068
programming	-6069
(),	-6070
nie	-6071
Sport	-6072
paintings	-6073
residence	-6074
agricultural	-6075
Rem	-6076
haps	-6077
Alabama	-6078
participate	-6079
cod	-6080
Hans	-6081
atus	-6082
visual	-6083
briefly	-6084
Fund	-6085
Iowa	-6086
shor	-6087
Palest	-6088
prefer	-6089
Islamic	-6090
typical	-6091
43	-6092
Hell	-6093
inch	-6094
rome	-6095
stic	-6096
wings	-6097
getting	-6098
sufficient	-6099
Independent	-6100
opportunity	-6101
TS	-6102
Lam	-6103
sam	-6104
1981	-6105
neur	-6106
Jesus	-6107
igenous	-6108
Children	-6109
Ark	-6110
lob	-6111
Juan	-6112
filled	-6113
Israeli	-6114
appropr	-6115
standards	-6116
Switzerland	-6117
Bowl	-6118
gain	-6119
jazz	-6120
Patrick	-6121
59	-6122
(17	-6123
Gun	-6124
dram	-6125
garden	-6126
possess	-6127
adjacent	-6128
collected	-6129
walk	-6130
1999,	-6131
stable	-6132
ima	-6133
Rural	-6134
agency	-6135
DP	-6136
1978	-6137
udes	-6138
links	-6139
Season	-6140
Heritage	-6141
describes	-6142
adu	-6143
ito	-6144
strip	-6145
ci	-6146
agen	-6147
Nag	-6148
Nev	-6149
spr	-6150
marks	-6151
broken	-6152
medium	-6153
stores	-6154
values	-6155
kh	-6156
Kat	-6157
Brun	-6158
distinct	-6159
junction	-6160
employment	-6161
Agr	-6162
mac	-6163
terior	-6164
Shah	-6165
asks	-6166
emot	-6167
Treat	-6168
chain	-6169
criminal	-6170
premiered	-6171
800	-6172
Ped	-6173
gang	-6174
insur	-6175
diplom	-6176
statement	-6177
69	-6178
Saf	-6179
bond	-6180
2004.	-6181
pione	-6182
locks	-6183
Houston	-6184
Ka	-6185
ideas	-6186
bottom	-6187
thodox	-6188
extension	-6189
Rab	-6190
VID	-6191
ads	-6192
esh	-6193
ahead	-6194
expand	-6195
Squadron	-6196
AP	-6197
Na	-6198
600	-6199
bio	-6200
inton	-6201
innings	-6202
improved	-6203
err	-6204
uff	-6205
Count	-6206
easily	-6207
earning	-6208
classified	-6209
Hug	-6210
1974	-6211
flat	-6212
astru	-6213
Review	-6214
proced	-6215
Express	-6216
ictions	-6217
zi	-6218
bran	-6219
mole	-6220
racial	-6221
reduce	-6222
reform	-6223
ür	-6224
Naval	-6225
moment	-6226
damaged	-6227
transition	-6228
000.	-6229
Territ	-6230
electr	-6231
singing	-6232
passengers	-6233
LP	-6234
Eag	-6235
regiment	-6236
speaking	-6237
introduction	-6238
ikh	-6239
1998,	-6240
ading	-6241
grant	-6242
ensions	-6243
Baseball	-6244
delivered	-6245
"-	-6246
Dick	-6247
Rang	-6248
Diego	-6249
Hills	-6250
crete	-6251
deleg	-6252
imate	-6253
initi	-6254
carbon	-6255
signal	-6256
Kentucky	-6257
measures	-6258
regularly	-6259
Mississippi	-6260
ool	-6261
Barr	-6262
glas	-6263
iling	-6264
ceased	-6265
really	-6266
musician	-6267
survived	-6268
1969	-6269
Allen	-6270
Hawai	-6271
killing	-6272
Hungarian	-6273
collaboration	-6274
67	-6275
Cost	-6276
factors	-6277
freedom	-6278
injured	-6279
1967	-6280
2000.	-6281
goods	-6282
Danish	-6283
seconds	-6284
session	-6285
Magazine	-6286
organisation	-6287
Sky	-6288
Spec	-6289
Heart	-6290
abled	-6291
breed	-6292
arrang	-6293
theater	-6294
41	-6295
Lan	-6296
Pun	-6297
Rugby	-6298
demol	-6299
afford	-6300
entially	-6301
southwest	-6302
Mean	-6303
Prin	-6304
Third	-6305
decade	-6306
seventh	-6307
distributed	-6308
experienced	-6309
.”	-6310
awn	-6311
Silver	-6312
colonial	-6313
teachers	-6314
Edin	-6315
fired	-6316
modif	-6317
vocals	-6318
Saturday	-6319
Lieutenant	-6320
RC	-6321
lap	-6322
mort	-6323
heads	-6324
actual	-6325
admitted	-6326
scar	-6327
Czech	-6328
Harvard	-6329
Ukraine	-6330
ME	-6331
Dream	-6332
Every	-6333
Gordon	-6334
committed	-6335
Wy	-6336
17.	-6337
Here	-6338
Lank	-6339
bing	-6340
roit	-6341
erald	-6342
users	-6343
Harris	-6344
advance	-6345
painter	-6346
earliest	-6347
Commonwealth	-6348
85	-6349
Sud	-6350
cous	-6351
gets	-6352
Hotel	-6353
stood	-6354
humans	-6355
restored	-6356
reception	-6357
Nar	-6358
cha	-6359
Belg	-6360
Pict	-6361
Puer	-6362
duty	-6363
Alban	-6364
Seven	-6365
leads	-6366
overty	-6367
Antonio	-6368
engineer	-6369
policies	-6370
substant	-6371
philosophy	-6372
0%	-6373
aine	-6374
winners	-6375
GB	-6376
copy	-6377
COVID	-6378
renov	-6379
eleven	-6380
interpret	-6381
2).	-6382
adi	-6383
cular	-6384
depth	-6385
batter	-6386
subsid	-6387
Communic	-6388
protected	-6389
communication	-6390
RS	-6391
Communist	-6392
affect	-6393
det	-6394
oli	-6395
1919	-6396
otic	-6397
meters	-6398
routes	-6399
investment	-6400
RT	-6401
draf	-6402
fold	-6403
icon	-6404
mist	-6405
accom	-6406
anned	-6407
iants	-6408
rican	-6409
Singles	-6410
GA	-6411
Five	-6412
2002.	-6413
dress	-6414
ource	-6415
Commer	-6416
cancell	-6417
formally	-6418
champions	-6419
Fel	-6420
Lith	-6421
dale	-6422
rating	-6423
debuted	-6424
islands	-6425
defeating	-6426
contributions	-6427
1948	-6428
Douglas	-6429
membership	-6430
Jam	-6431
why	-6432
piano	-6433
ologies	-6434
accompanied	-6435
ries	-6436
Marie	-6437
flying	-6438
charges	-6439
designs	-6440
Anderson	-6441
Additionally	-6442
dor	-6443
Tokyo	-6444
select	-6445
context	-6446
Argentina	-6447
represents	-6448
Pot	-6449
items	-6450
archae	-6451
terror	-6452
Archite	-6453
examples	-6454
Louisiana	-6455
equivalent	-6456
Gy	-6457
Cat	-6458
Las	-6459
tie	-6460
wave	-6461
costs	-6462
seems	-6463
repeated	-6464
:00	-6465
1976	-6466
Jord	-6467
Rand	-6468
poem	-6469
eline	-6470
Internet	-6471
Railroad	-6472
churches	-6473
Edinburgh	-6474
Vin	-6475
myth	-6476
vary	-6477
stages	-6478
chemical	-6479
ów	-6480
hat	-6481
sin	-6482
aman	-6483
sion	-6484
vast	-6485
Andre	-6486
iples	-6487
obtain	-6488
ilation	-6489
invasion	-6490
ographics	-6491
astructure	-6492
Set	-6493
2003.	-6494
brain	-6495
faces	-6496
prize	-6497
shops	-6498
nothing	-6499
Legislative	-6500
trou	-6501
Liver	-6502
Local	-6503
Denmark	-6504
Matt	-6505
Phys	-6506
Phill	-6507
Detroit	-6508
engines	-6509
southeast	-6510
bin	-6511
Buck	-6512
Gill	-6513
Puerto	-6514
understanding	-6515
Gor	-6516
Chall	-6517
Anthony	-6518
Gallery	-6519
iat	-6520
Iron	-6521
frag	-6522
antly	-6523
exact	-6524
oslav	-6525
reput	-6526
satis	-6527
avalry	-6528
icians	-6529
Hungary	-6530
details	-6531
DNA	-6532
Ltd	-6533
poll	-6534
tery	-6535
Oklah	-6536
banks	-6537
falls	-6538
unting	-6539
capable	-6540
arranged	-6541
surg	-6542
Afghan	-6543
discipl	-6544
occupation	-6545
Ti	-6546
oral	-6547
catal	-6548
clean	-6549
objects	-6550
Broadway	-6551
rejected	-6552
opposite	-6553
78	-6554
Categ	-6555
residential	-6556
igg	-6557
Dark	-6558
save	-6559
Palace	-6560
Alexand	-6561
Oklahoma	-6562
anniversary	-6563
1977	-6564
Welsh	-6565
timore	-6566
Chairman	-6567
scholars	-6568
documents	-6569
mental	-6570
novels	-6571
replace	-6572
Imperial	-6573
Hollywood	-6574
neighbour	-6575
businesses	-6576
Farm	-6577
liqu	-6578
norm	-6579
safe	-6580
util	-6581
flows	-6582
Deputy	-6583
colour	-6584
factor	-6585
reality	-6586
Cemetery	-6587
Brazilian	-6588
Fu	-6589
Tu	-6590
Rud	-6591
Cher	-6592
Dublin	-6593
Roberts	-6594
assumed	-6595
intelligence	-6596
TO	-6597
Anna	-6598
Gulf	-6599
Pear	-6600
crop	-6601
suburb	-6602
commune	-6603
notably	-6604
streets	-6605
extremely	-6606
Constitution	-6607
95	-6608
ABC	-6609
rein	-6610
iller	-6611
veter	-6612
Global	-6613
ardens	-6614
prepared	-6615
reaction	-6616
Dy	-6617
Mol	-6618
Pow	-6619
tha	-6620
aust	-6621
plus	-6622
comic	-6623
Walker	-6624
ighted	-6625
instru	-6626
Matthew	-6627
Athletics	-6628
1945	-6629
didn	-6630
elev	-6631
boats	-6632
criticized	-6633
HS	-6634
mud	-6635
brick	-6636
colleg	-6637
translated	-6638
Round	-6639
align	-6640
Market	-6641
circum	-6642
determ	-6643
lawyer	-6644
returns	-6645
ifications	-6646
infe	-6647
Chile	-6648
determine	-6649
otherwise	-6650
mart	-6651
Prote	-6652
operates	-6653
McC	-6654
vens	-6655
Liter	-6656
Village	-6657
classic	-6658
retained	-6659
Baltimore	-6660
Gon	-6661
kid	-6662
Maur	-6663
shut	-6664
1997,	-6665
ensure	-6666
linked	-6667
institution	-6668
responsibility	-6669
ec	-6670
argo	-6671
5,000	-6672
Moore	-6673
apping	-6674
encing	-6675
insula	-6676
dynasty	-6677
justice	-6678
1975	-6679
cohol	-6680
grees	-6681
naval	-6682
refuge	-6683
significantly	-6684
tu	-6685
dish	-6686
Disney	-6687
device	-6688
intend	-6689
Belgium	-6690
roughly	-6691
Hom	-6692
evol	-6693
Track	-6694
Quebec	-6695
persons	-6696
Austrian	-6697
crossing	-6698
musicians	-6699
electronic	-6700
Cho	-6701
Kaz	-6702
Coll	-6703
skills	-6704
issance	-6705
techniques	-6706
Dall	-6707
math	-6708
Reserve	-6709
printed	-6710
Environment	-6711
ardo	-6712
provincial	-6713
MC	-6714
Chart	-6715
iders	-6716
deputy	-6717
destru	-6718
peaked	-6719
showing	-6720
attached	-6721
ographic	-6722
1973	-6723
Colomb	-6724
Garden	-6725
motion	-6726
ranking	-6727
franchise	-6728
Vic	-6729
1964	-6730
talk	-6731
Pitts	-6732
approv	-6733
chance	-6734
ellite	-6735
citizen	-6736
Cow	-6737
Sin	-6738
Yan	-6739
cers	-6740
send	-6741
istol	-6742
onomy	-6743
orses	-6744
adapted	-6745
56	-6746
elig	-6747
Tamil	-6748
Battalion	-6749
Age	-6750
(195	-6751
Epis	-6752
parent	-6753
Atlanta	-6754
biggest	-6755
Portugal	-6756
lig	-6757
dynam	-6758
itals	-6759
knock	-6760
learn	-6761
renew	-6762
Taiwan	-6763
Mrs	-6764
Nam	-6765
Som	-6766
oster	-6767
Morgan	-6768
severe	-6769
unders	-6770
expression	-6771
Nep	-6772
aro	-6773
spons	-6774
daughters	-6775
ownership	-6776
Convention	-6777
88	-6778
swe	-6779
bach	-6780
edited	-6781
Category	-6782
separated	-6783
Grant	-6784
thick	-6785
Rights	-6786
lection	-6787
poverty	-6788
publications	-6789
bay	-6790
Hamp	-6791
Wolf	-6792
icit	-6793
wich	-6794
Bangl	-6795
wounded	-6796
Ye	-6797
uth	-6798
column	-6799
semble	-6800
flowers	-6801
missing	-6802
perfect	-6803
assembly	-6804
appointment	-6805
Cit	-6806
mers	-6807
stret	-6808
dating	-6809
learned	-6810
appearing	-6811
differences	-6812
fest	-6813
hosts	-6814
shooting	-6815
Mountains	-6816
egg	-6817
kes	-6818
ache	-6819
Kings	-6820
Upper	-6821
duties	-6822
theore	-6823
Officer	-6824
medieval	-6825
purposes	-6826
suggests	-6827
defensive	-6828
RO	-6829
Spr	-6830
ails	-6831
ania	-6832
perhaps	-6833
qualifying	-6834
Bab	-6835
NBC	-6836
markets	-6837
concerns	-6838
involving	-6839
translation	-6840
Ni	-6841
stal	-6842
ture	-6843
chron	-6844
inher	-6845
adding	-6846
visible	-6847
thousands	-6848
Metropolitan	-6849
UE	-6850
120	-6851
enh	-6852
Race	-6853
pand	-6854
etime	-6855
caught	-6856
requirements	-6857
NC	-6858
(16	-6859
Trump	-6860
Jordan	-6861
mining	-6862
stayed	-6863
Indonesia	-6864
assistance	-6865
WW	-6866
Has	-6867
bling	-6868
arrival	-6869
forests	-6870
challenge	-6871
description	-6872
cool	-6873
gone	-6874
cards	-6875
fixed	-6876
ceived	-6877
courts	-6878
conduct	-6879
downtown	-6880
imprison	-6881
Voiv	-6882
orph	-6883
Crown	-6884
Peace	-6885
images	-6886
habitat	-6887
stopped	-6888
popularity	-6889
Kev	-6890
Sche	-6891
cler	-6892
2001.	-6893
diction	-6894
driving	-6895
Alliance	-6896
Montreal	-6897
Basketball	-6898
Demographics	-6899
Da	-6900
VI	-6901
1966	-6902
Lang	-6903
dies	-6904
crisis	-6905
teenth	-6906
descend	-6907
offensive	-6908
Bun	-6909
Kil	-6910
Bush	-6911
thetic	-6912
degrees	-6913
nations	-6914
Hud	-6915
Ran	-6916
Win	-6917
kar	-6918
ilst	-6919
1996,	-6920
comed	-6921
coastal	-6922
)"	-6923
ET	-6924
1971	-6925
Lane	-6926
weak	-6927
Mission	-6928
publishing	-6929
wen	-6930
Andr	-6931
Energy	-6932
stress	-6933
Culture	-6934
igrants	-6935
exception	-6936
Fa	-6937
Box	-6938
brig	-6939
odeship	-6940
relative	-6941
subjects	-6942
Nel	-6943
odge	-6944
Ga	-6945
Row	-6946
Sax	-6947
ili	-6948
Buff	-6949
Your	-6950
icial	-6951
releg	-6952
Peters	-6953
storage	-6954
criticism	-6955
practices	-6956
bear	-6957
lord	-6958
umin	-6959
turns	-6960
ameter	-6961
harmon	-6962
Lawrence	-6963
Our	-6964
Fern	-6965
1995,	-6966
premi	-6967
gather	-6968
friendly	-6969
és	-6970
kov	-6971
Shan	-6972
eval	-6973
infl	-6974
ultan	-6975
Liverpool	-6976
evolution	-6977
Construction	-6978
IM	-6979
Bot	-6980
mina	-6981
cited	-6982
Vienna	-6983
recept	-6984
Lithuan	-6985
tenance	-6986
squadron	-6987
Yug	-6988
1965	-6989
Dean	-6990
ongo	-6991
retail	-6992
Senator	-6993
Margaret	-6994
bringing	-6995
imag	-6996
tons	-6997
Johann	-6998
Cin	-6999
Cra	-7000
Jenn	-7001
tests	-7002
Hispan	-7003
Voivodeship	-7004
Rap	-7005
Gran	-7006
aked	-7007
vessels	-7008
76	-7009
buy	-7010
José	-7011
Admir	-7012
credit	-7013
stances	-7014
testing	-7015
Syn	-7016
sud	-7017
none	-7018
1994,	-7019
recon	-7020
iamond	-7021
Seattle	-7022
faculty	-7023
iations	-7024
medicine	-7025
54	-7026
cm	-7027
mos	-7028
audio	-7029
keeper	-7030
authors	-7031
publisher	-7032
universities	-7033
Abr	-7034
Bed	-7035
raise	-7036
rates	-7037
atherine	-7038
broadcas	-7039
CEO	-7040
asp	-7041
Ryan	-7042
carrying	-7043
parallel	-7044
Commander	-7045
Ry	-7046
pm	-7047
urg	-7048
ayan	-7049
Lower	-7050
Story	-7051
ensis	-7052
innov	-7053
Colonel	-7054
Studios	-7055
Kon	-7056
Dave	-7057
struck	-7058
heritage	-7059
explained	-7060
interested	-7061
Hop	-7062
brew	-7063
eyes	-7064
Hindu	-7065
Sarah	-7066
Singh	-7067
divor	-7068
Clevel	-7069
Orthodox	-7070
railroad	-7071
Lar	-7072
NBA	-7073
2021.	-7074
Invest	-7075
coordin	-7076
Cleveland	-7077
Information	-7078
Kin	-7079
nik	-7080
ista	-7081
Staff	-7082
mates	-7083
strategy	-7084
sequently	-7085
legislation	-7086
Us	-7087
Nazi	-7088
veget	-7089
changing	-7090
controversy	-7091
experiences	-7092
RE	-7093
1944	-7094
ilit	-7095
powered	-7096
windows	-7097
Athletic	-7098
Cathedral	-7099
parliamentary	-7100
iner	-7101
sort	-7102
calcul	-7103
scious	-7104
utions	-7105
Confeder	-7106
Champions	-7107
encounter	-7108
characteristics	-7109
Moon	-7110
borne	-7111
estyle	-7112
branches	-7113
rian	-7114
Roger	-7115
weekly	-7116
alcohol	-7117
Malaysia	-7118
artistic	-7119
;/	-7120
Pad	-7121
pse	-7122
Priv	-7123
ules	-7124
ibute	-7125
juris	-7126
Nation	-7127
ushing	-7128
township	-7129
contested	-7130
nom	-7131
inian	-7132
legend	-7133
devices	-7134
manufacturing	-7135
ugu	-7136
acre	-7137
hits	-7138
shif	-7139
lists	-7140
soccer	-7141
Franklin	-7142
Meanwhile	-7143
horn	-7144
Kelly	-7145
recip	-7146
assign	-7147
rolled	-7148
window	-7149
Kennedy	-7150
mingham	-7151
recordings	-7152
restaurant	-7153
competitions	-7154
98	-7155
ule	-7156
Benn	-7157
prime	-7158
shell	-7159
Belgian	-7160
successor	-7161
ín	-7162
Bapt	-7163
soft	-7164
resign	-7165
Capital	-7166
mounted	-7167
offering	-7168
yp	-7169
Len	-7170
fron	-7171
cticut	-7172
tribut	-7173
technique	-7174
Connecticut	-7175
Vik	-7176
nav	-7177
Rick	-7178
imal	-7179
task	-7180
tied	-7181
manus	-7182
Ukrainian	-7183
questions	-7184
Wes	-7185
Bruce	-7186
analy	-7187
enses	-7188
handed	-7189
Defense	-7190
ictional	-7191
prisoners	-7192
-2	-7193
CBS	-7194
abo	-7195
Eric	-7196
Utah	-7197
pine	-7198
Patri	-7199
medals	-7200
Schools	-7201
existed	-7202
monument	-7203
Orchestra	-7204
frequency	-7205
52	-7206
lu	-7207
Fun	-7208
sive	-7209
1999.	-7210
Kevin	-7211
Never	-7212
boards	-7213
stance	-7214
Christop	-7215
boundary	-7216
replacement	-7217
20.	-7218
iac	-7219
Alan	-7220
Nash	-7221
soil	-7222
Dance	-7223
Honor	-7224
apolis	-7225
Rio	-7226
org	-7227
uma	-7228
Opera	-7229
graphic	-7230
coverage	-7231
entering	-7232
160	-7233
bai	-7234
iya	-7235
iley	-7236
skin	-7237
synd	-7238
wine	-7239
lected	-7240
affairs	-7241
breaking	-7242
influential	-7243
lis	-7244
Ever	-7245
Hind	-7246
loyd	-7247
pron	-7248
Langu	-7249
eland	-7250
debate	-7251
tennis	-7252
keeping	-7253
childhood	-7254
emergency	-7255
oa	-7256
rhy	-7257
fled	-7258
Wrest	-7259
eless	-7260
excell	-7261
seeing	-7262
equipped	-7263
LC	-7264
Hit	-7265
wat	-7266
cill	-7267
iency	-7268
Leban	-7269
Norman	-7270
cester	-7271
expert	-7272
supposed	-7273
SP	-7274
imb	-7275
Vene	-7276
uous	-7277
genre	-7278
astery	-7279
lights	-7280
string	-7281
Members	-7282
aspects	-7283
fishing	-7284
patient	-7285
Campbell	-7286
withdraw	-7287
Ward	-7288
Russell	-7289
spiritual	-7290
celebrated	-7291
difference	-7292
(3	-7293
bles	-7294
tact	-7295
maker	-7296
milit	-7297
requires	-7298
Beg	-7299
Tech	-7300
depos	-7301
grave	-7302
message	-7303
irt	-7304
Cook	-7305
leaf	-7306
absor	-7307
fruit	-7308
Birmingham	-7309
surrounded	-7310
communications	-7311
Nob	-7312
oid	-7313
thy	-7314
urs	-7315
Camer	-7316
pread	-7317
tical	-7318
driven	-7319
relief	-7320
annually	-7321
counties	-7322
vs	-7323
Mes	-7324
bind	-7325
ogan	-7326
1997.	-7327
arest	-7328
ielder	-7329
treated	-7330
Medicine	-7331
instance	-7332
indicated	-7333
replacing	-7334
51	-7335
Barb	-7336
Warr	-7337
1,000	-7338
Alfred	-7339
denied	-7340
Stewart	-7341
finding	-7342
igrated	-7343
Yugoslav	-7344
approval	-7345
proposal	-7346
79	-7347
aph	-7348
Azer	-7349
Karl	-7350
Peru	-7351
lose	-7352
mail	-7353
elder	-7354
understand	-7355
considerable	-7356
controversial	-7357
250	-7358
ige	-7359
Cole	-7360
earn	-7361
orial	-7362
Assist	-7363
output	-7364
pandemic	-7365
Cry	-7366
grav	-7367
vant	-7368
essions	-7369
suicide	-7370
Authority	-7371
collections	-7372
CP	-7373
SE	-7374
pitch	-7375
Wright	-7376
expect	-7377
Kan	-7378
ión	-7379
Qual	-7380
Judge	-7381
Murray	-7382
scheme	-7383
commemor	-7384
visitors	-7385
conscious	-7386
AF	-7387
zz	-7388
Key	-7389
snow	-7390
Canal	-7391
truck	-7392
uster	-7393
Dallas	-7394
somewhat	-7395
53	-7396
8–	-7397
arc	-7398
Adams	-7399
filed	-7400
secure	-7401
wooden	-7402
amateur	-7403
whereas	-7404
classification	-7405
IL	-7406
wet	-7407
onsored	-7408
worn	-7409
Athen	-7410
Daily	-7411
oring	-7412
Agency	-7413
Finland	-7414
kingdom	-7415
representation	-7416
NO	-7417
Alb	-7418
aqu	-7419
Emer	-7420
emen	-7421
neutr	-7422
lasted	-7423
istical	-7424
Who	-7425
het	-7426
ogs	-7427
fear	-7428
Place	-7429
diale	-7430
rated	-7431
Method	-7432
Morris	-7433
benefit	-7434
penalty	-7435
signing	-7436
Brooklyn	-7437
agg	-7438
sie	-7439
Aren	-7440
Rele	-7441
nell	-7442
appeal	-7443
Pittsburgh	-7444
1910	-7445
Publ	-7446
bright	-7447
prising	-7448
victims	-7449
Brothers	-7450
Training	-7451
electoral	-7452
threatened	-7453
Bes	-7454
Kos	-7455
aceae	-7456
Natural	-7457
closure	-7458
helping	-7459
Sac	-7460
Food	-7461
Glas	-7462
jump	-7463
metro	-7464
concrete	-7465
modified	-7466
intersection	-7467
170	-7468
Sid	-7469
loom	-7470
pregn	-7471
aggreg	-7472
ogical	-7473
prohib	-7474
achieve	-7475
instruments	-7476
involvement	-7477
Od	-7478
Gur	-7479
ayer	-7480
jobs	-7481
pled	-7482
wides	-7483
Movement	-7484
accounts	-7485
eva	-7486
Guine	-7487
blast	-7488
posted	-7489
landing	-7490
designer	-7491
completion	-7492
Conservative	-7493
increasingly	-7494
irs	-7495
1939	-7496
false	-7497
turning	-7498
Thompson	-7499
claiming	-7500
newspapers	-7501
Sof	-7502
crib	-7503
horses	-7504
evening	-7505
ordinary	-7506
guitarist	-7507
expedition	-7508
EU	-7509
Ts	-7510
tz	-7511
Kit	-7512
1962	-7513
Dead	-7514
rett	-7515
Tower	-7516
facing	-7517
gradually	-7518
integrated	-7519
rell	-7520
sees	-7521
thal	-7522
Fleet	-7523
Girls	-7524
attan	-7525
picture	-7526
artillery	-7527
affiliated	-7528
EM	-7529
Non	-7530
Auto	-7531
Chang	-7532
Derby	-7533
attor	-7534
Michel	-7535
rounds	-7536
Azerbai	-7537
drafted	-7538
opinion	-7539
declined	-7540
movements	-7541
graduating	-7542
architectural	-7543
-0	-7544
18.	-7545
journey	-7546
sequences	-7547
adaptation	-7548
BO	-7549
WA	-7550
Ach	-7551
Mak	-7552
aus	-7553
Dist	-7554
fant	-7555
asser	-7556
ingly	-7557
prose	-7558
Constant	-7559
Economic	-7560
Richmond	-7561
inations	-7562
sponsored	-7563
Lud	-7564
apy	-7565
Bomb	-7566
Mach	-7567
cott	-7568
1990,	-7569
Chand	-7570
custo	-7571
dream	-7572
eller	-7573
uncle	-7574
Father	-7575
Madrid	-7576
Player	-7577
eighth	-7578
voting	-7579
studying	-7580
77	-7581
avi	-7582
Note	-7583
tren	-7584
Princess	-7585
iop	-7586
ras	-7587
pure	-7588
shar	-7589
grown	-7590
tempor	-7591
Bangladesh	-7592
Angl	-7593
Hold	-7594
igins	-7595
longest	-7596
Champion	-7597
directors	-7598
preserved	-7599
surviving	-7600
effectively	-7601
Gam	-7602
Tot	-7603
tow	-7604
Slov	-7605
colony	-7606
toured	-7607
anything	-7608
Dak	-7609
pin	-7610
Hend	-7611
Spir	-7612
Fried	-7613
10,000	-7614
explos	-7615
decline	-7616
listing	-7617
elevation	-7618
processes	-7619
Christopher	-7620
Mul	-7621
Pil	-7622
1963	-7623
Girl	-7624
Last	-7625
mosp	-7626
camera	-7627
filmed	-7628
ricane	-7629
Protest	-7630
components	-7631
continuing	-7632
anga	-7633
bone	-7634
1991,	-7635
Unlike	-7636
idency	-7637
Defence	-7638
accompl	-7639
definition	-7640
Prom	-7641
asts	-7642
ensu	-7643
losses	-7644
manner	-7645
rivers	-7646
Chamber	-7647
Victorian	-7648
nomination	-7649
Sr	-7650
iki	-7651
cook	-7652
intel	-7653
spaces	-7654
intention	-7655
reputation	-7656
63	-7657
Dub	-7658
Rot	-7659
gow	-7660
oor	-7661
1956	-7662
idel	-7663
Motor	-7664
wrong	-7665
Austin	-7666
ingham	-7667
viewed	-7668
emerged	-7669
associate	-7670
underground	-7671
Tig	-7672
cogn	-7673
Catal	-7674
valid	-7675
Finnish	-7676
infrastructure	-7677
Py	-7678
Bird	-7679
cock	-7680
disp	-7681
annon	-7682
ocrac	-7683
resol	-7684
tribe	-7685
aments	-7686
inspir	-7687
sudden	-7688
usalem	-7689
Robinson	-7690
organised	-7691
maintenance	-7692
Whe	-7693
1946	-7694
ener	-7695
Event	-7696
papers	-7697
gressive	-7698
Organization	-7699
hn	-7700
Anti	-7701
Tang	-7702
spin	-7703
Agric	-7704
Draft	-7705
Jimmy	-7706
Cricket	-7707
trading	-7708
eliminated	-7709
processing	-7710
Tol	-7711
cad	-7712
Marshall	-7713
Nicholas	-7714
strongly	-7715
beautiful	-7716
Originally	-7717
occasionally	-7718
ez	-7719
1914	-7720
1943	-7721
deck	-7722
feld	-7723
file	-7724
unch	-7725
1993,	-7726
catch	-7727
teach	-7728
planet	-7729
tenure	-7730
themes	-7731
Digital	-7732
fielder	-7733
Egyptian	-7734
soundtrack	-7735
participation	-7736
dat	-7737
1947	-7738
1958	-7739
foss	-7740
cultiv	-7741
attracted	-7742
recommended	-7743
uts	-7744
Appe	-7745
Beck	-7746
elle	-7747
lane	-7748
magn	-7749
osph	-7750
Cooper	-7751
ranean	-7752
Theater	-7753
depending	-7754
landscape	-7755
surrender	-7756
populations	-7757
1941	-7758
aste	-7759
Around	-7760
Carter	-7761
funded	-7762
rapidly	-7763
forcement	-7764
grandfather	-7765
Eug	-7766
tap	-7767
Mack	-7768
ello	-7769
furn	-7770
grey	-7771
ipts	-7772
competitive	-7773
destruction	-7774
gon	-7775
amps	-7776
reck	-7777
rows	-7778
Trade	-7779
panel	-7780
antine	-7781
Freedom	-7782
minimum	-7783
Muhammad	-7784
Portland	-7785
happened	-7786
CH	-7787
Wa	-7788
gay	-7789
hin	-7790
iah	-7791
ulu	-7792
Bour	-7793
bean	-7794
warm	-7795
Urban	-7796
Stanley	-7797
instrumental	-7798
Kum	-7799
Ple	-7800
aku	-7801
mund	-7802
femin	-7803
Pierre	-7804
versus	-7805
Shortly	-7806
worship	-7807
infantry	-7808
Jerusalem	-7809
kg	-7810
Boys	-7811
Ivan	-7812
Nord	-7813
root	-7814
outer	-7815
texts	-7816
annels	-7817
erected	-7818
segment	-7819
competing	-7820
essential	-7821
marketing	-7822
widespread	-7823
62	-7824
IF	-7825
oen	-7826
hope	-7827
mary	-7828
1992,	-7829
ounced	-7830
spoken	-7831
meetings	-7832
traveled	-7833
reportedly	-7834
appropriate	-7835
Guy	-7836
lem	-7837
voy	-7838
Mans	-7839
acle	-7840
rand	-7841
Venez	-7842
meets	-7843
icance	-7844
styles	-7845
Baptist	-7846
Serbian	-7847
ruption	-7848
executed	-7849
ificance	-7850
Vas	-7851
1936	-7852
Chel	-7853
aced	-7854
huge	-7855
ridge	-7856
Knight	-7857
distinguished	-7858
Pir	-7859
dang	-7860
ijing	-7861
rebel	-7862
roots	-7863
Nelson	-7864
disput	-7865
writes	-7866
lington	-7867
locality	-7868
dominated	-7869
iti	-7870
ailand	-7871
myster	-7872
runner	-7873
Instead	-7874
illegal	-7875
injuries	-7876
mode	-7877
oples	-7878
Compet	-7879
acknow	-7880
repair	-7881
useful	-7882
assault	-7883
balance	-7884
cancelled	-7885
concerned	-7886
satellite	-7887
songwriter	-7888
NG	-7889
Bris	-7890
Manh	-7891
Shad	-7892
Serbia	-7893
opping	-7894
massive	-7895
portrayed	-7896
resolution	-7897
constitutional	-7898
89	-7899
Ama	-7900
Ful	-7901
Tax	-7902
pod	-7903
Tube	-7904
easy	-7905
Lanka	-7906
poems	-7907
Arabic	-7908
domain	-7909
shares	-7910
discrim	-7911
agencies	-7912
spending	-7913
terminal	-7914
biography	-7915
22.	-7916
cia	-7917
jab	-7918
Beat	-7919
Sign	-7920
cold	-7921
carto	-7922
seeking	-7923
Arkansas	-7924
memorial	-7925
remainder	-7926
percentage	-7927
participants	-7928
MO	-7929
aks	-7930
dub	-7931
Bart	-7932
eler	-7933
iden	-7934
pert	-7935
Again	-7936
osaur	-7937
Charlot	-7938
Mediter	-7939
networks	-7940
youngest	-7941
intellect	-7942
occasions	-7943
LS	-7944
Cad	-7945
Trib	-7946
hole	-7947
wire	-7948
Billy	-7949
chell	-7950
Carlos	-7951
Control	-7952
Diocese	-7953
Romania	-7954
ighters	-7955
Cultural	-7956
fictional	-7957
ovo	-7958
Benj	-7959
Mong	-7960
agar	-7961
Racing	-7962
Within	-7963
intent	-7964
championships	-7965
Arn	-7966
uri	-7967
Code	-7968
exerc	-7969
semin	-7970
igious	-7971
switch	-7972
Thailand	-7973
Lad	-7974
Vel	-7975
phr	-7976
Gray	-7977
UEFA	-7978
neck	-7979
stad	-7980
Pruss	-7981
leans	-7982
Warren	-7983
honour	-7984
Persian	-7985
Electric	-7986
demolished	-7987
Ton	-7988
asure	-7989
itter	-7990
endemic	-7991
deployed	-7992
defending	-7993
attributed	-7994
transmission	-7995
cof	-7996
tox	-7997
expos	-7998
linear	-7999
regime	-8000
strict	-8001
donated	-8002
normally	-8003
mountains	-8004
74	-8005
Ald	-8006
sop	-8007
1959	-8008
Saud	-8009
beet	-8010
solved	-8011
agriculture	-8012
conservative	-8013
characterized	-8014
Poly	-8015
Rico	-8016
elli	-8017
estr	-8018
Along	-8019
amoun	-8020
Treaty	-8021
curren	-8022
invent	-8023
Bachelor	-8024
visiting	-8025
Distribution	-8026
1952	-8027
avan	-8028
legs	-8029
steps	-8030
tools	-8031
estone	-8032
venues	-8033
Beijing	-8034
jection	-8035
relationships	-8036
Rub	-8037
Books	-8038
agents	-8039
thirty	-8040
ication	-8041
Historical	-8042
1957	-8043
1961	-8044
Baby	-8045
Princ	-8046
ratio	-8047
adults	-8048
ocracy	-8049
patrol	-8050
secured	-8051
predomin	-8052
NT	-8053
Sah	-8054
hun	-8055
1917	-8056
edia	-8057
exec	-8058
tier	-8059
Baker	-8060
spoke	-8061
wants	-8062
Bernard	-8063
defence	-8064
fighter	-8065
(4	-8066
Din	-8067
vit	-8068
Denn	-8069
Wang	-8070
aire	-8071
hypo	-8072
aimed	-8073
inate	-8074
prede	-8075
rescue	-8076
surgery	-8077
licensed	-8078
thousand	-8079
customers	-8080
recovered	-8081
kit	-8082
ando	-8083
evac	-8084
intr	-8085
crowd	-8086
ouver	-8087
thered	-8088
circuit	-8089
merchant	-8090
conventional	-8091
én	-8092
beach	-8093
width	-8094
Trinity	-8095
everything	-8096
Mediterranean	-8097
transportation	-8098
ED	-8099
Vide	-8100
1995.	-8101
Trail	-8102
specim	-8103
Charlie	-8104
attending	-8105
belonging	-8106
plications	-8107
conservation	-8108
fat	-8109
rab	-8110
1949	-8111
Andy	-8112
Mann	-8113
fers	-8114
inct	-8115
chapel	-8116
centers	-8117
1890	-8118
Type	-8119
ivan	-8120
knew	-8121
index	-8122
blocks	-8123
charts	-8124
fortun	-8125
rebell	-8126
Germans	-8127
Critical	-8128
Hispanic	-8129
phenomen	-8130
discovery	-8131
indigenous	-8132
700	-8133
rub	-8134
Unit	-8135
afts	-8136
bath	-8137
andal	-8138
moves	-8139
Sultan	-8140
assass	-8141
videos	-8142
greatly	-8143
isition	-8144
eligible	-8145
Hampshire	-8146
relocated	-8147
suspended	-8148
territories	-8149
constitution	-8150
Wed	-8151
duo	-8152
sung	-8153
traits	-8154
component	-8155
municipalities	-8156
72	-8157
GP	-8158
RP	-8159
Get	-8160
Mob	-8161
gau	-8162
kan	-8163
Wing	-8164
bane	-8165
clar	-8166
1996.	-8167
Carib	-8168
lined	-8169
tribes	-8170
Section	-8171
Windows	-8172
couples	-8173
Charlotte	-8174
Communications	-8175
representatives	-8176
Ice	-8177
tag	-8178
Rain	-8179
Orange	-8180
bacter	-8181
matters	-8182
61	-8183
oxy	-8184
Late	-8185
Mall	-8186
eria	-8187
warr	-8188
Warner	-8189
ruling	-8190
ultane	-8191
enjoyed	-8192
liberal	-8193
license	-8194
external	-8195
apparently	-8196
opportunities	-8197
$3	-8198
Ric	-8199
Such	-8200
Attor	-8201
Grade	-8202
cousin	-8203
deaths	-8204
excess	-8205
Orleans	-8206
visions	-8207
Romanian	-8208
130	-8209
Aqu	-8210
uct	-8211
Mess	-8212
Evans	-8213
clock	-8214
Parish	-8215
Trophy	-8216
connect	-8217
profile	-8218
describe	-8219
Manhattan	-8220
generated	-8221
73	-8222
Cu	-8223
ih	-8224
tum	-8225
1989,	-8226
2,000	-8227
Bible	-8228
Jason	-8229
explo	-8230
patron	-8231
battles	-8232
benefits	-8233
channels	-8234
entertainment	-8235
(2	-8236
Gary	-8237
illo	-8238
1987,	-8239
Limited	-8240
Municipal	-8241
apartment	-8242
convention	-8243
Sor	-8244
utt	-8245
Eston	-8246
Steel	-8247
agree	-8248
doors	-8249
Graham	-8250
grades	-8251
picked	-8252
statue	-8253
absence	-8254
diameter	-8255
releases	-8256
efficient	-8257
responded	-8258
Municipality	-8259
-10	-8260
1942	-8261
Fitz	-8262
Vanc	-8263
umbent	-8264
drawing	-8265
unusual	-8266
Venezuel	-8267
congress	-8268
outbreak	-8269
operational	-8270
-3	-8271
abroad	-8272
Bristol	-8273
Indians	-8274
Benjamin	-8275
electron	-8276
commanded	-8277
Afghanistan	-8278
MD	-8279
Adr	-8280
Maj	-8281
guil	-8282
Horse	-8283
Maine	-8284
comput	-8285
Similar	-8286
qualify	-8287
viewers	-8288
protests	-8289
Vancouver	-8290
possession	-8291
Grey	-8292
Hunt	-8293
Marr	-8294
amid	-8295
bast	-8296
Speed	-8297
labour	-8298
belonged	-8299
Wrestling	-8300
researchers	-8301
Sn	-8302
Stu	-8303
ishment	-8304
86	-8305
Kas	-8306
1880	-8307
holm	-8308
descent	-8309
frequent	-8310
Transportation	-8311
isted	-8312
assets	-8313
Iranian	-8314
concern	-8315
restoration	-8316
broadcasting	-8317
significance	-8318
(15	-8319
1928	-8320
Side	-8321
quir	-8322
1998.	-8323
Until	-8324
sleep	-8325
makeup	-8326
compass	-8327
counted	-8328
passage	-8329
rebuilt	-8330
Students	-8331
Initially	-8332
producers	-8333
continuous	-8334
scientists	-8335
(1	-8336
EA	-8337
gi	-8338
Pay	-8339
Pack	-8340
Woman	-8341
mines	-8342
hearing	-8343
athletes	-8344
immediate	-8345
mathematics	-8346
experimental	-8347
oda	-8348
olo	-8349
Soon	-8350
1986,	-8351
Model	-8352
opter	-8353
chapter	-8354
activist	-8355
perspect	-8356
suffering	-8357
supporters	-8358
substantial	-8359
DJ	-8360
Ny	-8361
Yu	-8362
oga	-8363
lete	-8364
1991.	-8365
forth	-8366
Provin	-8367
convin	-8368
stroke	-8369
whilst	-8370
uniform	-8371
corporate	-8372
administer	-8373
?"	-8374
GT	-8375
ST	-8376
Swe	-8377
1938	-8378
1955	-8379
Kill	-8380
Plat	-8381
yield	-8382
Johnny	-8383
Scient	-8384
Glasgow	-8385
borders	-8386
uations	-8387
partially	-8388
Sz	-8389
isc	-8390
ride	-8391
Brand	-8392
Bengal	-8393
Former	-8394
atmosp	-8395
behalf	-8396
publicly	-8397
NHL	-8398
1912	-8399
Chem	-8400
begun	-8401
diagn	-8402
truth	-8403
Secret	-8404
exists	-8405
Attorney	-8406
supports	-8407
departure	-8408
personality	-8409
establishing	-8410
Byz	-8411
osh	-8412
Bron	-8413
Nova	-8414
swit	-8415
Milan	-8416
crash	-8417
endar	-8418
scope	-8419
looked	-8420
movies	-8421
comfort	-8422
facilit	-8423
mediate	-8424
imperial	-8425
terminus	-8426
Yorkshire	-8427
Philippine	-8428
advertising	-8429
84	-8430
GM	-8431
fo	-8432
Nav	-8433
Clar	-8434
Jama	-8435
Ghana	-8436
angle	-8437
cable	-8438
spell	-8439
Guinea	-8440
closing	-8441
monitor	-8442
schedule	-8443
Hus	-8444
1000	-8445
ović	-8446
Symph	-8447
ailed	-8448
rehen	-8449
signs	-8450
choose	-8451
colspan	-8452
credits	-8453
viation	-8454
suitable	-8455
comprehen	-8456
):	-8457
CB	-8458
Thor	-8459
ayal	-8460
Alice	-8461
marry	-8462
Soccer	-8463
liquid	-8464
voters	-8465
creative	-8466
implemented	-8467
concentration	-8468
ère	-8469
dict	-8470
icke	-8471
Wayne	-8472
alloc	-8473
backs	-8474
uding	-8475
partly	-8476
diocese	-8477
diverse	-8478
reveals	-8479
animated	-8480
insurance	-8481
lieutenant	-8482
legislative	-8483
NR	-8484
Chi	-8485
oba	-8486
abor	-8487
Jacqu	-8488
escor	-8489
convic	-8490
weapon	-8491
itarian	-8492
everyone	-8493
recommend	-8494
afterwards	-8495
encouraged	-8496
"'	-8497
SO	-8498
Fem	-8499
Rena	-8500
alia	-8501
Start	-8502
netic	-8503
crossed	-8504
predecess	-8505
Cos	-8506
Kath	-8507
orous	-8508
Floren	-8509
Nigeria	-8510
monarch	-8511
willing	-8512
principles	-8513
recognised	-8514
Ug	-8515
23.	-8516
dol	-8517
rix	-8518
rus	-8519
rine	-8520
Gmina	-8521
anner	-8522
ipper	-8523
ninth	-8524
Frances	-8525
chamber	-8526
ensively	-8527
Territory	-8528
coalition	-8529
sculpture	-8530
strategic	-8531
FIFA	-8532
Shaw	-8533
apse	-8534
raid	-8535
1992.	-8536
Abbey	-8537
acres	-8538
ester	-8539
YouTube	-8540
detailed	-8541
displayed	-8542
fundament	-8543
platforms	-8544
governments	-8545
productions	-8546
Aut	-8547
Hig	-8548
Liga	-8549
jury	-8550
abuse	-8551
PD	-8552
Rat	-8553
Coal	-8554
enger	-8555
doubles	-8556
extreme	-8557
Mitchell	-8558
cemetery	-8559
remember	-8560
connecting	-8561
Horn	-8562
Know	-8563
apply	-8564
regul	-8565
solar	-8566
Comple	-8567
casual	-8568
amongst	-8569
overseas	-8570
partners	-8571
ventures	-8572
commented	-8573
contribution	-8574
Action	-8575
Having	-8576
Hawaii	-8577
premiere	-8578
dismissed	-8579
jer	-8580
tis	-8581
1916	-8582
1929	-8583
Kirk	-8584
deem	-8585
overe	-8586
farmers	-8587
Harrison	-8588
opponents	-8589
categories	-8590
oh	-8591
Bog	-8592
anny	-8593
ranks	-8594
allies	-8595
sustain	-8596
produces	-8597
struggle	-8598
debt	-8599
harm	-8600
voir	-8601
metre	-8602
plain	-8603
Punjab	-8604
Greater	-8605
Honours	-8606
Stevens	-8607
clinical	-8608
involves	-8609
Challenge	-8610
practical	-8611
Wu	-8612
fu	-8613
().	-8614
Kay	-8615
manif	-8616
makers	-8617
Rangers	-8618
illness	-8619
locally	-8620
Therefore	-8621
Broadcasting	-8622
Cons	-8623
turb	-8624
ulum	-8625
arter	-8626
satisf	-8627
urally	-8628
endment	-8629
ongoing	-8630
periods	-8631
identify	-8632
accessible	-8633
Arena	-8634
Stars	-8635
desire	-8636
judges	-8637
stones	-8638
exposed	-8639
attorney	-8640
patterns	-8641
Universal	-8642
Operations	-8643
PhD	-8644
1951	-8645
Face	-8646
olid	-8647
1988,	-8648
Monte	-8649
Nepal	-8650
chrom	-8651
Barcel	-8652
Hudson	-8653
Living	-8654
exceed	-8655
graded	-8656
mentary	-8657
hundreds	-8658
-9	-8659
Tak	-8660
baby	-8661
enzy	-8662
advice	-8663
united	-8664
survive	-8665
Azerbaijan	-8666
.'	-8667
Aer	-8668
fol	-8669
Thir	-8670
Zone	-8671
ante	-8672
aser	-8673
hear	-8674
Delhi	-8675
mature	-8676
traded	-8677
congreg	-8678
sentence	-8679
sentenced	-8680
substitute	-8681
photography	-8682
MV	-8683
hind	-8684
olia	-8685
ideal	-8686
Studio	-8687
margin	-8688
Alberta	-8689
assisted	-8690
petition	-8691
Throughout	-8692
Bey	-8693
rod	-8694
(193	-8695
Luis	-8696
tram	-8697
Jerry	-8698
Phoen	-8699
Friday	-8700
Turner	-8701
talent	-8702
weekend	-8703
concerts	-8704
swimming	-8705
"(	-8706
1/	-8707
-12	-8708
25.	-8709
nee	-8710
Cand	-8711
Neil	-8712
oker	-8713
pole	-8714
torn	-8715
Filip	-8716
Small	-8717
ashed	-8718
Luther	-8719
crimes	-8720
gorith	-8721
icting	-8722
trials	-8723
Buffalo	-8724
withdrew	-8725
Socialist	-8726
ör	-8727
Pul	-8728
dez	-8729
haw	-8730
1913	-8731
Glen	-8732
geon	-8733
ifer	-8734
mini	-8735
1980,	-8736
waste	-8737
inking	-8738
volcan	-8739
physics	-8740
isolated	-8741
statistics	-8742
Toy	-8743
Jazz	-8744
sper	-8745
Plant	-8746
shock	-8747
ennial	-8748
supplies	-8749
principle	-8750
Sad	-8751
Sig	-8752
pip	-8753
pret	-8754
1993.	-8755
ocean	-8756
merger	-8757
riding	-8758
Results	-8759
ospitals	-8760
simultane	-8761
submarine	-8762
submitted	-8763
Nu	-8764
PN	-8765
Zh	-8766
RAF	-8767
dual	-8768
retr	-8769
Leeds	-8770
Video	-8771
timber	-8772
thereafter	-8773
compilation	-8774
HD	-8775
rib	-8776
vul	-8777
Much	-8778
tees	-8779
Apple	-8780
Barry	-8781
Maced	-8782
inhab	-8783
closer	-8784
Clinton	-8785
ression	-8786
Brisbane	-8787
Caribbean	-8788
discussed	-8789
initiated	-8790
manufacturer	-8791
oz	-8792
tone	-8793
shall	-8794
sponsor	-8795
honorary	-8796
decisions	-8797
locomotives	-8798
scholarship	-8799
24.	-8800
Abu	-8801
Tat	-8802
eat	-8803
ska	-8804
Sant	-8805
Vlad	-8806
1981,	-8807
Falls	-8808
encer	-8809
iture	-8810
persu	-8811
tanks	-8812
clearly	-8813
fecture	-8814
influences	-8815
iot	-8816
uez	-8817
Gabr	-8818
inse	-8819
stab	-8820
Anglo	-8821
cargo	-8822
housed	-8823
prices	-8824
cabinet	-8825
overeign	-8826
settlers	-8827
completing	-8828
//	-8829
asi	-8830
Cypr	-8831
embr	-8832
soul	-8833
1990.	-8834
excav	-8835
Report	-8836
beaten	-8837
fitted	-8838
Classic	-8839
indicate	-8840
romantic	-8841
superior	-8842
reduction	-8843
businessman	-8844
BL	-8845
Ted	-8846
1921	-8847
Cass	-8848
esis	-8849
stim	-8850
valu	-8851
Adela	-8852
fined	-8853
remix	-8854
Fisher	-8855
sevent	-8856
leyball	-8857
touring	-8858
Standard	-8859
restricted	-8860
traditions	-8861
possibility	-8862
demonstrated	-8863
19.	-8864
Inn	-8865
Isa	-8866
fab	-8867
hid	-8868
1870	-8869
Hugh	-8870
Moroc	-8871
sugar	-8872
intern	-8873
rising	-8874
sailed	-8875
falling	-8876
holders	-8877
inaugural	-8878
settlements	-8879
IR	-8880
aha	-8881
iri	-8882
Rest	-8883
Shel	-8884
doll	-8885
omon	-8886
1989.	-8887
legit	-8888
uters	-8889
Legacy	-8890
Faculty	-8891
Norfolk	-8892
volumes	-8893
wedding	-8894
Buddhist	-8895
discover	-8896
dominant	-8897
AL	-8898
Sie	-8899
1911	-8900
Mult	-8901
akia	-8902
Syria	-8903
altit	-8904
leton	-8905
banned	-8906
guilty	-8907
server	-8908
Admiral	-8909
Colombia	-8910
onlyinclude	-8911
USS	-8912
oni	-8913
Pont	-8914
arus	-8915
lobe	-8916
Lions	-8917
happy	-8918
slave	-8919
lowest	-8920
throne	-8921
earthqu	-8922
organis	-8923
Armenian	-8924
coaching	-8925
Barcelona	-8926
Technical	-8927
Fif	-8928
bag	-8929
1954	-8930
Fine	-8931
idal	-8932
wait	-8933
motiv	-8934
Allied	-8935
Oliver	-8936
topics	-8937
lia	-8938
(198	-8939
Cuba	-8940
Saudi	-8941
asant	-8942
focuses	-8943
ranging	-8944
playoffs	-8945
CR	-8946
Nur	-8947
née	-8948
1953	-8949
Clay	-8950
Gate	-8951
Goth	-8952
Snow	-8953
bats	-8954
Saints	-8955
notice	-8956
Formula	-8957
emperor	-8958
revenue	-8959
soldier	-8960
portrait	-8961
relevant	-8962
Confederate	-8963
arrangement	-8964
electricity	-8965
Conservation	-8966
(5	-8967
Iv	-8968
Eli	-8969
Hab	-8970
Aber	-8971
sang	-8972
winds	-8973
Micros	-8974
celand	-8975
colors	-8976
flower	-8977
serial	-8978
charity	-8979
Language	-8980
exclusively	-8981
-4	-8982
py	-8983
Dod	-8984
Equ	-8985
Imp	-8986
Yam	-8987
Ring	-8988
1945,	-8989
input	-8990
ineteen	-8991
interpretation	-8992
si	-8993
Lov	-8994
owed	-8995
Serge	-8996
Songs	-8997
Years	-8998
absol	-8999
alpha	-9000
drugs	-9001
dwell	-9002
nucle	-9003
ropol	-9004
sters	-9005
palace	-9006
treaty	-9007
Collins	-9008
Springs	-9009
compens	-9010
download	-9011
regulations	-9012
jurisdiction	-9013
Aar	-9014
jar	-9015
ario	-9016
olds	-9017
twin	-9018
zero	-9019
Iceland	-9020
finance	-9021
delivery	-9022
numbered	-9023
acknowled	-9024
certified	-9025
mechanism	-9026
immigrants	-9027
87	-9028
Mut	-9029
este	-9030
pill	-9031
canal	-9032
helps	-9033
optim	-9034
Mother	-9035
Symphony	-9036
editions	-9037
wrestling	-9038
Protestant	-9039
negotiations	-9040
Won	-9041
isk	-9042
Hope	-9043
Ship	-9044
ader	-9045
loop	-9046
Craig	-9047
Munich	-9048
anyone	-9049
achment	-9050
machines	-9051
expensive	-9052
Lock	-9053
hism	-9054
othy	-9055
Theod	-9056
Those	-9057
layer	-9058
nephe	-9059
Hunter	-9060
circle	-9061
extent	-9062
honors	-9063
issions	-9064
clothing	-9065
operator	-9066
oriented	-9067
transmit	-9068
Microsoft	-9069
monastery	-9070
preferred	-9071
provinces	-9072
aham	-9073
amer	-9074
hence	-9075
sight	-9076
sized	-9077
phosph	-9078
tunnel	-9079
Muslims	-9080
onymous	-9081
preneur	-9082
Together	-9083
civilian	-9084
indicates	-9085
aze	-9086
aude	-9087
dles	-9088
oria	-9089
quer	-9090
reli	-9091
patri	-9092
cattle	-9093
neither	-9094
Adelaide	-9095
algorith	-9096
fighters	-9097
Assistant	-9098
Peninsula	-9099
mechanical	-9100
Nan	-9101
Ral	-9102
oka	-9103
Nebr	-9104
Yang	-9105
Storm	-9106
colum	-9107
grows	-9108
Branch	-9109
Latino	-9110
eldest	-9111
ffield	-9112
Support	-9113
Democrat	-9114
campaigns	-9115
176	-9116
Ext	-9117
dra	-9118
gel	-9119
tub	-9120
1915	-9121
1933	-9122
owski	-9123
proof	-9124
rocks	-9125
Altern	-9126
nephew	-9127
visits	-9128
areness	-9129
disband	-9130
hunting	-9131
Pictures	-9132
Furthermore	-9133
connections	-9134
participating	-9135
wig	-9136
1927	-9137
Bath	-9138
Ches	-9139
bore	-9140
helm	-9141
ivic	-9142
Alger	-9143
geome	-9144
icing	-9145
usage	-9146
Vincent	-9147
electro	-9148
flights	-9149
organic	-9150
peoples	-9151
Catherine	-9152
photographer	-9153
ét	-9154
Fab	-9155
Kap	-9156
1985,	-9157
drums	-9158
rhyth	-9159
Spirit	-9160
remove	-9161
Climate	-9162
telling	-9163
breeding	-9164
Democrats	-9165
economics	-9166
subsidiary	-9167
97	-9168
Kle	-9169
acon	-9170
eigh	-9171
opol	-9172
1983,	-9173
ifies	-9174
itime	-9175
Finally	-9176
iveness	-9177
wealthy	-9178
Southeast	-9179
references	-9180
WC	-9181
Ian	-9182
Sul	-9183
gom	-9184
hydr	-9185
1944,	-9186
Psych	-9187
tight	-9188
Alaska	-9189
Policy	-9190
condem	-9191
orious	-9192
proxim	-9193
devoted	-9194
Jonathan	-9195
describing	-9196
originated	-9197
Christianity	-9198
izz	-9199
pel	-9200
rez	-9201
Cold	-9202
Advis	-9203
adjust	-9204
cricke	-9205
enberg	-9206
limits	-9207
Circuit	-9208
sharing	-9209
Anglican	-9210
Jefferson	-9211
convicted	-9212
Christians	-9213
93	-9214
10-	-9215
asa	-9216
1935	-9217
bull	-9218
iler	-9219
Advan	-9220
noble	-9221
Manuel	-9222
rarely	-9223
alliance	-9224
opponent	-9225
Performan	-9226
automatic	-9227
hl	-9228
vet	-9229
Bren	-9230
acht	-9231
arks	-9232
pian	-9233
1942,	-9234
Antar	-9235
Mason	-9236
alter	-9237
endor	-9238
moral	-9239
prest	-9240
simpl	-9241
aboard	-9242
Madison	-9243
Masters	-9244
Systems	-9245
permission	-9246
temperatures	-9247
Om	-9248
amo	-9249
gap	-9250
kir	-9251
argu	-9252
1979,	-9253
stick	-9254
Nevada	-9255
onomous	-9256
Bulgarian	-9257
execution	-9258
boundaries	-9259
96	-9260
Lot	-9261
Ott	-9262
dee	-9263
igo	-9264
golf	-9265
okie	-9266
cession	-9267
drummer	-9268
dangerous	-9269
Archbishop	-9270
unsuccessful	-9271
CN	-9272
PP	-9273
itis	-9274
1994.	-9275
Range	-9276
arked	-9277
bases	-9278
diver	-9279
helic	-9280
Intell	-9281
config	-9282
convers	-9283
ificial	-9284
wearing	-9285
Nebraska	-9286
aba	-9287
Gust	-9288
Hann	-9289
Inde	-9290
Sull	-9291
ixon	-9292
autom	-9293
doesn	-9294
eston	-9295
Borough	-9296
nearest	-9297
Industry	-9298
requested	-9299
extensively	-9300
circumstances	-9301
corresponding	-9302
--	-9303
Case	-9304
rice	-9305
Blood	-9306
ching	-9307
ierra	-9308
lingu	-9309
reduc	-9310
shift	-9311
Dakota	-9312
Hebrew	-9313
enthus	-9314
farming	-9315
Newcastle	-9316
;&	-9317
FO	-9318
Kol	-9319
Sha	-9320
ahn	-9321
nit	-9322
izer	-9323
surve	-9324
wider	-9325
Survey	-9326
answer	-9327
pursue	-9328
random	-9329
smooth	-9330
Barbara	-9331
bridges	-9332
charter	-9333
decides	-9334
conclusion	-9335
discussion	-9336
Commissioner	-9337
DO	-9338
ün	-9339
Tag	-9340
unc	-9341
1925	-9342
blow	-9343
pale	-9344
inhib	-9345
parks	-9346
Return	-9347
manage	-9348
delayed	-9349
genetic	-9350
sisters	-9351
violent	-9352
respective	-9353
implementation	-9354
Ja	-9355
Pic	-9356
Rou	-9357
Ferr	-9358
1986.	-9359
Franç	-9360
ipping	-9361
propag	-9362
Species	-9363
faction	-9364
increases	-9365
São	-9366
ashi	-9367
prot	-9368
tock	-9369
chess	-9370
spend	-9371
cribed	-9372
Gabriel	-9373
migration	-9374
biological	-9375
electrical	-9376
manufactured	-9377
Ober	-9378
eggs	-9379
Males	-9380
aming	-9381
anced	-9382
surviv	-9383
Century	-9384
enrolled	-9385
battalion	-9386
orchestra	-9387
”.	-9388
Anc	-9389
Lux	-9390
1860	-9391
alis	-9392
Stage	-9393
Where	-9394
agers	-9395
Athens	-9396
Bright	-9397
Harold	-9398
Parker	-9399
democr	-9400
revers	-9401
dispute	-9402
proteins	-9403
FF	-9404
ön	-9405
Daw	-9406
flew	-9407
1982,	-9408
1988.	-9409
Bobby	-9410
tours	-9411
activated	-9412
83	-9413
VA	-9414
WR	-9415
cht	-9416
1923	-9417
Fant	-9418
Gonz	-9419
oked	-9420
Costa	-9421
urers	-9422
Ethiop	-9423
Rivers	-9424
Tigers	-9425
caster	-9426
ificate	-9427
portions	-9428
concerning	-9429
Sex	-9430
Salv	-9431
tool	-9432
1975,	-9433
3,000	-9434
Lloyd	-9435
Stuart	-9436
affair	-9437
azines	-9438
breast	-9439
Pradesh	-9440
rebound	-9441
Argentine	-9442
consistent	-9443
initiative	-9444
unincorporated	-9445
1924	-9446
remo	-9447
icate	-9448
enters	-9449
mology	-9450
beating	-9451
minority	-9452
reviewed	-9453
Industrial	-9454
Provincial	-9455
ido	-9456
iev	-9457
Trad	-9458
Kenya	-9459
Twent	-9460
cryst	-9461
orbit	-9462
ospel	-9463
remark	-9464
Phoenix	-9465
partial	-9466
walking	-9467
compiled	-9468
Formation	-9469
outstanding	-9470
Dow	-9471
Kab	-9472
Cinc	-9473
cash	-9474
argument	-9475
informed	-9476
promoting	-9477
eu	-9478
Joy	-9479
1937	-9480
ivia	-9481
1970,	-9482
Chron	-9483
Edwards	-9484
columns	-9485
drivers	-9486
placing	-9487
managing	-9488
photographs	-9489
81	-9490
-20	-9491
Mam	-9492
Brew	-9493
gran	-9494
lett	-9495
lier	-9496
osex	-9497
1945.	-9498
Grace	-9499
kilome	-9500
landed	-9501
roster	-9502
Players	-9503
forcing	-9504
sterdam	-9505
ologists	-9506
sessions	-9507
Independence	-9508
Doc	-9509
Kor	-9510
Sic	-9511
Blues	-9512
Pedro	-9513
Villa	-9514
adequ	-9515
resid	-9516
Ground	-9517
ambass	-9518
finite	-9519
legacy	-9520
identical	-9521
contributing	-9522
71	-9523
NAS	-9524
Pod	-9525
pon	-9526
Slav	-9527
ampa	-9528
till	-9529
keley	-9530
looks	-9531
ceremon	-9532
qualification	-9533
Dog	-9534
Tas	-9535
eta	-9536
uki	-9537
Lanc	-9538
Mind	-9539
Sony	-9540
Yale	-9541
meat	-9542
Based	-9543
berry	-9544
inspe	-9545
behavi	-9546
Cincinn	-9547
Herbert	-9548
pitched	-9549
Amsterdam	-9550
restaurants	-9551
vas	-9552
1926	-9553
grid	-9554
1984,	-9555
Steven	-9556
deemed	-9557
worker	-9558
raising	-9559
tribute	-9560
Florence	-9561
awareness	-9562
dependent	-9563
festivals	-9564
physician	-9565
strengthen	-9566
collaborated	-9567
traditionally	-9568
Aj	-9569
Lag	-9570
Maz	-9571
Tul	-9572
1922	-9573
1932	-9574
Crim	-9575
Mars	-9576
tape	-9577
Drive	-9578
Heavy	-9579
Helen	-9580
Perry	-9581
Ridge	-9582
butter	-9583
horror	-9584
assists	-9585
filming	-9586
Sullivan	-9587
secution	-9588
Currently	-9589
Financial	-9590
magazines	-9591
Pi	-9592
Jar	-9593
Pel	-9594
mits	-9595
oded	-9596
pseud	-9597
Harbor	-9598
Nature	-9599
conven	-9600
sample	-9601
Croatia	-9602
Finance	-9603
impress	-9604
thinking	-9605
Sheffield	-9606
narrative	-9607
designation	-9608
Ey	-9609
PO	-9610
Cou	-9611
Marc	-9612
eing	-9613
quit	-9614
pharm	-9615
sounds	-9616
battery	-9617
origins	-9618
sembled	-9619
ensional	-9620
exercise	-9621
Secondary	-9622
distribut	-9623
Cincinnati	-9624
fundamental	-9625
Map	-9626
alk	-9627
Buch	-9628
Soul	-9629
rons	-9630
dense	-9631
pages	-9632
anthrop	-9633
gallery	-9634
cricketer	-9635
decorated	-9636
uncertain	-9637
enforcement	-9638
specialized	-9639
difficulties	-9640
Gas	-9641
Tow	-9642
hua	-9643
(190	-9644
1934	-9645
eras	-9646
punk	-9647
blind	-9648
giant	-9649
Albums	-9650
Franco	-9651
elsewhere	-9652
conversion	-9653
2/	-9654
94	-9655
bis	-9656
fus	-9657
gus	-9658
cope	-9659
gear	-9660
salt	-9661
datab	-9662
opher	-9663
Chapel	-9664
Hughes	-9665
beauty	-9666
guaran	-9667
rupted	-9668
Chester	-9669
believes	-9670
defended	-9671
Protection	-9672
cooperation	-9673
SM	-9674
Cot	-9675
tip	-9676
Bond	-9677
Marx	-9678
Math	-9679
athe	-9680
coat	-9681
ghai	-9682
imir	-9683
itan	-9684
ogle	-9685
Essex	-9686
oxygen	-9687
inducted	-9688
historically	-9689
jet	-9690
Cart	-9691
Obama	-9692
burned	-9693
slaves	-9694
Student	-9695
carrier	-9696
Campaign	-9697
symptoms	-9698
ibilities	-9699
inherited	-9700
reporting	-9701
Petersburg	-9702
elementary	-9703
1.5	-9704
uka	-9705
Trav	-9706
1978,	-9707
entre	-9708
virus	-9709
Writing	-9710
agonist	-9711
funeral	-9712
leagues	-9713
Croatian	-9714
connects	-9715
favorite	-9716
Raw	-9717
cum	-9718
–16	-9719
Scar	-9720
acou	-9721
evil	-9722
1976,	-9723
athlete	-9724
approached	-9725
industries	-9726
EL	-9727
175	-9728
Ill	-9729
aco	-9730
Luke	-9731
Next	-9732
asha	-9733
beam	-9734
diet	-9735
1968,	-9736
Fight	-9737
Napole	-9738
itable	-9739
promin	-9740
ticket	-9741
tourist	-9742
regulation	-9743
perspective	-9744
44,	-9745
Ast	-9746
Had	-9747
Hav	-9748
Pin	-9749
Syl	-9750
isa	-9751
maps	-9752
1972,	-9753
1974,	-9754
Charl	-9755
copal	-9756
saved	-9757
Murphy	-9758
collapse	-9759
functional	-9760
mainstream	-9761
distinction	-9762
Sug	-9763
bil	-9764
dal	-9765
oro	-9766
1931	-9767
cruc	-9768
Eagles	-9769
Economy	-9770
cavalry	-9771
options	-9772
reaches	-9773
bachelor	-9774
aggregate	-9775
emotional	-9776
hospitals	-9777
challenges	-9778
Productions	-9779
legislature	-9780
temporarily	-9781
Environmental	-9782
110	-9783
26.	-9784
Moz	-9785
Say	-9786
eli	-9787
bush	-9788
corn	-9789
Minor	-9790
cepts	-9791
Sloven	-9792
fisher	-9793
remote	-9794
registr	-9795
shopping	-9796
permitted	-9797
historians	-9798
midfielder	-9799
acquisition	-9800
inspiration	-9801
Kid	-9802
Kun	-9803
phan	-9804
1983.	-9805
hyper	-9806
Future	-9807
enburg	-9808
parking	-9809
tourism	-9810
External	-9811
accurate	-9812
placement	-9813
travelled	-9814
Interstate	-9815
householder	-9816
internationally	-9817
8-	-9818
aes	-9819
Hond	-9820
achi	-9821
enos	-9822
Grove	-9823
coins	-9824
guide	-9825
Syrian	-9826
compat	-9827
tested	-9828
thanks	-9829
urated	-9830
fifteen	-9831
Shanghai	-9832
grandson	-9833
27.	-9834
Bag	-9835
Cob	-9836
Oil	-9837
iji	-9838
Exam	-9839
Soph	-9840
belt	-9841
gart	-9842
phal	-9843
1985.	-9844
fabric	-9845
Montana	-9846
consolid	-9847
counting	-9848
ministry	-9849
retiring	-9850
understo	-9851
construct	-9852
incumbent	-9853
uv	-9854
(10	-9855
2–1	-9856
Pav	-9857
Rey	-9858
cry	-9859
Private	-9860
academy	-9861
cutting	-9862
virtual	-9863
Computer	-9864
nineteen	-9865
continental	-9866
examination	-9867
(9	-9868
ár	-9869
140	-9870
gast	-9871
1984.	-9872
capita	-9873
reforms	-9874
Delaware	-9875
Eventually	-9876
SH	-9877
avian	-9878
Giants	-9879
Rogers	-9880
asking	-9881
shield	-9882
Holland	-9883
carries	-9884
Bulgaria	-9885
Mathemat	-9886
accommod	-9887
murdered	-9888
reporter	-9889
alternate	-9890
institute	-9891
50%	-9892
bie	-9893
ums	-9894
Jess	-9895
Block	-9896
Crime	-9897
assum	-9898
accord	-9899
unlike	-9900
passion	-9901
scatter	-9902
boarding	-9903
mainland	-9904
pictures	-9905
reducing	-9906
depression	-9907
graduation	-9908
Ax	-9909
NE	-9910
–18	-9911
Cork	-9912
Deep	-9913
anni	-9914
cats	-9915
enda	-9916
lift	-9917
osed	-9918
athon	-9919
loose	-9920
tenth	-9921
guests	-9922
Lebanon	-9923
Montgom	-9924
Wallace	-9925
binding	-9926
evolved	-9927
Berkeley	-9928
diseases	-9929
prosecut	-9930
supplied	-9931
inhabited	-9932
indicating	-9933
productive	-9934
tournaments	-9935
Hz	-9936
Kl	-9937
iko	-9938
(196	-9939
cuss	-9940
tort	-9941
Exhib	-9942
Moham	-9943
alymp	-9944
elong	-9945
march	-9946
Oblast	-9947
cinema	-9948
ishops	-9949
levard	-9950
arrison	-9951
removal	-9952
depicted	-9953
familiar	-9954
plicated	-9955
affiliate	-9956
simultaneously	-9957
$5	-9958
2"	-9959
MI	-9960
spo	-9961
Tall	-9962
gymn	-9963
libr	-9964
sket	-9965
thel	-9966
1940,	-9967
1973,	-9968
1982.	-9969
Armed	-9970
Somer	-9971
memor	-9972
prove	-9973
violin	-9974
Abraham	-9975
Friends	-9976
Gilbert	-9977
Primary	-9978
rection	-9979
authored	-9980
sovereign	-9981
Performance	-9982
preparation	-9983
AN	-9984
30.	-9985
Jur	-9986
Liu	-9987
Lor	-9988
Wer	-9989
tou	-9990
Hein	-9991
Mend	-9992
Vers	-9993
dock	-9994
mons	-9995
Delta	-9996
Photo	-9997
buses	-9998
onian	-9999
ckland	-10000
cology	-10001
copper	-10002
Thunder	-10003
feeling	-10004
arriving	-10005
switched	-10006
Montgomery	-10007
interviews	-10008
understood	-10009
descendants	-10010
HC	-10011
haul	-10012
inum	-10013
quad	-10014
alive	-10015
iform	-10016
reads	-10017
recur	-10018
Dragon	-10019
pupils	-10020
Manager	-10021
coaches	-10022
variant	-10023
departed	-10024
vertical	-10025
chemistry	-10026
communist	-10027
locomotive	-10028
$4	-10029
Any	-10030
Bav	-10031
Haz	-10032
Sep	-10033
iao	-10034
uto	-10035
adow	-10036
isan	-10037
vacc	-10038
wasn	-10039
zhou	-10040
bench	-10041
empty	-10042
flank	-10043
isons	-10044
siege	-10045
endors	-10046
plates	-10047
pushed	-10048
torped	-10049
Playing	-10050
suspect	-10051
explains	-10052
exposure	-10053
speakers	-10054
excellent	-10055
tributary	-10056
programmes	-10057
interchange	-10058
administered	-10059
Sak	-10060
aims	-10061
opes	-10062
shed	-10063
1969,	-10064
1987.	-10065
pairs	-10066
radar	-10067
curric	-10068
decide	-10069
atorial	-10070
contracts	-10071
Wellington	-10072
comparison	-10073
1:	-10074
Gay	-10075
iph	-10076
idad	-10077
kidn	-10078
velt	-10079
Colum	-10080
Magic	-10081
Robin	-10082
Tibet	-10083
posts	-10084
dialect	-10085
gardens	-10086
resumed	-10087
ternoon	-10088
experiments	-10089
neighbouring	-10090
28.	-10091
Rah	-10092
ibn	-10093
Apol	-10094
cave	-10095
clan	-10096
thyl	-10097
1943,	-10098
Still	-10099
erala	-10100
stall	-10101
talks	-10102
Philos	-10103
Yellow	-10104
Commons	-10105
internet	-10106
convinced	-10107
diplomatic	-10108
structural	-10109
installation	-10110
comprehensive	-10111
organisations	-10112
MB	-10113
Cov	-10114
Cus	-10115
LGB	-10116
zie	-10117
Ster	-10118
bott	-10119
itic	-10120
nutr	-10121
Mills	-10122
semif	-10123
steep	-10124
taxes	-10125
Butler	-10126
Finals	-10127
icking	-10128
biology	-10129
payment	-10130
sitting	-10131
framework	-10132
Commercial	-10133
consumption	-10134
HP	-10135
-17	-10136
rim	-10137
Gard	-10138
milk	-10139
Larry	-10140
widow	-10141
wreck	-10142
Sierra	-10143
ancest	-10144
scores	-10145
sequel	-10146
crosses	-10147
failing	-10148
engagement	-10149
distinctive	-10150
interesting	-10151
IO	-10152
Hem	-10153
Hir	-10154
psy	-10155
1908	-10156
Hous	-10157
doct	-10158
corps	-10159
crops	-10160
remin	-10161
Colleg	-10162
unless	-10163
escaped	-10164
intense	-10165
Guardian	-10166
Paralymp	-10167
encompass	-10168
difficulty	-10169
psychology	-10170
archaeological	-10171
12-	-10172
Dim	-10173
Expl	-10174
Sask	-10175
clay	-10176
sick	-10177
sted	-10178
1964,	-10179
Ultim	-10180
andro	-10181
Dennis	-10182
Recent	-10183
beetle	-10184
firing	-10185
lavery	-10186
theatr	-10187
revival	-10188
Auckland	-10189
Byzantine	-10190
behaviour	-10191
AG	-10192
64,	-10193
MTV	-10194
Mis	-10195
Rav	-10196
Gand	-10197
brook	-10198
fraud	-10199
Flight	-10200
Kerala	-10201
fairly	-10202
slowly	-10203
ratings	-10204
ressing	-10205
dissolved	-10206
recipient	-10207
attempting	-10208
quarterback	-10209
IG	-10210
Put	-10211
aho	-10212
neo	-10213
pir	-10214
Bach	-10215
ente	-10216
1977,	-10217
meter	-10218
latest	-10219
phrase	-10220
pulled	-10221
angered	-10222
radical	-10223
dramatic	-10224
Vietnamese	-10225
(6	-10226
Leo	-10227
oko	-10228
ampl	-10229
prev	-10230
1971,	-10231
Congo	-10232
Susan	-10233
Ottawa	-10234
Venice	-10235
chestr	-10236
Hamburg	-10237
Spencer	-10238
bearing	-10239
belongs	-10240
exhibit	-10241
holiday	-10242
speaker	-10243
compound	-10244
measured	-10245
pressing	-10246
writings	-10247
Beginning	-10248
manuscript	-10249
celebration	-10250
characteristic	-10251
discrimination	-10252
Wit	-10253
Must	-10254
ende	-10255
umni	-10256
Wells	-10257
agons	-10258
horiz	-10259
Comics	-10260
summit	-10261
plastic	-10262
Nashville	-10263
abolished	-10264
ministers	-10265
scientist	-10266
traveling	-10267
improvements	-10268
AB	-10269
0.0	-10270
Jak	-10271
Mig	-10272
Pos	-10273
Vil	-10274
coc	-10275
eda	-10276
Beth	-10277
LGBT	-10278
Thai	-10279
atar	-10280
haus	-10281
abstr	-10282
annex	-10283
lakes	-10284
Sebast	-10285
argues	-10286
namely	-10287
attacking	-10288
commenced	-10289
essentially	-10290
Architecture	-10291
7-	-10292
29.	-10293
Hil	-10294
cro	-10295
Anim	-10296
Cycl	-10297
ahan	-10298
dean	-10299
ieve	-10300
liga	-10301
lung	-10302
scap	-10303
ulus	-10304
Ahmad	-10305
forty	-10306
gross	-10307
Rhodes	-10308
Watson	-10309
Leonard	-10310
Politics	-10311
defender	-10312
refugees	-10313
relegated	-10314
UP	-10315
gov	-10316
igs	-10317
uzz	-10318
Rams	-10319
ieth	-10320
Roose	-10321
camps	-10322
Orient	-10323
culmin	-10324
explan	-10325
iology	-10326
spokes	-10327
100,000	-10328
feelings	-10329
recalled	-10330
exhibited	-10331
approaches	-10332
attendance	-10333
volunteers	-10334
exhibitions	-10335
Ef	-10336
MT	-10337
ás	-10338
Gaz	-10339
Int	-10340
Kom	-10341
ugs	-10342
tube	-10343
atche	-10344
coron	-10345
enders	-10346
nomine	-10347
Ancient	-10348
Release	-10349
conspir	-10350
osexual	-10351
therapy	-10352
Phillips	-10353
altitude	-10354
variable	-10355
graphical	-10356
literally	-10357
supplement	-10358
entrepreneur	-10359
"[	-10360
Log	-10361
lee	-10362
1905	-10363
ento	-10364
jail	-10365
Ahmed	-10366
Ralph	-10367
Sudan	-10368
rifle	-10369
ropod	-10370
Google	-10371
Musical	-10372
studios	-10373
Junction	-10374
realized	-10375
receives	-10376
imprisoned	-10377
nominations	-10378
ña	-10379
Hob	-10380
Bened	-10381
ashes	-10382
Workers	-10383
counsel	-10384
kilomet	-10385
legally	-10386
accompany	-10387
cathedral	-10388
plication	-10389
broadcasts	-10390
predecessor	-10391
Intelligence	-10392
intellectual	-10393
predominantly	-10394
2:	-10395
ERA	-10396
VII	-10397
Rank	-10398
cker	-10399
1941,	-10400
Pearl	-10401
accum	-10402
byter	-10403
cules	-10404
gauge	-10405
spots	-10406
Nathan	-10407
coached	-10408
Aviation	-10409
currency	-10410
disorder	-10411
explicit	-10412
lighting	-10413
valuable	-10414
Romanized	-10415
exclusive	-10416
procedure	-10417
referring	-10418
authorized	-10419
touchdowns	-10420
restrictions	-10421
Eu	-10422
CDP	-10423
Lion	-10424
Site	-10425
lain	-10426
migr	-10427
Treas	-10428
Ambass	-10429
Newton	-10430
angular	-10431
criteria	-10432
Roosevelt	-10433
perceived	-10434
instruction	-10435
resignation	-10436
undergraduate	-10437
(8	-10438
CF	-10439
Ig	-10440
Buc	-10441
(199	-10442
Abor	-10443
Near	-10444
athy	-10445
offs	-10446
olly	-10447
1960,	-10448
Mario	-10449
hills	-10450
swick	-10451
Grammy	-10452
extend	-10453
calendar	-10454
collective	-10455
documented	-10456
DR	-10457
Fat	-10458
Sox	-10459
nox	-10460
roe	-10461
sav	-10462
Chan	-10463
Gang	-10464
Giov	-10465
Past	-10466
Room	-10467
iast	-10468
judg	-10469
oted	-10470
1974.	-10471
Terry	-10472
Tommy	-10473
acter	-10474
anyon	-10475
fires	-10476
worst	-10477
Arnold	-10478
resort	-10479
Morning	-10480
Vermont	-10481
brigade	-10482
dollars	-10483
monthly	-10484
consumer	-10485
theories	-10486
Stockholm	-10487
laboratory	-10488
Jin	-10489
Tob	-10490
soc	-10491
Salt	-10492
auer	-10493
peer	-10494
1965,	-10495
1977.	-10496
Beaut	-10497
essed	-10498
ilder	-10499
sharp	-10500
topic	-10501
Celtic	-10502
amounts	-10503
martial	-10504
veteran	-10505
Stanford	-10506
colleges	-10507
Palestine	-10508
comprises	-10509
signature	-10510
Yugoslavia	-10511
earthquake	-10512
situations	-10513
dimensional	-10514
nu	-10515
Gan	-10516
nut	-10517
Bibl	-10518
Golf	-10519
caps	-10520
sert	-10521
wars	-10522
Roche	-10523
Higher	-10524
burial	-10525
denomin	-10526
emphasis	-10527
Methodist	-10528
operative	-10529
Expedition	-10530
Fig	-10531
Vid	-10532
cens	-10533
Spart	-10534
drove	-10535
flies	-10536
rever	-10537
shots	-10538
retain	-10539
extinct	-10540
cultures	-10541
displays	-10542
nickname	-10543
Indonesian	-10544
Literature	-10545
Statistics	-10546
exh	-10547
fasc	-10548
owns	-10549
Eddie	-10550
Keith	-10551
bonus	-10552
chlor	-10553
gence	-10554
Indies	-10555
Monday	-10556
backed	-10557
coffee	-10558
entity	-10559
golden	-10560
Cabinet	-10561
outdoor	-10562
departments	-10563
maintaining	-10564
DE	-10565
Fo	-10566
WS	-10567
"",	-10568
Lac	-10569
Tri	-10570
Bull	-10571
Magn	-10572
otes	-10573
acles	-10574
admir	-10575
Belarus	-10576
tingham	-10577
judicial	-10578
Tradition	-10579
extending	-10580
XI	-10581
lev	-10582
Happ	-10583
bars	-10584
flex	-10585
guid	-10586
pent	-10587
toll	-10588
yers	-10589
1967,	-10590
ortion	-10591
worthy	-10592
pioneer	-10593
Georgian	-10594
fortress	-10595
vocalist	-10596
Northwest	-10597
recruited	-10598
immigration	-10599
integration	-10600
Nevertheless	-10601
Revolutionary	-10602
"".	-10603
Raf	-10604
gem	-10605
orb	-10606
pap	-10607
ups	-10608
cuts	-10609
1963,	-10610
1980.	-10611
Divis	-10612
Guild	-10613
usive	-10614
Denver	-10615
engage	-10616
fusion	-10617
triang	-10618
Diamond	-10619
Volunte	-10620
neutral	-10621
colonies	-10622
sciences	-10623
Brunswick	-10624
Collection	-10625
Prefecture	-10626
82	-10627
Cav	-10628
Mix	-10629
Nas	-10630
htt	-10631
wau	-10632
Scre	-10633
Sean	-10634
heir	-10635
iffs	-10636
inos	-10637
keys	-10638
endum	-10639
intim	-10640
metric	-10641
bombing	-10642
exactly	-10643
actively	-10644
birthday	-10645
equation	-10646
objective	-10647
suspension	-10648
achievement	-10649
raw	-10650
(189	-10651
Brid	-10652
Days	-10653
bitr	-10654
dess	-10655
iper	-10656
phon	-10657
Lucas	-10658
acked	-10659
seeds	-10660
stake	-10661
modate	-10662
Cameron	-10663
Maurice	-10664
pitcher	-10665
thereby	-10666
Academic	-10667
gathered	-10668
printing	-10669
Boulevard	-10670
Venezuela	-10671
addressed	-10672
victories	-10673
colleagues	-10674
kilometers	-10675
separation	-10676
statements	-10677
accommodate	-10678
improvement	-10679
technologies	-10680
TH	-10681
rh	-10682
Nac	-10683
Tab	-10684
amy	-10685
tri	-10686
1906	-10687
1909	-10688
Ages	-10689
fung	-10690
glac	-10691
wish	-10692
Vegas	-10693
deser	-10694
erals	-10695
flash	-10696
icken	-10697
incar	-10698
Palmer	-10699
citing	-10700
handle	-10701
unanim	-10702
renowned	-10703
underwent	-10704
corruption	-10705
compositions	-10706
BR	-10707
NP	-10708
Scr	-10709
gry	-10710
lix	-10711
Cruz	-10712
Sara	-10713
thet	-10714
uits	-10715
Eagle	-10716
eties	-10717
ovich	-10718
Bosnia	-10719
elabor	-10720
orange	-10721
Gregory	-10722
consecr	-10723
signals	-10724
disaster	-10725
hardware	-10726
shipping	-10727
Pakistani	-10728
specified	-10729
Representative	-10730
dia	-10731
Dame	-10732
Emil	-10733
Pain	-10734
inae	-10735
sels	-10736
Iraqi	-10737
Laura	-10738
files	-10739
Arabia	-10740
Fourth	-10741
Govern	-10742
Marvel	-10743
Warsaw	-10744
accred	-10745
gaining	-10746
updated	-10747
Location	-10748
Overview	-10749
succession	-10750
://	-10751
Bil	-10752
Lib	-10753
anx	-10754
sha	-10755
Joan	-10756
Reed	-10757
Swan	-10758
bare	-10759
logo	-10760
vine	-10761
1966,	-10762
1979.	-10763
Coach	-10764
Joint	-10765
Oscar	-10766
Price	-10767
unity	-10768
Shakes	-10769
apprec	-10770
diesel	-10771
reward	-10772
seemed	-10773
Jacques	-10774
retreat	-10775
summary	-10776
Commerce	-10777
employee	-10778
interaction	-10779
AFL	-10780
lib	-10781
Bass	-10782
Shir	-10783
pted	-10784
tene	-10785
ferry	-10786
journ	-10787
opsis	-10788
collaps	-10789
waiting	-10790
diversity	-10791
challenged	-10792
friendship	-10793
developments	-10794
169	-10795
Cau	-10796
Vit	-10797
1907	-10798
Isab	-10799
Vent	-10800
ills	-10801
uran	-10802
Chanc	-10803
Edmon	-10804
error	-10805
fewer	-10806
stell	-10807
praise	-10808
automat	-10809
dancing	-10810
fantasy	-10811
Railways	-10812
Starting	-10813
aviation	-10814
Economics	-10815
disbanded	-10816
radiation	-10817
sustained	-10818
artificial	-10819
metropolitan	-10820
UA	-10821
Pon	-10822
fib	-10823
iod	-10824
Link	-10825
Raid	-10826
answ	-10827
Prest	-10828
fifty	-10829
wright	-10830
revised	-10831
segments	-10832
thirteen	-10833
followers	-10834
requiring	-10835
Elementary	-10836
CAR	-10837
Eld	-10838
HMS	-10839
Nak	-10840
Wag	-10841
gif	-10842
pes	-10843
Cred	-10844
Less	-10845
Nine	-10846
boro	-10847
coin	-10848
irus	-10849
itol	-10850
uras	-10851
zing	-10852
1970.	-10853
bears	-10854
emies	-10855
itted	-10856
kills	-10857
Amazon	-10858
Milwau	-10859
analog	-10860
banking	-10861
explain	-10862
targets	-10863
Shakespe	-10864
circular	-10865
concepts	-10866
controls	-10867
elevated	-10868
casualties	-10869
Competition	-10870
Renaissance	-10871
cz	-10872
Cha	-10873
cub	-10874
Bent	-10875
Data	-10876
Isle	-10877
umps	-10878
Citiz	-10879
Franz	-10880
deriv	-10881
ipped	-10882
redes	-10883
Hitler	-10884
Prison	-10885
Twenty	-10886
Jamaica	-10887
demands	-10888
footage	-10889
minster	-10890
contribute	-10891
Outstanding	-10892
Palestinian	-10893
observation	-10894
politicians	-10895
transformed	-10896
-5	-10897
DI	-10898
ku	-10899
Esp	-10900
Sev	-10901
lux	-10902
Deut	-10903
Reyn	-10904
Sans	-10905
axis	-10906
Abdul	-10907
Maxim	-10908
flour	-10909
threw	-10910
venge	-10911
Source	-10912
Triple	-10913
Valent	-10914
breaks	-10915
prelim	-10916
ranges	-10917
Fighter	-10918
shifted	-10919
pregnant	-10920
editorial	-10921
universal	-10922
volunteer	-10923
agreements	-10924
atmosphere	-10925
democratic	-10926
Contemporary	-10927
TE	-10928
ym	-10929
Laz	-10930
1904	-10931
Mang	-10932
abund	-10933
loyal	-10934
trick	-10935
utton	-10936
anchor	-10937
dubbed	-10938
vulner	-10939
Bennett	-10940
Wilhelm	-10941
enabled	-10942
universe	-10943
Milwaukee	-10944
molecular	-10945
progressive	-10946
(14	-10947
Hat	-10948
vow	-10949
Page	-10950
cury	-10951
dors	-10952
quis	-10953
Films	-10954
Perth	-10955
basin	-10956
ellor	-10957
waves	-10958
Edmund	-10959
Panama	-10960
Oakland	-10961
Revival	-10962
imposed	-10963
acoustic	-10964
focusing	-10965
orchestr	-10966
recovery	-10967
Presbyter	-10968
neighboring	-10969
revolutionary	-10970
KO	-10971
125	-10972
Bran	-10973
Pand	-10974
Shep	-10975
aton	-10976
ichi	-10977
oses	-10978
neuro	-10979
quiet	-10980
Reform	-10981
ailing	-10982
Besides	-10983
hydrogen	-10984
relating	-10985
variants	-10986
Artillery	-10987
afternoon	-10988
procedures	-10989
philosopher	-10990
gs	-10991
"..	-10992
-16	-10993
Cum	-10994
Ras	-10995
airo	-10996
quet	-10997
thro	-10998
Stefan	-10999
chronic	-11000
reverse	-11001
viously	-11002
athletic	-11003
solutions	-11004
Lithuanian	-11005
ambassador	-11006
900	-11007
Bry	-11008
1800	-11009
Astr	-11010
Brus	-11011
Kash	-11012
Lost	-11013
pond	-11014
trio	-11015
1978.	-11016
chest	-11017
ifier	-11018
ipher	-11019
refere	-11020
thentic	-11021
Exchange	-11022
assembled	-11023
reflected	-11024
consultant	-11025
Aw	-11026
HF	-11027
Ib	-11028
Fly	-11029
Lok	-11030
Pep	-11031
Bear	-11032
NASA	-11033
View	-11034
abwe	-11035
eros	-11036
whel	-11037
fallen	-11038
grants	-11039
hidden	-11040
permit	-11041
Evangel	-11042
mixture	-11043
renewed	-11044
Columbus	-11045
Friedrich	-11046
prevented	-11047
rebellion	-11048
ui	-11049
Tir	-11050
tot	-11051
Name	-11052
Tong	-11053
aque	-11054
gift	-11055
Isaac	-11056
Rhode	-11057
Right	-11058
exile	-11059
Annual	-11060
Flying	-11061
Tasman	-11062
privile	-11063
Original	-11064
conquest	-11065
residing	-11066
democracy	-11067
quartered	-11068
commitment	-11069
impossible	-11070
Shakespeare	-11071
Lil	-11072
RNA	-11073
1903	-11074
Bald	-11075
Elli	-11076
Mumb	-11077
Zimb	-11078
boss	-11079
memb	-11080
1962,	-11081
Aaron	-11082
elite	-11083
liner	-11084
rescu	-11085
Gothic	-11086
merely	-11087
Liberty	-11088
extends	-11089
icester	-11090
lasting	-11091
travels	-11092
Election	-11093
drinking	-11094
eventual	-11095
associations	-11096
(7	-11097
Ow	-11098
eh	-11099
Eis	-11100
Gul	-11101
idi	-11102
nas	-11103
rov	-11104
Kate	-11105
mall	-11106
Geoff	-11107
Artist	-11108
Weekly	-11109
tissue	-11110
Cardiff	-11111
Transit	-11112
centres	-11113
closest	-11114
mineral	-11115
missile	-11116
ulating	-11117
Wildlife	-11118
governing	-11119
Ord	-11120
dev	-11121
mun	-11122
bian	-11123
issa	-11124
Voice	-11125
doubt	-11126
eries	-11127
polar	-11128
Clarke	-11129
branded	-11130
dynamic	-11131
runners	-11132
bankrupt	-11133
handling	-11134
invented	-11135
rational	-11136
reserves	-11137
variation	-11138
assessment	-11139
discontinued	-11140
Mé	-11141
Og	-11142
uf	-11143
Bak	-11144
Bod	-11145
Hip	-11146
hub	-11147
shi	-11148
Trip	-11149
avia	-11150
Eight	-11151
drain	-11152
oblig	-11153
quiry	-11154
Campus	-11155
Grande	-11156
ambers	-11157
indoor	-11158
stored	-11159
deliber	-11160
comments	-11161
surprise	-11162
intervention	-11163
GS	-11164
cs	-11165
1–0	-11166
usk	-11167
–19	-11168
(187	-11169
Fish	-11170
Todd	-11171
bene	-11172
plas	-11173
1973.	-11174
Guang	-11175
Legal	-11176
Parks	-11177
Train	-11178
abbre	-11179
Ernest	-11180
Rolling	-11181
Zimbabwe	-11182
allegedly	-11183
Berg	-11184
Craw	-11185
Roll	-11186
cann	-11187
chel	-11188
ourg	-11189
Bloom	-11190
Loren	-11191
alien	-11192
arena	-11193
morph	-11194
enzyme	-11195
matrix	-11196
varied	-11197
Gardens	-11198
experts	-11199
lawsuit	-11200
transit	-11201
permanently	-11202
MR	-11203
BCE	-11204
Gol	-11205
oku	-11206
som	-11207
uli	-11208
–15	-11209
fame	-11210
flav	-11211
1939,	-11212
Henri	-11213
Ports	-11214
adier	-11215
canon	-11216
hagen	-11217
ocket	-11218
relay	-11219
sheet	-11220
stere	-11221
Heaven	-11222
Cavalry	-11223
freight	-11224
generate	-11225
upcoming	-11226
Dominican	-11227
doctorate	-11228
Nottingham	-11229
Ki	-11230
NL	-11231
Gab	-11232
Pom	-11233
bek	-11234
vik	-11235
ław	-11236
Brah	-11237
cure	-11238
Scout	-11239
ruler	-11240
Motors	-11241
Uganda	-11242
ctuary	-11243
indeed	-11244
Reading	-11245
beliefs	-11246
confron	-11247
samples	-11248
sixteen	-11249
Scientific	-11250
92	-11251
Amy	-11252
Lak	-11253
Sold	-11254
exit	-11255
frey	-11256
nose	-11257
olph	-11258
1971.	-11259
pling	-11260
Sussex	-11261
airline	-11262
prepare	-11263
literacy	-11264
receiver	-11265
journalists	-11266
prestigious	-11267
-8	-11268
Lip	-11269
Rif	-11270
aca	-11271
lun	-11272
Gren	-11273
Made	-11274
Vale	-11275
furt	-11276
tomb	-11277
queen	-11278
Observ	-11279
Safety	-11280
Wonder	-11281
cripts	-11282
export	-11283
guards	-11284
Article	-11285
artwork	-11286
fastest	-11287
manages	-11288
priests	-11289
slavery	-11290
decrease	-11291
findings	-11292
fourteen	-11293
Leicester	-11294
conductor	-11295
allegations	-11296
nai	-11297
Mold	-11298
Winn	-11299
atta	-11300
jack	-11301
memo	-11302
moon	-11303
Drama	-11304
Forum	-11305
deals	-11306
noise	-11307
sembl	-11308
tasks	-11309
Ferdin	-11310
Mechan	-11311
Rodrig	-11312
arrive	-11313
hybrid	-11314
comprom	-11315
onwards	-11316
scandal	-11317
threats	-11318
enlisted	-11319
activists	-11320
impressed	-11321
infection	-11322
goalkeeper	-11323
concentrated	-11324
Hes	-11325
Jen	-11326
Mik	-11327
ieu	-11328
tok	-11329
000,	-11330
Cant	-11331
Foot	-11332
Meet	-11333
Path	-11334
archy	-11335
stops	-11336
toxic	-11337
Legion	-11338
Raymond	-11339
Solomon	-11340
arrives	-11341
backing	-11342
divorce	-11343
rolling	-11344
emerging	-11345
seriously	-11346
Ambassador	-11347
provisions	-11348
referendum	-11349
independently	-11350
PE	-11351
SD	-11352
Lem	-11353
Conf	-11354
Swim	-11355
oval	-11356
ovan	-11357
pace	-11358
rust	-11359
1956,	-11360
Banks	-11361
Santi	-11362
Tunis	-11363
atern	-11364
coinc	-11365
magic	-11366
Mobile	-11367
Knights	-11368
Twitter	-11369
cycling	-11370
guidance	-11371
comprising	-11372
generations	-11373
illustrated	-11374
preliminary	-11375
announcement	-11376
professionals	-11377
"|	-11378
Dh	-11379
-18	-11380
2.5	-11381
Suz	-11382
ivo	-11383
umi	-11384
zig	-11385
Blan	-11386
Camb	-11387
Ming	-11388
Sang	-11389
dogs	-11390
Notes	-11391
Thorn	-11392
onaut	-11393
stems	-11394
toler	-11395
utter	-11396
Termin	-11397
vector	-11398
aughter	-11399
secular	-11400
sending	-11401
singers	-11402
surance	-11403
warning	-11404
Aborigin	-11405
lifetime	-11406
suspected	-11407
conducting	-11408
nationwide	-11409
Alt	-11410
Cox	-11411
IDS	-11412
1901	-11413
boom	-11414
Urugu	-11415
iffer	-11416
20,000	-11417
faster	-11418
prints	-11419
enemies	-11420
Cardinal	-11421
overwhel	-11422
prisoner	-11423
rebounds	-11424
animation	-11425
computers	-11426
maintains	-11427
Population	-11428
Wo	-11429
FBI	-11430
Clin	-11431
Dale	-11432
Dest	-11433
cant	-11434
ikes	-11435
Mumbai	-11436
barrel	-11437
empire	-11438
listen	-11439
poison	-11440
poster	-11441
Newport	-11442
Popular	-11443
colours	-11444
shelter	-11445
cography	-11446
exterior	-11447
preserve	-11448
civilians	-11449
seventeen	-11450
repeatedly	-11451
registration	-11452
Gö	-11453
Was	-11454
Qing	-11455
Stre	-11456
enny	-11457
1976.	-11458
Paulo	-11459
Proto	-11460
ucker	-11461
Harvey	-11462
Leader	-11463
convoy	-11464
enroll	-11465
triple	-11466
creator	-11467
ctorate	-11468
streams	-11469
Moreover	-11470
efficiency	-11471
potentially	-11472
requirement	-11473
Ri	-11474
165	-11475
Cru	-11476
Burg	-11477
agas	-11478
1961,	-11479
Reich	-11480
lease	-11481
cotton	-11482
ieties	-11483
layout	-11484
silent	-11485
dealing	-11486
promised	-11487
reserved	-11488
proportion	-11489
theatrical	-11490
interpreted	-11491
congregation	-11492
HA	-11493
Ng	-11494
(12	-11495
axy	-11496
opy	-11497
tol	-11498
Crow	-11499
Owen	-11500
Sund	-11501
amen	-11502
roid	-11503
1975.	-11504
Kumar	-11505
fluid	-11506
izard	-11507
teeth	-11508
Circle	-11509
Justin	-11510
Louise	-11511
voiced	-11512
doctors	-11513
exhaust	-11514
honours	-11515
carriage	-11516
ordained	-11517
supervis	-11518
discovers	-11519
sensitive	-11520
collegiate	-11521
nationally	-11522
Agriculture	-11523
BE	-11524
Ji	-11525
fi	-11526
”,	-11527
167	-11528
20%	-11529
Got	-11530
HIV	-11531
ahl	-11532
tea	-11533
"...	-11534
alge	-11535
diag	-11536
feud	-11537
moll	-11538
uman	-11539
1967.	-11540
Devon	-11541
Lakes	-11542
Serie	-11543
Sweet	-11544
linder	-11545
phones	-11546
rivals	-11547
Individ	-11548
shorter	-11549
demanded	-11550
founders	-11551
freestyle	-11552
assignment	-11553
91	-11554
LE	-11555
XX	-11556
elf	-11557
hier	-11558
wage	-11559
1968.	-11560
Activ	-11561
Krish	-11562
Teams	-11563
Watch	-11564
posit	-11565
ulous	-11566
Archae	-11567
Foster	-11568
Prague	-11569
rowing	-11570
Morocco	-11571
cartoon	-11572
planted	-11573
graphics	-11574
reactions	-11575
transform	-11576
Chancellor	-11577
confidence	-11578
travelling	-11579
encountered	-11580
PM	-11581
10%	-11582
Sap	-11583
lac	-11584
oty	-11585
sar	-11586
Indo	-11587
1964.	-11588
Burns	-11589
Total	-11590
anime	-11591
ingen	-11592
Durham	-11593
Manila	-11594
Powell	-11595
Proper	-11596
comics	-11597
naming	-11598
stolen	-11599
readers	-11600
duration	-11601
moderate	-11602
rainfall	-11603
provision	-11604
releasing	-11605
variations	-11606
corporation	-11607
investigate	-11608
164	-11609
dio	-11610
lip	-11611
Agre	-11612
clip	-11613
fert	-11614
inus	-11615
ishi	-11616
vian	-11617
Arsen	-11618
Krist	-11619
drink	-11620
liked	-11621
ullah	-11622
topped	-11623
weaken	-11624
Panther	-11625
honored	-11626
Vladimir	-11627
adequate	-11628
suddenly	-11629
Hurricane	-11630
Personnel	-11631
Worcester	-11632
audiences	-11633
authentic	-11634
conflicts	-11635
Cun	-11636
Dum	-11637
bee	-11638
rik	-11639
tut	-11640
uls	-11641
cart	-11642
eleg	-11643
ogne	-11644
refr	-11645
unal	-11646
1952,	-11647
irect	-11648
manga	-11649
sheep	-11650
carved	-11651
desert	-11652
panels	-11653
reveal	-11654
heading	-11655
expanding	-11656
improving	-11657
prototype	-11658
destination	-11659
Indianapolis	-11660
168	-11661
Khal	-11662
atro	-11663
mant	-11664
mere	-11665
outr	-11666
pink	-11667
anian	-11668
firms	-11669
manip	-11670
patent	-11671
planes	-11672
volunt	-11673
Heights	-11674
Quarter	-11675
convert	-11676
Advanced	-11677
Albanian	-11678
doctoral	-11679
-7	-11680
HO	-11681
xy	-11682
Ref	-11683
edo	-11684
guy	-11685
tin	-11686
upl	-11687
uta	-11688
wyn	-11689
Flag	-11690
None	-11691
Pink	-11692
anor	-11693
ipur	-11694
shaw	-11695
trim	-11696
vous	-11697
1946,	-11698
azing	-11699
chant	-11700
choir	-11701
digit	-11702
edges	-11703
enson	-11704
essay	-11705
ovsky	-11706
Cyprus	-11707
thouse	-11708
Scholar	-11709
Without	-11710
cussion	-11711
advertis	-11712
dialogue	-11713
similarly	-11714
ographical	-11715
identification	-11716
"&	-11717
FS	-11718
Mau	-11719
gio	-11720
pub	-11721
ske	-11722
–14	-11723
Inte	-11724
Stra	-11725
Inspe	-11726
Stein	-11727
avier	-11728
Cinema	-11729
Herald	-11730
Wednes	-11731
iatric	-11732
minimal	-11733
recover	-11734
Official	-11735
drawings	-11736
consensus	-11737
specimens	-11738
stationed	-11739
legitimate	-11740
conjunction	-11741
IE	-11742
Aub	-11743
Fro	-11744
Mem	-11745
Tou	-11746
Stal	-11747
trap	-11748
Basil	-11749
bread	-11750
conqu	-11751
Scotia	-11752
ballot	-11753
itious	-11754
prompt	-11755
proven	-11756
package	-11757
quantum	-11758
Johannes	-11759
journals	-11760
upgraded	-11761
Engineers	-11762
continent	-11763
naissance	-11764
synthesis	-11765
telephone	-11766
journalism	-11767
vironments	-11768
headquartered	-11769
2.0	-11770
Cyr	-11771
kel	-11772
suf	-11773
1850	-11774
adal	-11775
deen	-11776
rang	-11777
1981.	-11778
Danny	-11779
Idaho	-11780
Malta	-11781
Natal	-11782
aders	-11783
amine	-11784
cinem	-11785
igate	-11786
Canter	-11787
Number	-11788
Tennis	-11789
fossil	-11790
loaded	-11791
suspic	-11792
lateral	-11793
ophical	-11794
prosper	-11795
putting	-11796
adventure	-11797
volleyball	-11798
circulation	-11799
arrangements	-11800
manufacturers	-11801
Zo	-11802
Ecu	-11803
Gem	-11804
Rhy	-11805
eor	-11806
Cann	-11807
Liby	-11808
atha	-11809
bold	-11810
neys	-11811
orth	-11812
Dynam	-11813
Micro	-11814
Estate	-11815
Holmes	-11816
Orland	-11817
client	-11818
divers	-11819
varies	-11820
Simpson	-11821
centered	-11822
lectures	-11823
messages	-11824
Ferdinand	-11825
encourage	-11826
particles	-11827
practiced	-11828
commentary	-11829
curriculum	-11830
phenomenon	-11831
considering	-11832
155	-11833
2–0	-11834
(188	-11835
Bros	-11836
Peak	-11837
Roth	-11838
frog	-11839
Alpha	-11840
Zhang	-11841
ocent	-11842
ruins	-11843
arbitr	-11844
noting	-11845
Dynasty	-11846
burning	-11847
clients	-11848
theorem	-11849
varying	-11850
François	-11851
advocate	-11852
atchewan	-11853
Continent	-11854
celebrate	-11855
suggesting	-11856
Saskatchewan	-11857
intermediate	-11858
congressional	-11859
TR	-11860
166	-11861
App	-11862
(186	-11863
Left	-11864
Lisa	-11865
Take	-11866
beer	-11867
cane	-11868
prey	-11869
Nancy	-11870
Pomer	-11871
liver	-11872
rally	-11873
Canton	-11874
ashire	-11875
staged	-11876
promise	-11877
Examples	-11878
Napoleon	-11879
cylinder	-11880
populated	-11881
umberland	-11882
Lancashire	-11883
specialist	-11884
southeastern	-11885
administrator	-11886
Jor	-11887
appl	-11888
buck	-11889
oshi	-11890
push	-11891
spur	-11892
tebr	-11893
Bryan	-11894
Kenne	-11895
ocity	-11896
Marcus	-11897
farmer	-11898
seized	-11899
Nintend	-11900
clothes	-11901
marking	-11902
posthum	-11903
Bradford	-11904
database	-11905
properly	-11906
proceeded	-11907
relatives	-11908
Presbyterian	-11909
Parliamentary	-11910
HR	-11911
Lig	-11912
Rid	-11913
Tree	-11914
bred	-11915
epid	-11916
itus	-11917
uate	-11918
unve	-11919
Aires	-11920
delay	-11921
genes	-11922
insky	-11923
sweet	-11924
Julian	-11925
Luxemb	-11926
Complex	-11927
anticip	-11928
harvest	-11929
Facebook	-11930
Giovanni	-11931
Institut	-11932
Nintendo	-11933
striking	-11934
inguished	-11935
withdrawn	-11936
northwestern	-11937
southwestern	-11938
Fi	-11939
Lay	-11940
gae	-11941
bapt	-11942
gren	-11943
1962.	-11944
feels	-11945
pilots	-11946
prised	-11947
Albania	-11948
acceler	-11949
cleared	-11950
Edmonton	-11951
magnetic	-11952
syndrome	-11953
targeted	-11954
Princeton	-11955
workshops	-11956
personally	-11957
citizenship	-11958
inscription	-11959
acknowledged	-11960
presentation	-11961
GE	-11962
OR	-11963
Own	-11964
pic	-11965
rin	-11966
–17	-11967
Edge	-11968
Sene	-11969
VIII	-11970
bout	-11971
mans	-11972
bills	-11973
chore	-11974
holes	-11975
shrub	-11976
Buenos	-11977
Miguel	-11978
unions	-11979
advisor	-11980
diamond	-11981
feeding	-11982
rounded	-11983
strikes	-11984
welfare	-11985
atically	-11986
resource	-11987
performers	-11988
preservation	-11989
Ms	-11990
(13	-11991
Aur	-11992
Flo	-11993
Hub	-11994
Mom	-11995
uru	-11996
vae	-11997
Conn	-11998
Jung	-11999
Look	-12000
athi	-12001
bicy	-12002
erup	-12003
tech	-12004
1920,	-12005
Copen	-12006
Cuban	-12007
eding	-12008
joins	-12009
kings	-12010
ridor	-12011
Comedy	-12012
Events	-12013
finger	-12014
herent	-12015
prince	-12016
Ecuador	-12017
lecturer	-12018
opposing	-12019
ilitation	-12020
regardless	-12021
PlayStation	-12022
Republicans	-12023
statistical	-12024
governmental	-12025
configuration	-12026
-15	-12027
Dud	-12028
Muk	-12029
Saw	-12030
ocy	-12031
–12	-12032
100.	-12033
rape	-12034
Bears	-12035
Clare	-12036
Shore	-12037
Using	-12038
blues	-12039
curve	-12040
ieved	-12041
ilian	-12042
propr	-12043
airing	-12044
detect	-12045
compact	-12046
Stafford	-12047
chapters	-12048
rotation	-12049
Principal	-12050
gathering	-12051
virtually	-12052
renovation	-12053
.&	-12054
2),	-12055
Rum	-12056
chy	-12057
isi	-12058
lez	-12059
uba	-12060
Mine	-12061
borg	-12062
inas	-12063
coord	-12064
dying	-12065
ested	-12066
rehab	-12067
Bundes	-12068
achiev	-12069
brings	-12070
danger	-12071
deeply	-12072
Montene	-12073
pursued	-12074
tackles	-12075
trouble	-12076
deposits	-12077
governed	-12078
severely	-12079
Armstrong	-12080
engineers	-12081
Laboratory	-12082
environments	-12083
odd	-12084
tab	-12085
Memp	-12086
Rice	-12087
drag	-12088
1918,	-12089
1972.	-12090
Gener	-12091
ensen	-12092
penal	-12093
treas	-12094
Compan	-12095
Rovers	-12096
astics	-12097
declar	-12098
enable	-12099
icular	-12100
ritual	-12101
Amateur	-12102
bishops	-12103
hitting	-12104
publish	-12105
hometown	-12106
Episcopal	-12107
decreased	-12108
survivors	-12109
AI	-12110
ül	-12111
ici	-12112
...]	-12113
1898	-12114
Gael	-12115
boot	-12116
Ellis	-12117
Tampa	-12118
rogen	-12119
Fraser	-12120
boxing	-12121
rebels	-12122
Capitol	-12123
Memphis	-12124
creates	-12125
estates	-12126
recruit	-12127
Salvador	-12128
averaged	-12129
councill	-12130
customer	-12131
operators	-12132
societies	-12133
Copenhagen	-12134
Ern	-12135
Fis	-12136
Hey	-12137
Jag	-12138
eni	-12139
..."	-12140
Pall	-12141
apur	-12142
atra	-12143
blog	-12144
bulk	-12145
oque	-12146
tale	-12147
trig	-12148
Fifth	-12149
Glass	-12150
clergy	-12151
eating	-12152
prises	-12153
rapper	-12154
Artists	-12155
Warwick	-12156
analyst	-12157
colored	-12158
desired	-12159
predict	-12160
Santiago	-12161
izations	-12162
constantly	-12163
manufacture	-12164
territorial	-12165
Kö	-12166
mu	-12167
wy	-12168
Pie	-12169
(194	-12170
Barn	-12171
Glou	-12172
Morr	-12173
wore	-12174
ylum	-12175
(2010	-12176
Guide	-12177
antis	-12178
conce	-12179
igent	-12180
Brooks	-12181
Friend	-12182
Kazakh	-12183
easier	-12184
illing	-12185
towers	-12186
Crystal	-12187
distant	-12188
handled	-12189
Benedict	-12190
Nacional	-12191
absolute	-12192
collapsed	-12193
favourite	-12194
recognize	-12195
Canterbury	-12196
Presidential	-12197
northeastern	-12198
gie	-12199
1899	-12200
enne	-12201
verb	-12202
1969.	-12203
4,000	-12204
Eugene	-12205
Contest	-12206
Czechos	-12207
expelled	-12208
Agreement	-12209
Lithuania	-12210
interface	-12211
Constantin	-12212
Progressive	-12213
transported	-12214
174	-12215
Lon	-12216
haz	-12217
1948,	-12218
Blake	-12219
Hindi	-12220
iages	-12221
vinyl	-12222
Ronald	-12223
allied	-12224
apprent	-12225
fortune	-12226
disabled	-12227
Resources	-12228
furniture	-12229
investors	-12230
privately	-12231
Gloucester	-12232
inaugurated	-12233
automatically	-12234
Lex	-12235
apo	-12236
cio	-12237
lys	-12238
Cham	-12239
Core	-12240
Java	-12241
gary	-12242
soap	-12243
1958,	-12244
Break	-12245
Plaza	-12246
fatal	-12247
Stakes	-12248
Chapter	-12249
divorced	-12250
graduates	-12251
Czechoslov	-12252
Publishing	-12253
kilometres	-12254
remembered	-12255
psychological	-12256
Oz	-12257
hik	-12258
icia	-12259
metr	-12260
pump	-12261
wake	-12262
1957,	-12263
1965.	-12264
Basin	-12265
Lodge	-12266
Plate	-12267
Woods	-12268
ersed	-12269
hopes	-12270
Integr	-12271
floors	-12272
gotten	-12273
Located	-12274
Regular	-12275
explore	-12276
disputed	-12277
garrison	-12278
thematic	-12279
explosion	-12280
preparing	-12281
,”	-12282
PL	-12283
Tra	-12284
pac	-12285
Dong	-12286
1954,	-12287
accus	-12288
illes	-12289
trend	-12290
Course	-12291
Duncan	-12292
acular	-12293
locked	-12294
thrown	-12295
evident	-12296
restore	-12297
vertebr	-12298
theology	-12299
Recording	-12300
intendent	-12301
organisms	-12302
AFC	-12303
Cut	-12304
ahu	-12305
Body	-12306
essa	-12307
Quest	-12308
chard	-12309
ghost	-12310
Burton	-12311
absent	-12312
agrees	-12313
destro	-12314
layers	-12315
muscle	-12316
tender	-12317
Baronet	-12318
Orlando	-12319
temples	-12320
counters	-12321
Similarly	-12322
impressive	-12323
consequences	-12324
imprisonment	-12325
Distinguished	-12326
RB	-12327
SW	-12328
VC	-12329
är	-12330
evo	-12331
yar	-12332
Chal	-12333
Fact	-12334
fran	-12335
sten	-12336
volt	-12337
1949,	-12338
1950,	-12339
[...]	-12340
solve	-12341
vital	-12342
Canyon	-12343
Concer	-12344
define	-12345
rocket	-12346
Against	-12347
Chelsea	-12348
acquire	-12349
altered	-12350
locking	-12351
militia	-12352
Aircraft	-12353
Belgrade	-12354
Colonial	-12355
horizont	-12356
commanding	-12357
exploration	-12358
fortunately	-12359
Ek	-12360
NH	-12361
ān	-12362
101	-12363
:30	-12364
Dir	-12365
MLB	-12366
caf	-12367
Ruth	-12368
Vall	-12369
hect	-12370
tick	-12371
1944.	-12372
1961.	-12373
enetr	-12374
Connor	-12375
Leslie	-12376
aerial	-12377
cancel	-12378
mented	-12379
runway	-12380
Armenia	-12381
revenge	-12382
Kingston	-12383
flooding	-12384
survival	-12385
Relations	-12386
compounds	-12387
condemned	-12388
collecting	-12389
missionary	-12390
Hi	-12391
20-	-12392
Kad	-12393
Riv	-12394
iaz	-12395
zed	-12396
Crus	-12397
Emmy	-12398
Full	-12399
Pete	-12400
Tanz	-12401
aris	-12402
leep	-12403
Bever	-12404
Contr	-12405
Manit	-12406
itely	-12407
oming	-12408
Access	-12409
Desert	-12410
autumn	-12411
inches	-12412
mutual	-12413
pounds	-12414
testim	-12415
utical	-12416
blocked	-12417
iciency	-12418
moments	-12419
revived	-12420
torpedo	-12421
wickets	-12422
shoulder	-12423
ultimate	-12424
Cardinals	-12425
emigrated	-12426
Meh	-12427
Nuc	-12428
Gent	-12429
Kann	-12430
Wake	-12431
pier	-12432
Emily	-12433
Griff	-12434
ammun	-12435
etics	-12436
lobby	-12437
patch	-12438
retro	-12439
Double	-12440
Gerald	-12441
arguing	-12442
confirm	-12443
involve	-12444
rushing	-12445
Brussels	-12446
doctrine	-12447
algorithm	-12448
flowering	-12449
girlfriend	-12450
pronounced	-12451
neighbourhood	-12452
reconstruction	-12453
CIA	-12454
Coc	-12455
Num	-12456
eve	-12457
fis	-12458
oux	-12459
vig	-12460
(192	-12461
1500	-12462
Beau	-12463
Gene	-12464
Lucy	-12465
amal	-12466
knee	-12467
1917,	-12468
Bulld	-12469
Salem	-12470
Tiger	-12471
Veter	-12472
argue	-12473
dozen	-12474
encia	-12475
hoped	-12476
umped	-12477
Davies	-12478
Legend	-12479
reluct	-12480
salary	-12481
Calgary	-12482
Critics	-12483
Airlines	-12484
Reynolds	-12485
Insurance	-12486
Robertson	-12487
attraction	-12488
plantation	-12489
achievements	-12490
_1	-12491
xi	-12492
1,0	-12493
oct	-12494
usa	-12495
Clif	-12496
arra	-12497
chin	-12498
inda	-12499
1914,	-12500
1955,	-12501
1966.	-12502
Colin	-12503
Table	-12504
eness	-12505
grain	-12506
paras	-12507
ferred	-12508
iliary	-12509
Kenneth	-12510
healthy	-12511
Cornwall	-12512
presidency	-12513
compensation	-12514
transformation	-12515
Va	-12516
Deb	-12517
azi	-12518
ija	-12519
Folk	-12520
Wool	-12521
amic	-12522
onna	-12523
seal	-12524
(2007	-12525
Sabha	-12526
heter	-12527
iolet	-12528
olith	-12529
Guards	-12530
Others	-12531
Edition	-12532
Filipino	-12533
ensemble	-12534
reliable	-12535
introduce	-12536
measuring	-12537
ammunition	-12538
punishment	-12539
Westminster	-12540
conferences	-12541
necessarily	-12542
investigated	-12543
ilo	-12544
rie	-12545
AIDS	-12546
Dipl	-12547
Emma	-12548
Fest	-12549
Male	-12550
hung	-12551
kees	-12552
omes	-12553
oter	-12554
André	-12555
Apart	-12556
Ghost	-12557
codes	-12558
manor	-12559
osing	-12560
stadt	-12561
agonal	-12562
facade	-12563
Windsor	-12564
iblings	-12565
watched	-12566
Somerset	-12567
Warriors	-12568
confused	-12569
protocol	-12570
favorable	-12571
inclusion	-12572
Aboriginal	-12573
questioned	-12574
disappeared	-12575
mathematical	-12576
Ced	-12577
Smo	-12578
iza	-12579
omy	-12580
zes	-12581
100,	-12582
Cert	-12583
Chad	-12584
calc	-12585
oxid	-12586
Lords	-12587
Mahar	-12588
Relig	-12589
Sugar	-12590
clerk	-12591
knows	-12592
upset	-12593
Rachel	-12594
powder	-12595
acclaim	-12596
interim	-12597
terrain	-12598
testers	-12599
Planning	-12600
mentions	-12601
occurring	-12602
twentieth	-12603
delegation	-12604
relegation	-12605
conversation	-12606
GC	-12607
dé	-12608
Bis	-12609
]],	-12610
fro	-12611
gly	-12612
rav	-12613
Palm	-12614
Reid	-12615
Stru	-12616
beck	-12617
fees	-12618
Being	-12619
Glenn	-12620
Jesse	-12621
Metal	-12622
chord	-12623
oting	-12624
swing	-12625
sword	-12626
zones	-12627
precip	-12628
Arsenal	-12629
advised	-12630
batting	-12631
shallow	-12632
utility	-12633
Highland	-12634
Interior	-12635
organize	-12636
nicknamed	-12637
monitoring	-12638
remarkable	-12639
unexpected	-12640
interactions	-12641
KA	-12642
TT	-12643
115	-12644
Ana	-12645
Cly	-12646
Hod	-12647
Kre	-12648
icz	-12649
iol	-12650
Hull	-12651
Oslo	-12652
Shin	-12653
rush	-12654
Pharm	-12655
Study	-12656
farms	-12657
hears	-12658
juven	-12659
Single	-12660
Travel	-12661
frustr	-12662
learns	-12663
quoted	-12664
reject	-12665
voyage	-12666
surfaces	-12667
supporter	-12668
Liberation	-12669
aggressive	-12670
criticised	-12671
probability	-12672
wo	-12673
ww	-12674
Lun	-12675
Rut	-12676
Sit	-12677
hav	-12678
–10	-12679
Bhar	-12680
Doug	-12681
Rush	-12682
Trin	-12683
Walk	-12684
esar	-12685
fier	-12686
herd	-12687
tong	-12688
1919,	-12689
Heath	-12690
Rhine	-12691
array	-12692
artet	-12693
artif	-12694
fract	-12695
loved	-12696
guided	-12697
tribal	-12698
usters	-12699
talking	-12700
warfare	-12701
Fernando	-12702
payments	-12703
intensity	-12704
storyline	-12705
Indigenous	-12706
Portsmouth	-12707
creational	-12708
developers	-12709
homosexual	-12710
withdrawal	-12711
Continental	-12712
consideration	-12713
173	-12714
Nun	-12715
Cord	-12716
ESPN	-12717
tent	-12718
1937,	-12719
Chase	-12720
antib	-12721
aside	-12722
botan	-12723
fried	-12724
Gregor	-12725
riders	-12726
wonder	-12727
fluence	-12728
Advisory	-12729
embarked	-12730
massacre	-12731
vicinity	-12732
visional	-12733
reservoir	-12734
nineteenth	-12735
consequence	-12736
SL	-12737
uy	-12738
Eve	-12739
aji	-12740
eno	-12741
Bagh	-12742
Patt	-12743
airy	-12744
amba	-12745
ilda	-12746
wash	-12747
Brien	-12748
bones	-12749
esian	-12750
logic	-12751
omber	-12752
rosse	-12753
smith	-12754
Cambod	-12755
Gibson	-12756
Surrey	-12757
manual	-12758
solely	-12759
usions	-12760
algebra	-12761
stepped	-12762
suburbs	-12763
Software	-12764
harmonic	-12765
wildlife	-12766
workshop	-12767
Amendment	-12768
stability	-12769
autonomous	-12770
helicopter	-12771
Legislature	-12772
observations	-12773
Eye	-12774
Fan	-12775
Tus	-12776
aja	-12777
dad	-12778
ims	-12779
www	-12780
Duck	-12781
Kang	-12782
Pine	-12783
fing	-12784
laps	-12785
unda	-12786
1939.	-12787
1959,	-12788
aneous	-12789
defect	-12790
genres	-12791
harass	-12792
Middles	-12793
colonel	-12794
sailing	-12795
McDonald	-12796
Tropical	-12797
entertain	-12798
occasional	-12799
competitors	-12800
WB	-12801
él	-12802
158	-12803
Lic	-12804
Ply	-12805
eag	-12806
erg	-12807
addy	-12808
chez	-12809
subs	-12810
1956.	-12811
Cecil	-12812
Movie	-12813
altar	-12814
alumin	-12815
manuel	-12816
valued	-12817
Actress	-12818
dismiss	-12819
entries	-12820
bacteria	-12821
landscap	-12822
siblings	-12823
Antarctic	-12824
allocated	-12825
hurricane	-12826
substance	-12827
orientation	-12828
DF	-12829
1),	-12830
3),	-12831
ATP	-12832
Ein	-12833
Led	-12834
Liv	-12835
Rag	-12836
Shi	-12837
Teh	-12838
uda	-12839
1897	-12840
Heat	-12841
Petr	-12842
asan	-12843
atem	-12844
bled	-12845
brow	-12846
tens	-12847
1958.	-12848
berto	-12849
icals	-12850
stair	-12851
thood	-12852
Cancer	-12853
Gospel	-12854
Porter	-12855
lineup	-12856
prayer	-12857
sacred	-12858
Speaker	-12859
hosting	-12860
lighted	-12861
landmark	-12862
velocity	-12863
developer	-12864
incidents	-12865
socialist	-12866
committees	-12867
certificate	-12868
$1	-12869
ño	-12870
NSW	-12871
oye	-12872
–13	-12873
1902	-12874
Pere	-12875
hide	-12876
hook	-12877
shan	-12878
1947,	-12879
Belle	-12880
burst	-12881
Editor	-12882
Fergus	-12883
alions	-12884
hamlet	-12885
streak	-12886
Machine	-12887
atories	-12888
crucial	-12889
Aberdeen	-12890
Lutheran	-12891
alphabet	-12892
estimate	-12893
examined	-12894
habitats	-12895
receptor	-12896
tourists	-12897
Macedonia	-12898
anthropol	-12899
comprised	-12900
Exhibition	-12901
Luxembourg	-12902
Philosophy	-12903
conspiracy	-12904
capabilities	-12905
fs	-12906
awi	-12907
Anal	-12908
Flow	-12909
Sham	-12910
lean	-12911
rode	-12912
terr	-12913
1948.	-12914
1953,	-12915
1960.	-12916
Hydro	-12917
Saxon	-12918
Spect	-12919
dimin	-12920
etary	-12921
smart	-12922
Shadow	-12923
devast	-12924
paying	-12925
auction	-12926
itative	-12927
mansion	-12928
pianist	-12929
absorbed	-12930
confront	-12931
integral	-12932
keyboard	-12933
spective	-12934
suburban	-12935
aftermath	-12936
conceived	-12937
discipline	-12938
mysterious	-12939
Subsequently	-12940
considerably	-12941
FK	-12942
SF	-12943
Lap	-12944
Rib	-12945
Tin	-12946
–20	-12947
1940.	-12948
Faith	-12949
Innov	-12950
Rabbi	-12951
Rosen	-12952
Steam	-12953
badly	-12954
boost	-12955
marsh	-12956
subor	-12957
zegov	-12958
Harper	-12959
Belfast	-12960
repairs	-12961
romance	-12962
sembles	-12963
servant	-12964
stretch	-12965
Americas	-12966
spectrum	-12967
stronger	-12968
Henderson	-12969
pollution	-12970
scattered	-12971
discussions	-12972
interviewed	-12973
IB	-12974
Bio	-12975
Ety	-12976
ete	-12977
imo	-12978
Duch	-12979
Nadu	-12980
Sons	-12981
Twin	-12982
clam	-12983
kiss	-12984
Actor	-12985
Birth	-12986
Chess	-12987
moist	-12988
Contin	-12989
Ludwig	-12990
Wagner	-12991
ateral	-12992
decree	-12993
exempt	-12994
genera	-12995
iative	-12996
mosque	-12997
Victory	-12998
beneath	-12999
noticed	-13000
rivalry	-13001
Brighton	-13002
astronom	-13003
eighteen	-13004
rendered	-13005
Electoral	-13006
confusion	-13007
consumers	-13008
struggled	-13009
varieties	-13010
theoretical	-13011
accomplished	-13012
Ci	-13013
UT	-13014
dar	-13015
pig	-13016
arta	-13017
inge	-13018
1950.	-13019
Notre	-13020
mills	-13021
sured	-13022
Angels	-13023
Geneva	-13024
Indoor	-13025
Milton	-13026
larvae	-13027
trophy	-13028
Estonia	-13029
abbrevi	-13030
consent	-13031
Herzegov	-13032
ancestry	-13033
teammate	-13034
Coalition	-13035
Constitut	-13036
Directors	-13037
diagnosed	-13038
merchants	-13039
mechanisms	-13040
prohibited	-13041
undertaken	-13042
vulnerable	-13043
OC	-13044
80%	-13045
Das	-13046
Lum	-13047
Ned	-13048
Spl	-13049
alt	-13050
omo	-13051
pyr	-13052
Bark	-13053
Bras	-13054
Brom	-13055
buff	-13056
olin	-13057
sacr	-13058
slot	-13059
ylon	-13060
Jiang	-13061
Neill	-13062
Cathol	-13063
chorus	-13064
constr	-13065
notion	-13066
slopes	-13067
Preston	-13068
Prussia	-13069
thermal	-13070
Jennifer	-13071
endorsed	-13072
thorough	-13073
Wednesday	-13074
magnitude	-13075
preceding	-13076
sculptures	-13077
distinguish	-13078
vy	-13079
Leop	-13080
iffe	-13081
uted	-13082
1946.	-13083
Johns	-13084
adopt	-13085
owing	-13086
ennium	-13087
marble	-13088
jointly	-13089
lessons	-13090
nominee	-13091
adoption	-13092
membrane	-13093
wrestler	-13094
estimates	-13095
gastropod	-13096
libraries	-13097
dimensions	-13098
facilitate	-13099
Institution	-13100
Springfield	-13101
promotional	-13102
Headquarters	-13103
investigations	-13104
SV	-13105
Uz	-13106
cc	-13107
18-	-13108
Bru	-13109
Why	-13110
agi	-13111
sul	-13112
Comb	-13113
Emir	-13114
Kids	-13115
bits	-13116
gods	-13117
Ellen	-13118
Exper	-13119
Rocky	-13120
Solar	-13121
oline	-13122
rises	-13123
Apollo	-13124
Baltic	-13125
Impact	-13126
posing	-13127
rhythm	-13128
Bradley	-13129
depends	-13130
Prussian	-13131
basement	-13132
indirect	-13133
Classical	-13134
acclaimed	-13135
advocated	-13136
Additional	-13137
Fellowship	-13138
explanation	-13139
sustainable	-13140
Administrative	-13141
Gav	-13142
Neu	-13143
Raz	-13144
oly	-13145
1895	-13146
Dere	-13147
Drum	-13148
NATO	-13149
bibl	-13150
crus	-13151
1963.	-13152
Miles	-13153
drives	-13154
happen	-13155
Physics	-13156
crowned	-13157
Catholics	-13158
renovated	-13159
calculated	-13160
instructions	-13161
Um	-13162
ITV	-13163
Ley	-13164
rug	-13165
1893	-13166
Cell	-13167
Cler	-13168
Dock	-13169
Gymn	-13170
Josh	-13171
Lyon	-13172
oner	-13173
sits	-13174
vibr	-13175
(2004	-13176
1942.	-13177
Clear	-13178
Estab	-13179
Julia	-13180
ceded	-13181
oding	-13182
sweep	-13183
walks	-13184
ammals	-13185
bureau	-13186
itudes	-13187
photos	-13188
Teacher	-13189
bassist	-13190
harbour	-13191
stanbul	-13192
Buddhism	-13193
Literary	-13194
Seminary	-13195
unveiled	-13196
proposals	-13197
vegetation	-13198
protagonist	-13199
$1.	-13200
Att	-13201
abi	-13202
hex	-13203
jin	-13204
fate	-13205
lore	-13206
mish	-13207
orer	-13208
1933,	-13209
6,000	-13210
Mater	-13211
Pract	-13212
idays	-13213
ightw	-13214
olate	-13215
rings	-13216
trips	-13217
Animal	-13218
Jeremy	-13219
Julius	-13220
atever	-13221
brands	-13222
scorer	-13223
Founded	-13224
Criminal	-13225
clesiast	-13226
watching	-13227
mythology	-13228
underlying	-13229
elimination	-13230
Ya	-13231
Meg	-13232
aru	-13233
Knox	-13234
Lynn	-13235
Phas	-13236
appa	-13237
elia	-13238
1941.	-13239
1943.	-13240
Devil	-13241
Index	-13242
Julie	-13243
cloud	-13244
Forbes	-13245
Inside	-13246
enlarg	-13247
Dorothy	-13248
Episode	-13249
Harbour	-13250
ameters	-13251
nursing	-13252
shorten	-13253
tornado	-13254
peninsula	-13255
Richardson	-13256
architects	-13257
hypothesis	-13258
instructor	-13259
proclaimed	-13260
screenplay	-13261
subspecies	-13262
CT	-13263
MW	-13264
350	-13265
ogo	-13266
Come	-13267
Half	-13268
Hass	-13269
Shim	-13270
USSR	-13271
arel	-13272
bery	-13273
bund	-13274
cere	-13275
remn	-13276
1929,	-13277
Gradu	-13278
Marin	-13279
boxes	-13280
brill	-13281
icans	-13282
robot	-13283
taste	-13284
Contro	-13285
Kosovo	-13286
alumni	-13287
ancers	-13288
dancer	-13289
istocr	-13290
locals	-13291
tables	-13292
itorium	-13293
deterior	-13294
settings	-13295
Controvers	-13296
Blo	-13297
rud	-13298
sho	-13299
1896	-13300
True	-13301
ifax	-13302
oyle	-13303
unct	-13304
1935,	-13305
illon	-13306
spite	-13307
Adrian	-13308
Easter	-13309
Excell	-13310
Spider	-13311
borrow	-13312
fights	-13313
heroes	-13314
penetr	-13315
ulsion	-13316
Working	-13317
pension	-13318
referee	-13319
starter	-13320
Morrison	-13321
invested	-13322
depicting	-13323
proximity	-13324
physically	-13325
Herzegovina	-13326
comfortable	-13327
nationalist	-13328
ei	-13329
105	-13330
Cul	-13331
IBM	-13332
Kra	-13333
Loy	-13334
Rhe	-13335
Sym	-13336
uku	-13337
Tues	-13338
iman	-13339
obsc	-13340
orch	-13341
1951,	-13342
Somet	-13343
humid	-13344
iffin	-13345
tward	-13346
Harmon	-13347
Shield	-13348
arians	-13349
hotels	-13350
inland	-13351
rulers	-13352
Charter	-13353
Mercury	-13354
Sisters	-13355
bombard	-13356
dressed	-13357
insects	-13358
loading	-13359
Caroline	-13360
Elections	-13361
Lancaster	-13362
limestone	-13363
terrorist	-13364
Depression	-13365
invitation	-13366
semifinals	-13367
rectangular	-13368
Et	-13369
IX	-13370
LL	-13371
NZ	-13372
Vat	-13373
Vij	-13374
zel	-13375
Self	-13376
Shen	-13377
engu	-13378
ints	-13379
pipe	-13380
1938,	-13381
Neigh	-13382
Tyler	-13383
balls	-13384
Naples	-13385
asters	-13386
iating	-13387
tenham	-13388
wheels	-13389
Grammar	-13390
centric	-13391
interse	-13392
kitchen	-13393
abortion	-13394
managers	-13395
prompted	-13396
sculptor	-13397
throwing	-13398
Frankfurt	-13399
legendary	-13400
naturally	-13401
interrupted	-13402
introducing	-13403
Constitutional	-13404
%.	-13405
Ec	-13406
-21	-13407
31.	-13408
Arc	-13409
Fay	-13410
Ish	-13411
Sed	-13412
Wen	-13413
aws	-13414
Erik	-13415
Kiss	-13416
Than	-13417
cosy	-13418
etta	-13419
navy	-13420
(2009	-13421
Aleks	-13422
María	-13423
Moses	-13424
Smart	-13425
bolic	-13426
stint	-13427
woods	-13428
Andrea	-13429
armies	-13430
dinner	-13431
escort	-13432
finale	-13433
finity	-13434
hanced	-13435
preval	-13436
submit	-13437
warned	-13438
wicket	-13439
Bedford	-13440
premises	-13441
Etymology	-13442
athletics	-13443
Eurovision	-13444
researcher	-13445
successive	-13446
supervision	-13447
continuously	-13448
:#	-13449
Fé	-13450
ør	-13451
Pok	-13452
cig	-13453
hey	-13454
quin	-13455
tang	-13456
(2011	-13457
Baden	-13458
agger	-13459
eling	-13460
ilion	-13461
mobil	-13462
scrib	-13463
smoke	-13464
trium	-13465
Claude	-13466
abling	-13467
dorsal	-13468
poorly	-13469
Halifax	-13470
Stephan	-13471
equally	-13472
tactics	-13473
Maritime	-13474
Mohammad	-13475
Swimming	-13476
attribut	-13477
commerce	-13478
maternal	-13479
batteries	-13480
companion	-13481
presenter	-13482
qualities	-13483
advantages	-13484
directions	-13485
innovative	-13486
grandmother	-13487
threatening	-13488
consistently	-13489
TD	-13490
oak	-13491
omi	-13492
oya	-13493
anes	-13494
assy	-13495
enic	-13496
lady	-13497
1930,	-13498
Cohen	-13499
Feder	-13500
Ferry	-13501
Match	-13502
Month	-13503
Scots	-13504
Thurs	-13505
bombs	-13506
monks	-13507
Bailey	-13508
Curtis	-13509
cycles	-13510
reader	-13511
rifice	-13512
cameras	-13513
pursuit	-13514
symbols	-13515
memories	-13516
performs	-13517
removing	-13518
composers	-13519
subfamily	-13520
automobile	-13521
unsuccessfully	-13522
Pé	-13523
(0.	-13524
jug	-13525
(185	-13526
Bend	-13527
Vick	-13528
beds	-13529
dome	-13530
idan	-13531
lion	-13532
phyl	-13533
(2013	-13534
Berry	-13535
Chuck	-13536
Karen	-13537
Marco	-13538
Parad	-13539
anmar	-13540
climb	-13541
creek	-13542
retre	-13543
tolog	-13544
tooth	-13545
Anders	-13546
Combat	-13547
Female	-13548
Ladies	-13549
Settle	-13550
circul	-13551
crafts	-13552
chromos	-13553
accuracy	-13554
attitude	-13555
performer	-13556
portraits	-13557
predicted	-13558
undertook	-13559
constituted	-13560
surrendered	-13561
9/	-13562
Iz	-13563
Dee	-13564
Jas	-13565
Lub	-13566
Ves	-13567
sab	-13568
Dart	-13569
Sind	-13570
Suff	-13571
arre	-13572
bern	-13573
esty	-13574
1947.	-13575
atoes	-13576
cabin	-13577
icism	-13578
parad	-13579
saint	-13580
scout	-13581
Browns	-13582
engers	-13583
sphere	-13584
summar	-13585
Doubles	-13586
Various	-13587
ceiling	-13588
consort	-13589
induced	-13590
unclear	-13591
Manitoba	-13592
Newfound	-13593
interven	-13594
sanction	-13595
volcanic	-13596
Sebastian	-13597
considers	-13598
ighthouse	-13599
irregular	-13600
streaming	-13601
Providence	-13602
prominence	-13603
0–	-13604
GO	-13605
Fut	-13606
Lah	-13607
Lav	-13608
(184	-13609
1830	-13610
Berk	-13611
Moss	-13612
eted	-13613
nian	-13614
ylan	-13615
Globe	-13616
apest	-13617
crest	-13618
heric	-13619
inned	-13620
iston	-13621
shaft	-13622
weigh	-13623
Change	-13624
Screen	-13625
acking	-13626
dollar	-13627
parade	-13628
presum	-13629
Wyoming	-13630
cluster	-13631
customs	-13632
feather	-13633
knowing	-13634
Estonian	-13635
Plymouth	-13636
sporting	-13637
achieving	-13638
separately	-13639
Newfoundland	-13640
clesiastical	-13641
Inv	-13642
Voc	-13643
hra	-13644
Hero	-13645
Sard	-13646
Wick	-13647
mask	-13648
ocks	-13649
Haven	-13650
asium	-13651
nurse	-13652
phant	-13653
Guatem	-13654
Myster	-13655
Santos	-13656
Summit	-13657
Thames	-13658
Ulster	-13659
diving	-13660
ifiers	-13661
ingred	-13662
nights	-13663
rookie	-13664
themed	-13665
Clement	-13666
cements	-13667
formats	-13668
mammals	-13669
flagship	-13670
proceeds	-13671
directing	-13672
disorders	-13673
responses	-13674
Alexandria	-13675
manuscripts	-13676
measurement	-13677
Dj	-13678
iu	-13679
Dre	-13680
1840	-13681
1885	-13682
Pent	-13683
Scor	-13684
betr	-13685
okes	-13686
(2005	-13687
1912,	-13688
Allan	-13689
opens	-13690
raids	-13691
slide	-13692
Batter	-13693
Online	-13694
berger	-13695
breath	-13696
bullet	-13697
codice	-13698
itated	-13699
Andrews	-13700
Tourism	-13701
flowing	-13702
murders	-13703
mystery	-13704
Learning	-13705
deceased	-13706
exhibits	-13707
idelines	-13708
resolved	-13709
correctly	-13710
recurring	-13711
contracted	-13712
innovation	-13713
presenting	-13714
proceedings	-13715
')	-13716
Dw	-13717
Ip	-13718
än	-13719
-13	-13720
Bin	-13721
Pick	-13722
brit	-13723
kers	-13724
lith	-13725
nels	-13726
1936,	-13727
Holoc	-13728
Lynch	-13729
Pione	-13730
cream	-13731
medic	-13732
lesser	-13733
Housing	-13734
Yankees	-13735
estrian	-13736
Universe	-13737
aristocr	-13738
explored	-13739
criptions	-13740
eliminate	-13741
complaints	-13742
protesters	-13743
BP	-13744
MG	-13745
Laf	-13746
blo	-13747
elo	-13748
fet	-13749
lau	-13750
Bash	-13751
Hood	-13752
Spot	-13753
Walt	-13754
Zion	-13755
asis	-13756
engr	-13757
krit	-13758
uchi	-13759
1934,	-13760
Crist	-13761
Malay	-13762
acute	-13763
arose	-13764
enary	-13765
gates	-13766
lette	-13767
resur	-13768
riots	-13769
trace	-13770
Boeing	-13771
Marion	-13772
Sicily	-13773
crater	-13774
sement	-13775
speeds	-13776
Myanmar	-13777
expense	-13778
fulfill	-13779
knocked	-13780
leather	-13781
postpon	-13782
Bulldogs	-13783
comedian	-13784
millions	-13785
Discovery	-13786
Structure	-13787
arguments	-13788
acceptable	-13789
attractive	-13790
assassination	-13791
3/	-13792
Kw	-13793
Lé	-13794
3.5	-13795
McL	-13796
Sag	-13797
Wid	-13798
Hoff	-13799
Parr	-13800
ardi	-13801
bowl	-13802
laus	-13803
spar	-13804
toire	-13805
Bolton	-13806
killer	-13807
mantle	-13808
metall	-13809
Carroll	-13810
persist	-13811
rescued	-13812
Griffith	-13813
Slovenia	-13814
Theodore	-13815
marketed	-13816
Associate	-13817
Emergency	-13818
Inspector	-13819
Rochester	-13820
lifestyle	-13821
Paralympics	-13822
Statistical	-13823
politically	-13824
Mā	-13825
Mud	-13826
WWE	-13827
akk	-13828
nun	-13829
1889	-13830
disk	-13831
halt	-13832
kids	-13833
tral	-13834
Bohem	-13835
Merit	-13836
Paper	-13837
humor	-13838
NASCAR	-13839
Volume	-13840
Wesley	-13841
stabil	-13842
chaired	-13843
editing	-13844
illance	-13845
staying	-13846
Manufact	-13847
Religion	-13848
disputes	-13849
veterans	-13850
regulated	-13851
satisfied	-13852
witnesses	-13853
Charleston	-13854
accidentally	-13855
"—	-13856
108	-13857
7),	-13858
Oct	-13859
afa	-13860
pav	-13861
Copa	-13862
Crom	-13863
diss	-13864
epic	-13865
jung	-13866
1927,	-13867
8,000	-13868
Nikol	-13869
Store	-13870
boxer	-13871
enorm	-13872
inery	-13873
Colony	-13874
Effect	-13875
Gibral	-13876
Marcel	-13877
pastor	-13878
static	-13879
Outside	-13880
attract	-13881
catalog	-13882
outlets	-13883
drainage	-13884
feminist	-13885
regiments	-13886
Individual	-13887
healthcare	-13888
commissioner	-13889
consciousness	-13890
neighborhoods	-13891
Constantinople	-13892
yu	-13893
Viv	-13894
epi	-13895
isn	-13896
Chry	-13897
Pale	-13898
Pret	-13899
akov	-13900
hire	-13901
ingo	-13902
isha	-13903
1951.	-13904
Cairo	-13905
Edgar	-13906
Ernst	-13907
Plain	-13908
leman	-13909
suits	-13910
Herman	-13911
Monroe	-13912
fiscal	-13913
luxury	-13914
plural	-13915
speaks	-13916
wishes	-13917
Nuclear	-13918
Picture	-13919
lengths	-13920
lifting	-13921
refuses	-13922
Constitu	-13923
Monument	-13924
climbing	-13925
diplomat	-13926
novelist	-13927
priority	-13928
thriller	-13929
copyright	-13930
substitut	-13931
variables	-13932
Generation	-13933
Industries	-13934
ologically	-13935
Agricultural	-13936
360	-13937
Jal	-13938
Jet	-13939
Pam	-13940
dun	-13941
sax	-13942
Hale	-13943
Kyle	-13944
Laur	-13945
Mort	-13946
omed	-13947
pend	-13948
pray	-13949
1953.	-13950
Alleg	-13951
Level	-13952
Nixon	-13953
fault	-13954
lanes	-13955
lyric	-13956
motif	-13957
mount	-13958
tuber	-13959
Beyond	-13960
Martha	-13961
Mongol	-13962
batted	-13963
canton	-13964
purple	-13965
roller	-13966
scales	-13967
Congreg	-13968
Cornell	-13969
Madagas	-13970
Sheriff	-13971
optical	-13972
portfol	-13973
Richards	-13974
imported	-13975
restrial	-13976
volution	-13977
Gibraltar	-13978
donations	-13979
possessed	-13980
endangered	-13981
propaganda	-13982
recreational	-13983
responsibilities	-13984
-6	-13985
Ae	-13986
SK	-13987
156	-13988
Hul	-13989
Jake	-13990
arth	-13991
colm	-13992
garn	-13993
otyp	-13994
pull	-13995
tune	-13996
Rever	-13997
fiber	-13998
haven	-13999
hurst	-14000
paths	-14001
Falcon	-14002
apolog	-14003
tradem	-14004
ulates	-14005
verage	-14006
Chennai	-14007
charted	-14008
depicts	-14009
museums	-14010
Nigerian	-14011
Churchill	-14012
elaborate	-14013
enrollment	-14014
formations	-14015
highlighted	-14016
philanthrop	-14017
Publications	-14018
DM	-14019
wi	-14020
1–1	-14021
30-	-14022
hof	-14023
tan	-14024
Hern	-14025
Yuan	-14026
ambo	-14027
1959.	-14028
Adult	-14029
Linda	-14030
Minne	-14031
Money	-14032
sided	-14033
skull	-14034
tobac	-14035
wives	-14036
Arctic	-14037
Batman	-14038
Gandhi	-14039
advent	-14040
methyl	-14041
Baldwin	-14042
Hopkins	-14043
Malcolm	-14044
cruiser	-14045
marines	-14046
upgrade	-14047
Ethiopia	-14048
Lebanese	-14049
Patriots	-14050
entities	-14051
ornament	-14052
Southwest	-14053
factories	-14054
monuments	-14055
Leadership	-14056
apartments	-14057
navigation	-14058
organizing	-14059
declaration	-14060
uj	-14061
15-	-14062
4),	-14063
40.	-14064
Ard	-14065
Nad	-14066
Pse	-14067
Suc	-14068
bye	-14069
cav	-14070
Anto	-14071
Carp	-14072
Jour	-14073
Task	-14074
hart	-14075
orus	-14076
otta	-14077
zens	-14078
1949.	-14079
amped	-14080
ariat	-14081
shirt	-14082
Gaelic	-14083
Paragu	-14084
Romans	-14085
Theory	-14086
Wolver	-14087
buying	-14088
discus	-14089
saving	-14090
Budapest	-14091
Slovakia	-14092
Volunteer	-14093
Louisville	-14094
NJ	-14095
FCC	-14096
Ing	-14097
Lif	-14098
Sik	-14099
Tah	-14100
Wei	-14101
Yet	-14102
iba	-14103
Hugo	-14104
Infr	-14105
atum	-14106
dorf	-14107
item	-14108
oves	-14109
(2006	-14110
(2008	-14111
1918.	-14112
1955.	-14113
1957.	-14114
2010–	-14115
Nobel	-14116
Papua	-14117
Scand	-14118
Silva	-14119
airie	-14120
assis	-14121
depot	-14122
negie	-14123
poets	-14124
Buddha	-14125
Poetry	-14126
filter	-14127
folded	-14128
fruits	-14129
irical	-14130
leased	-14131
Algeria	-14132
Beatles	-14133
dispers	-14134
spelled	-14135
narrowly	-14136
Chronicle	-14137
fragments	-14138
intercept	-14139
9-	-14140
Caf	-14141
Gos	-14142
Kot	-14143
igi	-14144
ogg	-14145
Find	-14146
Hank	-14147
Marl	-14148
Mile	-14149
Vish	-14150
asia	-14151
carp	-14152
elyn	-14153
neum	-14154
pard	-14155
1922,	-14156
Cloud	-14157
Yemen	-14158
lover	-14159
Darwin	-14160
Planet	-14161
backup	-14162
igrant	-14163
mentor	-14164
storms	-14165
enacted	-14166
Carnegie	-14167
Physical	-14168
Speedway	-14169
convince	-14170
reunited	-14171
certainly	-14172
cognitive	-14173
obtaining	-14174
partnered	-14175
initiatives	-14176
recommendations	-14177
eb	-14178
Edu	-14179
Tap	-14180
lod	-14181
1892	-14182
Ling	-14183
Lomb	-14184
UCLA	-14185
brut	-14186
tran	-14187
Carlo	-14188
Gates	-14189
Qatar	-14190
cartr	-14191
oxide	-14192
Bronze	-14193
Claire	-14194
Direct	-14195
openly	-14196
vacant	-14197
Kashmir	-14198
Sources	-14199
graphed	-14200
Istanbul	-14201
Sanskrit	-14202
delegates	-14203
violation	-14204
Madagascar	-14205
activation	-14206
motorcycle	-14207
Educational	-14208
availability	-14209
overwhelming	-14210
correspondence	-14211
BB	-14212
Chu	-14213
apa	-14214
Cele	-14215
Mail	-14216
Rosa	-14217
Tren	-14218
anan	-14219
bike	-14220
dust	-14221
esia	-14222
gray	-14223
midt	-14224
sunk	-14225
wald	-14226
xide	-14227
1921,	-14228
Dubai	-14229
Manor	-14230
cloth	-14231
drunk	-14232
foods	-14233
ilogy	-14234
oping	-14235
urged	-14236
wheat	-14237
worse	-14238
Ballet	-14239
Stalin	-14240
Wander	-14241
kinson	-14242
lifted	-14243
voices	-14244
Georges	-14245
Weather	-14246
happens	-14247
Progress	-14248
parishes	-14249
republic	-14250
specimen	-14251
Testament	-14252
deployment	-14253
enterprise	-14254
constituencies	-14255
('	-14256
DD	-14257
NI	-14258
cue	-14259
esa	-14260
loo	-14261
nem	-14262
Raja	-14263
Talk	-14264
amas	-14265
apor	-14266
hull	-14267
penn	-14268
quez	-14269
1,500	-14270
Lines	-14271
bonds	-14272
cises	-14273
decis	-14274
draws	-14275
ecosy	-14276
newer	-14277
Marian	-14278
essays	-14279
ativity	-14280
categor	-14281
offense	-14282
pottery	-14283
sectors	-14284
dynamics	-14285
marginal	-14286
overcome	-14287
invention	-14288
ceremonies	-14289
extraordinary	-14290
professionally	-14291
1).	-14292
159	-14293
5),	-14294
Lal	-14295
Pab	-14296
Yun	-14297
sod	-14298
viv	-14299
Cool	-14300
Lamb	-14301
Slam	-14302
adds	-14303
arin	-14304
azar	-14305
bard	-14306
flee	-14307
heng	-14308
hima	-14309
isch	-14310
Adolf	-14311
Civic	-14312
astro	-14313
brack	-14314
honey	-14315
rical	-14316
truly	-14317
tures	-14318
Bombay	-14319
Chiefs	-14320
Dayton	-14321
Strong	-14322
labels	-14323
tackle	-14324
Appeals	-14325
Process	-14326
custody	-14327
hanging	-14328
masters	-14329
outcome	-14330
spotted	-14331
Counties	-14332
Crawford	-14333
Document	-14334
equality	-14335
longtime	-14336
reflects	-14337
screened	-14338
Character	-14339
cological	-14340
inception	-14341
Associated	-14342
compatible	-14343
horizontal	-14344
Alternative	-14345
Northampton	-14346
abbreviated	-14347
24-	-14348
Kend	-14349
Moor	-14350
chim	-14351
insk	-14352
ipel	-14353
noun	-14354
rano	-14355
Guest	-14356
Worth	-14357
artic	-14358
dealt	-14359
illed	-14360
sitcom	-14361
Empress	-14362
Normand	-14363
Winnipe	-14364
circles	-14365
tension	-14366
Johnston	-14367
Marriage	-14368
abstract	-14369
contacts	-14370
detected	-14371
anthology	-14372
respected	-14373
geographic	-14374
Mathematics	-14375
controlling	-14376
geographical	-14377
interference	-14378
],	-14379
Bug	-14380
Esc	-14381
MIT	-14382
Yuk	-14383
Zhu	-14384
twe	-14385
100%	-14386
Kurt	-14387
enza	-14388
ilee	-14389
oons	-14390
vern	-14391
Annie	-14392
Drake	-14393
Reven	-14394
Syrac	-14395
Truth	-14396
cliff	-14397
crews	-14398
harsh	-14399
iates	-14400
kinds	-14401
loans	-14402
ogist	-14403
Butter	-14404
ballet	-14405
omorph	-14406
rubber	-14407
Janeiro	-14408
Uruguay	-14409
defunct	-14410
villain	-14411
Winnipeg	-14412
advisory	-14413
particle	-14414
provider	-14415
reviewer	-14416
sacrifice	-14417
specially	-14418
testimony	-14419
capability	-14420
strategies	-14421
coordinator	-14422
transmitter	-14423
1"	-14424
!",	-14425
Dry	-14426
Pyr	-14427
Carn	-14428
ESCO	-14429
Glac	-14430
Hang	-14431
Hiro	-14432
Rene	-14433
Trev	-14434
Wend	-14435
dose	-14436
genu	-14437
holy	-14438
ibal	-14439
raph	-14440
(2014	-14441
Boris	-14442
Premi	-14443
modes	-14444
Barnes	-14445
Border	-14446
Vision	-14447
accent	-14448
lacked	-14449
phases	-14450
Cowboys	-14451
Maxwell	-14452
elderly	-14453
imental	-14454
trapped	-14455
voltage	-14456
asserted	-14457
geometry	-14458
prospect	-14459
quantity	-14460
admission	-14461
confident	-14462
enthusias	-14463
molecules	-14464
terrorism	-14465
critically	-14466
objectives	-14467
Minneapolis	-14468
challenging	-14469
complicated	-14470
dissolution	-14471
similarities	-14472
illustrations	-14473
institutional	-14474
FR	-14475
iak	-14476
Away	-14477
Gian	-14478
Hawk	-14479
lens	-14480
Blair	-14481
Brent	-14482
Built	-14483
Diana	-14484
Pseud	-14485
Santo	-14486
Style	-14487
Uttar	-14488
Wings	-14489
filtr	-14490
infer	-14491
ritic	-14492
Lisbon	-14493
Newman	-14494
Tunnel	-14495
equity	-14496
Hampton	-14497
Tuesday	-14498
crashed	-14499
Archives	-14500
aternity	-14501
carriers	-14502
Malaysian	-14503
screening	-14504
witnessed	-14505
complexity	-14506
governance	-14507
foundations	-14508
trafficking	-14509
163	-14510
Zen	-14511
orp	-14512
sta	-14513
Bast	-14514
Host	-14515
Poll	-14516
Rein	-14517
Resp	-14518
Stad	-14519
Troy	-14520
avid	-14521
iane	-14522
iker	-14523
wand	-14524
Phase	-14525
aines	-14526
cease	-14527
civic	-14528
ochem	-14529
raced	-14530
Albany	-14531
Greens	-14532
Telugu	-14533
Vander	-14534
curved	-14535
errors	-14536
graves	-14537
ishers	-14538
modest	-14539
storey	-14540
trucks	-14541
Concert	-14542
Strateg	-14543
grammar	-14544
Graduate	-14545
enclosed	-14546
enhanced	-14547
preceded	-14548
strictly	-14549
uprising	-14550
artifacts	-14551
mandatory	-14552
Southampton	-14553
reconnaissance	-14554
UV	-14555
Nem	-14556
Ner	-14557
UFC	-14558
das	-14559
ifa	-14560
Hast	-14561
Yard	-14562
busy	-14563
ilia	-14564
isse	-14565
(2012	-14566
Burma	-14567
Pride	-14568
Siber	-14569
alore	-14570
indie	-14571
inser	-14572
metry	-14573
mored	-14574
Potter	-14575
Toyota	-14576
ashtra	-14577
2018–19	-14578
derives	-14579
invaded	-14580
polymer	-14581
tobacco	-14582
Hawaiian	-14583
expenses	-14584
humanity	-14585
reopened	-14586
spelling	-14587
unlikely	-14588
isolation	-14589
encounters	-14590
evaluation	-14591
celebrations	-14592
accommodation	-14593
philosophical	-14594
pi	-14595
(20	-14596
bic	-14597
raz	-14598
Cros	-14599
Dres	-14600
Mick	-14601
Mull	-14602
Plus	-14603
Tell	-14604
dele	-14605
hunt	-14606
inqu	-14607
Happy	-14608
Shiva	-14609
adows	-14610
ambia	-14611
arity	-14612
atics	-14613
stuff	-14614
Greene	-14615
frames	-14616
nostic	-14617
termed	-14618
Factory	-14619
bowling	-14620
Superior	-14621
Tanzania	-14622
attained	-14623
hectares	-14624
ographer	-14625
utilized	-14626
amendment	-14627
collector	-14628
acceptance	-14629
bankruptcy	-14630
preventing	-14631
consecrated	-14632
differential	-14633
Unfortunately	-14634
FE	-14635
WF	-14636
ht	-14637
3.0	-14638
6),	-14639
90%	-14640
Cof	-14641
Fen	-14642
MVP	-14643
Sho	-14644
Shu	-14645
zan	-14646
Niel	-14647
Stop	-14648
Tank	-14649
cule	-14650
stip	-14651
(2000	-14652
(2015	-14653
1910,	-14654
Derek	-14655
atham	-14656
isure	-14657
metic	-14658
refin	-14659
seeks	-14660
tough	-14661
Castro	-14662
Claren	-14663
orphan	-14664
Overall	-14665
Raiders	-14666
elihood	-14667
olithic	-14668
precise	-14669
seating	-14670
Chemical	-14671
Syracuse	-14672
Trinidad	-14673
jections	-14674
requests	-14675
standings	-14676
Electronic	-14677
accordance	-14678
battalions	-14679
ightweight	-14680
reinforced	-14681
approaching	-14682
unemployment	-14683
40%	-14684
Dob	-14685
Hak	-14686
Rip	-14687
Wan	-14688
Wyn	-14689
uum	-14690
1888	-14691
Draw	-14692
Garc	-14693
atin	-14694
dent	-14695
dign	-14696
dwar	-14697
sued	-14698
Basel	-14699
Denis	-14700
Dylan	-14701
Linux	-14702
erick	-14703
ettes	-14704
laser	-14705
aceous	-14706
dragon	-14707
lining	-14708
roleum	-14709
trails	-14710
Marshal	-14711
Sherman	-14712
Suffolk	-14713
Tibetan	-14714
strings	-14715
synthes	-14716
División	-14717
Heinrich	-14718
Mohammed	-14719
Senators	-14720
infected	-14721
Religious	-14722
exercises	-14723
religions	-14724
conviction	-14725
definitely	-14726
guidelines	-14727
recreation	-14728
terminated	-14729
sponsorship	-14730
oi	-14731
Typ	-14732
ahi	-14733
dil	-14734
hou	-14735
pas	-14736
Anat	-14737
Fiji	-14738
Sent	-14739
cies	-14740
desk	-14741
grat	-14742
mare	-14743
obst	-14744
rely	-14745
wolf	-14746
(2016	-14747
Coron	-14748
Marqu	-14749
Negro	-14750
Rally	-14751
casts	-14752
sburg	-14753
Bermud	-14754
Priest	-14755
agogue	-14756
desper	-14757
immune	-14758
locate	-14759
pretty	-14760
teamed	-14761
Bavaria	-14762
Griffin	-14763
Midland	-14764
amalgam	-14765
careers	-14766
cooking	-14767
fossils	-14768
strange	-14769
trainer	-14770
Fighting	-14771
coloured	-14772
manifest	-14773
retaining	-14774
Enterprise	-14775
Recreation	-14776
competitor	-14777
contributor	-14778
accompanying	-14779
commercially	-14780
Mt	-14781
116	-14782
32.	-14783
Seg	-14784
bub	-14785
Cash	-14786
Chev	-14787
Iber	-14788
Shak	-14789
aler	-14790
mour	-14791
sham	-14792
(1999	-14793
1932,	-14794
1952.	-14795
Gujar	-14796
Klein	-14797
Logan	-14798
Shane	-14799
admit	-14800
aiser	-14801
armor	-14802
disgu	-14803
rella	-14804
risks	-14805
snail	-14806
trigg	-14807
Monica	-14808
Patric	-14809
Strait	-14810
revolt	-14811
Madonna	-14812
aggress	-14813
bounded	-14814
coupled	-14815
defines	-14816
hostile	-14817
mandate	-14818
Downtown	-14819
Geoffrey	-14820
appealed	-14821
missiles	-14822
opinions	-14823
Chemistry	-14824
aesthetic	-14825
livestock	-14826
projected	-14827
impression	-14828
parameters	-14829
quantities	-14830
reasonable	-14831
prosecution	-14832
Consequently	-14833
demonstration	-14834
-"	-14835
Ré	-14836
113	-14837
Bee	-14838
Did	-14839
Him	-14840
Jub	-14841
Kod	-14842
mam	-14843
ppe	-14844
1894	-14845
Brow	-14846
Kane	-14847
Make	-14848
bark	-14849
beta	-14850
mild	-14851
oved	-14852
rays	-14853
1920.	-14854
1928,	-14855
Champ	-14856
Cover	-14857
baron	-14858
flown	-14859
paved	-14860
reson	-14861
rider	-14862
snake	-14863
thres	-14864
Choice	-14865
Employ	-14866
Willie	-14867
ellers	-14868
Fantasy	-14869
Fiction	-14870
contrad	-14871
editors	-14872
obvious	-14873
viewing	-14874
Ferguson	-14875
insisted	-14876
uniforms	-14877
advancing	-14878
descended	-14879
nutrition	-14880
perception	-14881
Heavyweight	-14882
functioning	-14883
4/	-14884
GR	-14885
PT	-14886
106	-14887
Hok	-14888
Nou	-14889
bir	-14890
iso	-14891
Nico	-14892
Rica	-14893
carn	-14894
keen	-14895
sher	-14896
teau	-14897
(2003	-14898
Achie	-14899
Burke	-14900
Cheng	-14901
Hardy	-14902
Homer	-14903
Humph	-14904
Roads	-14905
Sandy	-14906
esque	-14907
irrig	-14908
pilgr	-14909
tubes	-14910
anarch	-14911
divine	-14912
infect	-14913
inform	-14914
organs	-14915
dancers	-14916
lawyers	-14917
Churches	-14918
contents	-14919
smallest	-14920
theaters	-14921
emissions	-14922
mentation	-14923
strongest	-14924
Montenegro	-14925
decorative	-14926
surprising	-14927
AK	-14928
LO	-14929
hoe	-14930
owo	-14931
1882	-14932
3000	-14933
Juda	-14934
Virt	-14935
chet	-14936
eroy	-14937
inki	-14938
Brock	-14939
Hawks	-14940
Winst	-14941
ación	-14942
aults	-14943
embed	-14944
grove	-14945
opted	-14946
rocky	-14947
solic	-14948
tract	-14949
uzzle	-14950
Carson	-14951
Gustav	-14952
Joshua	-14953
Merced	-14954
Preser	-14955
banner	-14956
convey	-14957
ogenic	-14958
Marines	-14959
Tribune	-14960
Writers	-14961
inherit	-14962
lighter	-14963
loyalty	-14964
Taxonomy	-14965
curities	-14966
educator	-14967
interact	-14968
judgment	-14969
rankings	-14970
Aftermath	-14971
Holocaust	-14972
brilliant	-14973
revealing	-14974
Previously	-14975
charitable	-14976
destroying	-14977
protecting	-14978
Observatory	-14979
interactive	-14980
ça	-14981
)",	-14982
16-	-14983
30%	-14984
USC	-14985
jah	-14986
sad	-14987
Cave	-14988
Maid	-14989
adic	-14990
itat	-14991
mood	-14992
obic	-14993
1923,	-14994
1925,	-14995
Felix	-14996
andra	-14997
angry	-14998
cuits	-14999
deity	-15000
elfth	-15001
grams	-15002
hered	-15003
Appeal	-15004
Guadal	-15005
Slovak	-15006
ampire	-15007
brahim	-15008
forbid	-15009
hammer	-15010
intact	-15011
minton	-15012
physic	-15013
prizes	-15014
Elliott	-15015
Whitney	-15016
emotion	-15017
surgeon	-15018
Thursday	-15019
applying	-15020
compress	-15021
dialects	-15022
celebrity	-15023
conquered	-15024
publishes	-15025
seemingly	-15026
surprised	-15027
accredited	-15028
generating	-15029
contestants	-15030
nevertheless	-15031
ND	-15032
zu	-15033
33.	-15034
8),	-15035
Kee	-15036
LLC	-15037
dot	-15038
Fear	-15039
Mini	-15040
cole	-15041
rant	-15042
1931,	-15043
Edwin	-15044
frage	-15045
ández	-15046
Calcut	-15047
beside	-15048
contam	-15049
ethics	-15050
iciary	-15051
intens	-15052
segreg	-15053
inquiry	-15054
shipped	-15055
skating	-15056
Creative	-15057
advances	-15058
councils	-15059
enabling	-15060
gameplay	-15061
servants	-15062
singular	-15063
Katherine	-15064
ancestors	-15065
Excellence	-15066
Kazakhstan	-15067
electronics	-15068
Organisation	-15069
effectiveness	-15070
145	-15071
35.	-15072
CAF	-15073
Kai	-15074
dys	-15075
ieg	-15076
neu	-15077
rah	-15078
rea	-15079
Acad	-15080
Boat	-15081
Cort	-15082
Gior	-15083
Mare	-15084
Zero	-15085
agua	-15086
ango	-15087
ević	-15088
inia	-15089
puts	-15090
ritz	-15091
uana	-15092
Meyer	-15093
Solid	-15094
onica	-15095
sizes	-15096
Libert	-15097
Maurit	-15098
UNESCO	-15099
dining	-15100
2017–18	-15101
Chilean	-15102
broader	-15103
granite	-15104
heating	-15105
nervous	-15106
tickets	-15107
Augustus	-15108
Cameroon	-15109
Matthews	-15110
defining	-15111
platinum	-15112
diagnosis	-15113
partition	-15114
descendant	-15115
Traditional	-15116
sovereignty	-15117
UD	-15118
UR	-15119
pu	-15120
10–	-15121
450	-15122
Ace	-15123
Bit	-15124
Fol	-15125
1887	-15126
Drew	-15127
Need	-15128
Ware	-15129
amar	-15130
asse	-15131
atop	-15132
cone	-15133
shoo	-15134
thed	-15135
(1998	-15136
Duchy	-15137
Given	-15138
Inner	-15139
Kenny	-15140
Shire	-15141
aided	-15142
itars	-15143
leigh	-15144
García	-15145
Singer	-15146
Waters	-15147
Wilder	-15148
atomic	-15149
couldn	-15150
garten	-15151
iously	-15152
skiing	-15153
Cologne	-15154
Scandin	-15155
linking	-15156
profits	-15157
skilled	-15158
Calcutta	-15159
Panthers	-15160
chancell	-15161
develops	-15162
freshman	-15163
highways	-15164
synchron	-15165
believing	-15166
highlight	-15167
machinery	-15168
accomplish	-15169
exceptions	-15170
coordinates	-15171
disciplines	-15172
biographical	-15173
screenwriter	-15174
60%	-15175
Agu	-15176
Cay	-15177
Dul	-15178
Lut	-15179
Sau	-15180
hai	-15181
maj	-15182
mol	-15183
nez	-15184
spy	-15185
Disc	-15186
Lars	-15187
Mikh	-15188
Phan	-15189
anch	-15190
carb	-15191
http	-15192
imer	-15193
loud	-15194
1914.	-15195
1916,	-15196
Clara	-15197
Flash	-15198
Fresh	-15199
Hayes	-15200
Kerry	-15201
Large	-15202
Tales	-15203
alous	-15204
facts	-15205
realm	-15206
soils	-15207
witch	-15208
refurb	-15209
shadow	-15210
aternal	-15211
bicycle	-15212
inction	-15213
lecture	-15214
metabol	-15215
Holdings	-15216
ifferent	-15217
pleasure	-15218
railways	-15219
Patriarch	-15220
Programme	-15221
butterfly	-15222
designers	-15223
excessive	-15224
pregnancy	-15225
processor	-15226
comparable	-15227
regulatory	-15228
structured	-15229
countryside	-15230
demonstrate	-15231
Communication	-15232
1.0	-15233
3–1	-15234
Ble	-15235
Buk	-15236
CBC	-15237
Dil	-15238
Kok	-15239
Kul	-15240
fut	-15241
orf	-15242
Pond	-15243
Teen	-15244
hawk	-15245
olan	-15246
prol	-15247
ried	-15248
twer	-15249
1915,	-15250
1924,	-15251
Bruno	-15252
Palat	-15253
Seoul	-15254
Walsh	-15255
lings	-15256
reper	-15257
shine	-15258
spire	-15259
Acting	-15260
Conrad	-15261
Rafael	-15262
feared	-15263
metals	-15264
occupy	-15265
plaque	-15266
prehen	-15267
tasked	-15268
traces	-15269
Vatican	-15270
licence	-15271
regards	-15272
Clinical	-15273
garnered	-15274
homeless	-15275
seasonal	-15276
Soundtrack	-15277
freshwater	-15278
unofficial	-15279
Confederation	-15280
investigating	-15281
#1	-15282
9),	-15283
Byr	-15284
Glad	-15285
Loch	-15286
barn	-15287
oces	-15288
palm	-15289
stry	-15290
wrap	-15291
Sales	-15292
addle	-15293
immer	-15294
melod	-15295
sworn	-15296
Strike	-15297
Visual	-15298
bigger	-15299
garage	-15300
tonnes	-15301
barrier	-15302
courage	-15303
Marathon	-15304
Treasury	-15305
enormous	-15306
peaceful	-15307
redesign	-15308
whatever	-15309
computing	-15310
distances	-15311
equations	-15312
shortened	-15313
spreading	-15314
commanders	-15315
)".	-15316
157	-15317
Eup	-15318
Nig	-15319
SEC	-15320
Tud	-15321
Ved	-15322
Zar	-15323
obs	-15324
Hack	-15325
Very	-15326
cery	-15327
duck	-15328
lass	-15329
riot	-15330
rope	-15331
umen	-15332
weed	-15333
1926,	-15334
1954.	-15335
Abbas	-15336
Manch	-15337
Stern	-15338
Titan	-15339
Title	-15340
likes	-15341
lords	-15342
50,000	-15343
Almost	-15344
Sophie	-15345
assert	-15346
cyclop	-15347
freely	-15348
hausen	-15349
helmet	-15350
mirror	-15351
Present	-15352
iformes	-15353
Greatest	-15354
airfield	-15355
corridor	-15356
floating	-15357
reconcil	-15358
wingspan	-15359
expertise	-15360
teachings	-15361
Adventures	-15362
Initiative	-15363
spectators	-15364
breakthrough	-15365
measurements	-15366
NK	-15367
109	-15368
Dat	-15369
Assy	-15370
Hels	-15371
ease	-15372
lind	-15373
oder	-15374
1936.	-15375
7,000	-15376
Colle	-15377
actic	-15378
agara	-15379
tapes	-15380
troop	-15381
viral	-15382
Embass	-15383
Madras	-15384
Motion	-15385
Powers	-15386
Recogn	-15387
Sheikh	-15388
Coleman	-15389
Krishna	-15390
Pirates	-15391
embassy	-15392
modeled	-15393
schemes	-15394
bordered	-15395
welcomed	-15396
Architect	-15397
breakdown	-15398
detection	-15399
CL	-15400
Ez	-15401
Vy	-15402
ès	-15403
107	-15404
112	-15405
Neo	-15406
fon	-15407
hee	-15408
upr	-15409
Cock	-15410
Dawn	-15411
Nass	-15412
Pill	-15413
Pitt	-15414
Rust	-15415
Stor	-15416
chay	-15417
glob	-15418
knot	-15419
mock	-15420
Basic	-15421
Jorge	-15422
Rifle	-15423
Turks	-15424
posto	-15425
remed	-15426
25,000	-15427
Calvin	-15428
Carthy	-15429
avirus	-15430
beings	-15431
dispat	-15432
remake	-15433
seller	-15434
stairs	-15435
bombers	-15436
ontolog	-15437
Deutsche	-15438
Sporting	-15439
enlarged	-15440
everyday	-15441
realizes	-15442
Christine	-15443
Northeast	-15444
affecting	-15445
carefully	-15446
dimension	-15447
listening	-15448
practition	-15449
Achievement	-15450
subtropical	-15451
Northwestern	-15452
TM	-15453
3–2	-15454
Era	-15455
Arms	-15456
Kolk	-15457
Leaf	-15458
Stur	-15459
Want	-15460
bron	-15461
chip	-15462
flix	-15463
odor	-15464
spat	-15465
stag	-15466
1930.	-15467
Floyd	-15468
Hence	-15469
Metac	-15470
Names	-15471
Sincl	-15472
Trent	-15473
amino	-15474
aurus	-15475
avers	-15476
beats	-15477
facto	-15478
isine	-15479
otion	-15480
topol	-15481
15,000	-15482
Barton	-15483
Nichol	-15484
Schwar	-15485
Slavic	-15486
heimer	-15487
walked	-15488
Hundred	-15489
Norwich	-15490
avoided	-15491
disturb	-15492
Particip	-15493
Terminal	-15494
fraction	-15495
maritime	-15496
ambitious	-15497
mathematic	-15498
investments	-15499
transmitted	-15500
continuation	-15501
Eg	-15502
ém	-15503
Fon	-15504
Jab	-15505
Trou	-15506
icus	-15507
1917.	-15508
1996)	-15509
Below	-15510
Teach	-15511
Tunes	-15512
cater	-15513
cials	-15514
knife	-15515
numer	-15516
rolls	-15517
Sacram	-15518
shrine	-15519
Phillip	-15520
Seventh	-15521
fitness	-15522
inating	-15523
routine	-15524
Helsinki	-15525
Internal	-15526
informal	-15527
modeling	-15528
alignment	-15529
capturing	-15530
Georgetown	-15531
explicitly	-15532
supposedly	-15533
Maharashtra	-15534
affiliation	-15535
consolidated	-15536
posthumously	-15537
autobiography	-15538
UM	-15539
ISO	-15540
Nab	-15541
Soc	-15542
idd	-15543
Bhut	-15544
Jing	-15545
Thur	-15546
beit	-15547
bler	-15548
chat	-15549
demo	-15550
heed	-15551
maid	-15552
moor	-15553
tras	-15554
Betty	-15555
ennon	-15556
equil	-15557
ledon	-15558
sures	-15559
teles	-15560
valve	-15561
Garcia	-15562
Marina	-15563
alling	-15564
anthem	-15565
cliffe	-15566
shoots	-15567
strain	-15568
wished	-15569
500,000	-15570
Letters	-15571
Mikhail	-15572
differs	-15573
goddess	-15574
Sinclair	-15575
engaging	-15576
aceutical	-15577
clamation	-15578
detective	-15579
providers	-15580
voluntary	-15581
watershed	-15582
Cumberland	-15583
liberation	-15584
communicate	-15585
specializing	-15586
demonstrations	-15587
AV	-15588
TP	-15589
Châ	-15590
GDP	-15591
Ibn	-15592
Yar	-15593
toy	-15594
–21	-15595
1884	-15596
Kell	-15597
Toul	-15598
abel	-15599
iche	-15600
thon	-15601
1925.	-15602
Nicol	-15603
Quint	-15604
alike	-15605
drown	-15606
Monter	-15607
anatom	-15608
shapes	-15609
tailed	-15610
Bolivia	-15611
conform	-15612
damages	-15613
enables	-15614
enhance	-15615
resided	-15616
resides	-15617
teaches	-15618
unified	-15619
advocacy	-15620
assessed	-15621
reversed	-15622
Europeans	-15623
Paramount	-15624
abolition	-15625
immigrant	-15626
postponed	-15627
unciation	-15628
highlights	-15629
progressed	-15630
Conservatory	-15631
certification	-15632
Eb	-15633
KS	-15634
-14	-15635
128	-15636
Bea	-15637
auf	-15638
oms	-15639
uca	-15640
1886	-15641
Xbox	-15642
alli	-15643
aunt	-15644
deer	-15645
(1997	-15646
1908,	-15647
1990)	-15648
Casey	-15649
Intel	-15650
Jamie	-15651
grace	-15652
incur	-15653
relax	-15654
taker	-15655
tones	-15656
Caucas	-15657
Hannah	-15658
Latvia	-15659
Saxony	-15660
Things	-15661
Vernon	-15662
Willis	-15663
amphib	-15664
assume	-15665
Leopold	-15666
Netflix	-15667
combine	-15668
console	-15669
expired	-15670
ocolate	-15671
Tasmania	-15672
archives	-15673
nobility	-15674
outcomes	-15675
prolific	-15676
repaired	-15677
sediment	-15678
tensions	-15679
trustees	-15680
disclosed	-15681
filmmaker	-15682
struggles	-15683
Sacramento	-15684
Applications	-15685
[...]
